<blank>
<s>
</s>
▁de
,
▁la
.
▁que
▁en
▁y
▁el
▁a
▁los
▁las
▁del
▁se
▁un
▁una
▁para
▁no
▁por
▁con
▁es
▁al
▁ha
▁lo
▁sobre
▁comisión
▁este
▁más
▁como
▁su
▁europea
▁esta
en
▁unión
la
▁también
▁presidente
▁parlamento
▁estados
el
por
▁han
▁señor
▁informe
▁sus
▁consejo
▁miembros
▁europeo
)
▁países
▁o
▁política
-
▁-
▁pero
▁europa
▁entre
:
▁si
▁son
▁muy
▁todos
▁está
▁ya
▁todo
▁ue
▁nos
▁ser
no
▁me
▁tanto
▁derechos
▁lugar
▁acuerdo
▁importante
▁debe
▁parte
▁mi
▁(
?
▁sin
▁puede
▁hecho
▁contra
▁desarrollo
señor
▁propuesta
▁porque
▁hacer
▁trabajo
▁tiene
▁seguridad
▁hemos
es
▁hay
;
▁cuestión
▁ciudadanos
▁debate
▁esto
▁medidas
▁estos
▁respecto
▁forma
▁situación
▁vez
▁mercado
▁embargo
▁decir
▁sino
▁años
▁nuestra
▁grupo
▁así
▁cuando
▁están
▁sido
▁país
▁sr
▁tiempo
▁gran
▁ahora
▁ello
▁personas
▁dos
¿
(
sin
▁desde
▁caso
▁otros
los
▁estado
▁mismo
▁mayor
▁estas
▁he
▁directiva
▁debemos
▁señora
▁nuestro
▁hoy
▁humanos
▁tenemos
▁e
de
▁año
▁sea
▁comisario
▁punto
▁derecho
▁favor
▁bien
▁posible
▁nuestros
/
se
▁primer
▁cooperación
▁apoyo
▁creo
▁hace
▁trata
▁ejemplo
▁sólo
▁mucho
▁social
▁todas
▁europeos
▁fin
▁estamos
▁marco
▁medio
▁cuenta
▁común
▁deben
▁protección
▁cada
▁durante
▁sistema
▁quiero
▁futuro
▁problema
a
▁tratado
▁sector
▁mundo
▁tienen
▁proceso
▁empresas
▁tener
▁dicho
y
▁algunos
▁problemas
▁menos
▁qué
▁ámbito
▁ni
▁resolución
▁debería
▁información
▁solo
▁ponente
▁podemos
▁opinión
si
▁nuevo
▁hasta
▁ayuda
▁pueden
▁eso
▁nosotros
▁objetivo
▁programa
▁internacional
▁antes
▁ese
▁dar
▁gobierno
▁presidenta
▁momento
▁señorías
▁servicios
▁tan
▁le
las
▁políticas
▁propuestas
▁millones
▁relación
▁nombre
▁normas
▁modo
▁gracias
▁presidencia
▁mejor
también
▁necesario
▁manera
me
▁gustaría
▁aquí
▁haya
▁muchos
▁enmiendas
▁usted
▁importancia
▁toda
▁otras
▁reglamento
▁asuntos
▁objetivos
▁garantizar
esto
pero
▁algo
▁aplicación
▁crisis
▁general
▁nivel
▁nacionales
▁%
▁económica
▁cuestiones
▁particular
▁condiciones
▁materia
▁empleo
como
▁otro
▁otra
▁día
▁mujeres
creo
»
▁necesidad
▁ante
▁tema
▁quisiera
▁nuestras
▁uno
▁estrategia
▁yo
–
▁principio
▁les
▁esa
▁productos
▁investigación
▁sentido
▁presupuesto
▁legislación
▁¿
▁decisión
▁especialmente
▁papel
▁diputados
▁tipo
▁atención
▁parece
▁fondos
▁energía
▁vista
▁nuevos
▁último
▁instituciones
▁poder
▁enmienda
▁obstante
▁va
▁cambio
▁ambiente
▁nueva
este
▁«
▁tres
▁control
▁unidos
▁votación
esta
▁incluso
▁recursos
▁compromiso
▁posición
▁primera
▁pues
▁tal
▁competencia
▁cualquier
▁será
▁actual
▁importantes
▁aún
▁comercio
▁cuanto
▁salud
▁transporte
▁pasado
▁siempre
▁razón
▁aunque
▁acción
▁respuesta
▁claro
▁estoy
▁calidad
▁unos
▁base
▁cámara
▁vida
▁fue
▁segundo
▁algunas
lo
▁dentro
▁hacia
▁duda
▁negociaciones
▁comunidad
▁mayoría
▁asunto
▁lucha
▁responsabilidad
▁después
▁autoridades
▁mundial
▁trabajadores
▁libertad
▁especial
▁proyecto
▁podría
para
▁haber
▁realmente
▁grandes
▁europeas
▁nuevas
▁pregunta
▁regiones
▁existe
▁economía
▁políticos
▁votado
▁sra
▁político
▁democracia
▁muchas
▁uso
▁estar
▁sociedad
▁artículo
▁orden
▁decisiones
▁oportunidad
▁sociales
▁todavía
▁crecimiento
▁sería
▁cabo
▁cosas
▁económico
▁través
▁pueda
▁gestión
▁poco
▁cual
▁cómo
▁seguir
▁mejorar
▁escrito
▁donde
▁resultado
▁medida
▁creación
▁plazo
▁acceso
▁mediante
además
▁iniciativa
▁consumidores
▁queremos
▁relaciones
▁fondo
▁unas
▁pesar
▁interior
▁procedimiento
▁ampliación
▁aspectos
▁solución
▁región
▁ver
▁acuerdos
▁nacional
▁ellos
▁interés
▁–
▁además
▁sí
▁número
▁realidad
▁nada
▁puesto
▁comunicación
▁datos
▁fundamentales
con
▁falta
▁lisboa
▁industria
señora
▁naciones
▁esfuerzos
▁pública
▁población
▁largo
▁grupos
▁crear
▁euros
▁paz
▁dado
▁miembro
▁era
▁programas
▁partes
▁1
▁siendo
▁medios
▁colegas
▁supuesto
▁ninguna
▁ningún
▁puedan
▁fundamental
▁diálogo
al
▁práctica
▁sean
▁financiación
▁resultados
▁efecto
▁principios
▁intereses
▁texto
▁misma
▁producción
▁mañana
▁cierto
▁justicia
▁comisaria
▁libre
▁poner
▁único
▁conjunto
▁paso
▁refiere
▁diferentes
▁final
▁casos
▁ejercicio
▁posibilidad
▁esos
▁necesitamos
▁tribunal
▁presente
▁buena
▁dinero
una
▁últimos
▁éxito
▁adhesión
▁puntos
▁reforma
▁hora
▁apoyar
▁tenido
▁resulta
hay
▁público
▁plan
▁van
ahora
▁deberían
▁estabilidad
▁igualdad
▁totalmente
▁adoptar
▁conseguir
▁pueblo
▁contexto
▁sigue
▁frente
▁demás
▁enfoque
▁motivo
▁ustedes
▁actividades
▁espero
▁difícil
▁tendrá
▁proyectos
▁respeto
▁pesca
▁palabras
▁establecer
▁niños
▁conferencia
▁evitar
▁meses
▁mis
▁unidas
▁rusia
▁acciones
▁puedo
▁idea
▁exterior
▁serie
▁turquía
▁euro
quiero
▁sistemas
▁significa
▁mantener
▁deberíamos
▁acerca
▁claramente
así
▁financiera
▁contrario
▁escala
▁fuera
▁riesgo
▁cumbre
▁consecuencias
▁asamblea
▁demasiado
▁deseo
he
▁reducir
▁aumento
qué
▁declaración
▁lograr
▁respecta
▁constituye
▁entonces
▁educación
▁integración
▁eficaz
▁solidaridad
▁zona
▁bajo
▁propia
▁internacionales
▁mercados
▁presentado
▁tras
▁lado
▁elecciones
▁segunda
▁gobiernos
▁esencial
▁transparencia
▁partido
▁valores
▁tomar
▁agricultura
▁esas
▁período
▁igual
▁mientras
estoy
debemos
▁terrorismo
▁participación
▁capacidad
▁consiguiente
▁hablar
▁saber
▁consecuencia
▁económicos
▁intervención
▁cohesión
▁debido
▁asociación
▁existen
espero
▁próximo
hemos
▁propio
▁zonas
▁reducción
▁relativa
tenemos
▁fronteras
▁queda
▁formación
▁criterios
▁única
▁actualmente
▁informes
▁conformidad
▁había
▁excelente
▁000
▁central
▁comunitario
▁aprobación
▁camino
▁ámbitos
▁objeto
▁organizaciones
▁preguntas
▁disposiciones
▁ministro
▁alcanzar
▁evaluación
▁instrumento
▁principales
▁sostenible
▁instrumentos
▁veces
▁valor
▁alto
▁aquellos
▁clara
▁buen
quisiera
▁procedimientos
▁2
▁aspecto
▁aplicar
▁tengo
▁términos
▁realizado
▁financieros
▁jóvenes
▁pobreza
▁guerra
▁horas
▁llegar
▁régimen
▁china
▁organización
▁plenamente
▁defensa
▁hacerlo
▁costes
▁reunión
▁precios
▁referencia
▁ayudar
▁encontrar
▁violencia
yo
▁satisfacción
▁terceros
▁confianza
▁principal
▁necesaria
un
▁puestos
▁alguna
▁exteriores
▁sectores
▁según
▁proteger
▁personal
▁comunitaria
▁aceptar
▁iniciativas
▁animales
▁global
▁unido
▁tercer
▁constitución
▁servicio
▁revisión
▁sabemos
▁razones
▁trabajar
▁presentar
▁climático
▁ayudas
▁preocupación
▁última
▁agrícola
▁voluntad
▁varios
▁precisamente
▁regional
▁dice
▁mismos
▁quienes
▁civil
▁víctimas
▁dejar
▁solamente
▁prioridad
▁mejora
▁inmigración
▁prioridades
▁pequeñas
▁semana
▁palabra
▁reino
▁realizar
▁colega
▁suficiente
▁total
▁quiere
▁casi
▁dirección
▁bastante
▁temas
▁esté
▁días
▁efectos
▁nunca
▁económicas
▁llevar
▁oportunidades
▁dificultades
asimismo
▁preciso
▁necesita
▁ley
▁tenga
▁expresar
▁menudo
▁financiero
▁siguiente
▁abordar
desde
▁aumentar
▁él
▁junto
▁cumplir
▁positivo
▁actuar
▁promover
eso
▁propone
▁permitir
▁considero
▁estructurales
▁cambios
▁alimentos
▁energética
%
▁carácter
▁coordinación
▁votar
▁necesidades
▁vamos
▁haciendo
▁sesión
▁labor
5
▁competitividad
▁hayan
▁república
▁representa
▁luego
▁vigor
▁felicitar
▁prácticas
▁apartado
▁reformas
▁espacio
▁debates
▁señalar
▁financieras
aunque
▁relativo
▁seguro
▁asegurar
▁cultura
▁cuentas
▁jurídico
▁emisiones
▁relativas
▁documento
▁propios
▁dicha
▁3
▁recordar
▁gente
▁podamos
▁cuatro
▁concreto
▁ella
▁visto
▁desarrollar
▁necesarias
!
▁pleno
▁cinco
▁resolver
▁ministros
▁responder
▁evidente
▁origen
▁irlanda
▁voto
▁ellas
▁comunes
▁impacto
▁tampoco
▁tarde
▁mencionado
▁consumidor
▁20
▁utilizar
▁marcha
▁carta
▁inversión
▁convención
▁reforzar
▁simplemente
▁esfuerzo
▁comerciales
▁10
▁habría
▁paquete
▁compromisos
▁funcionamiento
▁representantes
▁discriminación
▁niveles
▁comité
▁asistencia
▁real
▁lectura
▁motivos
▁modelo
▁función
▁equilibrio
▁actuales
▁adelante
▁lista
▁norte
▁inversiones
▁actividad
▁adopción
mi
▁5
▁innovación
todos
▁agricultores
▁llegado
▁peligro
▁línea
▁asimismo
▁diciembre
▁grave
▁tengan
▁tratar
▁permite
estamos
▁supone
▁banco
▁partir
▁competencias
▁podrían
▁clave
▁experiencia
▁tarea
▁quien
▁tráfico
nos
▁mayores
▁presión
▁laboral
▁soluciones
▁verdad
▁armas
▁varias
ya
▁contribución
▁teniendo
▁cosa
▁hombres
▁colaboración
▁conflicto
▁historia
cuando
▁públicos
▁nuclear
▁conclusiones
▁eficacia
▁nº
▁tales
▁agencia
▁contribuir
▁ocasión
▁perspectiva
▁propuesto
▁mar
▁fecha
▁ocasiones
▁circulación
▁acta
▁intención
▁mensaje
▁posibilidades
▁causa
▁contenido
▁haga
▁francia
▁12
▁somos
▁únicamente
▁adecuada
▁habrá
▁responsable
▁distintos
▁cuales
▁asilo
▁graves
▁ofrecer
▁riesgos
▁locales
▁2000
▁libertades
▁2007
▁momentos
▁junio
▁elementos
▁amplio
▁algún
▁pedir
▁candidatos
▁aprobado
▁redes
▁15
▁beneficios
▁obtener
▁mes
▁complace
▁podido
▁fuerza
▁demostrado
▁agua
▁disposición
▁enorme
ha
▁anterior
▁autoridad
▁primero
▁siguen
▁construcción
▁fuerzas
▁da
▁empresa
▁África
cómo
▁hacen
fr
▁jurídica
▁productores
▁mejores
▁considera
▁seis
▁terreno
▁mí
▁análisis
▁formas
▁obligación
▁requisitos
▁progreso
▁democrático
▁4
▁destacar
▁serán
▁consumo
▁reconocimiento
▁fase
▁democrática
▁incluir
▁nadie
▁desempleo
▁prevención
▁liberalización
▁responsables
▁pacto
▁ejecución
▁avanzar
hoy
▁israel
▁medioambiental
▁volver
▁próximos
▁procede
▁quieren
▁necesitan
▁alimentaria
▁generales
▁residuos
▁fuerte
▁cabe
▁conclusión
▁esperar
▁declaraciones
▁allí
▁positiva
▁introducción
▁éste
▁bruselas
▁absolutamente
▁11
▁necesarios
▁encuentra
▁allá
▁fueron
▁hincapié
▁diez
▁considerar
▁cultural
▁fomentar
▁actualidad
▁pretende
▁planes
▁sanciones
▁adoptado
▁públicas
▁comercial
▁adecuado
▁alemania
▁gastos
▁red
▁acaba
▁concepto
▁diferencias
▁cantidad
▁existentes
▁territorio
▁convenio
▁perspectivas
▁mandato
▁pueblos
▁luchar
▁opiniones
▁estén
▁establece
▁voy
▁capital
▁podrá
▁amenaza
▁combatir
▁impuestos
▁agenda
▁posibles
▁pena
▁partidos
▁introducir
▁participar
▁petición
estas
▁documentos
▁toma
▁saben
▁pronto
▁pobres
▁conseguido
▁presupuestos
▁precio
▁amplia
▁administración
▁tratados
▁25
▁estaba
▁ésta
▁reconocer
▁dimensión
▁mujer
▁naturaleza
▁sabe
▁fiscal
▁internet
▁presupuestario
▁muerte
▁obligaciones
▁jurídicos
▁campo
▁pido
que
▁conocimiento
▁avances
▁ilegal
▁finales
▁ir
▁mecanismo
▁postura
▁justo
▁semanas
▁2009
▁regionales
▁próxima
▁encuentran
▁independencia
▁2004
▁tecnologías
▁medioambientales
▁cumplimiento
▁popular
▁omc
▁logrado
▁concretas
▁directamente
▁ponentes
▁refugiados
▁enero
▁delegación
▁tecnología
▁grecia
estos
▁sur
▁prohibición
▁preocupaciones
▁continuar
▁recibido
▁esperamos
▁actitud
▁30
▁consenso
▁turismo
▁bajos
▁demuestra
▁mismas
▁militar
▁persona
▁oposición
▁libro
▁conflictos
▁circunstancias
▁miles
▁mencionar
▁utilización
▁eficiencia
▁capaces
▁empezar
▁representante
▁responsabilidades
▁entrada
▁establecimiento
▁supervisión
▁contar
▁rápidamente
▁presupuestaria
▁expresión
▁2006
▁ofrece
▁cerca
▁legislativo
▁cuya
▁buenas
▁2008
▁facilitar
▁mayo
▁alcance
▁cuyo
▁vistas
▁naturalmente
▁comunitarias
▁espíritu
▁acontecimientos
▁comentarios
▁torno
▁iraq
▁hablando
▁socios
▁afecta
▁estudio
▁flexibilidad
▁principalmente
▁incluye
▁mecanismos
▁serio
▁marzo
▁cerrado
▁vehículos
▁constituyen
▁trabajos
▁ideas
▁relacionados
▁subrayar
▁recomendaciones
▁creemos
▁2010
▁juicio
▁comunidades
▁armonización
necesitamos
▁tipos
▁coste
▁intentar
▁dichos
▁ingresos
▁definición
▁septiembre
▁controles
▁alta
▁centro
▁inaceptable
▁rural
▁plantea
▁resto
▁6
▁agrícolas
▁rápida
▁italia
▁mano
▁permita
▁condición
▁elemento
▁ayer
▁deberá
▁oriente
▁firme
▁ucrania
▁exige
▁fácil
▁claridad
▁civiles
▁aprovechar
▁directivas
▁monetaria
▁prestar
▁inmigrantes
▁recientemente
▁cambiar
▁2005
▁aprobar
▁beneficio
▁legal
▁añadir
▁seguimiento
▁permanente
▁máximo
▁potencial
¡
▁hubiera
▁situaciones
▁tendremos
▁completamente
▁quizás
▁pide
▁presencia
▁mucha
▁medianas
▁desgracia
▁espera
▁hablado
▁agradecer
▁alcanzado
▁estatuto
▁desempeñar
▁igualmente
▁particularmente
▁gasto
▁pruebas
▁50
▁consiste
▁institución
▁retos
▁pensar
▁parlamentos
▁humana
▁previsto
▁promoción
▁moneda
▁transportes
▁impuesto
▁lejos
▁debatir
▁siquiera
▁decidido
▁minorías
▁agradecimiento
▁tomado
▁kosovo
▁recibir
▁apertura
▁irán
▁capaz
▁distintas
▁parlamentaria
muchas
▁tendrán
▁diferencia
▁mínimo
▁verde
▁planteamiento
▁noviembre
▁soy
▁defender
▁ahí
▁enfermedades
▁sustancias
▁dichas
▁luz
▁corresponde
▁pyme
▁2003
▁españa
▁garantías
▁fuentes
▁diversidad
▁trato
su
todo
▁anual
▁diversos
▁verdadera
▁crucial
▁habido
▁trabajando
▁negociación
▁seguros
permítanme
▁prueba
▁reciente
▁hechos
▁implica
▁diferente
▁desea
▁método
▁8
▁producto
▁consideración
▁créditos
▁relacionadas
▁observaciones
▁señalado
▁elaboración
▁proporcionar
está
▁intercambio
▁eliminar
▁ambos
▁visión
▁propias
▁observación
▁pasajeros
▁tratamiento
▁útil
▁podremos
▁determinados
▁producido
▁mal
▁decidir
▁vecinos
▁incluido
▁avance
▁debo
▁aguas
▁leyes
▁elaborar
▁pasar
▁afectados
▁esperanza
▁2020
▁basada
▁gobernanza
▁manos
▁pequeños
▁2002
▁absoluto
pl
▁métodos
▁octubre
▁frecuencia
▁requiere
▁7
▁regulación
▁peticiones
▁juntos
▁grado
▁progresos
▁finalmente
▁mesa
▁examinar
▁fundamento
▁oriental
▁organismos
▁ambas
▁reglas
▁normativa
▁reservas
▁directrices
▁protocolo
▁consideramos
▁solicitud
▁vía
▁bueno
▁diputado
▁podrán
▁terroristas
▁edad
▁señoría
▁sé
▁concretamente
▁juego
durante
▁carga
▁merece
▁judicial
▁llamamiento
▁entender
4
▁contaminación
▁cargo
▁conscientes
▁bienestar
▁compañías
▁movilidad
▁correcta
▁urgente
▁contiene
▁comunitarios
gracias
▁preocupa
▁sesiones
▁intergubernamental
▁límite
▁recomendación
▁encontramos
▁respetar
▁específicas
▁diversas
▁planteado
▁recuperación
▁coherente
▁globalización
▁actos
▁humanitaria
▁concluir
▁existencia
▁sumamente
▁dijo
▁lleva
▁cierta
le
▁independiente
▁periodo
▁suministro
▁permitirá
▁establecido
▁pensiones
▁adicionales
▁apoya
▁pone
▁vital
▁gas
2
▁ppe
00
▁reglamentos
▁industrial
▁misión
▁breve
▁schengen
▁nota
▁expertos
▁local
▁asumir
▁dudas
▁fraude
▁prensa
▁llamar
▁mercancías
▁mediterráneo
▁urgencia
▁señores
▁2001
▁demanda
europa
▁medicamentos
▁hizo
▁agencias
▁presentadas
▁futura
▁garantía
▁barroso
▁vías
▁comenzar
▁llevado
▁evolución
▁imponer
▁naturales
▁curso
▁economías
▁género
▁pagos
▁límites
▁demostrar
▁familias
▁rumanía
▁menor
▁exactamente
▁nucleares
▁viene
▁margen
▁constitucional
después
▁anteriores
▁efectiva
▁consulta
000
▁modificación
▁pienso
▁profesional
▁ciertos
▁subsidiariedad
▁inclusión
▁áreas
▁cifras
▁numerosas
▁manifiesto
▁plantear
▁1999
▁defensor
▁polonia
▁siguientes
▁perfectamente
▁conjunta
▁probablemente
▁fiscales
▁líneas
▁estructura
▁penal
▁julio
▁suficientemente
▁chipre
▁cara
▁aéreo
▁presenta
▁olvidar
▁institucional
▁refiero
▁señal
▁respuestas
sobre
▁creciente
▁demócratas
▁portugal
▁hacemos
▁c
▁elección
▁celebrar
▁socialista
▁sociedades
▁carne
▁explotación
▁9
▁hará
▁voz
▁influencia
▁funcionarios
▁razonable
▁viven
▁plena
▁verdadero
▁clima
▁firmemente
▁renovables
▁continuación
▁suficientes
▁controlar
▁esenciales
▁entrar
▁relativos
▁estructuras
▁virtud
▁13
▁obstáculos
▁natural
▁infraestructuras
▁etc
▁corto
▁18
▁continente
▁intervenir
▁credibilidad
▁conciliación
▁petróleo
▁error
▁correcto
▁noche
▁ciudadano
▁familia
▁seres
▁representan
▁extremadamente
▁procedentes
▁hacerse
sólo
▁ventajas
puede
▁conversaciones
▁concretos
▁consciente
nosotros
▁seno
son
▁quizá
▁intervenciones
finalmente
tal
▁bulgaria
▁incluidos
▁oradores
▁ocurre
▁técnicas
▁aplica
▁ampliar
▁deseamos
▁enfermedad
considero
▁abierto
▁campaña
▁convertirse
▁mantenimiento
señorías
▁poderes
▁balcanes
▁pasada
▁estudios
▁subvenciones
▁hagan
▁abril
▁agradezco
▁humano
▁podríamos
▁escuchar
▁exigencias
hace
▁claras
▁completo
pt
▁puesta
▁militares
▁violaciones
▁proponer
▁cuotas
▁.
▁tiempos
▁convencido
▁reuniones
▁prevé
it
▁bancos
▁resoluciones
▁eficaces
▁acp
nuestro
▁poblaciones
▁imposible
▁buques
▁40
▁basa
▁muestra
▁debatiendo
▁desean
▁pedido
▁procesos
▁efectivamente
▁positivos
▁superar
▁habla
▁órganos
▁especiales
▁terminar
▁añadido
▁impedir
▁pocos
▁doble
▁presentes
▁depende
▁tabaco
▁numerosos
▁intento
▁actuación
▁dispuestos
▁considerable
▁activa
▁cree
▁quedado
▁propiedad
▁disponibles
▁ciertas
▁evaluar
▁operaciones
▁centrales
▁entorno
▁directa
▁17
▁incremento
▁sanitaria
▁27
según
▁incluida
▁elaborado
▁tengamos
▁verdaderamente
▁daños
▁comisiones
▁siglo
▁tenía
▁suecia
▁tercera
▁expresado
▁escuchado
▁dando
▁repercusiones
esa
▁habían
▁américa
queremos
▁mitad
▁siga
▁legislativa
▁estrecha
▁oral
hasta
▁transición
▁futuras
▁distribución
▁totalidad
▁adicional
▁india
▁comisarios
▁plano
▁presentada
▁determinadas
▁críticas
▁deuda
tengo
▁evidentemente
▁acojo
▁término
▁etiquetado
▁exclusión
▁reto
▁apoyamos
▁factores
▁pesquera
▁vidas
▁tareas
▁deberán
▁propósito
▁copenhague
▁eran
▁quién
▁pagar
▁financiar
▁últimas
▁restricciones
▁mejoras
▁policía
▁digo
▁reales
▁profesionales
▁adaptación
▁adoptadas
▁cuál
▁verdes
▁afganistán
▁belarús
▁100
▁véase
▁larga
b
▁14
▁déficit
▁modificar
▁culturales
▁lugares
▁dejado
▁costa
▁difíciles
nuestra
▁conforme
▁sola
▁posiciones
▁energético
▁creado
▁concreta
▁jefes
▁16
▁otan
▁informar
▁técnica
▁insistir
▁ejercer
▁máxima
les
▁impresión
▁exportación
▁doy
▁afrontar
▁conjuntamente
▁preparación
▁factor
▁aceptable
▁crítica
▁causas
▁interesante
▁menores
▁construir
▁conceder
▁basado
▁opción
▁estrasburgo
▁palestina
▁código
▁legales
▁afectan
▁pasos
▁antigua
▁presentación
▁ratificación
▁pacientes
▁buscar
▁definitiva
▁recientes
▁pedimos
▁transparente
▁presidentes
▁ejemplos
▁pequeña
▁hablamos
▁codecisión
▁apoyado
▁carretera
▁visados
▁pago
▁corrupción
▁exclusivamente
▁centros
▁coherencia
▁ven
▁delincuencia
▁definir
▁tasa
▁ii
▁permítanme
▁drogas
▁convertido
▁ocupa
▁vigilancia
▁u
▁pérdida
▁desafíos
▁norma
▁unanimidad
▁lenguas
▁tendría
▁lamentable
▁pescadores
▁fines
▁peor
▁comprobar
▁simple
▁media
▁primeros
▁tuvo
▁dispuesto
▁específica
▁invertir
▁contacto
▁abierta
▁excepción
▁votaciones
▁dignidad
▁unidad
▁científicos
▁movimiento
▁deber
▁adecuadas
▁rapidez
▁febrero
▁favorable
2001
▁específicos
▁impulso
▁seguirá
▁ciudades
▁parecer
▁trabajan
▁deporte
▁iniciar
▁blanco
▁aprobada
algunos
▁deja
tiene
▁ausencia
▁conocimientos
entre
▁democráticas
▁eliminación
▁diciendo
▁individuales
▁democráticos
dicho
▁agentes
▁sexual
▁cláusula
▁alguien
▁básicos
▁registro
▁laborales
▁infraestructura
▁pilar
▁encima
▁realizados
▁británico
▁electoral
▁liberales
▁turno
▁legislativas
▁dónde
▁área
▁completa
▁permitan
▁accidentes
▁enormes
▁rápido
▁hijos
▁comienzo
ce
▁manifestar
▁fracaso
▁tierra
▁formular
▁orientaciones
▁estaban
▁¡
▁casa
▁temporal
sería
▁inmediatamente
▁alternativa
▁croacia
▁lamentablemente
▁permitido
▁acabar
▁rurales
▁proceder
▁calendario
▁orientación
▁raíz
▁pequeño
▁respaldo
▁conciencia
▁afectadas
▁conocer
▁obra
▁violación
▁serbia
▁eficiente
▁reconoce
▁prácticamente
▁superior
▁explicar
▁ilegales
▁aprobó
▁privado
▁disponer
▁energías
▁examen
▁amsterdam
▁lamento
▁austria
▁fomento
▁pac
▁estrategias
más
▁pregunto
▁oficina
▁dé
▁contratos
▁convergencia
▁21
nl
▁parcial
▁darle
▁fuente
▁palestinos
▁ve
▁realización
▁elevado
▁existente
▁inicial
▁estadísticas
▁decirlo
▁operadores
▁aplicarse
▁discurso
▁importaciones
▁estará
▁inmediato
▁personales
▁hayamos
▁opciones
sabemos
▁buenos
▁referido
▁co
▁oficial
▁veo
▁comentario
▁ong
▁presupuestarias
▁personalmente
▁destinados
▁soberanía
▁claros
▁publicidad
▁argumentos
▁especie
ese
▁,
▁aquellas
mientras
▁ciertamente
▁exigir
▁errores
▁alguno
▁original
▁similares
▁líderes
▁segura
▁empleos
▁socialistas
▁equilibrado
▁próximas
▁vaya
▁revisar
▁1997
▁incrementar
▁delitos
▁específico
▁ocurrido
▁georgia
▁alternativas
▁siete
▁lengua
▁determinación
▁reconstrucción
▁destinadas
▁tendencia
▁detalles
▁prosperidad
▁materias
▁bienes
▁mostrar
▁sucede
▁19
o
▁industriales
lamentablemente
▁arreglo
▁refleja
▁fortalecer
▁contribuyentes
▁1998
▁expectativas
▁exista
▁formulada
▁checa
▁bilaterales
▁parecen
▁ecus
▁determinar
▁decirle
▁permiten
▁aprueba
▁identidad
▁sostenibilidad
▁aéreas
ponente
▁quedan
▁presentó
▁modificaciones
▁regular
▁impulsar
▁abrir
▁asia
▁suma
solo
▁trabajado
existe
usted
▁interlocutores
▁limitar
naturalmente
▁destrucción
▁catástrofes
▁ciudadanía
▁funciones
▁fenómeno
▁independientes
▁60
▁quería
▁indispensable
▁televisión
▁comprender
▁manifestado
▁reflexión
▁conducta
▁felicito
▁francesa
▁izquierda
▁mantenido
▁emergencia
▁simplificación
▁afirmar
▁habitantes
uno
pienso
6
dado
▁burocracia
▁cifra
▁preguntar
▁concesión
▁instancia
▁sacar
▁rechazo
▁libres
▁piensa
▁oportuno
▁vemos
▁título
▁prevenir
▁bases
▁representación
▁ataques
miembro
porque
▁similar
▁parlamentario
▁correctamente
▁vivir
▁usuarios
▁pocas
▁conservación
▁suerte
▁acordado
▁produce
▁g
▁contribuido
▁perdido
▁constante
▁cuáles
▁anteriormente
▁elegido
▁mantiene
podemos
▁francés
podría
▁incluidas
▁intenciones
▁mostrado
▁técnicos
▁técnico
▁occidental
▁artículos
▁obligados
▁brevemente
▁interpretación
▁dan
▁estratégica
▁asegurarnos
▁cantidades
esperamos
▁justa
▁vecindad
incluso
▁cuarto
▁retraso
▁considerando
▁monetarios
▁instalaciones
▁1996
▁inmediata
▁formar
▁occidentales
▁foro
▁alianza
▁dicen
asunto
▁animal
▁catástrofe
▁recurso
▁dispuesta
▁aceptado
▁asociaciones
▁generación
▁textos
▁aclarar
antes
resulta
▁afirma
▁estudiar
▁producir
▁investigaciones
▁aproximadamente
▁producen
▁500
▁pib
▁estatales
▁características
▁dispone
tras
▁bienvenida
▁ciudad
▁duración
▁enviar
▁campos
▁existir
▁funciona
▁finanzas
▁analizar
▁emisión
▁adoptada
▁celebrado
▁perder
▁hombre
▁80
▁competitiva
▁oído
▁requisito
actualmente
▁24
debe
▁frontera
▁referente
sé
▁aviación
▁comparación
▁marítima
▁indica
▁significativo
▁partida
▁atrás
▁siento
▁sinceramente
tampoco
▁desearía
▁antiguos
▁barreras
▁niza
▁utilizan
▁deficiencias
▁enfrentamos
▁23
▁servir
▁regímenes
▁transferencia
▁acto
▁llega
▁imagen
▁clase
▁amigos
▁quince
▁mala
▁futuros
▁señala
▁aplican
▁tribunales
97
▁inicio
▁vulnerables
▁enormemente
▁onu
▁acceder
▁categoría
▁mutuo
sv
▁sencillamente
▁incluyen
▁garantice
▁aportar
▁jueves
▁cuidado
▁detención
▁considerarse
ello
▁cumplan
▁porcentaje
Éste
▁pasa
▁baja
▁parlamentarios
puedo
▁den
muchos
▁familiar
▁territorios
▁empleados
▁independientemente
▁autorización
▁llamado
▁elegir
▁luxemburgo
▁solicitado
▁industrias
▁destino
▁exportaciones
▁salir
sí
▁adopte
▁garantiza
▁pie
▁electricidad
▁liderazgo
▁comparto
▁reglamentación
▁reducido
▁padres
▁fabricantes
▁compensación
▁retirada
▁ponga
▁activo
▁territorial
▁empresarial
▁racismo
▁universal
▁correspondientes
▁seguido
▁plazos
▁señoras
apoyo
▁apenas
▁versión
▁corea
▁crea
▁científica
▁peso
▁demuestran
▁consideran
▁planificación
▁material
▁permiso
▁sufren
creemos
▁barcelona
▁altos
▁estrictas
▁rechazar
▁alternativos
▁hungría
▁cuyos
▁aun
▁ocho
▁orador
▁emprender
presidente
▁adecuados
▁lógica
otro
▁carbono
▁crimen
▁equipo
▁consideraciones
▁solucionar
▁comprometido
▁22
▁gases
▁celebración
▁interinstitucional
▁criterio
▁irlandés
▁grande
▁ronda
▁negociar
▁mundiales
▁enfrenta
▁marítimo
▁ambiental
▁ruego
▁profundamente
▁alegra
▁debidamente
ro
▁báltico
▁ambicioso
▁interna
▁visita
▁utilizado
▁estadounidenses
▁primas
▁2011
▁pakistán
▁incluya
▁institucionales
▁forman
cada
▁empresarios
▁transfronteriza
▁amenazas
▁aumentado
▁interiores
▁aprender
▁activamente
▁puertos
▁seriamente
▁desafío
▁presupuestarios
▁exigencia
▁1995
▁intentado
▁organizada
▁implicados
▁estructural
▁reserva
▁intentando
▁comercialización
▁experiencias
▁iva
▁basta
▁normal
▁éstos
▁referirme
▁relieve
▁figura
▁capítulo
▁aplicable
▁organismo
▁destacado
▁aeropuertos
▁salarios
▁indicar
▁referéndum
▁europol
▁i
▁capacidades
▁votos
▁tome
▁condena
▁significativa
▁socio
▁vinculante
▁prodi
▁estrechamente
▁interno
▁solicitar
▁esperan
▁telecomunicaciones
▁época
▁supresión
▁adecuadamente
▁reacción
▁cumplen
▁minoría
▁positivas
▁observar
▁bélgica
▁utilizando
▁alemán
▁auténtica
▁correspondiente
▁reconocido
▁minutos
▁capitales
▁disponemos
▁tasas
▁reestructuración
▁seguimos
▁excepciones
▁especies
▁española
▁dirigentes
▁constructiva
Ésta
existen
▁sufrido
▁establecidos
deberíamos
▁precisa
▁gubernamentales
▁escuelas
▁estratégico
▁crímenes
▁venta
▁intelectual
▁sólida
▁enfrentan
▁destinado
▁sanitarios
▁cientos
▁negativa
▁considerablemente
▁finlandia
▁solicitudes
▁comportamiento
▁contribuye
▁argumento
▁determinado
▁pensamos
▁japón
▁llevan
▁desarrollado
▁firmado
▁moral
▁materiales
informe
▁aprendizaje
▁merecen
▁patrimonio
▁haberse
▁tratando
▁informado
▁ahorro
▁llegue
▁continúa
▁patente
▁jurídicas
▁ejército
▁bretaña
▁búsqueda
▁trate
▁oferta
▁preparar
▁adoptó
▁realista
▁indicadores
▁creen
▁puerta
▁acervo
▁pudiera
▁debatido
'
▁equilibrada
▁mil
▁administrativa
▁funcionar
▁patentes
deseo
▁humanidad
▁resistencia
▁firma
▁temo
▁dictamen
▁insuficiente
▁dirigida
▁refuerzo
▁limitado
▁ofrecen
▁sabido
▁cooperar
▁proporciona
▁judiciales
aquí
▁consecución
▁interesadas
▁bosnia
entonces
▁fortalecimiento
▁flexible
▁profunda
▁británicos
▁fuertes
▁llamada
96
▁liberal
▁juventud
▁ferroviario
▁finalidad
▁división
▁quedar
▁relativamente
▁negativo
▁sigan
▁cierre
1
▁reciben
▁competentes
▁conveniente
▁entiendo
▁vigente
▁derivados
▁celebrará
▁consolidación
▁cometido
▁legitimidad
▁invernadero
▁respaldar
▁migración
▁cuba
▁recuerdo
▁permítame
▁anuales
▁entendido
▁volumen
▁histórico
▁aquel
▁estudiantes
respecto
uu
▁genéticamente
▁crédito
▁decirles
▁exposición
▁velar
▁equipos
▁dependencia
▁privada
▁organizar
▁irlandesa
▁apropiado
▁aplique
2000
▁interesados
▁cumplido
▁alrededor
▁simplificar
▁discapacidad
2002
▁estimados
▁absoluta
debo
▁ganado
▁incluyendo
▁hubo
▁detalle
▁toneladas
▁macedonia
▁logro
▁menciona
▁accidente
▁cerrar
▁pertinentes
acojo
▁declarado
▁cambiado
▁enseñanza
▁belga
▁posterior
▁ee
▁cáncer
▁aire
▁secretario
▁0
▁acogida
▁ataque
▁consultas
cuál
▁británica
▁constantemente
▁administrativos
▁miedo
▁repetir
▁efectivo
▁eeb
▁contactos
▁vuelto
▁aportación
▁peligrosas
▁éstas
▁comunicaciones
▁podía
▁competente
▁recurrir
▁acelerar
▁disponible
▁desastre
▁modernización
▁delito
cristianos
▁redacción
▁relacionado
com
▁tragedia
▁honor
▁31
▁obviamente
▁26
▁abandonar
▁dirigidas
▁islas
▁90
▁obvio
▁abusos
▁desarrollados
▁sirve
▁infantil
▁previa
▁palestino
▁esperanzas
▁ido
▁deseos
▁200
▁aplicado
▁carreteras
▁sueca
▁considerado
▁cadena
▁flota
▁preocupante
▁constructivo
▁importe
▁urgentemente
▁estable
▁liberación
▁operación
▁tradicionales
▁complejo
▁bosques
▁antiguo
▁cumple
▁decisivo
▁fijar
▁aparte
▁satisfactoria
evidentemente
▁discusión
▁delante
▁riqueza
▁ponen
puesto
▁prestación
▁probable
▁directo
▁transacciones
▁ritmo
▁pérdidas
▁70
▁culpa
▁encontrado
▁apruebe
▁integrado
▁italiano
▁compartir
▁generaciones
▁estemos
▁órgano
▁organizado
▁vino
▁discutir
▁vicepresidente
▁2013
▁constituir
▁recortes
▁promesas
▁dinamarca
▁herramienta
▁pesquero
▁verano
▁ojos
▁apliquen
▁convierta
▁explicación
▁básicas
▁contratación
▁participado
▁adopten
▁convenios
▁gaza
▁fundamentalmente
▁concede
▁primavera
▁español
▁preparados
▁hambre
▁reflexionar
▁hago
▁maastricht
▁azúcar
▁debatimos
▁aprobadas
▁gestionar
▁formulado
▁planeta
▁alimentación
▁edificios
▁encaminadas
▁conviene
▁convertir
▁elevados
demócrata
▁pacífica
▁importación
▁requieren
▁individual
▁identificar
▁etapa
▁diga
▁destinada
▁confirmar
▁pse
▁28
▁ferrocarril
▁debajo
▁minuto
▁convencer
▁masiva
▁periodistas
▁necesariamente
▁intenta
▁proveedores
▁decía
▁romaní
▁ambición
▁produzca
▁ventaja
▁imprescindible
▁científico
▁incentivos
▁barcos
▁obtenido
▁estarán
▁ciencia
▁candidato
▁autor
todas
▁logros
▁recuperar
▁contribuirá
▁privados
▁ponerse
▁religión
▁b
▁ce
▁prohibir
▁visado
▁familiares
7
▁estatal
ante
▁dirigido
▁inflación
▁retrasos
▁modos
▁ocupación
▁participantes
▁comparte
▁favorecer
▁par
▁dificultad
▁avanzado
▁transmitir
▁decidió
▁satisfacer
▁contribuciones
▁federal
▁diría
▁cultivo
▁resultan
▁oír
▁esfera
▁alegro
▁venido
▁tomen
▁políticamente
▁turco
▁suelo
▁cuentan
▁eslovaquia
▁plantean
▁generar
▁alcohol
▁histórica
▁estadounidense
▁quede
soy
▁electrónico
▁internos
h
▁tanta
debate
▁corazón
▁verse
▁creer
▁viaje
▁residencia
▁décadas
▁tránsito
▁dará
▁iniciado
▁resaltar
▁asignación
▁leche
▁contamos
▁utiliza
▁tantos
▁sentencia
▁aceptación
▁ampliamente
▁latina
▁funcione
▁solicitantes
▁canadá
▁indicado
▁mejorado
▁cierra
▁dólares
▁ambientales
▁comentar
▁oficiales
▁comprensión
▁conservar
▁automóviles
▁respeten
▁dada
▁préstamos
▁interesa
▁entidades
▁básica
▁prevista
pues
▁muestran
▁conoce
▁lituania
▁refieren
▁extrema
▁sanidad
▁alemana
▁italiana
▁realizando
▁vuelva
▁actores
▁acepta
▁unida
▁querido
▁auténtico
▁cuándo
▁firmeza
▁inundaciones
▁pesqueros
▁dio
▁explotaciones
▁obligado
▁estándares
▁marca
han
▁cuyas
▁concentración
▁abuso
▁estimular
▁exigen
▁hagamos
▁mantenga
quién
▁básico
▁ninguno
▁peces
▁asociados
▁considerables
▁legislativos
▁acabo
▁milenio
▁estando
hu
▁mínimas
▁presentan
▁israelíes
▁aborda
▁relacionada
tanto
▁ecológica
▁constitucionales
▁colaborar
▁anexo
▁específicamente
▁bce
▁fijado
▁desempeña
artículo
▁imposición
▁lleve
▁coordinar
▁médicos
▁ricos
▁29
▁negro
▁incendios
▁egipto
▁llevando
▁categorías
▁intercambios
quizás
lamento
▁aplicando
▁distancia
▁ginebra
▁yugoslavia
siempre
▁lógico
▁roma
▁resumen
▁donantes
▁viable
▁expresa
▁demandas
▁consolidar
▁reviste
▁sucedido
▁dinámica
▁altura
▁extranjero
▁terrible
▁administrativas
▁limitaciones
▁cargas
▁campañas
▁policial
▁evaluaciones
▁deba
▁dedicado
▁estaría
pregunta
▁dependen
▁motor
▁represión
▁presentará
▁minas
▁compartimos
▁excesiva
▁primeras
▁proporción
▁cualquiera
▁aumenta
▁ambiciosos
▁albania
▁tecnológico
▁marruecos
▁desgraciadamente
▁rechazado
▁satisface
▁integridad
▁poniendo
▁armonizar
▁desarrollando
▁agrado
▁integrada
▁usar
▁creando
▁finalizar
▁realizadas
parece
▁sindicatos
▁activos
▁provocado
▁débiles
▁modificados
▁estabilización
▁observadores
▁daño
▁negocios
▁aplicables
▁niño
▁conducir
▁esperando
▁implicadas
▁establezca
▁ayudará
▁detener
▁habida
▁obstáculo
▁salida
▁libremente
▁veinte
▁aumentando
▁seguramente
▁pese
▁velocidad
▁2012
▁negativas
ni
▁utilidad
▁recogida
▁llegan
▁permanecer
▁tantas
▁leer
▁globales
pido
▁peligroso
▁contempla
▁modelos
▁comunista
▁darles
▁africanos
▁década
▁privadas
▁multilateral
▁herramientas
▁resultar
▁informaciones
▁distinto
▁procedente
▁admitir
▁introducido
▁esencia
▁pidiendo
▁desigualdades
▁conocido
▁inteligente
▁particulares
teniendo
▁derecha
▁debía
▁basarse
▁intentos
▁detrás
▁compañeros
▁obligatorio
▁tradición
▁siguiendo
▁proliferación
▁pretenden
▁mínimos
▁damos
▁suspensión
▁seamos
▁expediente
▁combustible
▁apoye
▁subraya
▁tamaño
▁proponemos
▁dirigir
▁renta
▁destaca
▁constatar
▁transposición
▁portuguesa
▁cristianos
▁cualificada
▁hubiese
▁inversores
▁manifestaciones
▁distinta
▁integrar
▁párrafo
▁abastecimiento
▁placer
▁permitiría
▁suprimir
▁períodos
▁noticias
▁negativos
▁conocemos
▁cubrir
▁satisfecho
▁peligrosos
▁utilizarse
somos
▁continua
▁reiterar
▁citar
▁insto
▁millón
2006
▁respete
▁pendientes
▁conductores
▁túnez
▁moderna
▁resulte
▁habitual
▁sustancial
▁israelí
▁premio
▁abstenido
▁peligros
▁democratización
▁energéticos
cee
del
▁vayan
▁mínima
▁exención
▁expuesto
▁juegos
▁londres
▁multinacionales
primero
▁concierne
▁precedentes
▁detrimento
▁doha
▁biodiversidad
▁franceses
▁fe
▁preservar
▁posiblemente
▁instituto
▁d
▁movimientos
▁carece
▁nación
▁extranjeros
▁sincero
▁ashton
▁autonomía
▁alde
▁cabeza
▁atentados
▁presiones
▁universidades
▁beneficiarse
▁provisional
▁importa
▁ultraperiféricas
▁exceso
▁eficazmente
▁líder
▁uniforme
▁ampliada
2003
▁umbral
▁beneficiarios
▁textil
▁establecidas
▁presos
▁utilizados
▁cumpla
▁impone
▁serían
▁centrarse
▁unánime
▁colectiva
▁reparto
▁sencilla
▁tropas
▁sensación
▁sede
▁cuerpo
▁digital
▁transformación
▁valoración
▁desempeñado
▁sangre
▁sencillo
▁combustibles
▁obligatoria
▁favorablemente
▁implicación
▁nueve
20
▁significado
▁penales
▁afectado
▁formulación
▁culturas
▁formal
▁ruta
▁defensores
▁vive
▁asesinato
▁establecen
▁participan
2013
▁prestado
▁sufrimiento
▁pedirle
▁dublín
▁300
▁darse
▁vinculantes
▁continuidad
▁tolerancia
▁tierras
▁libia
▁influir
▁35
▁modifica
▁posteriormente
▁sólido
▁flujos
▁conciudadanos
▁programación
▁fácilmente
sus
▁líbano
▁fuego
▁sugerencias
▁internas
▁útiles
▁obras
▁expresamente
▁tenían
▁confusión
▁moldova
▁realizan
▁delegaciones
▁cultivos
fue
▁ratificado
▁criminales
▁convencida
ale
▁reconciliación
▁brasil
▁cláusulas
▁legislatura
▁consejos
▁estaremos
▁afirmación
▁terrorista
▁tradiciones
▁profundo
▁transeuropeas
▁plantas
▁carbón
▁mutua
▁viajar
▁preparativos
▁1994
declaraciones
▁transparentes
▁malta
todavía
▁pretexto
▁pensando
▁concedido
▁incorporación
▁notable
▁estricta
▁conservadores
▁isla
▁olaf
▁delicado
▁apoyen
▁básicamente
▁obliga
▁mantenerse
▁balance
▁contenidos
▁fiscalidad
▁sitio
▁limita
▁entusiasmo
▁justificar
▁vale
▁propongo
▁encuentro
▁decisiva
▁piensos
▁misiones
▁combinación
▁manteniendo
▁religiosa
▁radical
▁sudán
▁salvar
▁vuelos
▁fueran
▁condenar
▁figuran
▁celebrada
▁anunciado
▁doce
▁chechenia
▁parlamentarias
▁sustituir
▁berlín
▁cuota
▁positivamente
30
▁monetario
▁caída
▁húngara
▁celebro
▁satisfechos
▁tarjeta
▁noticia
▁preocupan
▁deseable
▁siria
▁garanticen
otra
▁navegación
▁satisfactorio
▁previstas
▁reside
▁uem
▁realiza
▁preparado
▁identificación
▁birmania
▁compañía
▁aniversario
▁avanzando
▁plenaria
▁completar
▁infracción
▁verts
▁competir
▁muerto
▁complicado
▁salvaguardar
▁tortura
▁incorporar
▁rendimiento
▁elegidos
▁participen
▁seria
▁amigo
votación
▁duradera
▁exponer
▁semejante
▁desempeñan
▁iba
▁autores
▁previo
▁administraciones
▁mantienen
▁silencio
nadie
▁responde
▁almacenamiento
▁ambiciosa
▁cualificaciones
▁vínculos
▁xxi
▁quiera
▁corregir
▁considere
agradezco
▁renovación
▁exhaustiva
▁centra
▁profundidad
▁impide
▁suponen
▁vigentes
▁ecológico
▁recuerda
▁contribuyen
▁intensificar
▁justamente
▁realizada
▁bei
▁apoyando
▁sensible
▁inseguridad
▁aérea
▁rigor
▁estrictos
▁enviado
▁haremos
▁sucesos
▁calificación
▁patten
▁excepcional
▁recoge
8
▁recordarles
▁aviones
▁separado
▁tendencias
▁gradual
▁movilización
▁joven
▁altamente
▁provocar
voy
▁acoge
▁bilateral
▁solana
▁hicieron
▁automóvil
▁humanas
▁apoyan
▁tuvieron
▁previsiones
▁sida
▁galileo
▁retirar
▁persecución
▁representar
▁pertinente
▁conlleva
▁miércoles
▁lunes
▁composición
aún
▁interrumpe
▁pongan
▁apropiada
vamos
▁reformar
▁puertas
▁acertadamente
▁adaptar
▁demasiada
▁compleja
▁jubilación
▁proponen
▁religiosas
quizá
▁continúe
▁aras
nuestros
▁ganar
▁meridional
▁transfronterizos
▁empezando
▁estrictamente
▁revolución
▁schulz
▁paro
▁abarca
▁suiza
▁crítico
▁prioritario
▁director
▁detenidamente
▁práctico
▁llama
▁gravedad
▁seguirán
▁viabilidad
▁causado
▁ocurrir
▁tomando
▁diré
▁urgentes
▁definitivo
▁griego
▁legislaciones
▁busca
▁produciendo
▁ex
▁separación
▁inferior
▁irregularidades
▁batalla
▁agosto
▁ruido
▁disponibilidad
▁congo
▁pilares
▁excesivo
▁escasez
▁coordinada
▁tratan
▁adaptarse
▁productividad
▁débil
▁favorables
▁pasando
▁rusa
▁convicción
▁solicita
▁llegó
▁limitación
▁tradicional
▁limitada
algunas
▁extensión
▁normativas
▁afirmado
▁pertenecen
▁duro
▁dimensiones
▁reaccionar
▁emitir
▁mirar
▁firmar
▁estocolmo
▁poca
▁víctima
▁irlandeses
precisamente
▁confío
▁dictadura
▁modificado
▁diario
▁unilateral
▁mundialización
▁lecciones
▁plurianual
▁desastres
▁preguntarle
▁miras
▁incumplimiento
▁justificación
▁reforzada
desgraciadamente
▁vínculo
▁disponen
▁madre
▁distinción
▁viernes
▁produzcan
▁contradicción
▁económicamente
▁web
será
▁voluntaria
▁legalmente
▁escuela
▁exhaustivo
▁confiar
▁pescado
▁intervenido
º
▁abordado
sk
▁puerto
▁basadas
▁continuamente
▁dije
▁defiende
▁consonancia
▁brok
▁ocupan
▁testigos
▁otoño
▁golpe
▁definitivamente
personalmente
▁debida
▁fabricación
▁realizarse
▁quinto
▁querría
confío
▁énfasis
▁publicación
cs
▁serias
▁socialdemócratas
▁extraordinaria
▁1990
▁inglés
▁xenofobia
▁ambiciones
▁»
▁comités
▁ignorar
▁gustado
▁propuso
▁ocurriendo
▁habiendo
▁químicos
▁cobertura
▁mención
▁coches
▁magnitud
▁suponer
▁investigadores
▁toman
▁realice
▁kyoto
▁prever
▁dura
▁informal
▁ecofin
▁preocupados
▁referencias
▁ocuparse
▁ciento
▁pacífico
▁sometido
▁genera
▁incertidumbre
▁eslovenia
▁comitología
▁directas
▁convencidos
▁directos
▁detallada
▁discusiones
▁corre
▁propuestos
▁listas
▁sostenibles
▁sensibles
▁recibe
3
▁tratarse
▁cig
▁piloto
▁inspecciones
▁contienen
▁verheugen
▁comprar
▁restablecer
▁perjudicial
▁paga
▁federación
▁'
▁electores
▁prestaciones
▁enfrentarse
▁viajes
▁modalidades
▁disminución
lt
▁fórmula
▁in
▁ruso
▁soldados
▁tíbet
▁esencialmente
▁explicaciones
▁suele
▁rechaza
▁acaban
▁alentar
▁fútbol
▁piensan
98
▁razonables
▁prácticos
▁convierte
▁previstos
▁observatorio
▁referendo
▁producirse
▁tuve
▁voluntario
▁conocen
▁alimenticios
▁haría
▁integral
▁escocia
▁acoger
▁pudieran
▁juguetes
▁atlántico
▁circunscripción
▁muertes
▁existan
▁fuese
▁estricto
▁selección
▁escenario
▁frontex
▁observado
▁pro
▁proseguir
▁jefe
▁carrera
▁extraordinariamente
▁presta
▁olvidemos
▁deje
▁nombramiento
▁demora
consideramos
▁primordial
▁promesa
▁individuos
▁comprensible
▁externos
▁inspección
▁confirmado
▁confirma
▁excelentes
▁emplear
ciertamente
▁gravemente
▁aspiraciones
▁utilicen
▁respeta
▁potencia
▁tuvimos
▁frase
▁vuelta
▁investigar
▁decimos
▁pidió
▁estima
▁nombres
▁ventas
▁sueco
▁griega
▁alemanes
▁normalmente
▁informados
▁centrar
▁electrónicos
▁concluido
▁vivienda
▁asegurarse
▁cero
▁apartados
▁romaníes
▁mencionados
▁energéticas
fi
+
▁capturas
▁adquirir
▁ocurrió
▁africana
▁instar
▁gue
▁votaremos
▁vean
▁abolición
▁firmes
▁acusaciones
▁entendimiento
▁maneras
▁harán
▁oponemos
▁surgido
▁cometidos
▁pesqueras
▁bush
▁procurar
▁trataba
▁osce
▁posee
▁congreso
▁atañe
▁inmunidad
▁rendir
▁concesiones
▁lanzar
▁tensiones
▁piden
▁fronterizos
▁salario
▁plataforma
▁clientes
▁400
▁desacuerdo
▁mensajes
▁tomamos
▁indican
▁jamás
▁transacción
▁transfronterizo
]
▁subrayado
▁habíamos
▁sentimiento
▁brinda
▁difusión
▁estratégicos
▁ejecutivo
▁precedente
▁contrato
▁lección
▁conceptos
▁excesivamente
▁consentimiento
▁contaminantes
▁75
▁monedas
▁tendrían
▁seguiremos
▁relevantes
▁habrían
▁complejidad
▁transmisión
▁comenzado
▁resuelto
▁células
▁recordado
▁crean
▁reciban
▁sistemática
▁llevarse
▁presionar
▁abre
ngl
▁secreto
▁regla
▁asistir
▁exclusiva
▁sentencias
▁señales
▁coherentes
▁recalcar
▁vienen
▁interesantes
obviamente
▁compra
▁médica
▁supervisar
▁adopta
▁beneplácito
▁proteccionismo
▁implicaciones
comparto
▁absurdo
▁hablan
▁múltiples
▁civilización
▁guerras
▁ferrocarriles
▁coalición
▁deterioro
▁ajuste
▁celebramos
▁sorprende
▁actuaciones
▁médico
▁amplias
▁infracciones
▁temor
▁determinada
▁declarar
▁continuo
▁conexión
▁centrarnos
▁postales
▁éxitos
▁treinta
▁1992
▁respectivos
▁homenaje
▁fases
▁preferencias
▁transfronterizas
▁tomarse
▁vacuno
▁escasa
▁competitivo
▁disciplina
▁conmigo
▁cuánto
▁complementaria
▁inestabilidad
▁acogemos
▁forestales
▁beneficia
▁quejas
▁presidencias
2004
▁respondido
▁secretaría
▁polacos
▁relevante
▁supondría
▁precisión
▁continúan
▁fundamentos
▁inquietud
▁renovable
▁comparten
▁sudáfrica
▁celebró
▁omg
▁venir
▁física
▁fischler
▁aporta
▁administrativo
▁traducción
▁envejecimiento
▁referendos
▁conduce
▁salvo
▁residentes
▁abiertos
▁viajeros
▁hubieran
▁expansión
ayer
▁falsificación
▁denominado
▁votantes
▁reducciones
▁existiendo
▁legislar
▁letra
▁mera
▁aprobamos
▁bloqueo
▁aportaciones
▁ideal
▁intentan
▁licencias
▁centrado
▁creíble
▁ocupar
▁entablar
▁peligrosa
▁respetando
segundo
▁corriente
▁sorprendente
▁realistas
▁recesión
▁puso
▁sienten
▁adoptando
▁victoria
▁desplazamiento
▁reclamaciones
▁garantizando
▁produjo
▁sugiere
▁limitarse
▁respetan
▁triste
▁conducción
▁retorno
▁muertos
▁hablo
▁entra
▁partidarios
▁compatible
▁coincido
▁objeciones
▁consultar
▁geográfica
▁expresadas
▁hogares
debería
realmente
▁transcurso
▁fiable
▁reduce
▁vuelve
▁someter
▁ciclo
▁ministra
▁estonia
▁séptimo
▁supervivencia
▁componente
▁zimbabue
▁preparando
▁cruciales
▁aparece
▁implicar
▁corte
▁45
▁iguales
▁flexibles
▁dejando
▁asumido
▁vacío
▁1993
▁sujetos
▁sensibilidad
▁democracias
▁dotación
▁desmantelamiento
▁manifiesta
▁estilo
▁abiertamente
▁publicado
▁colectivos
▁sres
▁repito
▁negocio
▁jurídicamente
▁componentes
▁inevitable
▁especulación
▁circunstancia
▁infancia
▁niega
▁opone
▁contraria
▁prometido
▁decirse
▁planteadas
▁introduce
▁sustitución
▁unitaria
celebro
▁madrid
▁hamás
▁ecológicos
▁iraquí
▁plaguicidas
▁auditoría
▁basándose
▁ética
▁rumbo
▁escándalo
▁dedicar
están
▁estuvo
▁vicepresidenta
▁insta
▁dejan
▁funcionan
▁potenciales
▁forestal
▁fiebre
▁[
▁desarrollarse
▁actuado
▁marcado
▁verdaderos
▁decidida
▁tecnológica
▁conseguimos
▁costas
▁sometidos
▁acabamos
▁perjudiciales
▁soviética
▁sanitario
▁reconozca
▁rusos
▁ocupado
▁fiabilidad
▁democráticamente
▁legítimo
▁definido
2005
▁obligar
▁disfrutar
▁equivalente
▁méxico
▁empezado
▁efectuar
cualquier
▁tendríamos
▁vih
▁compartida
▁indicación
▁eficientes
▁acero
▁prisión
▁asignado
▁electorales
▁estímulo
▁queden
▁contribuya
▁ayude
▁moratoria
▁sistemáticamente
▁cáucaso
▁discursos
▁conveniencia
▁37
▁vial
▁vea
▁repercusión
▁cuesta
▁ocurra
▁deriva
▁san
▁prisioneros
▁textiles
▁operativo
▁diputada
▁leído
▁excluir
▁chinos
▁mediterránea
▁extraordinario
▁nigeria
▁detenidos
▁semestre
▁nuevamente
▁sugerencia
▁afectada
▁luchando
▁gusto
▁químicas
▁utilice
▁sexto
▁consigue
▁maternidad
debido
▁comprendo
▁opino
▁defendido
cabe
▁votamos
▁etiqueta
▁letonia
▁imaginar
▁desleal
▁lenguaje
▁idiomas
▁avanzada
▁refuerza
▁acepte
▁potencias
▁preste
▁dióxido
▁insuficientes
▁formuladas
▁oficinas
▁permitirán
▁montenegro
▁fiables
▁privatización
▁pensamiento
▁pesc
▁problemática
▁deseado
▁cuarta
▁citado
▁mío
▁oponen
▁encuentre
▁reflejan
▁condenado
▁encaminada
▁llevará
▁monopolios
▁compensar
▁alerta
▁genocidio
▁policiales
▁equivale
▁efectividad
▁lleven
▁desempleados
▁devolución
▁avión
▁querer
▁aquella
▁asesoramiento
▁monopolio
▁acordó
▁resolverse
rusia
▁carecen
dónde
▁madera
▁humanitario
▁humanitarias
▁implantación
▁frattini
▁encargado
▁justificada
▁acertado
▁quieran
dentro
▁biocarburantes
▁sucediendo
▁fruto
aparte
▁animar
▁sufre
▁decenas
▁renunciar
▁cofinanciación
▁vivimos
▁trabaja
▁válido
▁perjuicio
▁argelia
▁movilizar
▁desigualdad
▁experimentado
▁permanentes
▁entiende
▁incidentes
▁bandas
▁euromediterránea
dicha
▁tuviera
▁oportuna
▁occidente
▁aranceles
▁basados
▁verán
▁insiste
▁tomadas
cod
▁sufrir
▁prioritarios
▁felicitaciones
▁opongo
▁islandia
▁extraer
▁plátanos
▁verá
▁colectivo
▁colegio
▁actúe
▁captura
▁continuará
▁corren
▁parecido
▁viendo
▁incapacidad
▁preferencia
▁satélite
▁erradicación
▁unirse
▁cincuenta
▁aprendido
▁implementación
▁terribles
▁vergüenza
▁permitiendo
▁agraria
▁negar
▁fundación
▁eurostat
▁benefician
▁suya
doy
▁críticos
▁mercurio
▁yugoslava
▁aplazamiento
cuáles
▁mutuamente
▁ofrezca
▁abiertas
▁recomienda
▁delincuentes
▁muro
▁inaceptables
▁seriedad
▁complementarias
▁pretendemos
▁suelen
▁justifica
▁aves
▁deliberaciones
▁digno
▁flotas
▁progresiva
▁preguntado
▁agradecido
▁actuando
▁blair
▁excusa
▁relevancia
▁basan
▁diseño
▁página
▁inocentes
▁cuantos
▁elevada
▁dotar
▁encuentren
▁efectivas
▁juzgar
▁modificada
▁sección
▁sustancia
▁kioto
▁fui
▁corta
▁septentrional
▁droga
▁cereales
▁herzegovina
▁tarifas
▁vecino
▁darnos
▁temores
▁delicada
▁chino
▁mente
▁científicas
▁inadmisible
▁establezcan
▁nacionalidad
▁estratégicas
▁opina
▁llamados
▁significativos
▁devolver
▁deseen
▁pobre
▁tocante
▁camiones
▁pertenece
▁teníamos
▁enérgicamente
▁extraño
▁salvaguardia
▁espectro
▁sexo
▁aparatos
▁calentamiento
▁explícitamente
▁operan
▁cautela
▁flujo
▁aceptables
▁santer
▁río
▁núcleo
▁examinando
▁comprende
▁audiencia
▁the
▁detallado
▁apropiadas
▁vuelvan
▁cargos
▁rúbrica
▁baronesa
▁provoca
▁sirven
▁reforzado
▁mantenemos
▁gastar
▁perseguir
▁ofrecido
▁operativa
▁voluntarios
▁aduanera
▁educativos
▁clonación
▁veremos
▁armamento
▁indemnización
▁preparada
▁normalización
▁afectar
▁colombia
▁lamentar
▁bruto
▁entran
▁lagunas
▁registrado
▁guinea
▁memoria
▁puramente
▁conseguirlo
▁responda
esas
▁habrán
▁ministerial
simplemente
▁contemplar
▁aumentará
▁intermedia
▁parís
▁sufriendo
▁desaparición
▁valioso
▁gama
▁radica
▁cito
▁explicado
▁manifestación
▁aquello
▁moción
▁95
▁decide
▁cotidiana
▁idioma
▁reunir
▁2015
permítame
▁llamadas
▁árabe
▁demasiadas
▁pluralismo
▁censura
▁extremo
▁siente
▁sepa
▁pe
▁progresar
▁periódicos
▁aéreos
▁adquisición
▁profesores
▁justas
▁dumping
▁electrónica
▁conjuntas
▁creó
▁preguntarnos
▁adoptarse
▁equivocado
▁viviendo
▁atender
▁innovadoras
▁perdiendo
▁von
▁objetiva
▁despidos
▁sala
▁propietarios
▁deban
▁obtención
▁optado
▁odio
▁empresariales
deben
▁billetes
▁reduciendo
▁gratitud
apoyamos
▁polaco
▁pensionistas
▁clasificación
▁norteamericanos
▁variedad
▁impuestas
▁símbolo
▁atún
▁neerlandés
▁hiciera
▁obligada
▁dios
▁magnífico
▁escena
▁aceite
▁pudo
▁abandono
▁italianos
▁gusta
▁rumania
▁guantánamo
▁prestando
▁vehículo
felicito
▁aislamiento
▁asignar
▁ahorrar
▁rutas
▁expresada
▁terminado
▁competitivos
▁sis
▁extremistas
▁presidenciales
▁pase
▁bacalao
▁aliados
▁regulador
▁suspender
▁suceder
▁ayudado
▁históricos
▁mérito
nunca
▁otorga
▁jornada
▁repetidas
▁proporcionado
▁iraní
▁erradicar
▁ganaderos
▁york
▁fenómenos
▁valorar
▁sumo
▁examinado
▁150
▁comienzos
pedimos
▁laeken
▁reducida
▁orgullosos
▁concepción
▁mantengan
▁presenten
▁caer
▁desear
▁declaró
▁pronunciado
▁diplomacia
▁multilaterales
▁denominada
▁orientada
▁valiosa
▁ratificar
▁jurisdicción
▁ciudadana
▁entrega
▁lingüística
▁adquirido
▁entrado
solamente
▁permitirse
acaso
▁índice
▁destruir
▁asesinatos
▁parcialmente
▁superiores
▁danesa
▁culpables
▁haití
▁profundas
▁voten
▁quedó
▁metas
▁inteligencia
▁permisos
▁adultos
▁podían
▁esferas
▁actúa
▁lleguen
▁149
▁unidades
▁hipocresía
▁descanso
otros
▁alimentarios
▁kinnock
▁denunciar
▁inteligentes
▁significativamente
▁dejen
▁musulmanes
▁darfur
Ésa
▁tampere
▁únicos
▁lograrlo
▁desarme
▁anuncio
▁evidentes
efectivamente
▁comunicado
1999
▁conceda
▁deberemos
▁sirva
▁aeropuerto
▁explotar
alianza
▁intentamos
▁españoles
▁neerlandesa
▁tercero
▁criticar
▁clases
▁profundizar
▁étnicas
▁innovadores
▁superficie
▁aborto
▁aftosa
▁indudablemente
▁cien
▁seguras
▁acertada
▁32
▁frenar
▁públicamente
▁define
▁filosofía
cuándo
▁bancario
▁pensión
▁aclaración
▁digna
▁bajas
▁comprendido
▁turca
▁garantizará
▁washington
▁tensión
▁reach
▁llegada
▁nórdica
▁sitúa
▁fracasado
▁sadam
▁piedra
▁legalidad
▁pensado
▁tomó
▁soportar
▁vender
▁hemiciclo
▁azul
▁desprende
ustedes
▁protestas
▁ocde
▁complicada
▁hacía
▁incluyan
▁48
▁demográfico
entiendo
▁danubio
▁largos
▁temporales
▁migratorios
▁formalmente
▁excepcionales
da
▁ferroviaria
▁descenso
▁hicimos
▁contestar
▁adherirse
▁abogados
▁evidencia
▁autónomos
▁protesta
▁genética
▁sexuales
▁demasiados
▁invitación
▁aprobados
▁poseen
▁peores
▁excelencia
d
▁reconocemos
▁restricción
▁vigilar
▁entendemos
▁crediticia
▁preocupado
▁transferencias
▁pendiente
▁prostitución
▁edificio
▁destinar
▁sentir
▁mugabe
▁vacaciones
▁redactado
▁desequilibrios
▁estimadas
▁acontecimiento
▁posteriores
tienen
▁parar
▁reciprocidad
▁profesión
▁previamente
▁justificado
▁atentamente
junto
▁extender
▁queridos
▁monti
▁naval
igualmente
▁barnier
▁pagan
▁incentivo
▁asegurarles
▁frutos
▁taiwán
▁otorgar
▁felicitando
▁legítima
▁eco
▁mejorando
▁dependerá
▁estableció
▁indicaciones
▁intensidad
▁radicales
▁negociado
▁costeras
▁hoja
▁jueces
▁protegidos
▁rigurosa
▁insistencia
▁derivadas
▁capítulos
▁explica
▁proceden
▁ordenación
▁complejos
▁terror
▁corresponden
▁máximos
▁cartas
▁propaganda
▁realicen
▁inicialmente
▁educativo
aprobación
▁reacciones
▁expuestos
▁interoperabilidad
▁portugués
▁consta
▁vivos
▁atractivo
▁consigo
▁partidario
▁realidades
▁descrito
▁presentamos
▁normales
▁leal
▁serios
▁automáticamente
▁cielo
▁emergentes
▁dominio
▁vinculados
▁periódico
nuestras
▁tenerse
▁ministerio
▁incidente
▁facilidad
▁finlandesa
▁garantizado
▁hacernos
▁llevó
▁ciudadanas
▁obligatorios
▁implican
▁hong
▁helsinki
▁diversificación
▁competitivas
▁certeza
▁entidad
▁kong
▁notablemente
▁conferencias
▁proporcionalidad
insto
▁aparición
▁índole
▁acompañado
▁desarrolle
▁atentado
▁celebrando
▁establecerse
▁palacio
▁iniciales
▁jurisprudencia
▁aumente
▁turcos
▁incapaz
▁promueve
▁móviles
▁teoría
▁marino
▁externa
esos
▁pediría
▁compartido
▁advertencia
▁sanitarias
▁transatlántica
▁martes
▁distorsiones
▁buscando
▁comprometerse
▁salido
▁inevitablemente
▁posturas
▁biotecnología
▁imperativo
▁moscú
▁sentimientos
▁uen
▁valentía
▁canales
▁insistido
▁sueño
▁remedio
▁francamente
▁inspectores
▁diplomáticos
▁maniobra
▁extranjeras
▁empeño
▁incluirse
▁reanuda
▁observancia
▁certificación
▁pertenencia
▁banda
mis
▁cálculo
queda
▁alternativo
▁poettering
▁sentado
▁ingreso
▁verdaderas
▁dirijo
▁mares
▁inquietudes
▁reconozco
▁36
▁bolkestein
▁fmi
▁celebra
▁aceptamos
▁habríamos
▁penas
▁planteada
▁quedarse
▁publicar
▁incapaces
▁urbanas
▁desventaja
▁recibió
▁discutiendo
▁estudiando
▁seremos
▁biológica
▁amparo
▁territoriales
▁notificación
▁astilleros
▁afirmaciones
▁alarmante
▁intensa
▁debamos
▁rentabilidad
▁decepción
▁existía
▁ésa
▁antiguas
▁amplios
▁altas
▁temprana
▁haré
▁siglos
▁desfavorecidas
▁entero
▁preventiva
▁supondrá
▁sucedió
▁redactar
▁suceda
▁beneficioso
▁racional
▁estábamos
▁cualificados
▁solos
▁unificación
▁fechas
▁iii
▁prudente
▁mueren
▁pertenecientes
esperemos
▁noruega
▁preferido
▁proporcionan
▁kilómetros
▁zimbabwe
▁ése
▁desarrolla
▁retórica
▁empleado
▁mental
▁asignados
▁junta
▁aproximación
▁funcionando
▁operativos
▁duras
▁33
▁solicito
▁salarial
▁sensibilización
▁gradualmente
▁equivocada
▁buscan
▁sumas
▁adoptan
▁diplomática
▁consideren
▁creatividad
▁incorporado
▁emprendido
▁42
▁hable
▁ocultar
dos
▁meta
▁permitirnos
▁espacial
▁swoboda
▁golfo
▁geográficas
▁contabilidad
▁húngaro
▁respalda
▁conozco
▁competidores
▁contribuyendo
▁decididamente
▁instancias
▁malos
▁mero
▁oficialmente
▁madres
▁ejerce
▁definiciones
▁comunicar
▁ampliado
▁quisiéramos
muy
▁reconocen
▁encarecidamente
▁preventivas
▁malas
▁acordar
▁sustanciales
▁comenzó
▁titulares
▁142
▁centrarme
▁vivo
▁garantizan
▁equitativa
▁formado
cns
▁rechazada
▁surgen
▁34
▁marcos
▁urbana
▁fallos
▁suecos
c
▁favorece
▁páginas
▁cumbres
▁obtenidos
▁dirige
▁generalizada
▁horizontal
▁círculo
▁injusto
▁radio
▁satisfecha
▁respaldado
▁esperado
▁putin
▁tratamos
▁disminuir
▁65
▁remuneración
▁sensato
▁medir
▁55
▁viviendas
▁provecho
▁fijación
▁recoger
▁imponen
▁largas
▁recorte
▁vote
▁brecha
▁causar
▁intenso
▁reflejar
▁etcétera
▁innovaciones
▁subida
▁supuestamente
▁legítimas
▁olvidado
▁traslado
▁árabes
▁aplicaciones
▁criminal
▁explícita
▁recomendar
▁marítimas
▁indirectamente
▁cita
▁lazos
▁sugerido
▁lanka
▁correo
▁increíble
▁someterse
▁saludable
▁protege
▁visible
▁foros
▁suministros
▁regulaciones
▁espacios
▁conseguiremos
▁rigen
▁direcciones
▁logramos
▁acierto
▁deudas
▁olímpicos
▁elevar
▁voces
▁mencionadas
▁aportado
▁veto
desearía
▁halla
▁actúan
▁disculpas
▁michel
▁votó
▁lleno
▁ocupe
▁enfoques
▁hogar
▁estrecho
▁jugar
▁ofreciendo
▁diagnóstico
▁bálticos
▁inmensa
▁reducidos
▁estableciendo
▁registros
▁chinas
▁ajustes
▁restantes
▁accesible
▁significaría
▁echo
▁encontrarse
▁atmósfera
▁brutal
▁votará
▁unir
▁significativas
▁tuberculosis
▁contribuyente
▁modernizar
▁aplicadas
▁convirtiendo
▁austeridad
▁reguladores
▁reciba
▁lamentamos
▁tercio
▁lados
▁43
▁paciente
▁respectivas
▁inglaterra
▁rechazamos
▁abogado
▁dedicación
▁contenidas
▁imágenes
▁efectivos
▁600
▁tono
▁mediterráneos
▁dirigidos
▁impunidad
▁revela
▁extradición
▁parámetros
▁habremos
▁aparentemente
▁perfecto
▁limitados
▁avanza
▁sri
▁agradecerle
▁estuviera
▁parecía
va
▁equitativo
▁fomenta
2010
▁indonesia
▁afirman
▁inició
▁barco
▁reunido
▁regreso
▁vuelo
▁arriba
▁sitios
▁mercosur
▁caza
▁mediación
▁violentos
▁motores
▁acompañada
▁tren
▁compatibles
▁ferroviarias
▁liberar
▁causados
▁aplicará
▁incondicional
▁adoptamos
▁hubiéramos
▁muestras
▁echar
▁niñas
▁subvención
▁sentimos
▁huelga
▁natura
▁erika
▁breves
▁asuma
▁watson
▁incidencia
▁meda
▁universidad
▁acercamiento
▁entraña
▁vacas
▁declara
▁escaso
▁conjuntos
▁prohíbe
▁mejore
▁ocuparnos
▁miseria
▁comprometidos
▁asciende
▁semillas
▁subsidios
▁islámico
▁Ártico
▁previsión
▁incomprensible
▁bloque
▁intolerable
▁establecida
▁presentarse
▁fronterizas
▁recorrer
▁eléctricos
▁debilidad
▁elaborando
▁oportunas
era
▁transferir
▁americanos
▁ideología
▁canciller
▁sigo
▁vietnam
▁ofertas
▁acercar
▁anteproyecto
▁surge
▁aduanas
▁calles
▁paritaria
▁prudencia
▁desaparecido
▁inequívoca
▁facilita
▁prioritaria
▁ocm
▁defienden
▁muchísimo
▁costumbre
▁representados
▁decida
▁cumpliendo
▁exigimos
▁1991
▁trámites
▁impiden
▁mejorará
▁acudir
▁bandera
recuerdo
▁inútil
▁superado
▁aliviar
▁recogido
pese
▁pesados
▁garantizada
▁orales
▁visitar
▁preferible
vicepresidente
▁reformistas
▁restringir
▁climática
aun
▁sigamos
▁haciéndolo
▁virus
▁ayudarles
▁verificación
tan
▁empieza
▁pornografía
▁etapas
▁frutas
▁irresponsable
▁llevamos
▁1989
▁precaución
▁negociando
▁surgir
▁validez
▁raíces
▁martin
opino
▁activas
▁caracteriza
▁tardar
▁marinos
▁aceptadas
▁disparidades
▁entredicho
▁profesiones
▁participa
▁reciclado
▁rusas
▁actitudes
▁posselt
▁acogido
▁transportistas
▁prohibido
▁conocida
▁burocráticos
▁transitorio
▁servirá
▁cárcel
▁levanta
▁hecha
▁reflexiones
▁aborde
▁cuidadosamente
▁trabajador
▁oeste
▁gotemburgo
▁conciliar
▁interrumpido
▁aquéllos
podríamos
▁antibióticos
▁fusión
recientemente
▁combinar
▁resultará
▁elabore
▁excepto
▁blanqueo
▁indicios
▁trabajen
coincido
▁contradicciones
▁sacrificio
▁abajo
▁pondrá
▁sensata
▁exportar
▁aditivos
▁preocupantes
▁deficiente
▁proporcione
▁planteamientos
▁visitas
▁camboya
▁profesor
▁armadas
▁masa
▁noción
▁observamos
2007
▁gripe
▁riguroso
▁dispongo
▁acepten
▁anunció
▁audiovisual
▁sorpresa
▁lanzamiento
▁electorado
▁estipula
▁discutido
▁hice
▁sólidas
▁ayudando
▁cotonú
▁persigue
▁euratom
▁aparecen
▁padecen
▁ánimo
▁tecnológicos
▁excluidos
▁pasan
▁sujeto
▁700
▁cambia
▁descubierto
▁confederal
▁meramente
▁sepan
▁erasmus
▁funcionado
▁prioritarias
habría
▁oradora
▁creará
▁elevadas
▁potable
▁libros
▁ejecutar
▁aplazar
▁turcas
▁generan
▁participe
▁comunistas
▁abordarse
especialmente
▁daneses
▁sudeste
▁sarkozy
▁presentados
▁generado
▁designación
▁conducido
▁panorama
▁suyo
▁iglesia
▁simples
▁hechas
▁recae
▁llegamos
▁casas
habida
pueden
▁vacunación
▁acoso
habrá
▁respetado
Ése
▁planteados
▁invitar
▁once
▁feag
▁expensas
▁quedará
▁consultivo
▁consultado
▁debían
▁desequilibrio
▁apoyará
▁regularmente
▁coincide
▁demuestre
▁moderno
▁transcurrido
luego
▁húngaros
turquía
▁desarrolladas
▁eurojust
▁rojo
▁limpio
▁prórroga
▁socialmente
▁beneficiará
▁viena
▁sentirse
▁terremoto
▁fría
▁facilitará
▁expresando
▁semejantes
▁queríamos
▁innecesaria
▁sectoriales
▁fijados
mediante
▁atraer
▁proponiendo
▁aprecio
▁plantearse
▁contribuyan
▁ejemplar
▁griegos
▁valiente
▁celebre
▁eludir
▁azerbaiyán
▁permito
▁exenciones
▁enhorabuena
▁intercambiar
▁consiga
▁optimismo
▁vacunas
▁lógicamente
afortunadamente
▁quiebra
▁gastado
▁preguntarse
▁consistente
▁aumentan
▁buque
▁viables
▁donante
▁autorizar
▁prima
▁armados
▁enfermos
▁antemano
▁38
▁distinguir
▁dirigirse
▁recomiendo
▁oponerse
▁calle
▁sustancialmente
▁creciendo
▁existido
▁previas
▁regresar
quien
▁objeción
▁trabajamos
▁proponga
▁negado
▁ligeramente
▁comprometida
▁transformar
▁coexistencia
▁piratería
autor
▁rentable
▁mediados
▁permitió
▁faltan
▁étnicos
▁individuo
▁sientan
▁importados
▁religiosos
▁armenia
▁n
▁preadhesión
▁arma
▁revisado
▁legisladores
▁desventajas
▁iraquíes
▁vinculada
▁esperaba
▁orientado
▁levantar
▁potenciar
▁crecer
▁extranjera
▁viejos
▁tomo
▁complejas
▁étnica
▁plátano
▁eslovena
▁reputación
▁fija
▁indispensables
▁regulares
▁wallström
▁optar
▁mortalidad
▁comparar
▁humanitarios
▁jarzembowski
▁generalmente
▁compañero
▁negra
▁cuente
▁optimista
▁luchan
▁arte
▁reciclaje
▁beneficiar
▁muestre
▁sobrevivir
▁retomar
▁autorizados
▁ilegalmente
▁austriaca
▁sometida
▁criticado
▁liga
▁intensamente
▁señaló
▁conviertan
▁promoviendo
2009
▁aprueben
▁comienza
▁bombas
▁pekín
▁aceptada
▁discapacitados
▁laborista
▁distorsión
aplausos
▁gesto
▁acabe
china
▁romper
▁fortaleza
▁logra
▁ingredientes
▁autodeterminación
▁apunta
▁carencias
▁rehabilitación
▁contener
▁corbett
▁tolerar
▁propiedades
▁verificar
▁emitido
▁demos
▁fósiles
▁jerusalén
▁readmisión
▁duradero
▁salariales
▁ahorros
▁transatlántico
▁luxemburguesa
▁alcanzados
▁padre
▁recortar
▁homosexuales
▁sincera
▁interesado
▁coraje
▁cercano
▁fragmentación
▁étnico
▁restaurar
▁cuestionar
▁indirecta
▁describe
▁pronunciarse
▁recién
▁observa
▁escasos
▁reembolso
▁radicalmente
▁paciencia
▁lema
▁vitales
▁cerrada
▁manifestantes
▁progresivamente
▁cancún
▁dejemos
▁barata
▁reactores
▁ecosistemas
▁reding
▁250
▁embriones
▁gasoducto
▁dieron
▁migrantes
▁corrección
▁trasladar
▁opuesto
▁levantamiento
▁esclavitud
▁detenido
▁omiso
▁vitorino
▁implantar
▁estabilizar
▁estaríamos
▁oit
▁husein
▁cuarenta
▁privilegio
▁perjudicar
▁limpieza
▁combate
▁myanmar
▁dg
▁expedientes
▁despliegue
▁cimientos
▁800
▁oro
▁déficits
▁medicina
repito
▁trabajadoras
▁urbano
▁discriminaciones
▁caribe
dada
▁diputadas
▁sugerir
▁lanzado
▁bordo
▁vivido
▁correr
▁queja
▁caos
▁evitando
▁lácteos
▁legítimos
▁publicó
probablemente
▁malo
▁producidos
▁daría
▁unánimemente
▁depender
▁acabado
▁referentes
▁frágil
▁injusticia
▁marfil
▁trazabilidad
▁guarda
▁examine
▁solicitamos
▁considerados
▁reunirse
▁precisos
▁correctas
▁montaña
▁anunciar
▁danés
▁demostrando
▁apropiados
▁phare
▁tribuna
▁divisiones
▁asociadas
▁estimado
▁compatibilidad
▁opresión
▁deberes
▁habló
▁externas
▁representado
▁rescate
▁convenciones
▁trágica
▁ferrero
▁suscitado
▁hallar
▁celebrarse
▁circular
▁ayuden
▁constructivas
▁fáciles
▁libras
▁progresista
▁telón
▁prevén
▁facilite
▁recibimos
▁vinculado
▁importar
▁feliz
▁burocrática
▁desaparecer
▁industrializados
▁cometer
▁comunismo
▁disponga
▁somalia
▁utilizadas
▁secretos
▁discapacidades
▁sorprendido
▁visibilidad
▁dinámico
▁especializados
▁estables
▁descubrir
▁invito
▁ceder
▁ponernos
▁residen
▁felicitarle
▁trenes
▁asegure
▁definidos
▁nominal
▁orientadas
▁escrita
▁justificadas
▁desregulación
▁derivan
▁integrarse
▁ende
▁44
▁proporcionará
▁potencialmente
▁manipulación
▁firmas
▁denominados
2008
▁inferiores
▁asuman
▁enérgica
▁asentamientos
▁percepción
▁defendiendo
▁acuicultura
▁tomará
▁decepcionante
▁descripción
▁orgulloso
▁activistas
▁móvil
▁diaria
▁berlusconi
▁anterioridad
▁preservación
▁propagación
▁planteó
▁bebidas
▁consiguió
▁castigo
▁inmediatas
▁hacerle
▁pagado
▁detenimiento
▁higiene
▁vinculadas
▁fed
▁ofrezcan
▁of
▁?
▁juicios
▁iv
▁servido
▁lukashenko
bien
▁ad
▁represento
▁realizó
▁encantado
▁asean
▁periféricas
▁insisto
▁signo
▁enfrentarnos
▁reclamar
▁entró
▁frecuentes
▁constar
▁reafirmar
▁cualificación
▁universales
algo
▁mencionada
▁sometidas
▁120
▁adoptados
▁fomentando
▁lástima
▁parezca
▁núms
▁islam
▁pida
▁debilitar
▁intensificación
▁vi
▁contrarrestar
▁invertido
▁radiodifusión
▁eje
▁precedido
▁comentado
▁llegando
▁desconfianza
▁beneficiado
▁suscita
▁tramitación
▁escolar
▁actualizar
▁justos
▁sentar
▁borrador
▁constancia
▁reparación
▁coche
▁obligatorias
▁escaños
▁querían
▁lograrse
▁supera
▁freno
▁norteamericano
▁marina
▁jean
▁estadísticos
▁ejecuciones
▁expresó
▁dispositivo
▁actúen
▁mentalidad
▁planta
▁estimaciones
▁ambiciosas
▁troika
▁marcas
▁significar
▁financiado
▁refería
▁francesas
▁vio
▁materna
▁ocupados
▁capitalismo
▁aplaudo
▁primaria
▁australia
▁donación
▁defendemos
▁dejó
▁pudimos
▁retrasar
▁decirnos
toda
▁ridículo
▁rehn
waldner
▁ecológicas
▁inminente
▁dijeron
▁serbios
▁personalidad
▁tela
▁paquetes
▁esforzarnos
▁cubre
▁confección
▁abandonado
▁desee
▁hacienda
▁heridos
▁continuado
▁uniformes
▁márgenes
▁estatus
▁pura
▁roja
▁periodista
▁detalladas
▁dirigirme
▁alegría
▁tangibles
▁cuadro
▁privacidad
▁instrucciones
▁tomada
▁documentación
▁lomé
▁juez
▁conocidos
▁convencionales
▁oomen
▁vinos
▁chernóbil
▁factible
▁39
▁construyendo
▁coordinador
▁criminalidad
▁envío
▁piezas
▁históricas
▁conexiones
▁únicas
nada
▁limitan
▁invitado
▁fábricas
▁química
▁sospecha
▁ancha
▁precisas
▁excluye
▁legislador
▁reforzando
▁viejo
▁gubernamental
▁ofrecerá
▁solicitó
▁turistas
▁proceda
▁financiados
▁insulares
▁llegará
▁convincente
▁recibirán
▁intolerancia
▁asignaciones
▁atajar
▁subyacentes
▁esperemos
▁ejercen
▁estuve
▁sana
▁pasaportes
▁barrot
▁operar
▁dólar
▁preocupada
▁digamos
▁volverá
▁desplazados
▁demostró
▁prometió
▁concienciación
▁condenados
▁convicciones
▁interpretar
▁dependientes
▁kurdos
▁cohn
▁insostenible
▁recordarle
▁sequía
▁dadas
ue
▁abarcar
▁böge
▁intimidad
▁masivo
▁logre
▁resulten
▁situar
▁cálculos
▁uranio
▁describir
▁dramática
bendit
▁africano
▁ensayos
▁madeira
▁producirá
▁obtienen
▁importes
▁cría
▁concluye
▁caro
▁llevada
▁aduaneros
▁llevadas
▁contrabando
▁retribución
▁restrictivas
▁religiones
▁contamina
▁rechazó
▁bloquear
▁imparcial
▁deseaba
▁vergonzoso
▁barón
▁bastantes
▁detenciones
ambos
▁códigos
▁accesibles
pensamos
▁hito
▁facilitado
▁compensaciones
▁harbour
▁parejas
▁hospitales
▁denuncia
▁degradación
▁populares
▁alarma
▁adoptará
▁convertirá
▁sólidos
comprendo
▁considerada
▁autobuses
▁formales
▁comprobado
▁puente
▁pedirles
▁reunificación
▁comida
▁afortunadamente
▁coordinado
▁votaré
▁prohibiciones
▁supremo
▁avanzados
dem
▁exigido
▁esforzado
▁estarían
izquierda
▁portugueses
▁testigo
▁licencia
▁pnr
▁ind
▁per
▁modernas
▁entren
▁colaboradores
▁tuvieran
▁utilizada
▁producciones
▁partidas
▁provisión
▁defectos
casi
▁demostración
▁mejoren
▁complemento
▁49
▁expulsión
▁dominante
▁toca
▁roth
▁trágico
▁departamento
▁modernos
▁marítimos
▁pierden
▁presenté
▁rápidos
▁diplomático
▁cuantas
▁túnel
▁desarrollos
▁autónoma
▁cuán
▁vinculación
▁aceptó
▁presentaron
▁innovadora
▁pretendía
▁pasaporte
▁revisada
▁chad
▁transatlánticas
▁añade
▁instalación
▁dolor
▁mccreevy
▁intercultural
explicaciones
▁resultaría
▁reducirse
▁provocan
▁injusta
▁característica
▁liquidación
▁regula
▁cambie
▁eliminado
▁tercios
▁life
▁desempeñando
sida
▁repetidamente
▁cabida
▁85
▁productor
▁accionistas
▁dinamismo
▁continúen
▁negativamente
▁tacis
▁hijo
▁trabas
▁actor
▁errónea
▁informarles
▁saludar
▁hallan
▁diplomáticas
▁reconocidos
▁recopilación
concretamente
▁traficantes
▁epidemia
▁últimamente
▁apreciar
▁alcanza
▁expuestas
▁envía
▁desarrollen
▁continuada
▁paraísos
▁esforzarse
▁arquitectura
▁aplicada
▁reproductiva
▁canal
▁reduzca
▁mía
▁nombrar
▁llamamientos
▁calcula
▁restablecimiento
▁expone
▁transnacional
▁difícilmente
▁seguida
▁soberano
▁integrante
▁simultáneamente
▁viola
▁redistribución
▁baratos
▁emplean
▁trágicos
▁lento
▁dispositivos
▁subterráneas
▁escalada
▁usan
conviene
▁franqueza
▁prestan
deseamos
▁pudiéramos
▁saludables
▁beneficiosa
▁hortalizas
▁rentas
▁concentrarse
▁vieja
▁constituido
▁resultó
tendremos
▁obligadas
▁disputa
▁controversia
▁incluirá
▁promueva
▁sevilla
▁crecientes
▁hoc
▁envases
▁concentrar
▁retirado
▁conceden
▁limpia
▁cese
▁serlo
▁averiguar
▁pretender
▁millardos
▁franco
▁brote
▁cárceles
▁accesibilidad
▁examinamos
▁reglamentario
▁fallo
▁flagrante
▁símbolos
▁lehne
sl
▁bloques
▁tentación
▁corremos
▁sanción
▁guardia
▁teléfono
turno
▁indignación
▁falsa
▁títulos
▁ayudan
▁ideales
▁desprecio
▁implicado
▁voluntariado
▁carencia
▁agresión
▁brindar
▁notables
▁biomasa
declaro
▁votemos
▁válida
▁venezuela
▁detección
▁burocrático
▁socavar
▁rápidas
▁afirmó
▁prerrogativas
▁malmström
▁insistiendo
▁spg
▁chocolate
▁nacionalismo
▁terrenos
▁decidan
▁metodología
▁mejorarse
▁consideró
▁concertación
▁frecuente
▁diera
▁incorporarse
▁constituirá
▁repente
▁nacimiento
▁estadística
▁juvenil
▁41
▁luchado
▁efectuado
▁amplía
▁automovilística
▁gozan
▁asistentes
▁fábrica
▁tratamientos
▁proteínas
▁acepto
▁especialistas
▁vísperas
▁proporcionando
ruijten
▁adquiridos
▁profundización
▁marcar
▁regularidad
▁denominación
▁planteando
▁46
▁atacar
▁disputas
▁navidad
▁castigar
▁veintisiete
▁artistas
comisario
▁florencia
▁Único
▁expreso
▁fraudes
▁acusación
▁falsas
▁afectará
▁respetuosa
▁disfrutan
▁deliberadamente
▁confiamos
▁pasados
▁supranacional
▁comerciantes
▁segundos
▁compromete
▁generalizado
▁extremismo
▁exacta
▁manifestó
dichas
▁mencionó
▁reducirá
▁casualidad
▁técnicamente
▁lograremos
▁compete
▁interferir
▁declive
▁deportivas
▁convendría
▁vasco
▁limitadas
▁alentador
▁proteja
▁índices
▁comparables
▁advertir
▁cosméticos
▁fruta
▁mandelson
▁fuertemente
▁autorizado
▁guía
▁equidad
▁americano
▁cumplirse
▁extracción
▁sinergias
▁introduciendo
▁deciden
▁alimentar
▁diseñar
▁culpable
▁demócrata
▁convierten
▁recibiendo
▁asegurado
▁paralelo
▁canarias
▁polaca
▁indicador
▁asume
▁conocidas
▁identificado
▁discrepancias
▁vuelven
▁fundamentalismo
▁cigarrillos
▁angular
▁restauración
▁electrónicas
▁quinta
▁caído
bg
▁artificial
▁abordan
▁frustración
▁precisar
▁pasará
▁etiopía
▁contraproducente
▁dictador
▁agente
▁despedidos
▁rectificativo
▁azores
▁fusiones
▁instaurar
▁pagando
▁amplitud
▁cuantía
▁complementar
▁arancelarias
▁adoptemos
▁recorrido
▁controlada
▁asesinados
▁une
▁globalizado
▁creada
▁aceptan
▁supongo
▁limite
▁salónica
▁ampliaciones
▁reducen
▁dedican
▁multas
▁erróneo
▁vegetales
▁sharon
▁estancamiento
▁intervengo
▁consiguen
▁admisión
▁perjudica
▁etiquetas
▁alumnos
▁integradas
varios
▁sienta
▁invasión
▁conseguirá
▁reconstruir
▁vincular
▁actualización
▁viajan
▁denomina
▁garantizarse
▁éticos
▁islámica
▁iraníes
▁reanudar
▁desfavorecidos
▁celebrados
▁precisan
▁implementar
▁resultantes
▁cristiana
▁annan
▁viva
▁demográfica
▁duramente
▁implique
▁productiva
▁asistido
▁exigiendo
▁discapacitadas
▁terrestres
▁cuarteto
▁2014
▁acusado
▁asiático
▁intérpretes
▁sexos
▁colocar
▁consigamos
▁constantes
▁visitado
▁reflejado
▁contundente
▁geográfico
Éstas
▁liberalizar
▁aprovechando
▁bielorrusia
▁merkel
▁aae
▁innecesarios
▁perfecta
▁congratulo
▁celeridad
▁mira
▁impedido
▁cambiando
▁47
▁pack
▁acusados
▁audiovisuales
▁obama
▁números
▁productivo
▁metros
acogemos
▁adoptaron
▁departamentos
▁wogau
▁determinante
▁causan
▁turístico
▁cursos
▁emplea
▁sumarme
▁referirse
▁duplicación
▁presentando
▁empleadores
▁alzheimer
▁clarificar
▁corrientes
▁algodón
▁prejuicios
▁éticas
▁interpretaciones
▁aboga
▁elogiar
▁luces
▁baño
▁modulación
▁certificados
▁experimentando
▁perjuicios
▁confidencialidad
▁funcionen
▁imperio
▁tangible
▁lamenta
▁centre
▁colegios
ini
hago
▁dato
▁privilegios
▁refleje
▁encaminado
▁innecesario
▁empezó
▁cuidados
▁partiendo
▁suscrito
▁acaso
▁crece
▁neutralidad
▁ayudarnos
▁reforzamiento
▁diálogos
▁s
▁detectar
▁anualmente
▁envergadura
▁resultante
▁lama
▁enlace
▁ampliarse
▁beneficien
▁facilitación
▁falsificados
▁renovar
▁revisten
▁motivación
▁reduzcan
▁ganando
▁sospechosos
▁retención
▁antecedentes
▁agotado
▁barrera
▁rico
▁exportadores
▁haberlo
▁coincidimos
▁armadores
▁religioso
▁sistemático
tercero
▁tratos
▁provincia
▁vayamos
▁aprovechamiento
▁contribuirán
▁pedía
▁concedida
▁ajustar
▁innovador
▁lamy
▁compartidos
▁limpias
▁delicados
▁realismo
▁expresarse
▁equilibrar
▁solicitan
▁atenta
▁antelación
▁alcanzó
▁innumerables
▁definidas
▁chile
▁mencionan
▁rotundamente
▁irak
▁homólogos
▁minoritarias
▁recogidas
▁conservador
▁electos
▁eldr
▁tratará
▁instamos
▁apoyaremos
▁continentes
▁reconocida
▁dejamos
▁niegan
▁transnacionales
▁51
▁traduce
▁seré
considera
▁dejará
▁fabricante
▁comprometer
▁mantendrá
▁insistimos
▁aliado
▁estudiado
▁interconexión
▁llena
▁biocombustibles
▁mann
▁desarrollan
▁reconsiderar
▁disminuido
▁colapso
▁reúne
▁ocurridos
▁voté
▁autorizaciones
▁temer
▁sombra
▁escuchando
▁permanentemente
▁mezcla
▁participaron
▁creados
▁goza
▁indígenas
▁gonzález
▁encargados
▁sostenido
▁azar
▁dudo
▁inadecuada
▁decepcionado
▁orgullo
▁refuerce
▁atentos
▁contrarias
▁tecnológicas
▁desplazadas
▁farmacéutica
▁felicitación
▁paliar
▁incrementado
▁cadenas
▁techo
independientemente
▁amenazadas
▁barato
▁vanguardia
▁intente
▁pude
▁habituales
«
▁coinciden
▁reconocidas
allí
▁parados
▁norteamericana
▁alimentario
▁abolir
▁plantee
▁prepararse
▁votaron
▁escandaloso
▁rumanos
▁generalizadas
▁ferroviarios
▁veinticinco
▁tiende
▁enemigo
▁aportan
▁checo
▁prolongado
▁sujeta
▁regulan
▁descentralización
▁cometen
▁digan
▁arafat
▁embajador
▁invita
▁caja
▁morales
cree
▁hablemos
▁refugio
▁firmó
▁juntas
▁deportivos
▁experimentos
▁maíz
▁biométricos
▁escolares
▁desigual
▁52
▁xx
▁josé
▁aumentos
▁espalda
▁oliva
mañana
▁sinergia
ningún
▁drama
▁pierde
▁dirigente
▁méritos
sea
▁oms
▁domingo
▁multitud
▁pesquerías
▁crespo
▁coincidencia
▁portavoz
▁órdenes
▁reflejo
9
▁preocuparse
▁asociado
▁estándar
▁ajusta
▁timor
▁informáticos
▁restrictiva
▁votando
▁funcionario
▁importantísimo
▁mirada
▁encontraba
▁pudieron
▁sujetas
▁progresado
▁autorregulación
▁cia
▁—
▁referiré
▁saludo
▁creíbles
▁heridas
▁sale
▁moderación
▁interrupción
▁fuga
▁prestigio
▁empiece
▁propiamente
ahí
▁situado
▁debatió
▁periodos
▁ilustra
▁ignora
▁fundadores
▁obtengan
▁signos
▁intervenga
▁proveedor
▁ancianos
▁dedica
▁salen
▁vulnerable
▁sabrá
▁valientes
▁proporcional
▁emigración
▁boca
▁lingüísticas
▁confirmó
▁recogidos
▁operativas
▁causando
▁internacionalmente
▁emigrantes
▁mediodía
▁separar
▁reclama
▁amenazada
▁decidimos
▁cuenca
▁salga
▁club
▁sentidos
▁interferencia
basta
▁conductor
▁desempeñe
▁gestiones
▁femenina
▁rige
▁preliminar
▁ecr
▁aspirar
▁sostener
▁estuvieron
▁agradable
95
▁usuario
▁soberanos
▁coelho
▁malaria
▁rehenes
▁atómica
▁mejoran
▁respectivamente
▁ejerciendo
▁juncker
▁adjudicación
▁liquidez
▁importadores
▁quedarán
▁apuesta
▁sacado
▁amenazados
▁colaborado
digo
▁cruel
▁convencimiento
▁excesivos
significa
▁lesiones
▁embarcaciones
▁responden
bajo
▁dictaduras
▁protegidas
▁usos
▁candidatura
▁escrutinio
▁rigurosas
▁entretanto
▁completado
▁simbólico
ambas
▁extendido
▁oostlander
▁burundi
▁regulado
▁creencia
▁registrados
▁sectorial
▁situ
▁dedicada
▁sinceridad
▁escapar
▁darán
▁finalice
▁legado
▁caracterizado
▁milosevic
▁aduaneras
▁posesión
▁hipótesis
▁acordadas
▁evitado
▁entrará
▁delors
▁ético
▁maquinaria
▁asegurarle
▁innecesarias
▁dosis
▁simplificado
▁demográficos
▁bangladesh
—
▁hablaba
▁impida
▁tragedias
▁mitigar
entretanto
▁reconozcan
▁sostiene
▁reproducción
▁brazos
▁introdujo
▁supuestos
▁contable
▁sacrificios
▁swift
▁ulterior
▁dispongamos
▁españolas
▁sabrán
▁cuidar
▁visitantes
▁noventa
▁exprese
▁apoyada
▁pacíficos
▁polémica
▁ejercida
▁reguladoras
▁artes
▁aeronaves
▁retire
▁consecuente
▁ineficaz
▁elegida
▁auspicios
▁introduzca
▁reclamación
▁comience
▁informada
▁ayudarán
▁aumenten
▁lentitud
▁monetarias
▁conversión
▁minimizar
▁franja
▁resumir
▁refugiado
▁parciales
▁capitalista
▁comporta
▁derogación
▁mauritania
▁yemen
▁representada
▁amenazan
▁deslocalizaciones
▁david
▁interlocutor
▁claves
▁liikanen
▁medina
▁ayudaría
01
▁historial
▁apreciación
▁contemplan
▁excepcionalmente
▁acordados
▁reanudación
▁gratuita
▁pasó
▁iglesias
▁celebren
▁interino
▁papeles
▁lujo
▁figurar
▁raras
▁ochenta
▁deslocalización
▁racistas
▁catorce
▁sabiendo
▁atraviesa
▁armonizado
▁atmosférica
▁excedentes
▁dejarse
▁renuncia
▁hectáreas
▁confirmación
▁debiera
▁resuelva
▁prestige
▁complementarios
▁contribuiría
▁famoso
▁lleguemos
▁admisible
▁calcular
▁desafortunadamente
▁contables
▁angola
▁pongamos
▁británicas
▁indemnizaciones
▁enteramente
▁falso
▁neoliberal
▁literalmente
▁fuimos
▁donaciones
▁asiáticos
▁abejas
▁nabucco
▁satisfactoriamente
▁injerencia
▁cuántos
▁solidaria
▁intimidación
▁inadecuado
▁amnistía
▁bancarias
▁evans
▁griegas
sigue
▁galicia
▁simpatía
▁encaminados
▁sindicales
▁raza
▁130
▁creencias
▁determina
▁estrechos
▁enfrentamientos
▁kyi
▁absorción
▁digitales
▁produjeron
▁concerniente
▁neerlandeses
▁violenta
▁sesenta
▁confirman
▁locas
▁aprobaron
▁provocando
reconozco
▁dispongan
▁jacques
▁logrados
▁limitarnos
▁bovino
▁temen
▁diseñado
▁negociadores
▁macroeconómica
▁perfil
▁radiactivos
▁96
▁fórmulas
▁interacción
▁préstamo
▁porqué
▁conducen
▁formula
▁fontaine
▁ó
▁configuración
▁podíamos
▁directores
▁trabaje
▁revise
▁concluya
▁bancaria
▁rentables
▁desproporcionada
▁fructífera
▁bonino
▁drásticamente
seguimos
▁proporciones
▁absurda
▁consistir
▁probabilidad
▁entienden
▁basilea
▁belgas
▁recogen
otras
▁autobús
▁contractuales
▁software
▁beneficiarán
▁somete
▁contado
▁incumbe
▁confiere
▁fronterizo
▁and
▁contractual
▁constatado
▁referir
▁suponga
▁dieta
▁costos
▁recuerde
▁integrados
▁evasión
▁ordenador
▁entregar
▁observo
▁originales
▁delicadas
▁dividida
▁rebeldes
▁aduanero
▁imperialistas
▁postal
▁facultades
▁planificar
▁retroceso
▁combinado
▁periódicamente
▁incompatible
▁venideros
▁natalidad
▁presionando
▁calificaciones
▁codificación
▁mortales
▁antiterrorista
▁doméstica
▁repatriación
▁amplíe
Únicamente
▁termine
▁alimentarias
▁apuntan
▁equivalentes
▁extiende
▁cruz
▁hábitos
▁domésticos
▁suu
▁agradeciendo
▁traer
▁decenio
▁53
▁concentrarnos
▁aceleración
▁normativo
insisto
▁alcanzarse
▁abanico
▁certificado
▁nielson
▁otorgado
▁introducen
▁decididos
▁practicar
▁cartera
▁matrimonio
▁encargada
▁estuvieran
▁tejido
▁iban
▁recordamos
volviendo
▁indiscutible
▁tomemos
▁protestar
▁italianas
▁imponiendo
▁atrocidades
▁amistad
▁limitaré
▁desplazamientos
▁constituya
▁temporalmente
▁aplaudir
▁educativas
▁ilusión
▁atenas
▁justifican
▁derivado
seamos
▁tiendas
▁generosidad
▁ocurrirá
▁refiriendo
▁caras
▁reina
▁sabía
▁relanzar
▁vano
▁obesidad
▁acorde
▁gasta
quienes
▁asalariados
ellos
▁tranquilizar
▁florenz
▁música
desafortunadamente
▁divergencias
▁eléctrica
▁rumano
▁unilaterales
▁verhofstadt
▁decenios
▁socioeconómico
▁suscribir
segunda
▁advertencias
▁fomente
▁ríos
▁obtuvo
▁secundaria
▁nepal
▁multilingüismo
▁dúmping
▁dimas
▁aplicados
▁bomba
▁surjan
▁mostró
▁aspira
▁ford
▁climáticos
▁ppc
▁ingeniería
▁logró
▁navegables
▁inicie
▁envió
▁ponemos
▁gozar
▁concretar
▁observador
▁venden
▁situados
▁repita
▁dispuestas
▁delegados
▁garcía
▁hidrógeno
▁mama
▁obtiene
▁ankara
▁brevedad
▁construido
▁alivio
▁extraña
▁distribuir
▁instauración
▁km
▁actas
▁impresionante
▁congestión
▁clubes
&
▁bali
▁visibles
▁aplicarán
▁severas
▁detalladamente
▁municipales
▁agradecemos
▁92
▁logremos
▁2050
▁ofrecerles
▁secuestro
▁estudie
▁transitorias
▁atravesando
▁compras
▁correos
▁preguntamos
▁constituiría
▁transmite
▁euromediterráneo
▁globalmente
▁involucrados
▁robert
▁llamamos
▁rigurosos
▁aparato
▁excesivas
▁admite
▁comer
▁abordando
▁sáhara
▁nombrado
▁ocupando
▁faciliten
▁irá
supongo
▁ajustarse
▁adelantado
▁condenamos
▁diferenciación
▁significará
▁aprobarse
▁introducidas
▁asegura
▁sterckx
▁pilas
▁talibanes
▁protegerse
▁transmita
▁procedencia
▁condicionalidad
▁aparecer
▁destina
▁aptitudes
▁adecuación
▁necesiten
▁grados
▁exigentes
▁desleales
▁venga
▁elogio
▁proximidad
▁unilateralmente
▁chirac
▁amenazado
▁abarque
▁dijera
▁asequibles
▁islámicos
▁llevados
▁vieron
▁reestructuraciones
▁nocivos
▁proteccionistas
▁auténticos
▁valer
▁armonía
▁tarjetas
▁54
▁trece
▁reforzarse
▁controvertido
▁plantearnos
▁falsos
▁celebradas
aplaudo
▁teléfonos
▁comprometió
▁obligan
▁gales
▁horizonte
▁randzio
▁veterinarios
▁herencia
hablamos
▁queramos
▁alcancen
▁analizado
▁tóxicos
▁impaciencia
▁encarcelados
▁gana
▁calor
▁paralelamente
▁negligencia
▁vuelvo
▁contratar
▁rica
▁encuesta
▁facilitando
▁salvaguarda
▁deforestación
▁examinará
▁tsunami
plath
▁sinceros
▁suministrar
▁indique
▁definida
▁bangemann
▁calefacción
▁eslovaca
▁difieren
▁consideradas
▁reconoció
▁exija
▁portuarios
▁registrar
▁reconversión
▁difundir
▁problemático
▁alza
▁presentaremos
▁compran
▁procesamiento
▁trampa
▁solar
▁cox
▁daremos
▁caminos
▁mulder
▁exigente
▁desarrollada
▁aplausos
▁contrarios
▁coyuntura
▁ogm
▁aislado
▁lulling
▁logística
▁supuesta
▁umbrales
▁almunia
▁reparar
▁aspiración
▁imponga
▁íntegramente
▁vertidos
▁impuesta
▁sencillas
recordemos
▁veamos
▁mapa
▁extraordinarias
▁versiones
▁lejano
▁restituciones
presentación
▁cesar
▁introduzcan
▁previos
▁testimonio
▁procesales
▁salto
Éstos
▁permanecen
▁pescar
▁llegaron
▁solicitando
▁rechace
▁comenzando
▁invierno
África
▁protegen
▁volviendo
▁ricas
▁distancias
▁repetido
▁karas
▁protocolos
▁contradice
▁murieron
▁aprobará
▁cápita
▁exactitud
▁dificulta
▁plomo
▁vimos
▁aduana
▁funcionará
orden
▁hacerla
▁previsible
▁remediar
▁promedio
▁petroleros
▁ambigüedad
▁loable
▁v
▁renovado
▁dirigen
▁recibo
▁renovada
▁grasas
▁recepción
▁necesitará
▁generosa
▁finalizado
▁unirme
▁malentendidos
▁piel
▁designado
Él
▁sentirnos
▁redunda
▁osetia
▁óptima
▁gestores
▁aseguro
▁huellas
▁aprovechado
▁volveremos
▁prefieren
▁extremos
▁anuncios
▁subyacente
▁elaborados
▁ligera
▁tradicionalmente
▁expresiones
▁referimos
▁arabia
▁gitanos
▁gala
▁adquiere
▁acordamos
▁señalan
▁privilegiada
▁ausente
▁logrará
▁utilizamos
▁56
▁inclusive
▁emprendidas
▁recibirá
▁arresto
▁tailandia
▁significan
▁autopistas
▁orientar
▁próximamente
▁decidirá
▁mantengamos
▁vertido
▁nobel
▁rasero
▁paguen
▁eurodiputados
▁neutral
▁aung
▁rechazadas
▁conducirá
▁agricultor
▁acordada
aquellos
▁masivas
▁necesitaremos
▁porcentajes
▁automática
▁usando
▁berès
▁círculos
▁exclusivo
▁modifique
▁burocráticas
▁interrogantes
▁elaboró
▁estructurado
cuanto
▁pronunciar
▁defienda
▁dell
▁divergentes
▁aportará
▁carburantes
▁comprobación
▁ceca
▁deduce
▁protagonistas
▁suspendida
▁defenderse
▁lenta
▁convocar
▁ruptura
▁crearse
▁interesada
▁suplementario
▁rocard
▁castro
▁experto
▁soja
▁escepticismo
▁alturas
▁albaneses
▁incentivar
▁participando
▁termina
▁licitación
▁mostrando
▁basar
▁racionalización
▁critica
▁secciones
▁wallis
▁mitchell
▁110
▁planteamos
paso
▁provisionales
▁ordenamiento
▁frecuentemente
▁apelación
▁ejerza
▁controlado
▁conseguirse
▁centrada
▁encontremos
▁discriminatorio
▁arroz
▁lamfalussy
propongo
▁amor
▁presten
▁celebrarán
▁abra
▁expresan
▁soberana
▁sierra
▁océano
▁próspera
▁balanza
▁malentendido
▁compuesto
▁contempladas
▁ecosistema
▁agrada
▁permanece
▁provocó
▁vulnerabilidad
▁forzados
▁ubicación
▁aporte
▁concentraciones
▁costumbres
▁abstención
▁afirmativo
▁ejercido
constituye
▁extensa
▁singapur
▁afronta
▁satisfactorios
▁lagos
▁civilizaciones
▁traducir
▁promuevan
▁afrontan
▁intensiva
▁cashman
▁aclare
▁refuerzan
▁cliente
▁aclarado
▁voluntariamente
▁atractiva
▁decidieron
▁cisjordania
▁judíos
▁byrne
tres
▁denominadas
▁fronteriza
▁cuerpos
▁litigios
▁enemigos
▁azufre
▁daul
▁financiadas
▁morir
▁afectando
▁belgrado
▁vigo
▁h
▁cerebros
▁pesada
▁complementario
▁decisivos
▁centran
▁dedo
▁razonamiento
▁confrontación
▁promueven
▁cercana
▁dilema
▁anima
▁explique
▁respetarse
▁quedaron
▁correspondencia
▁examina
▁temprano
▁totales
▁medias
▁traten
▁neumáticos
▁militarización
▁mostrarse
▁reservado
▁di
▁gasolina
▁58
▁existían
▁bonos
▁prisa
▁multilateralismo
▁destruido
▁preocuparnos
▁especificaciones
▁violan
▁condenas
▁externo
▁reconociendo
▁volatilidad
▁físico
▁ortega
▁afecte
▁protegido
▁cubiertos
▁cuento
▁reaccionado
▁controla
▁centenares
▁tibetanos
▁requerirá
▁invitados
▁escuchamos
▁57
▁ordenadores
▁facto
▁dedicadas
▁obtenga
▁fomentan
▁comparable
▁condolencias
▁agradecería
▁proporcionada
▁aclaraciones
▁mejorada
▁financia
▁provocada
▁radiación
▁doctrina
▁prematuro
▁realizará
▁dotado
▁sabiduría
▁hipócrita
▁formato
▁fumar
▁rompuy
▁wynn
▁jugadores
▁revelado
▁resuelve
▁indiferencia
▁preguntan
veo
▁ganancias
▁nacionalistas
▁rey
▁coordinadas
▁ofensiva
▁máximas
▁hezbolá
▁considerandos
▁relanzamiento
▁marginación
▁revelan
▁respetuosos
▁drástica
▁audiencias
▁proponía
▁trastornos
▁convivencia
▁policías
▁creamos
▁transeuropea
▁fuere
▁municiones
▁existencias
▁calzado
▁sustituye
▁saneamiento
▁jordania
▁abarcan
ª
▁unen
▁pretendo
▁analizando
considerando
▁sucesivas
▁acordaron
▁razonablemente
▁fuesen
▁reasentamiento
▁asesinado
cos
▁agrario
▁solas
▁empiezan
▁dictámenes
▁contemplado
▁respetuoso
▁biológicos
▁dedicados
▁reforzará
cualquiera
▁feira
▁usa
▁rechazan
▁bowis
▁pragmática
▁titulado
▁contengan
▁chantaje
▁asegurando
▁prisiones
▁bancarios
▁plataformas
▁amianto
▁sello
▁trató
▁causada
▁físicas
▁incineración
▁contento
▁evite
▁evitarse
▁pieza
▁magnífica
▁valiosas
▁punta
▁designar
▁ejes
▁bosque
▁hábitats
▁definen
▁prepara
▁intermedio
▁plus
▁equipamiento
▁afán
▁cairo
▁66
▁constituciones
▁contenga
▁surgió
▁prudentes
▁calma
▁lampedusa
▁acumulación
▁reglamentaciones
▁anticipada
▁muestren
▁plurianuales
▁clandestina
▁cristianas
▁mediana
▁socioeconómicas
compartimos
▁expedición
▁asociada
▁supuso
▁prestarse
▁racial
▁inmenso
▁respaldamos
▁solemne
▁borde
▁síntesis
▁sanos
▁velzen
▁confundir
▁calificar
▁herman
▁respondió
▁minerales
▁partículas
▁cachemira
▁unificado
t
▁apelar
▁crudo
▁traído
10
▁exigirá
▁inglesa
▁dados
▁99
▁medición
▁sano
▁consolidada
▁persistente
▁excluido
behrendt
▁uzbekistán
▁oslo
▁escribir
▁elaborada
▁escucha
▁actuamos
▁titular
▁concebido
▁tropicales
▁ozono
▁kaliningrado
▁pautas
▁armonizadas
▁desastrosas
▁jerarquía
▁ambigüedades
▁pronta
▁estrechas
▁oculta
▁transmitido
▁socava
▁formada
▁quiénes
▁complementariedad
▁103
▁prevalecer
▁abriendo
▁enviando
▁indicio
▁municipios
▁torturas
▁forzada
▁cuenten
▁protagonista
▁dividido
▁recíproca
02
▁kirguistán
▁propósitos
▁constatación
▁cuestiona
▁continental
unas
▁empresario
▁eliminando
▁interrumpida
ninguna
▁post
▁diariamente
▁comprendan
▁unan
▁novedad
▁harinas
▁esperábamos
▁rübig
▁1980
▁cardiff
▁copa
▁invenciones
▁encuestas
▁langen
▁pondría
▁unificada
▁juega
▁imposibilidad
▁redoblar
▁llevaron
▁comprenden
▁urbanos
▁senda
▁apruebo
▁sábado
▁acogerse
▁bandos
▁63
▁capacitación
▁desempeñará
▁inconvenientes
▁establecimientos
▁desesperación
▁horarios
▁daphne
▁supervisor
▁facultad
▁armonizada
▁abismo
▁abordamos
▁opinamos
▁interesan
▁dividir
presidenta
▁hallamos
▁velocidades
▁fortuna
acuerdo
▁john
▁invirtiendo
▁tejidos
▁tic
ruego
▁socioeconómica
▁declarada
▁competición
▁quo
▁consideraba
▁establecerá
▁tendré
▁impulsado
▁proviene
israel
▁aseguren
▁aunar
sur
▁puestas
▁envíe
▁telefonía
▁quedando
▁pragmático
▁praga
▁endeudamiento
▁operador
▁negarse
▁frágiles
▁informó
▁facilidades
▁fiel
▁garantizados
▁matar
▁intermediarios
▁johanesburgo
▁imperialista
▁saudí
▁dependiendo
▁renacionalización
▁tripulación
▁provocados
▁tratadas
▁oídos
▁mando
▁piense
▁continuas
▁indudable
▁pusieron
▁potente
▁beneficie
deberían
▁correcciones
▁fitosanitarios
▁selectiva
▁presenciado
tales
▁nórdicos
▁afirmando
▁brillante
▁informa
▁receta
▁eta
▁palestinas
▁eléctricas
▁aviar
▁Špidla
▁prescindir
▁inspiración
▁frentes
▁denuncias
▁implicarse
▁dignas
▁medicinas
▁prolongar
▁pertenecer
▁educativa
▁consumen
▁auditorías
▁misiles
▁subcomisión
▁eslovaco
▁sobremanera
▁ampliando
▁poderosos
▁cruzar
▁schreyer
▁contará
▁ocasionado
▁hacerles
▁conste
▁ignorando
▁percibir
▁tenerlo
▁discutimos
▁señalando
▁volvemos
▁celebran
▁reiterado
▁distribuidores
▁superación
▁usarse
▁horario
▁sacrificar
▁descartes
▁lácteo
▁orientales
▁trasfondo
▁conduzca
▁superan
▁ruedas
▁hospital
▁profundos
▁poderoso
▁demuestren
▁películas
▁recordemos
▁disturbios
▁contentos
▁mandatos
▁encarcelamiento
▁savary
▁depósitos
▁alarmantes
▁volvamos
▁setenta
▁extenderse
▁auténticas
▁coordinadores
▁prorrogar
▁labores
▁tóxicas
▁alcohólicas
▁alusión
▁complicadas
▁argentina
▁kurdo
▁décimo
▁flexiguridad
▁mercancía
▁seminario
▁fauna
▁dalai
▁exacto
▁componen
▁destacados
▁entienda
▁cónyuges
▁ola
señoras
▁inútiles
▁revés
▁equitativas
▁asem
composición
▁dramático
▁catálogo
sencillamente
▁pensaba
▁extinción
▁automático
▁paisaje
▁bolsa
▁62
▁sepamos
▁color
▁practican
▁agradecidos
▁sucederá
▁vistazo
▁representamos
▁mixta
▁soviético
▁represente
▁propiciar
contamos
▁recordando
▁contemple
▁tuviéramos
▁susceptibles
▁encontrarán
▁multinacional
▁comportamientos
▁contemplados
▁350
▁checos
▁montañosas
▁cacao
▁varían
▁informales
▁denominaciones
▁solvit
▁presentara
▁sugiero
▁reiteradamente
▁descentralizada
▁contrapartida
▁autónomas
▁inconveniente
▁ocupamos
▁colaborando
▁contraídos
▁interreg
▁incorpora
▁estancia
▁siguió
▁consagrado
▁aznar
▁aislados
▁fao
▁innecesariamente
500
▁tranquilidad
▁esquema
▁preliminares
▁ascienden
▁deliberada
▁ilusiones
▁humo
▁netos
▁engañosa
▁retira
▁forzar
▁horizontales
▁concedió
▁incorrecta
▁enteras
confiamos
▁derechas
▁dignos
▁leinen
lamentamos
▁lentamente
unos
▁promocionar
▁senado
▁persisten
▁objetividad
▁varía
▁receptores
▁impongan
▁apoyó
▁kazajstán
▁acompañamiento
▁impotencia
▁reutilización
▁factura
▁probar
▁valora
▁contingentes
▁basura
▁mutilación
▁recuerdan
▁revisiones
▁distribuido
▁orgullosa
▁tardado
▁penalizar
▁individualmente
gran
▁edades
▁subestimar
ga
▁reanudado
van
▁descontento
▁bajar
▁posponer
▁giro
▁costoso
▁lannoye
▁ratifique
▁ocupen
▁evita
▁blokland
▁austriaco
▁respondan
▁climáticas
▁americana
▁estimo
▁contraste
▁organizados
▁orientados
▁terceras
▁obstaculizar
▁cubierto
▁persuadir
▁decente
▁pronunció
▁ganarse
▁aprobara
▁acelerado
▁recomendado
▁pagados
▁bis
▁cine
▁ovino
▁vota
▁advertido
▁termino
▁densidad
▁imaginación
▁hilo
▁granjas
primera
▁reorganización
▁chipriota
▁manifestarse
▁perdieron
▁deprisa
▁vacuna
▁rodean
estados
▁kallas
▁vigencia
▁salgan
▁concedidas
▁denominador
▁válidas
▁masas
▁modalidad
▁consigan
alguien
▁farmacéuticos
▁satélites
▁ganadería
▁voluntarias
▁cuántas
▁anexos
▁financieramente
▁laguna
▁piedras
▁Árabe
▁provenientes
▁personalidades
▁restos
▁miel
▁apuntar
▁descartar
▁intervienen
▁decisivas
▁espiral
▁rothley
▁paternidad
▁escándalos
▁despido
▁desguace
▁felicitamos
▁escuche
▁hormonas
▁proporcionen
▁alpes
▁derrota
▁dictadores
▁gatt
▁tajani
▁colectivas
▁interrumpir
▁veterinario
▁pies
▁reivindicaciones
▁imponerse
▁transportar
▁93
▁temperatura
seguramente
▁concederse
▁marcada
▁extenso
frente
▁deseando
▁implicada
▁tienden
▁avanzadas
▁doyle
▁titley
▁asumiendo
▁aprobemos
▁inherentes
▁recibieron
▁rasgos
▁famosa
▁explorar
▁sol
▁francos
▁rango
▁tomaron
▁arbitraria
▁implicaría
▁pudiese
▁barbarie
▁dirija
▁baringdorf
▁denegación
▁groenlandia
▁disidentes
▁resultas
▁brindado
▁cualidades
▁acabará
▁presidido
▁prestada
▁solvencia
▁ratifiquen
▁corresponda
▁perseguidos
▁extienda
▁analiza
▁medioambiente
▁zu
▁hubiesen
▁complicados
▁limpios
▁vertederos
▁ludford
▁ignorado
▁máquinas
▁merluza
▁seae
▁especificar
▁detallados
▁incompatibles
▁norteamericanas
▁encontraremos
▁apoyemos
▁hidrocarburos
▁subir
▁ingresar
▁contraído
▁dotarse
▁bösch
▁artificiales
▁causadas
▁autoriza
▁elimina
▁trayectoria
▁cámaras
▁opt
▁provienen
▁neoliberales
▁traslados
▁gebhardt
▁kenia
▁constata
▁experimentan
▁concedan
▁ocurren
▁cualificado
▁concebir
▁óptica
▁aceptarlo
▁destacan
había
▁leona
e
▁pymes
▁adquirida
▁locura
▁electo
▁salmón
s
▁cabotaje
▁sirvan
▁separa
▁deseados
▁minucioso
▁mayoritariamente
▁guardiana
▁llaman
▁comunitarización
▁conseguidos
▁autónomo
▁violando
▁registra
▁dedicarse
▁celebraron
dichos
▁pésame
▁remitir
▁sufragio
▁millas
▁volveré
▁expresamos
▁traducido
▁indirectos
▁debidas
▁comprenda
ojalá
▁fundamenta
▁recibidas
▁primacía
▁expresados
▁agradecida
▁compuestos
▁graefe
▁premisa
▁alemanas
▁pasen
▁precoz
▁imparcialidad
▁contemos
▁separada
▁haarder
▁habilidad
▁resistir
▁adición
▁signatarios
▁cobrar
▁reunió
▁protejan
▁convencional
▁suelos
▁convirtió
▁superficies
▁sájarov
▁perfiles
▁alexander
▁ignorancia
▁manejar
▁óptimo
▁recibida
▁partidaria
▁cualesquiera
▁microempresas
▁crecido
▁horrible
▁empezamos
▁méndez
▁cabría
▁gravámenes
▁apoyos
▁discute
▁alma
▁prefiere
▁merced
▁cambien
▁cometidas
▁tenor
▁comprometan
▁tomarán
▁arena
▁moderado
▁firmaron
▁desechos
▁secundarios
▁interdependencia
▁dactilares
▁buitenweg
▁favorezca
▁cualitativo
▁contenida
▁correctos
▁pabellón
▁solicite
▁interpretarse
▁convocatoria
▁aviso
▁77
▁catalizador
▁inequívoco
▁respondiendo
▁congelación
▁piensen
respaldo
▁pierda
▁permanecido
▁divorcio
▁embarazo
▁mayoritario
▁incluía
▁encontrará
piensa
▁impulsando
▁habilidades
▁cristiano
▁aplicamos
▁diversificar
▁facturas
▁prohibida
▁irreversible
▁engaño
▁resolverá
▁continuarán
▁federalista
▁paralela
▁destinan
▁91
▁madurez
▁evaluado
▁clarificación
▁practica
▁procedo
▁deplorable
▁empobrecido
▁observando
▁tibetano
▁concedidos
▁párrafos
▁originalmente
▁sospechas
▁defecto
▁introducirse
▁caros
▁matanza
▁kurda
▁supervisores
▁culpar
▁incrementa
▁aprueban
▁enriquecimiento
▁alcanzan
▁repetición
▁estadístico
▁aparecido
▁suscitar
▁pareció
▁inversa
▁afecten
▁acercarse
▁provocará
▁zaire
▁financiando
▁dejarlo
▁lamassoure
▁caracterizan
▁manifiestan
▁centralizado
▁perjudicados
▁turísticos
▁copia
seguiremos
▁basándonos
▁pasamos
▁harían
▁informativa
▁antisemitismo
▁eurodac
▁cerradas
▁respaldada
▁67
▁alimento
▁modificarse
▁conversación
▁entiendan
▁maravilloso
▁honestos
▁provocación
▁múltiple
▁encomiable
▁costado
▁vería
▁insuficiencia
▁conozcan
▁salvaje
▁izquierdo
▁reúnen
▁cooperaciones
▁increíblemente
▁900
▁enfrentamiento
▁escocés
▁izquierdas
▁suprimido
▁cooperando
▁malestar
▁iría
▁firmados
▁simbólica
▁debata
▁optimistas
▁prestará
▁racista
▁escaño
▁asumen
▁presidir
▁vocación
▁quedarnos
▁pierdan
▁estereotipos
▁racionalizar
▁magreb
▁59
▁registradas
▁inscribe
▁collins
▁unesco
▁aprovecho
▁predecesor
▁paradoja
▁discrepancia
▁soportan
▁preventivo
▁costera
▁divulgación
▁problemáticas
15
▁funcional
▁inventario
▁denunciado
▁incorpore
▁indicativo
▁mantuvo
▁añadiría
▁estuvimos
▁emplearse
▁remonta
▁guiar
▁regulada
▁reemplazar
▁subsahariana
▁corredores
▁masacre
▁precaria
▁ultramar
▁dramáticas
▁moda
▁forme
▁cheque
▁incertidumbres
▁diligencia
▁animado
▁ira
▁pacíficas
▁imperativos
▁asumidos
▁hautala
▁polo
▁normalidad
▁uganda
▁caladeros
▁farmacéuticas
▁facilitan
▁compuesta
▁entregado
▁cambian
▁explosión
▁circulan
▁abrumadora
▁farsa
▁controlan
▁bovina
▁racimo
▁puentes
▁expresarle
▁tremendamente
▁turkmenistán
▁escépticos
▁erosión
▁confederación
▁rectificar
▁ganan
▁enfrentar
▁apoyarse
▁retrasado
▁aprovechan
▁necesito
▁silvestres
▁obvia
▁urge
▁cambiará
▁condenada
▁aceptarse
▁afgano
▁data
▁encargadas
▁adquisitivo
▁trágicas
▁situada
▁salafranca
▁prevalece
▁necesitados
▁administrar
▁talento
▁consisten
▁fijo
▁64
▁próspero
▁corral
▁aprecia
hubo
▁valiosos
▁dopaje
▁fumadores
▁subvencionar
▁gastan
▁escasas
▁despilfarro
▁realizamos
▁reglamentarias
▁marinas
▁flora
▁comprometa
▁árboles
▁comprendemos
▁enfrentado
▁admiración
▁táctica
▁pánico
▁buscado
▁modesto
▁turística
▁anuncia
▁reducidas
▁favorecen
▁eventual
▁añada
▁desmantelar
▁dieciocho
▁ideológico
▁objetos
▁lingüístico
▁granjeros
▁trichet
▁mencione
▁apostar
▁86
▁suyas
▁fabricar
▁sencillos
▁parque
▁espectacular
▁nacido
▁repartir
▁adaptaciones
▁miramos
▁reúna
▁crearía
▁bloqueado
▁puro
▁acompañados
▁cerdos
▁ordinario
▁Ámsterdam
▁weber
▁autorizadas
▁sustituido
▁oleada
▁defina
▁fijamos
▁aborden
▁costosa
▁convincentes
▁lucro
▁interviene
▁abrirse
▁llenar
▁subsistencia
▁equilibradas
▁anulación
▁rumores
▁reitero
▁empeorar
▁desearíamos
▁atribuir
▁satisfactorias
▁preferiría
▁separados
▁aproveche
▁acompañar
▁negociador
▁concertada
▁incorporen
▁kofi
▁productivas
▁biológicas
05
▁cubano
▁armado
▁protegida
▁visitó
▁volvió
▁trámite
▁theato
▁habitualmente
▁homologación
▁agrarias
▁excluidas
▁negación
▁gitana
▁patria
▁opera
▁arrogancia
▁cabezas
tomo
▁minsk
▁andersson
▁experimentar
▁ferber
▁masivos
▁blanca
▁reactivación
▁comparativa
▁vacías
▁cites
▁respalde
▁controlados
▁irresponsabilidad
▁eléctrico
▁valoro
▁hubiésemos
▁tac
▁contradictorias
▁dijimos
▁entrevista
▁frassoni
▁sócrates
▁ciencias
▁reclaman
▁confía
▁sajarov
▁crowley
▁prohibidas
▁rodea
▁malasia
▁trae
▁inmediatos
▁quedaría
▁ideológica
francia
▁encuentros
▁98
▁elogios
▁tributo
▁objetivamente
▁usado
▁financiarse
▁debilitamiento
▁inscritos
▁temática
▁universitarios
▁embarazadas
▁utilizará
▁rector
▁constitutivo
▁horror
▁refuercen
▁tripartito
▁debilita
▁bonn
▁asesores
▁cortos
▁costo
▁reconocerlo
▁derogaciones
▁capa
▁detectado
▁salvaguardias
▁espectáculo
▁76
▁totalitario
▁totalitarismo
▁probado
▁comisionado
▁creativas
▁colonial
▁propusimos
▁involucradas
▁promovido
▁intentemos
▁optimizar
▁fundamentalistas
▁poderosa
▁pandemia
▁continuos
▁concedemos
▁omisión
▁concediendo
▁favorecidas
▁progresivo
▁tomarnos
▁tributación
▁contenía
▁ovejas
▁posibilitar
▁mayoritaria
▁intensas
▁atrevo
▁derivada
▁asesinos
▁innegable
▁calificado
▁presupone
▁137
posteriormente
▁difiere
▁desaparecidos
▁finalización
▁contestado
▁vendrá
▁aislada
▁credenciales
▁sir
et
▁cargar
▁dirá
▁centralizada
▁guste
▁delictivas
▁casco
▁guatemala
▁darme
▁etnia
▁apreciado
▁honesto
▁debilidades
▁controvertida
▁enmendar
▁consiguiendo
▁doméstico
▁pesticidas
▁regulados
▁rebajar
▁acusa
▁reiteradas
▁salvajes
▁científicamente
▁viejas
▁generará
▁pirker
▁dietas
▁mantenernos
▁sucesivos
acabo
▁acometer
▁escrúpulos
▁concluyó
▁sobra
▁superestado
▁remito
quería
▁consultivos
▁involucrar
▁pnb
▁fluctuaciones
▁dayton
▁entenderse
▁despertar
▁intelectuales
▁anular
▁klaus
▁productivos
▁debatirá
▁repite
▁financiada
▁repetirse
▁reunidos
▁merecido
▁aumentarán
dejemos
▁típico
▁reduciría
▁representadas
▁laboratorios
▁exentos
quieren
▁experimentación
▁cubren
▁llevarnos
▁emitió
▁cooperen
▁mozambique
▁incitación
▁moderados
▁estupefacientes
▁eurogrupo
▁82
▁subrayo
▁impliquen
▁montón
▁rigurosamente
▁elementales
▁68
siento
▁opinan
▁creativa
▁valle
▁aspiran
▁dudar
▁monnet
sabe
▁morillon
▁directivos
▁continuaremos
▁acompaña
▁esterlinas
°
▁94
situación
▁especuladores
▁fijan
▁reguladora
▁internamente
▁versa
▁atribuye
▁alegaciones
▁oportunamente
▁afrontamos
▁residuales
▁gestionado
▁desplazarse
▁decreto
▁chequeo
▁codo
▁incluyera
▁exitosa
▁impidan
▁remitido
cuánto
▁tormenta
▁fructífero
▁enseguida
▁manifiestamente
irlanda
▁divisas
▁sinceras
▁compatriotas
▁te
▁intenten
▁eventos
▁surja
▁olvida
▁abstenernos
▁engañar
▁especificidad
▁destruyendo
▁veredicto
▁hans
▁elimine
▁450
▁recordarán
▁medianos
▁estupendo
▁atraviesan
▁llegara
▁drásticas
▁apuntado
▁curar
▁jackson
▁suplementaria
▁1988
▁dista
▁intentó
▁duros
▁tratada
▁pasadas
▁encantada
▁lucas
▁consolidado
▁prolongación
▁harina
▁61
▁ruanda
▁separadas
▁anticipar
hablando
▁howitt
▁azucarera
▁percibe
▁preferente
▁ocasionar
▁traducirse
▁solidez
▁impidiendo
▁leader
▁sitúan
▁moverse
▁creía
▁socialdemócrata
▁abogar
▁formen
▁hicieran
▁pasión
▁experimento
▁extensiva
▁protegiendo
▁informará
▁contingente
▁discriminatorias
▁airbus
▁extremas
▁sánchez
▁sancionar
▁regalo
▁omi
▁prefiero
▁calendarios
▁resueltos
querría
▁necesitarán
▁pluralidad
▁creído
▁fomenten
quiere
▁curioso
▁78
▁imagino
▁amables
saben
▁cotidianas
▁tesis
▁aludido
▁someta
▁registran
▁89
▁persiguen
▁ramos
▁aprovechen
▁infección
▁verlo
▁gira
▁grano
▁vergonzosa
▁teme
▁adolescentes
▁finlandés
▁reintegración
▁infantiles
▁situarse
▁aprovecharse
▁agravado
▁resuelvan
▁anunciada
▁emergencias
▁filipinas
▁genéricos
▁johannesburgo
▁conllevan
▁adquieren
▁aumentaría
▁buscamos
▁influyen
▁península
▁intentaré
▁excesos
▁especulativos
▁cultivar
▁académico
▁permitirles
▁remotas
▁supere
▁orgánicos
▁fundaciones
▁medicamento
▁piebalgs
▁historias
▁confirme
▁destruye
▁trabajadora
corresponde
▁emita
▁repitan
▁dialogar
▁instado
▁abandone
▁consideremos
▁venimos
▁eritrea
▁discriminatoria
▁formuló
▁macrofinanciera
▁serbio
▁tender
▁cercanos
▁instante
▁concurso
▁to
▁reflejen
▁business
▁contradictorios
▁empeorado
▁agradece
▁honestidad
▁asequible
▁permitimos
▁fracasos
▁desesperadamente
▁presidencial
▁identifica
▁whitehead
▁deportes
▁eurobarómetro
▁:
▁permitiera
▁resaltado
▁deseada
▁lanzó
▁oponernos
▁recordarlo
▁restringido
▁cerrados
siendo
▁negociadora
▁botella
▁identidades
▁viento
▁desempeño
▁comprensibles
▁nassauer
▁liberado
▁fava
▁teherán
▁importan
▁remolacha
▁fischer
▁abjasia
▁contrariamente
▁vacíos
▁implicará
▁intensos
▁pop
▁ejercicios
marco
▁fabricados
▁presento
▁océanos
▁históricamente
▁elaboren
▁resumidas
▁armada
▁prestados
▁avanzamos
▁modifican
▁liese
▁pan
▁alterar
▁cuantitativos
▁listo
▁citada
▁martens
▁atenerse
▁insulto
▁irregular
▁duplicar
▁daré
▁resuelta
▁ramas
▁suponía
▁aisladas
▁especifica
▁investigue
▁secundario
▁cooperativas
▁complicaciones
▁combinada
▁llevaría
▁respetamos
▁hablaré
▁mantuvimos
▁recurriendo
▁nacionalista
▁alianzas
▁postre
▁modificadas
▁pabellones
▁socioeconómicos
▁berg
▁alegramos
▁agradecerles
▁institutos
▁metales
▁consumir
▁textualmente
▁carreras
▁respetados
0
▁huir
▁plenos
▁vicioso
▁belder
▁pedí
▁biogás
feag
▁stream
▁goebbels
▁encierra
▁mueve
▁aprobando
▁aparente
▁iniciarse
▁pronuncie
▁agrupaciones
dice
▁totalitarios
▁concentra
▁justificados
▁inspira
▁71
▁válidos
▁preámbulo
▁negó
▁listos
▁categóricamente
▁organizarse
▁actualizada
▁estrechar
▁cancelación
▁café
▁gasóleo
▁oponentes
▁nutricionales
estaría
▁informática
▁distribuida
▁regule
▁autorizada
▁centralización
▁grossetête
▁act
▁perciben
▁ejecutiva
▁solicitante
▁filas
▁aislar
▁sostienen
▁variable
▁disminuye
▁echelon
▁desesperada
▁complacido
▁estaciones
▁afganos
▁pesd
correcciones
▁guardar
▁cuestores
▁frío
▁1986
▁euroescépticos
▁agilizar
▁invierten
▁retirarse
▁recaudación
▁defiendo
▁dificultan
▁adaptado
▁demostrada
▁cobro
▁liberalizado
▁tope
▁jubilados
▁localización
▁turismos
ucrania
▁sugieren
▁inconcebible
▁reafirma
▁récord
▁sueños
▁reagrupación
▁titulada
▁jugando
▁subyace
▁apreciamos
▁ceremonia
▁72
▁lealtad
▁legítimamente
▁pacíficamente
▁consistía
▁complicidad
▁arranque
merece
▁auditores
▁austríaco
▁macroeconómicos
▁controversias
▁prevea
▁rara
▁meras
▁esconde
▁aclara
▁napolitano
▁felicitarnos
▁comprometernos
▁so
▁vivan
▁creadas
▁asistimos
▁escribió
▁cometiendo
▁preparadas
▁divide
▁especializado
▁montañas
▁trakatellis
▁mentes
▁fatuzzo
▁itinerancia
sr
▁encontraban
▁examinen
▁importantísima
▁máquina
▁vengan
▁singular
▁leonardo
▁suspendido
▁evalúa
▁adoptara
▁combustión
▁minoritarios
▁alcalde
▁reconciliar
▁vencer
▁negociada
▁interminable
▁coincidir
▁convenientemente
▁sueldos
▁eurocontrol
▁incrementando
▁destacada
out
▁140
▁estaré
▁agravar
▁capitalistas
▁inquietante
▁explícito
▁sustento
▁virtual
▁presentarán
▁artesanal
▁subsanar
▁hughes
▁javier
▁nacionalidades
▁huevos
▁necesite
▁cappato
▁matriculación
▁citados
▁alcanzará
▁necesitar
▁geográficos
▁interregional
▁equilibrios
▁paneuropeo
▁dejarán
▁ponerlo
▁precario
▁generando
▁progresando
▁estatutos
▁mataderos
▁mckenna
▁ardua
▁escoger
▁luchas
▁disminuyendo
▁nominales
▁culto
▁terrestre
▁inhumano
▁vulneración
▁plaza
▁neto
▁aarhus
autora
▁requerido
▁distinguidos
▁perjudican
▁femenino
▁bastan
▁suena
▁tardía
▁necesitaba
▁olvido
▁pensemos
▁resalta
▁extra
▁aceptando
▁desastrosa
▁génova
▁brotes
▁nitratos
bueno
▁culminación
▁ejecutivos
▁colegislador
▁apoyarlo
▁persiste
▁estriba
▁suceso
preguntas
▁sensatas
▁ejecutivas
▁gibraltar
▁abstenerse
▁pvc
▁lamentables
▁embajadas
▁asumió
▁superávit
▁billete
▁distinguido
▁generados
▁haug
▁eólica
▁lácteas
▁búlgaros
▁modesta
▁reflejada
▁amable
▁enseñanzas
▁87
▁controle
propuesta
▁físicos
▁romano
▁rostro
▁conectar
▁males
▁producida
▁pretenda
▁plaga
▁mentales
▁predecir
▁irlandesas
▁eviten
▁comienzan
▁eventuales
▁asesinadas
básicamente
▁abandonados
▁desafortunado
▁turcochipriotas
▁participó
▁prepararnos
▁perú
▁cotizaciones
▁elite
▁eurobonos
▁mundus
▁firmantes
▁inevitables
▁calculado
▁enviados
▁indicó
▁vacía
▁tratara
▁latinoamérica
▁inadecuadas
▁expresaron
▁trascendencia
▁contando
▁excusas
▁incrementos
▁analizamos
▁recíproco
▁banderas
▁logren
▁atrevería
▁ilícito
▁secreta
▁retiren
▁orígenes
▁representativa
▁minoristas
▁81
▁liberalismo
▁revista
▁albanesa
▁obligue
▁musulmán
vemos
▁tristeza
▁efectuadas
▁juegan
apertura
▁bagdad
▁crueles
▁deportistas
▁sacconi
▁navales
▁eeuu
▁alejadas
25
▁contradictorio
▁especializada
▁facilitada
▁continuamos
▁médicas
▁compartidas
▁clásico
▁profesionalidad
▁generoso
▁llevarán
▁entrando
▁sjöstedt
▁reitera
▁tobin
▁honorable
▁licitaciones
▁desestabilización
▁george
▁invierte
▁pareja
▁organizadas
▁transitoria
▁papa
▁adversos
▁psicológica
▁seleccionar
▁transdniéster
▁kroes
▁dedique
▁fije
▁adoptarán
▁vigilantes
▁recopilar
▁pesado
▁desbloquear
▁acertadas
demócratas
▁conciernen
▁laboratorio
▁docenas
▁laboristas
▁falsificaciones
▁emprenda
▁secretas
▁tenacidad
▁manifestando
▁memorando
▁schroedter
▁habitante
▁adapten
▁establecieron
francamente
▁mantendremos
▁emoción
▁notas
▁archivos
▁divisa
▁debatirse
▁lange
▁situadas
▁choque
▁contaminados
▁puntual
▁logran
▁ensayo
▁juveniles
▁ofrecemos
▁motivado
▁provechoso
▁empecemos
▁clinton
▁tomara
▁empleando
▁edimburgo
▁comprenderá
▁plenarias
▁lee
▁asunción
▁tácticas
▁fieles
▁saldrá
▁minuciosamente
▁volar
▁elemental
▁mediador
▁solucionado
▁representará
▁varsovia
▁igualitario
▁rúbricas
▁becas
▁suicidas
[
▁dirán
indudablemente
▁aceptados
▁resultaron
▁admitido
▁fiscalía
▁frases
resumiendo
▁holanda
▁recalcado
▁beneficiaría
▁objetivas
▁imprescindibles
▁69
▁injusticias
▁helms
▁inestable
▁genere
huelga
▁rasmussen
▁destinatarios
▁rte
▁ingente
▁stalin
▁violentas
▁wurtz
▁colmar
▁nace
▁97
▁votarán
▁bombardeos
▁elles
▁enfatizar
▁esclavos
▁secuestros
▁centrará
▁facilitaría
▁trasladarse
▁agresiones
▁problemáticos
▁nocivas
▁concentrado
▁seguidores
▁supermercados
▁embajadores
▁creyendo
▁búlgaro
▁genital
▁insignificante
▁guardan
▁controladas
▁calurosamente
▁atlántica
▁veterinaria
▁staes
▁santa
▁intentaremos
▁rechacen
▁enseñado
▁deficiencia
▁habernos
▁encargarse
▁promete
▁ocupará
▁reactor
▁aconsejable
▁mafia
solicito
▁colectivamente
▁sindical
▁k
▁ojo
▁tannock
cierre
lv
▁anoche
▁llevo
▁comparecencia
▁formule
▁non
▁hambruna
▁for
▁austríaca
▁holocausto
▁urnas
▁transformaciones
▁identificados
▁transponer
▁fijarse
▁desagradable
▁realizaron
▁bolsillos
▁enérgicas
▁acompañadas
▁primario
▁muchísimas
▁giscard
▁felicita
▁ajena
▁privilegiado
▁coloca
▁plantilla
▁hídricos
▁fijadas
▁anna
cuarto
▁serviría
▁solidario
▁auténticamente
▁cortesía
▁susceptible
▁abstenerme
▁decidirse
▁preparatoria
▁distrito
▁abren
política
▁108
▁injustamente
▁macroeconómicas
▁corredor
▁abran
▁rendición
▁observan
▁duff
▁firmen
▁tony
▁jensen
▁turmes
▁descendido
▁eventualmente
▁dictar
▁configurar
▁afluencia
▁debilitado
▁telefónicas
▁dimisión
▁pusiera
▁incorrecto
saludo
▁satisfaga
▁opositores
▁mentiras
▁introducidos
▁existirá
▁dr
▁caudron
▁durado
▁preveía
▁actuemos
▁desplegar
▁abandonen
▁reúnan
▁propondrá
▁refiera
▁fomentará
▁pasivo
▁schmidt
▁interinstitucionales
▁acaben
▁macroeconómico
▁firmada
▁talibán
▁roto
▁sustituya
▁cuestionable
▁diferenciar
▁sustenta
▁flynn
▁precauciones
▁mostrarnos
▁asegurará
▁hacerlas
▁beneficiosos
▁constituyó
▁hundimiento
▁anticipado
▁escape
▁llegaremos
▁reunimos
▁parto
▁extendida
▁reservar
▁causó
interrupción
▁+
▁sufran
▁pos
▁cinismo
▁brindará
▁quiso
▁rotación
▁contratantes
▁jornadas
▁logrando
▁alojamiento
▁contenta
▁martínez
▁gradin
▁iet
▁existiera
▁revitalizar
▁sufrió
▁dossier
▁dramáticos
▁definitivas
▁retroceder
▁traspaso
▁gollnisch
▁peaje
▁cadmio
▁79
▁guarderías
▁alimenticia
▁portuarias
▁1970
▁nicholson
▁consagrados
▁acostumbrados
▁kauppi
sinceramente
▁suave
▁liberados
▁visité
▁frecuencias
▁ligeras
▁tomlinson
▁rossa
▁vitivinícola
▁conozca
▁transportan
▁capas
▁oímos
▁morgan
▁reglamentaria
claro
▁ocasionados
▁permitirían
▁extraordinarios
▁emite
▁croata
▁debió
▁quitar
▁despierta
▁usados
▁respetuosas
▁espaldas
▁comprometen
▁divergencia
▁suyos
▁comercializar
▁prontitud
▁violar
▁cogeneración
▁breyer
▁empleadas
▁doloroso
▁notar
▁ajustan
▁propuse
▁influye
sigo
▁suscribo
▁adelantar
▁condenadas
▁compasión
▁ignoran
▁eliminarse
▁insisten
▁colonia
▁diarias
▁maniobras
▁dominado
▁ideológicas
▁latinoamericanos
▁mutuas
▁katiforis
▁añaden
▁costosos
▁xix
▁inicien
alba
▁adpic
▁adquiriendo
▁broek
▁vodka
▁opel
▁monterrey
▁progress
▁abandonan
▁agrava
▁gobernar
▁película
mucho
▁empeoramiento
▁abordará
▁repúblicas
▁persistentes
conocemos
▁fijó
▁sumar
▁producirán
▁sueldo
▁injustificada
▁valoramos
▁absorber
▁desearle
▁incluyó
▁cianuro
▁tabaquismo
▁evolucionar
▁familiarizados
▁marroquíes
▁trimestre
▁ueo
▁prematura
▁empiecen
▁disfruten
▁someterá
▁disipar
▁brutales
▁genes
▁peatones
▁exilio
▁elaboradas
▁simpson
▁markov
▁síntomas
▁representaría
reconocemos
▁trabajemos
▁homofobia
▁tramo
▁triunfo
▁perseguido
▁tratemos
▁entornos
▁privar
▁desastroso
▁mancha
▁añadiendo
▁ejecutado
▁unificar
▁parental
▁confían
▁arduo
▁budapest
▁uniformidad
▁aplicarlo
▁genuina
▁sindicato
▁holandesa
▁servirán
▁enfocar
▁exactos
▁restrictivo
▁embajada
▁transitorios
▁disfrutado
▁green
▁agresiva
▁iter
▁cunha
▁complementos
▁encarga
▁88
▁especializadas
▁temporada
▁publicará
▁iniciaron
▁fijos
▁cosecha
▁bando
▁aumentó
▁adquisiciones
▁traerá
▁fraga
▁redactada
▁bolsas
▁organizando
▁investigando
▁rotundo
▁orientarse
hablo
▁fracasar
▁inversor
▁detenidas
▁desproporcionado
▁diarios
▁meridionales
▁cortar
▁carburante
▁ribeiro
▁participará
▁senegal
▁injustas
▁refundición
▁motriz
▁bahía
▁autocar
▁inocente
▁deducir
▁cubiertas
▁agotamiento
▁ulteriores
▁preside
aprovecho
instamos
▁represivas
▁intergubernamentales
▁analice
▁columna
▁eliminen
▁llegados
▁ministerios
▁comparecer
▁llevarlo
▁determinan
▁ligada
▁preguntó
▁pondrán
▁volverán
▁ineficacia
▁constatamos
▁dificultar
▁padece
▁peajes
▁comunicarse
▁manual
▁angustia
▁tractores
▁burg
▁patata
▁acusar
▁encargue
▁contenedores
▁tenidas
▁debaten
▁presentarles
▁escandalosa
▁circunscripciones
▁conformes
▁diversa
▁reunirá
▁impuso
▁publicada
▁domicilio
▁solbes
▁integran
hacemos
▁polémico
▁sumarse
▁precariedad
▁1408
▁crearon
▁comparta
▁lancker
▁prosiga
▁nápoles
▁escritas
▁olvidarnos
▁encaja
▁debatamos
▁proteccionista
▁panel
▁sudanés
▁debatiremos
▁fármacos
▁qaeda
vicepresidenta
▁natal
▁ineficaces
▁thyssen
▁discutible
▁destruyen
▁delictivos
▁tripulaciones
▁franjas
▁imposibles
▁trazado
▁enérgico
▁ilegalidad
▁noble
▁tu
▁caballeros
▁erróneas
▁sras
▁migraciones
▁marín
burton
conforme
▁subidas
▁gramos
▁baratas
▁revisarse
▁prestadores
▁inmunidades
▁quisieran
▁exportador
▁reuní
▁acústica
▁organizó
▁reactivar
▁paneuropea
03
▁prepare
▁cae
▁severa
▁apéndice
▁disparidad
▁resultaba
▁negras
▁estambul
▁tocado
▁ligado
▁amabilidad
▁enumerar
▁insista
▁avanzan
acabamos
▁saco
▁recabar
▁armonizados
▁inherente
▁tirar
▁crueldad
▁tarifa
declaración
▁cultivadores
▁hermanos
▁diabetes
▁forzado
▁berd
▁clonados
▁diamandouros
▁participarán
▁afirmaba
▁gestionan
▁posteriori
▁caen
▁trampas
▁incoherente
▁indiferente
▁enseñar
▁demostrará
▁integre
ella
▁nombramientos
▁muros
▁simultánea
▁arbitrarias
▁satisfacen
▁echa
▁celebremos
▁rechazaron
▁rigidez
▁establezcamos
▁compartan
▁ejerzan
▁pasiva
▁tonelada
▁académicos
▁manuel
▁asigna
▁colocado
▁schuman
▁dureza
▁geopolítica
voto
▁indebido
▁croatas
▁fukushima
▁incendio
▁toque
▁divididos
▁olvidamos
▁dudoso
▁congelar
▁informativo
▁planteen
▁carente
▁perseverancia
▁avancen
▁signifique
▁traducciones
▁tratándose
▁fascismo
▁triple
▁davies
▁manejo
▁diamantopoulou
▁estragos
▁catastróficas
▁chipriotas
▁autoritario
▁minería
▁informativas
▁tregua
▁roure
▁variedades
▁comenzará
▁cepos
▁ucranianos
▁manifieste
▁mccarthy
▁diferenciado
▁cubra
apartado
71
▁arrojar
▁recuperarse
▁conduciría
▁decían
▁pidieron
▁perjudicado
▁avancemos
▁polvo
▁denegar
▁masacres
▁sensibilizar
▁coreper
▁acnur
▁provincias
▁atento
▁reestructurar
▁examinarse
▁ordenamientos
▁privatizaciones
▁intervengan
▁fse
▁der
­
▁dirigió
continuación
▁feder
▁reparos
▁ligeros
▁planteo
▁diseñada
▁asistiendo
▁infecciones
▁atribución
▁mayorías
▁apremiante
▁admisibilidad
▁incondicionalmente
▁matrimonios
▁fécula
▁buzek
▁alude
▁iniciada
▁financian
▁cajas
▁otorgue
▁comprobaciones
▁imponible
cuántos
▁suplementarios
▁170
▁microcréditos
▁protagonismo
▁financiaciones
▁73
▁debatida
▁formando
▁mortal
▁74
▁gabinete
▁campesinos
▁sucesor
▁variaciones
▁deficientes
▁respaldan
▁acreedores
▁convertirnos
▁hectárea
▁patentabilidad
▁borrell
▁lambert
▁liderar
▁campania
reanudación
▁gobernador
▁impensable
▁recoja
▁proclamar
▁utilizó
▁lacra
▁cosechas
▁violento
▁tememos
▁adaptada
▁colaboren
paralelamente
▁tocar
▁derroche
▁sufrimientos
▁destinos
▁suecas
▁estudiará
▁ti
▁reabrir
▁mirando
▁garantizarles
▁hacían
▁oaci
▁reforzadas
▁reinserción
▁facturación
▁decididas
▁pev
▁inicia
▁dejaron
▁ocupada
▁desfavorable
▁entera
observo
▁generosos
▁129
▁modestos
▁cruzados
▁disfruta
▁votan
juntos
▁pragmatismo
▁adapte
▁favoreciendo
▁evalúe
▁impactos
▁atroz
▁formulan
▁idénticas
▁deprez
▁essen
▁asesor
▁sellafield
▁175
▁armenio
▁efd
▁justifique
▁exámenes
▁brindan
▁confuso
▁aquéllas
▁1967
▁gobernantes
▁mire
▁decepcionados
▁aplicarla
conozco
▁garantizaría
▁blancos
▁recordará
▁dotaciones
▁marginal
▁ganadero
▁amenazar
▁participé
▁excedente
▁perdió
▁cuidadosa
▁cómplices
▁talla
▁campamentos
▁gadafi
▁consecuentemente
▁incremente
▁aportando
▁insuficiencias
exigimos
▁estructurada
▁apoyaré
▁atañen
▁emprendan
▁limiten
▁alcancemos
▁exagerado
▁molesta
▁ilustrar
▁muchísimos
▁dioxinas
hagamos
▁permitía
▁seguiré
▁contribuyó
▁crearán
▁mostraron
▁apariencia
▁retener
▁transmitiré
▁preparatorias
▁complementa
▁educar
▁comparaciones
▁solicitada
▁aplauso
▁mandar
▁declarados
▁kabul
▁subrayó
▁enteros
▁encontró
▁desertización
▁inmersos
▁vengo
▁purvis
▁sufrieron
▁ojalá
▁parecería
▁honesta
▁rueda
▁comiencen
▁galeote
▁preparatorio
▁dudosa
▁garante
▁robo
▁nuts
ninguno
▁designados
▁extrañar
▁épocas
▁weiler
▁afines
▁emociones
▁gustosamente
▁cubanos
▁bruta
▁emitidos
▁deportivo
▁costará
▁atribuciones
▁remite
▁llamó
▁tabú
▁carecemos
▁mg
▁lingüísticos
▁proteaginosas
▁prohíba
▁dobles
▁imperialismo
▁renault
▁opio
▁desacoplamiento
▁detenerme
▁obligatoriedad
▁limitando
▁multiplicación
▁noroeste
igual
▁despertado
▁recibí
▁desviar
▁efectuarse
▁decentes
▁elegibilidad
▁mostramos
▁schröder
▁dependiente
▁nació
▁utilizarán
▁ropa
▁aeroportuarias
▁citadas
▁prolongada
▁suspende
▁paridad
▁1987
▁maaten
▁extensivo
rumanía
▁definirse
▁ocio
▁patrones
▁disfrute
▁subproductos
▁beijing
▁entusiasta
▁encantados
▁aliento
▁provocaría
▁destinen
▁entradas
▁tindemans
▁celebraremos
▁necesitadas
▁bourlanges
▁materialización
▁dejarnos
▁delimitación
▁180
▁podré
▁sinónimo
▁sentados
▁holandés
▁cobra
▁fabrican
▁paradójico
▁valorado
▁confusa
▁plazas
▁albergar
▁descubrimiento
▁inserción
▁acento
▁comprometieron
▁lagendijk
▁1985
▁pasaje
▁reticencia
▁maximizar
▁superpotencia
▁analfabetismo
▁explotan
▁compiten
estaing
▁hänsch
▁gigante
▁federalistas
▁debíamos
fueron
▁recupere
▁impresiones
▁tuviese
▁burócratas
▁dañar
▁bienvenido
▁sabíamos
▁temáticas
▁edición
▁dimos
▁rescatar
▁flandes
▁solucionarse
▁vecina
▁estimación
▁mejorarán
▁transbordadores
▁parálisis
▁proporcionadas
▁integrador
▁incrementará
▁torres
▁decepciona
▁asientos
▁finlandeses
▁reconsidere
▁enfermo
▁constructivos
▁litigio
▁crecen
▁varela
▁elabora
▁idóneo
▁aporten
termino
▁condujo
▁dilación
▁demagogia
▁triángulo
▁creativo
▁segregación
▁pollos
▁perdida
▁vertiente
▁conforman
▁presentaré
▁inviertan
españa
▁enviada
▁transmisibles
▁arbitraje
▁valencia
▁estrés
▁subsidiaridad
▁adicionalidad
▁tremendo
▁pudiesen
▁inspirado
▁naufragio
▁pretensión
▁destinarse
▁lanza
▁casaca
▁apelo
▁huyen
▁escenarios
▁on
▁depósito
▁rodeos
▁busque
▁duraderas
▁confidencial
▁creadores
▁madagascar
▁idéntico
▁expulsados
▁figure
▁ofreció
▁géneros
▁concienciar
▁discreción
▁homosexualidad
▁ferreira
▁brutalidad
▁ecuatorial
▁parish
▁fijada
quisiéramos
▁duisenberg
▁confirmada
▁debidos
▁procurado
▁hacerme
▁saberlo
▁impresionado
▁estipulado
▁ofrecida
▁muerta
▁esfuerza
▁mina
▁prohibidos
▁estimula
disponemos
weggen
▁yendo
▁perdedores
herzegovina
▁tranquila
▁sensibilidades
▁psicológico
▁caballo
▁comunicarles
▁siéndolo
▁lobby
▁unirnos
▁liechtenstein
▁liberia
▁provocaron
▁verían
▁inequívocamente
▁visiones
▁haberme
▁procedido
▁l
▁sedes
▁estimamos
▁silvicultura
▁estuviese
▁mixto
▁enterado
▁sucesivo
▁sensatez
▁sensiblemente
▁quedamos
▁teatro
▁trascendental
▁ineludible
▁dupuis
suecia
▁demoras
▁ocasiona
▁saca
▁panacea
▁alejado
lógicamente
▁devastadores
45
▁dogma
▁equilibrados
▁times
▁carlos
▁meros
▁comparado
▁rechazando
▁artificialmente
▁diseñados
▁referida
▁calado
cuántas
▁autocares
▁seminarios
▁arrastre
▁garantizadas
▁apoyadas
▁valoraciones
▁ligados
▁usen
cito
▁fundada
▁concuerda
▁juzgados
▁comenzaron
▁inadmisibles
▁constituyan
▁devastadoras
▁gestiona
▁biológico
▁desempeñen
▁apoyaron
▁prometedor
▁biocidas
…
▁economistas
▁mantengo
▁rendimientos
▁bomberos
▁renunciado
▁supranacionales
▁violado
▁zelanda
▁superficial
▁ejemplares
▁hermano
▁bolonia
▁allanar
▁pague
▁consume
▁tala
▁hablé
▁pesadilla
▁colonias
▁adversas
▁preferencial
▁expulsar
▁ganadores
▁americanas
recomiendo
▁seppänen
▁rígida
▁explican
▁garantizarán
▁advierte
▁costosas
▁mencionaré
▁informadas
▁autosuficiencia
▁reproductivos
▁lapidación
▁portal
▁escáneres
▁suprima
▁motivados
▁obtenida
▁endurecer
▁defensora
▁equiparación
▁expuesta
▁confidenciales
▁indebidamente
▁formaciones
▁fragilidad
▁federales
▁contestación
▁prestamos
▁apoyarla
▁carteras
▁bonde
▁consiguieron
▁civilizada
▁procederá
▁urban
▁colocación
▁durar
▁católica
▁mover
▁levantado
▁eslabón
▁marketing
▁paramilitares
▁reunieron
▁subastas
▁alcanzando
▁publicaciones
▁admirable
▁empeorando
▁enseña
▁perros
▁retiradas
▁utilizarlos
▁polacas
▁keyser
▁formados
▁desintegración
italia
▁pactos
▁idoneidad
▁ímpetu
▁aplazado
▁pausa
▁responderá
▁nazi
▁residir
▁sordos
▁aspiramos
hacer
▁completos
▁desviación
▁recaer
parte
▁distingue
▁cobran
▁distorsionar
▁ideológicos
▁japoneses
▁báltica
▁granja
▁ideologías
▁indio
▁demencia
▁especificidades
▁partenariado
▁santo
▁portavoces
▁declare
▁endurecimiento
▁suplementarias
▁volúmenes
▁gentes
▁canalizar
▁catastrófica
grecia
▁asociar
▁ansiedad
▁trataría
▁élite
▁rígido
programa
▁muere
▁organiza
▁pilotos
▁dominar
▁comenzamos
▁novedades
▁maij
▁establecía
▁demográficas
▁ofrecidos
▁honduras
▁abusar
▁informan
▁emisoras
▁trigo
▁zana
▁figueiredo
▁miguélez
▁toxicomanías
▁oreja
▁evaluarse
▁eurlings
▁plantearon
▁idéntica
▁pretensiones
▁hatzidakis
▁guardacostas
▁prolongados
▁actualizado
▁fortalece
▁mostrada
▁repercute
▁manifestaron
▁consagra
▁pertenezco
▁cualitativos
▁tendentes
▁auge
▁1979
▁m
▁use
polonia
▁moderada
▁incitar
▁equivocados
▁recordatorio
▁azote
▁laos
▁garriga
croacia
▁llamo
▁propietario
▁priori
▁favorezcan
▁investigado
▁dirigimos
▁status
▁pobladas
▁sudoriental
▁intergrupo
▁equivocadas
▁hitler
▁peco
▁reclamado
▁insolvencia
▁trasladado
▁condenando
▁otorgan
▁pedirá
▁acumulado
▁adherido
▁contemplada
▁hablen
▁raro
▁controlando
▁brown
▁contextos
▁foco
▁anónima
▁centraré
▁acompañan
▁reducirán
▁corporales
▁cortas
▁adopciones
▁obedece
▁mencioné
▁insatisfactoria
versión
▁recomendable
▁daba
▁tayikistán
▁cooperativa
▁contemplarse
▁examinaremos
▁determinará
▁vertebral
▁invocar
▁cola
▁critican
▁sequías
▁alejados
▁preparatorios
▁turcochipriota
▁prometer
▁arym
▁probabilidades
▁muscardini
▁correlación
▁aplastante
▁moldavia
▁segmentos
▁argelino
▁busquen
▁mutuos
▁molestias
▁mitigación
▁austriacos
▁permanencia
▁periódica
▁legitimación
▁estimulante
▁intentará
50
▁envían
▁unitario
▁persistencia
▁ambigua
▁oigo
▁cualitativa
▁seguidas
▁trabajará
▁quedara
▁virtudes
▁automovilístico
▁horribles
▁sindicalistas
▁precipitada
▁reivindicación
▁recuerden
▁nord
▁inadecuados
▁provocadas
▁planteará
▁adaptadas
▁curiosidad
▁terminología
▁epidemias
▁comportan
▁transformado
▁cambiante
normalmente
▁esperada
▁banca
▁horarias
▁pieles
▁geografía
▁adn
▁felicitarla
▁agujero
▁cualificadas
▁mueven
▁fomentado
▁petrolero
▁bonitas
▁irresponsables
▁japonés
▁ciclos
proponemos
▁ecologistas
▁efectuados
▁restitución
▁cerveza
▁construye
▁representando
▁compradores
▁boicot
▁vecinas
▁aplace
▁pluralista
▁guardián
posiblemente
▁ecológicamente
▁impulsa
▁exclusivas
▁propugna
▁necesitado
▁forzoso
▁cruce
▁buttiglione
▁impedirá
▁quórum
▁represalias
▁incluirán
▁schmitt
▁abstenciones
▁establecemos
▁suprime
▁afirmamos
▁disolución
▁peijs
▁procesados
▁cobrado
▁instantes
▁exportan
▁tapete
▁decretos
▁portuguesas
▁comparamos
▁perpetrados
▁dieciséis
▁hostil
▁emprendida
▁acabó
▁beneficiario
▁incumplido
▁enfrentando
▁migratorias
▁inhumana
▁gorda
▁siguieron
▁ofrecidas
▁consentir
▁instrucción
▁considerará
▁determine
▁alabar
▁emiten
▁contraer
▁aprobaremos
▁afganas
▁orillas
▁linkohr
celebramos
▁callejón
▁mejoraría
▁indiscriminada
▁kiev
▁taoiseach
▁catania
▁estímulos
▁directriz
▁procesar
▁83
▁aplicarlas
▁compara
▁anunciadas
▁someten
▁sine
▁incoherencia
▁dictadas
▁ponderación
▁cordial
▁reconocerse
▁concebida
▁trazar
▁pcp
▁obsesión
▁insistió
▁ostenta
▁olvidarse
▁desacuerdos
tomemos
▁voivodina
▁acelere
i
▁angulares
▁obligará
▁togo
▁perry
▁alegre
▁lópez
▁radioeléctrico
▁prohíben
▁facciones
▁forjar
▁angelilli
▁pregunté
▁completas
▁evitarlo
▁pronunciarnos
▁devastador
▁interpretado
▁indefinidamente
▁recapacitar
▁alavanos
▁basen
▁atractivos
▁ftalatos
▁gratuito
siguiendo
▁hostilidades
▁contestarán
▁pelota
▁parques
▁fraudulentas
▁antidemocrática
▁superen
▁castigados
▁habsburg
▁160
▁hussein
▁aerolíneas
▁veld
señoría
▁originado
▁brazo
▁salió
▁solía
▁comprenderán
▁referidas
▁cumplirá
▁aproximar
▁huella
▁sistemáticas
▁motivada
▁considerarlo
▁redundará
▁obteniendo
▁expectativa
▁reticencias
▁coto
▁deteriorado
▁superflua
▁permitamos
▁abogo
▁maes
▁invitó
▁corresponder
▁informen
▁rumana
▁resultando
▁negamos
▁necesitemos
▁interparlamentaria
▁publique
▁transaccional
▁embrionarias
▁birmano
▁farage
▁oettinger
▁inexistente
▁señalaba
▁afectaría
▁señalo
▁indirecto
▁destacando
▁reclutamiento
▁repetirlo
▁milagro
donde
▁describen
▁controvertidos
▁egoísmo
▁respetos
▁gestos
▁montreal
▁gargani
▁dejaría
▁llegarán
▁porvenir
▁compañera
▁intensificado
▁permanezcan
▁consultados
▁enmalle
▁procurando
▁debatirlo
▁minorista
▁dependemos
▁decirme
▁prosperar
▁contención
▁cerrando
▁alimenta
permítaseme
▁inflexión
▁piratas
▁incierto
▁aceptará
porqué
▁comprobamos
▁albanés
▁minusválidos
▁surgieron
▁inflexible
▁tarificación
▁representaciones
▁amenazando
rechazamos
▁grecochipriotas
▁mentira
▁soliciten
▁producidas
▁perderán
▁supuestas
estaba
▁mantequilla
enmienda
▁inhumanas
▁consternación
▁fortalecido
▁pérez
▁recambio
▁kok
▁farmacéutico
▁grosch
▁origina
▁reguladas
▁marginados
▁riquezas
▁clásica
▁perdidos
▁descarga
▁mercantil
▁millares
▁miedos
▁juzgado
▁concursos
▁impulse
▁retenidos
▁leo
▁france
▁desertificación
▁arcas
▁desempeñó
▁recordó
▁refirió
▁evaluando
▁impositivos
▁destacó
▁balcánicos
▁minuciosa
▁oponga
▁tentativa
▁conseguirán
▁adam
▁utilizarlo
▁pensamientos
▁escuchen
▁consulte
▁exhaustivamente
▁talleres
▁influido
▁eslovacos
▁periferia
▁deseaban
▁ahern
▁obligatoriamente
▁138
▁abordados
▁busquin
▁estudien
▁statu
▁blak
cosa
▁elaborará
▁gomes
▁dotada
▁paralelas
▁muriendo
▁empuje
▁paulatinamente
▁corruptos
▁encrucijada
▁desplazan
▁enlaces
▁federalismo
▁elegidas
▁abortos
▁justificarse
▁promotores
▁saqueo
▁evitará
▁uruguay
derechos
vivimos
▁ruina
▁arsenal
▁complementan
▁devuelto
▁sorprendió
▁musulmana
▁funcionales
▁generada
▁recalca
▁etiquetar
▁afgana
irán
▁neutrales
▁dolorosa
▁small
▁peace
▁enfermeras
▁microfinanciación
▁puñado
▁organizan
▁sureste
▁opinar
▁traduzca
▁regularse
▁vicepresidentes
▁incompleta
▁pertinencia
▁pretendido
▁incluimos
▁integrantes
▁cuidadosos
▁procura
▁dirigiendo
▁eleva
▁químico
▁formalidades
▁rondas
▁universalidad
▁recibidos
▁negando
▁sarajevo
▁papeleo
▁tremenda
▁subrayando
▁fallado
▁sacrificados
▁diseñadas
▁ottawa
▁2030
▁obligando
▁reconozcamos
dadas
▁asiento
▁espongiforme
▁enviamos
▁instó
pyme
▁esforzándose
▁adicción
▁níquel
▁pm
▁exagerada
▁tesoro
▁revelar
▁activar
pasando
▁congratula
▁cruzan
▁suman
▁equivaldría
▁terminó
▁lograron
▁radicalización
▁conservadora
▁desembocar
▁adquiera
▁detenida
▁abundancia
▁duraderos
▁espiritual
▁soldado
▁prosigue
▁vende
▁decisorio
▁cedido
▁european
▁perjudicando
▁penalización
▁caballos
▁recomendamos
▁cuerno
▁involucrado
▁huérfanos
▁viajen
▁basará
▁revitalización
▁himno
▁eures
▁neves
▁goldstone
▁expiración
▁limpiar
recomendación
▁insatisfacción
▁cierres
▁estimada
▁tendido
▁echado
▁audaz
▁antidemocrático
▁115
▁librar
▁repercutir
▁bibliotecas
varias
▁resolverlo
▁sintéticas
▁atendiendo
▁evolucionado
▁fortaleciendo
▁progresistas
▁exhaustivos
▁gröner
▁migratoria
▁trasladan
▁verduras
▁vitaminas
▁thomas
▁reorientación
▁gastando
▁clandestinos
▁equivalencia
▁antimisiles
▁interconexiones
▁1956
transmisión
tomamos
▁entrarán
▁figuras
▁parecida
▁turísticas
▁especialización
▁católicos
▁ala
▁bonito
▁coordinados
▁honra
▁longitud
▁lord
▁desestabilizar
▁premisas
▁amiga
▁luchamos
▁flexibilización
▁abordemos
▁rama
▁lanzada
▁preferimos
▁maravillosa
▁experimenta
▁diamantes
▁explotados
▁acaecidos
▁kremlin
▁denominamos
▁deportiva
▁descubrimientos
▁cuantitativo
▁cruzada
▁cristianismo
▁flagrantes
▁paasilinna
▁fanatismo
▁académica
▁chichester
▁abu
▁patatas
▁estancias
▁cuidadores
▁bolivia
explicación
▁juristas
▁vaso
▁antigüedad
▁ilimitado
▁radiaciones
▁cordialmente
▁horrores
▁populismo
▁adhieran
▁desaparezca
▁destine
▁mata
▁detenerse
▁152
▁corresponderá
▁equivoca
▁cabina
▁entregas
claramente
▁quid
▁subasta
alemania
▁stevenson
▁confesar
▁restante
▁octavo
▁peculiaridades
▁focas
▁resta
invito
▁lynne
▁desconocido
▁exponen
▁dinámicas
▁gestionados
▁falla
▁revisen
▁exhaustivas
▁subsisten
▁perderá
▁séptima
▁ridícula
▁patrón
▁primordialmente
▁engañosas
▁abrirá
▁reclamando
apenas
▁produciéndose
▁alienta
▁abordó
▁erróneamente
▁contradictoria
▁particularidades
▁programado
países
▁incuestionable
▁convirtiéndose
▁ahínco
▁recordarnos
▁teórico
▁subrayan
▁merezca
▁vivas
▁comerciar
▁meollo
▁subdesarrollo
▁contundentes
▁líquidos
▁condicionar
▁abrió
▁planteé
▁respalden
▁denominar
▁mito
▁representen
▁multicultural
▁controvertidas
▁libra
▁sturdy
▁pidan
▁encefalopatía
▁pasajero
▁fibras
▁seychelles
2011
▁rack
▁tributaria
▁pondremos
▁escritos
▁abandona
▁arancelarios
▁petroleras
▁rastreabilidad
▁sufridos
▁atenernos
▁1976
▁destruidos
▁presa
▁entrañan
▁gastamos
▁concederá
▁alusiones
▁legalización
▁admisibles
▁indiferentes
▁inscrito
▁dictado
▁adversarios
▁recuperado
▁animo
▁solidarios
▁procedan
estimo
▁importado
▁presionado
▁administradores
medidas
▁alegando
▁quejan
▁brutalmente
▁acusada
▁publicados
▁priva
▁minoritaria
▁hielo
▁spinelli
▁sentarse
▁zapatero
▁obrar
▁concreción
▁nicaragua
▁brittan
▁procesado
▁doctor
▁stubb
▁escucho
▁fijarnos
▁manifestamos
▁equivoco
▁vigilante
▁recurrido
▁ultimo
▁sintonía
▁suceden
▁produjera
▁ajusten
▁asumirá
▁indios
▁culminar
▁materializar
12
▁fiscalización
▁duplicado
▁tiranía
▁opuesta
▁gratificante
▁centren
▁batallas
▁preparan
▁simplista
▁sexta
▁desfavorables
▁irónico
▁extendiendo
▁liberarse
▁canadienses
▁confiado
▁1975
▁encabezada
▁deshacerse
▁cuestan
▁gallagher
▁narcotráfico
▁cometieron
▁productoras
pide
▁mcguinness
▁schwab
▁regulen
▁cercanas
▁resuelven
▁sabios
▁jan
▁obvias
▁thors
▁precisiones
▁aplaudimos
▁125
▁iniciamos
▁inmigrante
▁constituyendo
▁prevalezca
▁presidida
▁bajada
▁dispersión
▁84
▁rothe
▁resume
▁santos
tendrá
▁siguiera
▁perdamos
▁refrán
▁beneficiosas
▁pasividad
▁enriquecido
▁adquieran
▁eligen
poco
▁cancelar
▁espectadores
▁bushill
▁aseguremos
n
▁islamistas
▁apicultores
”
▁boel
▁odm
▁lea
▁minar
▁conductas
▁marea
▁escapa
▁comete
▁ordenar
▁aparezca
▁variables
▁integra
▁ilimitada
representa
▁instalar
▁convivir
▁repitiendo
▁masivamente
▁contribuyeron
▁olvide
▁surgiendo
▁desarrollándose
▁pacificación
▁asignadas
▁felices
▁fundadas
▁almacenar
▁sonar
▁decidiera
▁inmuebles
▁deliberar
▁soporte
▁abogan
▁libanés
▁provechosa
▁fantasma
▁examinó
▁generen
▁puntuales
▁reprimir
▁instituir
▁aplaude
▁hacerlos
▁persecuciones
▁contaminante
▁pasemos
▁banotti
▁representativo
▁alentando
▁construirse
acepto
▁poseer
▁presenciar
▁inocencia
▁obtenidas
▁adhesiones
▁responderé
▁anti
▁subsidiaria
▁terminan
▁jeggle
▁mantenidas
▁116
▁importador
▁esclerosis
▁füle
99
▁ajustado
▁persiguiendo
▁plural
▁marineros
▁asignada
▁distintivo
▁inundación
▁indicativos
▁perdemos
▁adelantados
▁milicias
▁combinados
▁libere
▁ratificada
▁aficionados
▁llanamente
▁permanezca
▁f
▁fluvial
▁paradigma
▁antipersonas
▁llamando
▁resultarán
▁constituirán
▁aventura
▁aterrizaje
▁fielmente
▁acatar
▁109
▁recurrente
▁céntimos
▁demandantes
▁argumentar
▁murió
▁sustentan
▁golpeado
▁oiea
35
▁aceptaron
▁espléndido
▁centremos
▁desembolso
▁desviaciones
▁discrepo
▁encontrarnos
▁exponga
▁enviará
▁llevaba
▁decae
▁polémicas
▁ligadas
▁alcanzaremos
▁incumplimientos
▁pongo
▁richard
▁marcados
▁trayecto
▁rehén
▁enriquecer
▁auto
▁hipócritas
▁inspirar
▁obtendrá
▁examinemos
▁seguiría
▁nacidos
▁haríamos
▁infectadas
▁cataluña
▁unicef
▁pasaría
▁hostilidad
▁infecciosas
▁invención
▁evento
▁hábito
▁informarle
▁afianzar
▁embarque
▁conllevará
▁rumiantes
▁organice
▁gato
▁implantes
▁cribado
▁fluorados
▁bertens
▁lahti
▁temperaturas
▁recaudar
justo
▁sucesión
▁presentarnos
▁limitamos
▁publicadas
▁)
▁exactas
▁conserva
▁cotidiano
▁austríacos
▁lluvias
▁despacho
▁adaptados
▁interminables
▁convertirán
▁corriendo
▁excluya
▁rabia
▁socialismo
▁populistas
▁cuestionado
▁encargará
opinamos
▁peligrar
▁llenos
▁nitrógeno
▁presenciando
▁schmid
▁perfeccionar
▁rumanas
▁aseguran
▁preocupe
▁corazones
podrían
▁inducir
▁matanzas
▁utilicemos
seguro
▁ejércitos
▁respaldando
▁recurren
▁eu
▁defensiva
▁emisores
▁actuará
▁depresión
▁michael
▁antidumping
▁apicultura
▁trataremos
▁afrontando
▁reglamentar
▁financie
terminaré
▁banqueros
▁prerrogativa
consejo
▁armamentos
▁coartada
▁desplazar
▁empleen
▁inquieta
▁combina
▁emocional
▁cederschiöld
▁excluyen
▁europeísta
▁vaga
▁viceversa
▁crónica
▁rato
▁llame
▁tratarán
tuve
véase
▁formulaciones
▁morgantini
▁congratulamos
▁transpuesto
▁norteamérica
▁detenga
▁inscripción
▁disuadir
▁juan
▁desarrollará
▁schnellhardt
▁ongs
▁maría
▁preconiza
▁consideraban
matthews
▁pesimismo
▁silva
▁kratsa
▁abbás
▁wijsenbeek
▁hablará
▁insoportable
justamente
▁british
▁recurre
▁marcó
▁cayó
▁gris
▁ingentes
▁explicarles
▁desarrolló
▁atractivas
estimados
▁nazismo
▁diplomas
▁condeno
▁niego
40
▁atracción
▁exento
▁identificadas
▁extraído
▁recompensa
▁selectivas
▁secretaria
▁reglamentarios
▁porcina
▁motivar
▁comparecencias
▁agrarios
▁mapas
▁impedimento
▁sometan
▁entablado
▁gustan
▁custodia
entendemos
▁adolece
▁incontrolada
▁esconder
▁participamos
▁favorecido
▁adónde
▁actuó
▁jurisdiccional
▁negros
▁j
▁internalización
▁turín
▁reunirme
▁publica
▁reflejarse
▁capitán
▁mafias
▁condenó
▁culpabilidad
▁contaminado
▁oportunos
▁escoceses
▁condicional
▁empezaré
▁elaboran
▁cólera
▁propusieron
▁aeronáutica
▁favorecerá
▁müller
▁pöttering
▁esposa
▁comparativas
▁tanques
▁convertiría
▁notificar
▁gil
▁reiterada
▁controladores
▁inercia
▁fundamentada
▁papayannakis
▁qua
▁conduzcan
▁difamación
▁brinde
▁comportarse
▁planteaba
▁ganas
▁rojos
▁superando
▁invierta
▁alcanzamos
▁reflexione
▁fragmentado
▁formidable
▁nobles
▁1984
▁pasajes
▁perpetrado
verdaderamente
tercera
▁sucesivamente
▁aceptara
▁miguel
▁campeonato
▁napoletano
▁aprovecha
▁proactiva
▁intensivo
▁escudo
▁chávez
▁ártica
▁obtengamos
▁desafortunada
▁rapkay
▁mantenida
▁incidir
vuelvo
▁elijan
▁concentran
▁contaminadas
▁transversal
pronto
▁resolverlos
▁manifestadas
▁asumimos
▁talante
▁irrelevante
▁save
▁compone
▁flexibilizar
▁autopista
▁andalucía
▁partidistas
▁autora
▁africanas
▁comunicados
▁partícipes
▁aceites
▁transmiten
▁kirkhope
▁incrementarse
▁respetada
▁alegrarnos
▁boeing
▁devuelva
▁drástico
▁organizadores
▁750
▁enorgullece
▁inmobiliaria
tenía
▁gps
▁tillich
comisión
▁desaparecen
▁tutela
▁dominantes
▁prescripción
▁pronuncia
▁subrayarlo
protección
▁despreciable
▁demostraron
▁suscitan
▁suponiendo
▁söderman
▁adapta
▁honorables
▁predominante
▁vivamente
▁bolsillo
▁expulsiones
▁literatura
▁comprometo
▁criticamos
▁integren
▁vientos
▁desierto
▁sitúe
▁vitalidad
▁vagas
▁compensatorias
▁representaba
▁matando
▁presunción
▁nazis
▁sobrepasa
▁calificarse
▁vaca
▁palanca
▁sorprenderá
▁bebés
▁dictatorial
▁reglamentada
▁plutonio
▁subsidio
▁pma
▁naranja
comisaria
solidaridad
▁ukip
▁cuartas
▁esperaban
▁injustificable
▁predecesores
▁colaboran
▁manifestada
portugal
▁prestemos
▁devastación
▁representativas
▁perfección
▁fantástico
▁añadirse
▁asistí
▁judío
▁trabajaremos
▁descontado
▁ancho
▁receptor
▁literal
▁centramos
▁experimental
▁europe
▁zaga
▁cuencas
▁inestimable
▁evalúen
▁incorporan
▁efectuada
▁estación
▁ribereños
▁infringen
▁reformado
▁propicio
▁suizos
▁acuciante
▁tramitar
▁obtendrán
▁peter
▁chechenos
▁calurosa
▁embrión
▁padeciendo
▁audaces
▁espaciales
▁niebler
▁coger
▁descentralizadas
▁polledo
pac
▁kovács
▁lewandowski
▁motors
▁plooij
▁seattle
55
▁poderosas
▁recordaré
▁colación
▁trasplante
▁delictiva
▁cuestionario
▁huracán
▁sufrimos
tuvimos
▁alentadora
92
▁descubrimos
serán
▁ventana
▁evaluará
▁flores
▁pesa
▁escuchan
▁constato
▁bloqueos
▁consiguientes
▁regionalización
▁hiciese
▁pauta
▁quinientos
▁complicar
▁andar
▁supongan
▁atrapados
▁atenuar
▁interesaría
▁posguerra
▁periódicas
▁hiciéramos
▁terminales
▁verdades
▁extrajudiciales
▁cohetes
▁regeneración
▁demografía
▁niegue
▁secular
▁karl
▁105
▁árbol
▁mantendrán
▁improbable
▁acogen
▁concertado
▁seleccionados
▁destacadas
▁rotunda
▁controlen
▁peste
▁ajeno
▁aseguró
▁enfrente
▁emitida
▁felicitado
▁desearían
▁indicando
▁pedofilia
▁desaparece
▁iniciará
▁garanticemos
▁regir
▁reafirmado
▁hábitat
▁levante
▁episodio
▁pantalla
▁hernández
▁tristemente
▁discriminar
▁fomentarse
ivoire
▁empezaron
▁escritor
▁humillación
▁bovinos
▁terapia
▁acogidos
miles
▁decepcionada
estrategia
▁introducirá
▁morosidad
▁herzog
▁amistosa
▁señalé
▁explosivos
▁gauzès
▁rosado
▁jouyet
▁detiene
▁grato
▁distorsionan
▁multa
▁enésima
▁forzosamente
▁saludamos
▁declaran
▁canadiense
▁delegar
▁propiciado
▁íntimamente
▁produciría
▁dominación
▁redondo
▁contagio
▁racionales
▁fresco
▁sufragar
▁veras
▁ascenso
▁barrios
tercer
▁facetas
▁asambleas
eu
▁reivindicar
▁durban
▁telefónica
▁semanales
▁recomendó
▁cubierta
▁hija
▁accedan
▁sabor
▁ingenieros
▁tramos
▁sharia
▁plasma
▁continuemos
▁recortado
▁pakistaní
▁cresson
▁salas
▁caracterizada
▁cerebro
▁egipcios
▁centroamérica
▁infringe
▁emas
▁fifa
▁svensson
▁lentos
▁periféricos
▁llevarla
▁decidiendo
▁280
▁cometan
▁memorándum
▁acudido
▁cobre
▁sospechoso
▁ataca
▁cooperan
▁segmento
▁oculto
▁evoluciones
▁articulación
▁civilizado
▁ajenos
▁inviable
▁vejez
▁borrar
▁valorización
▁acordes
▁mezclas
▁amplíen
▁exitoso
▁informativos
▁concedo
▁desaparezcan
▁condonación
▁concluyo
▁ilustración
▁transcurridos
▁costar
▁aleja
▁enfrentados
▁sufrirán
▁igualitaria
▁promoverá
▁consagrada
▁definan
▁deportación
▁restringe
▁aquél
condenamos
▁euromed
▁vestir
▁afectarán
▁esperados
▁cárteles
▁montante
▁pasarán
▁dispares
▁movilizado
▁arreglar
▁nutrición
▁debiéramos
▁penetración
▁emplee
▁cinematográfica
▁sabían
▁perdón
▁africa
▁ayudarle
▁provengo
▁fijen
▁infundir
▁atroces
▁universalmente
▁citando
▁ordenada
▁122
▁localidad
▁mollar
aprecio
▁pionero
▁radwan
▁sabremos
▁pistas
▁côte
▁olvidan
▁encargan
▁comportado
▁introducida
▁ballenas
▁esfuerzan
pretende
▁sospechosas
▁delantera
▁camerún
▁nafo
▁castigos
▁fernandes
▁jöns
▁bucarest
▁sobrepeso
▁túneles
▁localmente
▁solventar
▁éxodo
▁quinquenal
▁tomaremos
▁dote
▁transferido
▁terremotos
▁impositivo
▁asignan
▁repetiré
▁superarse
▁puntualmente
▁estudiante
▁dejaremos
▁complacencia
▁vidal
▁alcanzada
▁formamos
▁explicara
▁bbc
▁figuraba
▁aseguramiento
▁significación
▁incumplen
▁tejado
▁reza
▁paralización
▁vigilando
▁cubanas
▁dictada
▁conferir
▁esforzamos
▁certidumbre
▁112
▁marques
▁cuna
▁perderemos
▁golpes
▁engloba
primer
▁califica
▁proclamación
▁encontraron
▁revisando
▁abordarlo
▁proporcionarles
▁disciplinas
2020
▁mixtas
▁acogió
▁gucht
legislar
▁cuidadoso
▁ventanilla
▁rectores
▁excluida
▁perfeccionamiento
▁belleza
▁mencionaba
▁empleabilidad
▁aproxima
falta
haremos
▁arrogante
▁informático
▁dedicamos
▁sopesar
▁eliminan
▁obsoleto
▁plástico
▁depositado
▁remunerado
▁reservados
▁provisionalmente
▁formará
▁souchet
▁modificando
▁sobrepasar
particularmente
▁opuestos
▁convertirlo
▁domiciliario
▁éramos
▁fiesta
▁contradicen
▁partidista
▁tolerante
▁alimentan
▁centrándose
▁ministeriales
▁previsibilidad
▁alergias
▁supervivientes
▁fertilizantes
wolski
▁formulamos
cierto
▁innovar
▁creces
▁alcaldes
▁registrada
▁caspio
▁reunirnos
▁recuento
▁gravar
▁seguía
▁interferencias
▁holandeses
▁peticionarios
▁redefinir
▁ganó
▁copias
▁ligero
concluiré
▁combatientes
▁precarios
▁adoptaran
▁irregulares
▁moralmente
▁camión
▁rogaría
▁espionaje
▁fijando
▁residente
▁elaboramos
▁mejorarlo
▁encarcelado
▁remunerados
▁supervisando
▁accidental
▁plantaciones
cuatro
▁impulsados
▁genuino
▁incidental
▁ahtisaari
bissau
▁desaceleración
▁cop
▁vis
▁saryusz
▁síndrome
▁comunique
▁intolerables
▁cuantitativa
▁encargar
▁ciega
▁redactó
▁bellas
▁decisivamente
tendría
▁pesimista
▁entenderlo
▁representatividad
▁mas
▁schüssel
▁prevalecido
▁atribuirse
▁gota
▁posterioridad
▁dejo
▁infierno
▁desproporcionadas
▁vinci
▁ocurriera
▁localizar
▁ofrecerle
▁debatidas
▁constituía
▁klaß
▁disociación
▁franca
▁solemos
▁contraviene
▁operen
▁ganador
▁lalumière
▁acostumbrado
▁leon
▁ayudamos
▁saliente
▁ucraniano
▁gasoductos
▁hübner
▁harms
▁estiman
▁examinada
▁permitidas
▁quita
▁concordancia
▁faltado
apelo
señores
▁respondiera
▁pasillos
▁multiplicado
▁conscientemente
▁absurdas
▁molestia
▁fundador
▁acarrear
▁debieran
▁mcnally
▁ayuntamiento
▁limitará
▁marshall
▁injustificadas
▁new
▁plantearle
▁gocen
▁admito
▁lyon
▁empobrecimiento
▁gobierna
▁espada
▁seguirse
▁expresen
▁rastro
▁permitieron
▁peres
▁equipados
▁fabricado
▁genéticas
▁aplicaría
▁influencias
▁miert
▁cometió
▁trasplantes
▁encantaría
▁completarse
▁catalán
▁impidió
▁obstaculizan
▁consejeros
▁primordiales
▁envíen
▁aplicó
▁ocurran
▁emplazamiento
▁alrededores
▁saldrán
▁felicidad
▁exigidos
▁llevara
▁feoga
▁asignen
▁facilitarán
▁variado
▁motocicletas
▁1945
▁asombroso
▁caldo
▁riendas
▁objetar
▁sorprendernos
▁condicionada
▁pagadas
▁acarrea
▁identificarse
▁karamanou
▁portuaria
▁helicópteros
▁destruidas
▁empeora
▁procedemos
▁irse
▁consular
▁hieronymi
▁ampliará
▁defiendan
▁rezagados
▁extienden
▁manipular
▁importada
▁preferiblemente
▁ben
▁georgianos
▁cornelissen
▁terapias
▁equipaje
▁papúa
▁lituano
▁bahréin
▁planeado
▁factibles
▁notado
▁idónea
▁subsiguiente
▁afirmativamente
▁escribe
▁esconden
cinco
▁exigió
▁dispondremos
▁das
▁relevo
▁militarmente
▁james
▁excluyendo
quadras
▁incluyo
▁intervino
▁compruebe
▁privación
▁viera
sugiero
▁mide
▁fuéramos
▁sentí
▁bjerregaard
▁marroquí
▁repercuten
▁valen
▁restringida
▁magistrados
▁normalizar
▁globalizada
▁wijkman
▁conservan
▁ali
▁ilustran
▁geopolítico
▁traducirá
▁recetas
▁beneficiados
▁confiando
▁equiparar
▁convocado
▁militantes
▁smet
▁unísono
▁conmemoración
▁autoasistencia
▁berisha
▁garantizamos
▁fluviales
▁playas
▁idénticos
▁promulgar
▁estadio
▁tarda
▁ponerlas
▁geográficamente
▁terriblemente
▁inmoral
▁matices
▁inapropiado
▁imperiosa
▁sufridas
▁aplicara
▁salidas
▁originan
▁forzosa
▁dándole
▁dührkop
▁afiliación
▁ingleses
▁librarse
▁ofrecernos
▁proclama
▁omisiones
▁quedaba
▁kohl
▁protegerá
▁ambiguo
▁obtendremos
▁ocupó
▁instando
▁contaba
▁represiva
▁secuestrado
▁mezclar
▁coopere
quedan
▁referidos
▁encontrando
▁necesitábamos
▁elaborarse
▁restaurantes
▁salvador
▁patentar
▁rühle
llevamos
▁proporcionaría
▁pollo
▁cabrol
▁valía
▁proporcionados
dijo
▁uclaf
▁insatisfactorio
▁litoral
▁respaldadas
▁spencer
▁disponía
▁olvidando
▁máxime
▁resistentes
▁resueltas
▁multifuncional
▁tsatsos
▁tienda
incluidos
reitero
▁ecología
▁financien
▁severidad
▁liberalizaciones
▁votada
▁contemplamos
▁privilegiados
▁contaminada
▁autorice
▁solicitados
▁catastrófico
▁concluyan
▁acercamos
▁simplificados
menos
▁kabila
▁chernobil
▁rectificación
▁derivarse
▁cinturón
rechazo
▁inventar
▁contraproducentes
▁esbozado
▁automáticos
▁preguntaba
▁plagas
▁responsabilizarse
▁aprendan
▁Álvarez
▁arrestos
▁puntualización
▁biotecnológicas
▁ponerla
▁declaradas
▁recomendaría
▁miran
▁perteneciente
▁färm
▁percibido
▁practicado
▁imparciales
▁costeros
▁sustituto
▁derribar
▁olímpico
▁olímpica
▁lituanos
▁bauer
▁ecuación
▁diferenciada
▁argumentación
▁escapan
▁acabarán
▁distorsiona
▁exijan
▁133
▁regresión
▁exponencial
▁adhiera
▁dedicando
▁gestionada
▁marcadas
▁apliquemos
▁agitación
▁parecidas
▁apuestas
▁exigiría
▁debatirán
▁municipal
▁auxiliares
▁prioritariamente
▁carentes
▁dondequiera
▁vincula
▁rasgo
▁exigía
▁gravísimo
▁hoteles
▁mccartin
▁escasamente
▁aceptarla
▁dispondrá
▁etiquetados
▁metro
▁lluvia
▁carteles
▁obtenemos
▁Índico
▁transplante
▁lino
▁slim
▁ventanillas
▁federaciones
▁acelerada
▁evitan
▁incumpliendo
▁centrando
▁socavando
▁secuestrados
▁planificada
▁gill
▁prendas
▁nanotecnología
▁pimenta
▁asisten
▁generalización
▁consecuentes
supone
▁pormenores
▁selva
▁señale
▁vago
▁aquélla
▁perro
visto
▁repentina
▁volverse
▁revocar
▁pagamos
▁moura
▁transportados
▁opuestas
▁gratuitamente
▁conllevaría
▁injustificado
▁preponderante
▁urgencias
▁nocivo
▁huesos
▁meter
▁infringir
▁incorporadas
▁añadidos
▁revolucionario
▁estallido
▁desaparecidas
▁bajura
▁necesitando
▁marcará
▁prevalecen
▁colores
▁cercas
▁dual
▁klamt
▁vii
▁sostenida
▁intermodal
▁ingenuo
▁chicas
▁formularios
▁refrigeración
in
▁inalienable
calendario
▁gutiérrez
▁cooperado
▁popularidad
▁gante
▁díaz
hoja
▁pedían
▁intensificando
▁escrupulosamente
▁anomalías
▁serenidad
▁dediquen
▁fotografías
▁despacio
▁superficiales
▁alentadores
▁impedimentos
▁x
▁asignarse
▁intentaron
▁contó
pasamos
▁formulando
▁transformarse
▁cotidianos
▁utilizarla
▁entristece
▁grasa
▁relaciona
▁sahara
▁deliberado
▁miranda
▁comparabilidad
▁conllevar
▁utilizaron
▁contemporánea
▁cargado
▁planificado
▁recreo
▁requerir
▁folleto
▁hipotecas
pensemos
▁recinto
▁atacado
▁envíos
▁drásticos
▁colom
▁arancel
▁cuellos
▁turbulencias
bulgaria
▁antiterroristas
mt
▁señalados
necesitan
▁elevación
▁impositiva
▁relucir
▁admiten
▁federados
▁jurisdicciones
▁disuasorio
▁tomé
▁pericia
▁perseguimos
▁gravamen
▁constituida
▁mojado
▁poeta
▁impulsos
▁caliente
▁ordenado
▁incumple
acp
▁protegerlos
▁inexistencia
▁estrellas
canadá
▁separatistas
▁colmo
▁burla
▁colegisladores
▁r
▁examinadas
▁húngaras
▁308
▁invitamos
▁echamos
▁reembolsos
▁primeramente
▁read
▁manders
▁demandante
▁pista
▁fallecimiento
▁rebaja
▁suprimirse
▁musulmanas
▁rodríguez
▁fundamentalista
▁simplifica
▁tablas
▁guardianes
▁albertini
▁escéptico
▁coordinen
▁expresarlo
▁traducen
▁opta
▁empleador
▁dotarnos
▁rotterdam
▁viaja
▁socavan
▁exploración
▁viii
dörfler
▁resistencias
▁encargo
▁inauguración
▁pagará
▁pretendían
▁prometo
▁comportar
▁limitarme
grandes
▁impunes
▁barril
▁oicvm
▁concluidos
▁miller
▁relajación
▁registró
▁redonda
▁encanta
▁cadáveres
▁puntualizar
▁louis
▁universitaria
▁nairobi
▁duma
▁mensual
▁sufra
▁andina
▁surgimiento
▁explicando
▁comercializados
▁diesel
▁court
▁sistémico
▁convenga
▁emprendedores
▁poos
▁apoyados
▁bloqueando
▁eminentemente
▁mainstreaming
▁dependa
▁kreissl
▁macao
▁trataré
▁cueste
▁apela
▁legitimar
▁tranquilamente
▁posibilita
▁arbitrario
▁quedo
▁saque
▁cura
▁separan
▁calibre
▁sabia
▁porto
▁tendente
▁vegetal
▁empleada
▁justificaciones
▁cornillet
▁nietos
▁planea
incluido
▁terminará
▁generosas
▁saharaui
▁wiersma
▁fanáticos
▁anfitrión
▁aparezcan
▁suprimiendo
▁examinan
▁jugado
▁litro
▁gazprom
▁sondeos
▁engañemos
▁acondicionado
▁explicarnos
▁tripartita
▁gigantes
▁virrankoski
▁complementarse
▁kilómetro
▁egipcio
▁comoras
▁víspera
▁tenidos
▁comprendidas
▁consistiría
▁suavizar
▁comprueba
contrariamente
▁fortalezca
▁atribuido
▁efectúa
garantizar
▁choca
▁marcan
▁fallecido
▁arbitrariamente
▁elmar
▁respetadas
▁vasto
▁constructores
▁prometieron
▁vele
▁pediré
▁queso
▁negocia
▁international
▁gratuitos
▁ausentes
▁interrogante
▁concederle
▁aceptemos
▁conquista
▁debatidos
▁venganza
▁alejada
▁tigres
▁petersberg
▁conquistas
▁determinantes
▁deseábamos
▁eligió
▁paulsen
▁llego
▁andreasen
▁apuros
▁tiburones
▁ortuondo
▁interceptación
▁practicando
▁descubrió
▁pkk
aproximadamente
▁abordarán
▁pronunciadas
▁an
▁suizo
▁transportista
▁wolf
▁cinturones
▁aelvoet
▁estrela
▁presentaba
▁conmoción
▁flautre
▁concepciones
▁pedidos
▁preferenciales
▁desprenden
▁requiera
▁planos
▁acercarnos
▁consagrar
▁consistirá
▁solemnemente
▁consistencia
▁impediría
▁rígidas
▁honestamente
▁multiplicar
▁elige
▁ironía
▁arriesgamos
▁menoscabo
▁íntegra
▁paul
▁desorden
▁denominan
▁deliberación
▁formulados
▁ramo
▁reservada
▁populista
▁declaro
▁cierran
▁idear
▁prometedora
▁pen
▁experimentados
▁salvado
▁favorecidos
▁alberga
▁involucrarse
▁propongan
▁clínicos
partiendo
▁bloqueada
▁acuden
▁impresionantes
▁gobiernan
▁sustituida
▁meteorológicas
▁hotel
▁kozloduy
▁silguy
▁stihler
▁petersburgo
privadas
▁automoción
▁reinfeldt
▁dicta
▁realizara
▁espantoso
▁quejarse
▁adquiridas
▁auditor
▁expresarles
▁entramos
▁recibamos
▁íbamos
▁interpreta
▁evoluciona
▁accesorias
▁litros
▁museo
▁programada
▁participativa
▁reveló
▁solicitaron
▁maccormick
▁crezca
▁mágica
▁beber
▁introdujeron
▁adecuar
▁incoherencias
▁integradora
▁apartheid
▁representó
▁cubana
▁bienvenidos
▁negociados
▁gritos
▁abogamos
▁orgánica
▁pesan
▁acortar
▁infectados
▁preventivos
▁apareció
▁explicó
▁creativos
▁quedarían
▁mediano
▁reses
▁rights
▁vivían
▁ventajoso
solicitamos
▁redujo
▁cínica
▁nacer
▁exentas
▁131
▁feroz
▁imprevistos
▁evacuación
▁obsoletas
modificación
▁digitalización
▁divisoria
▁128
▁proclamado
▁antipopular
beneficio
▁perturbaciones
▁episodios
▁coordine
▁baviera
▁alcanzaron
▁incumplir
▁estúpido
▁descentralizado
▁opuso
▁liberen
▁requeriría
▁leemos
▁ánimos
▁irracional
▁proporcionales
▁perjudicaría
▁directorios
▁desconocimiento
▁definió
▁gaste
▁paralelos
▁ofrecería
▁inclusivo
▁censo
▁alquiler
▁identifican
▁sangrienta
▁cayendo
▁saldo
▁físicamente
▁insignificantes
▁cpi
▁perjudique
▁eximir
▁agresivo
▁113
▁afectó
▁implantado
▁detergentes
▁dolorosas
▁euroescepticismo
▁ayudemos
▁exagerar
▁utopía
▁deva
▁exigidas
▁goepel
▁beneficiando
myanmar
▁clausura
▁trayectos
▁sabiendas
▁cotonou
▁gahler
▁aesa
▁1049
▁google
aceptamos
▁merma
▁ciegas
valoro
habiendo
▁aceptaremos
▁incompetencia
▁querrá
▁mecánica
▁subido
▁requerida
▁obsoletos
▁ayuntamientos
▁huelgas
▁dientes
▁estableciera
▁prejuicio
▁especulativas
▁ordinarios
▁suicidio
ayuda
▁intensifique
damos
▁equivocan
▁ocultan
propone
▁viceprimer
▁contaremos
▁isler
▁reasignación
▁pronk
▁devaluación
diré
▁adjunto
▁recelos
▁ajenas
▁coordinarse
▁estratégicamente
▁folletos
▁alteraciones
▁tanzania
▁aseguraremos
▁condene
▁caiga
▁marido
▁constituyente
▁matan
▁fracasa
▁asistieron
▁grito
▁selectivo
▁premios
▁variar
▁sanas
▁precisamos
▁fiori
▁genético
▁lecheras
▁respetará
▁prohibirse
▁formaba
▁progrese
▁gobernado
▁dibujos
▁prets
▁unilateralismo
▁bielorruso
▁barómetros
▁arias
▁rnb
▁potočnik
▁billones
▁motivaciones
▁procesal
▁parecían
▁codificada
94
▁noveno
▁causaron
▁céntimo
▁requieran
▁myller
▁reloj
▁bowe
▁opcional
▁pidamos
▁señalamos
▁desagradables
▁asesino
▁correspondan
▁encontradas
▁honrado
▁graça
▁temáticos
▁dudan
▁clasificar
▁ponerle
▁láctea
▁pared
▁oscuros
▁indefensos
200
▁descuidar
▁tomaran
▁acusadas
▁testimonios
▁humor
▁solicitaba
▁charles
▁cenizas
▁reflejados
▁autocrítica
▁pensé
▁gobernadores
▁revisadas
▁tranquilo
▁revocación
▁precipitado
▁terneros
▁leyla
▁comercializan
▁restablezca
▁corrija
▁internacionalización
▁basaba
▁cuello
▁concluyen
▁radiactiva
▁refundida
▁filiales
▁nisticò
añadiré
▁blasfemia
▁ucraniana
▁euroviñeta
▁erdogan
▁wortmann
déjenme
▁peculiar
▁restrictivos
▁debatan
▁sacrificado
▁añadiré
▁tibetana
▁reflejadas
▁condicionado
▁reformada
▁alejamiento
▁eliminará
▁asiática
▁castiga
desea
▁explotado
▁compatriota
▁surgirán
▁analizarse
▁contrasta
▁sam
▁ascendente
▁abundantes
▁confirmo
▁racionalidad
▁impulsada
▁intermedios
▁whisky
▁mantenidos
▁coloniales
▁empezará
▁subsiguientes
▁armenios
▁arquitectos
▁implacable
▁entrara
▁esclarecer
▁paulatina
▁sospecho
▁añadimos
▁daña
▁conmemorar
▁arbitrariedad
▁indebida
▁porcino
▁decidamos
▁reacios
▁respaldados
▁toulouse
▁afirme
▁aseguradoras
▁intencionada
▁aprendices
▁kuhne
▁endeudados
▁guardias
siguen
▁revoluciones
▁continentales
▁justificable
▁egeo
▁acercan
▁bancarrota
▁hallazgos
▁heroína
▁comprando
kool
▁shalit
▁suscitó
▁condenan
diría
▁indiscutiblemente
▁abandonando
▁deseosos
▁mesas
▁semanal
▁bastará
▁haciéndose
▁haider
▁inspiran
▁esquemas
▁imbeni
▁loables
▁destacamos
▁jerga
▁sobrepasado
▁cumplimos
▁nulo
▁descubre
▁figuren
▁domésticas
▁huido
▁expira
▁maltrato
▁alentadoras
▁trasera
▁pusimos
▁docena
▁entraron
▁transmitirles
▁detractores
▁fortalecerá
▁agravando
▁envasado
▁formulé
▁preocupaba
▁autoritarios
▁obstaculiza
▁desastrosos
▁represivos
▁stauner
▁frenado
deberá
▁madura
▁injustos
▁cínico
▁maat
serbia
▁encargó
▁judicatura
▁catherine
▁cardiovasculares
▁bullmann
▁monjes
▁mostrará
▁dándoles
▁permítaseme
▁dieran
▁compararse
▁danesas
▁yugo
▁ocurría
▁mías
▁distinciones
▁presuntos
▁menoscabar
▁príncipe
▁armoniosa
▁condolencia
▁requerimientos
▁movido
▁interrupciones
▁recortando
▁complete
▁indirectas
▁tenerla
▁previsibles
▁gestionarse
▁coacción
▁escandinavos
▁inste
▁informando
▁parámetro
▁apoyarán
▁estudiaremos
▁atreve
▁inestables
▁sustituirá
▁oficio
▁intensifiquen
▁responsabilizar
▁béguin
▁establecimos
▁inquietantes
▁bombardeo
▁alegrado
▁anticuada
margallo
▁alertar
▁hierro
▁1974
▁emplazamientos
▁pantallas
▁remontan
▁cumplió
▁controlarse
▁universitario
▁proverbio
▁parada
▁alzado
▁tonelaje
▁vinícola
▁reapertura
▁basarnos
▁patrocinio
▁comercios
▁cultivan
▁secundarias
▁represivo
▁ratifica
▁concluirá
▁proporcionarán
▁basándome
▁sacando
▁tunecinos
▁inyección
▁protegernos
▁compensatorios
▁eurozona
▁realizarán
▁aceptarán
▁seveso
▁inseguros
▁pittella
▁sinn
▁moraes
▁ucranios
▁vries
sra
▁contentarnos
▁imaginarse
▁sumergida
internet
▁suscribe
▁superfluo
▁1957
▁modifiquen
▁potentes
▁armonioso
▁infractores
▁sistemáticos
▁hablaremos
▁interestatal
▁enjuiciamiento
▁consistentes
▁academia
▁debilitan
▁sobrepesca
▁comunicó
▁transmitirá
▁is
▁indicaba
▁kosovares
▁dinámicos
▁opongan
▁repercutirá
▁deseables
▁combatiendo
▁querríamos
▁inscribirse
▁adaptabilidad
▁cambió
▁llegué
▁kindermann
▁aceptarlas
▁pensó
▁proyección
▁escuché
▁inequívocas
▁clasificados
▁colabora
▁evolucionando
▁divulgar
▁encontré
▁sugirió
▁informarnos
▁discuta
▁watts
▁1973
▁subcontratación
▁examinados
▁registrarse
▁tristes
▁lanzando
▁mensuales
▁derramamiento
▁amplían
▁terapéutica
▁uefa
▁modificó
▁anticipación
▁consigna
▁rechazarse
▁activista
▁fabra
▁laperrouze
▁hampton
▁convenido
▁prestara
▁vehemencia
▁perjudicadas
▁prejuzgar
▁salvamento
▁acumular
▁amberes
▁olvidarlo
▁servirnos
▁equivocación
▁efectúe
▁perjudicada
▁organizativa
▁limítrofes
▁intromisión
▁defendida
▁cuestionan
▁tratase
▁llevemos
▁reciclar
▁patronal
temo
▁solitario
▁elija
▁prosecución
▁resueltamente
▁suspenda
finlandia
▁190
▁emancipación
▁manifesté
▁mandela
▁vernos
▁concentrarme
▁sorprender
▁reflexionando
▁cuantificables
▁reformarse
▁envejece
▁emergente
▁piecyk
▁notificado
▁watch
▁insostenibles
▁colonialismo
▁candidaturas
▁basó
ee
▁desapariciones
▁provisiones
▁derivar
▁pablo
▁asiste
sistema
▁remedios
▁abreviada
▁convirtiera
▁monumentos
▁mejoradas
▁ahorradores
▁islamista
▁moscovici
▁toxicidad
▁colombiano
brasil
▁búlgara
▁nagorno
▁cars
▁netanyahu
▁trautmann
▁macartney
▁pasty
▁tormentas
▁unánimes
creen
▁cubran
▁repiten
▁retrasando
▁pormenorizado
▁definiendo
▁subrayamos
▁apoyarlas
▁consideraría
▁comprometidas
▁fascistas
▁afirmo
▁anuncian
▁dependan
▁destinará
▁dejaré
▁operando
▁venideras
▁hostiles
▁oponer
▁air
▁marginales
▁centró
▁acabaría
▁subvencionados
▁eet
▁listón
▁asegurarme
▁discrimina
▁cambiarse
mencionaré
▁cobrando
▁exporta
▁encontrados
▁cómplice
▁bos
▁tranquilos
▁leí
▁lucrativo
▁satisfagan
▁absolutos
convendría
▁interpol
▁atrae
▁cárnicos
▁arancelario
▁disculparme
▁criticada
▁candente
▁artesanales
sección
depende
▁desalentar
▁artística
▁hombro
▁bin
▁dalli
▁atreven
▁avalancha
▁esfuerce
▁world
▁ocurriría
apruebo
▁promoverse
▁negaron
▁dañado
1998
▁obsoleta
▁fracasó
▁lidiar
▁influyente
▁expuso
▁cercanía
▁elocuente
▁simboliza
▁financial
▁gasòliba
▁tuviesen
▁ponerlos
▁decidirán
▁ilícitas
▁defendió
▁asimilación
▁captar
▁iniciados
▁aspirantes
27
▁restringen
▁equitativamente
▁ovina
▁substancias
▁fila
▁formularle
▁enviaron
▁ficción
▁hermoso
votaré
▁requeridas
▁baza
▁entenderá
▁complacería
▁reforzaría
peter
▁cotización
▁preguntando
▁combates
▁discriminatorios
▁incrementen
india
▁secos
▁resolverán
▁observarse
▁fascinante
▁iceberg
▁carnes
▁sarnez
▁escogido
▁egipcias
▁cívica
▁confiscación
▁oleaginosas
▁169
▁santini
▁reiteró
▁gigantesco
▁aptitud
▁árbitro
▁soportado
▁circuitos
▁concentre
▁agrupar
▁fundado
▁seguidos
hubiera
▁indulgencia
▁traspasar
▁doscientos
▁ocuparme
▁especulaciones
▁schörling
▁merecía
▁preparó
concluyo
incluye
▁negoció
▁evitaría
▁obtenerse
▁104
▁propicia
▁décima
▁autóctonas
▁votara
▁eslogan
▁sudamérica
▁agravamiento
▁villiers
▁formarán
300
▁iniciando
▁alentado
▁concebidas
▁gravísima
▁smith
▁extensamente
▁lucidez
▁llamarse
▁brennero
▁nórdico
▁poseemos
▁transmitió
▁silenciar
▁focos
▁oficios
▁contratados
▁residenciales
▁impondrá
▁preparamos
▁asocia
▁asegurados
▁acercado
▁arrestados
▁impulsará
▁infringido
▁bacterias
▁vallés
▁mubarak
▁sucesores
breve
▁gorsel
▁potencialidades
sec
▁provoque
▁televisiones
▁semejanza
▁entendida
▁prestó
▁famosos
▁investiguen
▁engañoso
▁123
▁demostrarlo
▁respetable
respaldamos
▁transmitan
▁procure
▁olviden
▁barrio
▁discriminados
▁incrementan
▁milán
▁consumido
18
▁permitidos
▁recuperen
▁palo
▁tensa
▁descargar
▁marset
▁centradas
▁articular
▁conciencias
▁estructurar
▁réplica
▁guiado
▁os
▁pudiendo
▁lógicas
▁espantosa
▁predominantemente
veamos
▁indeseables
▁palabrería
▁pionera
▁vendido
▁barbecho
▁ocasionan
▁compartiendo
▁llamaría
▁lecturas
▁vinieron
▁supremacía
▁infundadas
▁combatirse
▁colonización
▁volviera
▁tamiles
▁caigan
▁arbitrarios
▁salvaguardas
▁desempeñarán
▁cumplirán
▁ocasionando
▁compitan
▁sacan
▁ayudó
▁gobernante
▁debatieron
▁reintroducción
▁consulares
▁belarusos
▁kyprianou
▁costó
▁causará
▁ágil
▁comenzaré
▁corpus
estado
▁salta
▁ejercerá
▁prescripciones
▁señaladas
▁debilitada
▁lavado
▁escatimar
▁padecido
▁navidades
▁ejecutadas
▁descansa
▁convence
▁necesitaban
▁soluciona
▁formalidad
▁violados
▁retiró
▁decisorios
▁dañan
▁originarios
▁desiguales
podremos
▁incurrir
▁mantuviera
▁ghilardotti
▁reflexionen
dudo
▁remita
millones
▁prohibiendo
▁escocesa
▁preocupadas
▁incalculables
▁enumera
teníamos
▁nexo
▁regresado
▁derrocar
▁candidata
▁proporcionarnos
▁corrupto
▁voggenhuber
▁largamente
▁extensas
demuestra
▁pescan
▁infrautilización
▁estévez
▁constructivamente
▁guión
▁paralizar
▁engorde
▁deprimente
▁estimulará
▁matadero
▁genéticos
▁debilitando
▁circo
▁tentativas
▁mario
▁encarar
▁desinformación
▁cocina
▁acreditación
▁carcinógenas
▁féin
▁borg
▁donnelly
▁aconsejar
▁crónicas
▁críticamente
▁aplicándose
▁abstracto
▁hulten
▁tardará
▁severo
▁suministran
▁implícitamente
seguridad
▁faltas
▁celo
▁saluda
▁encomendado
▁multiplican
▁evitemos
▁emigrar
▁dimitrakopoulos
▁disculpe
austria
▁mantenerlo
▁xenófobos
▁traduzcan
▁grueso
▁comprado
▁aumentarse
▁ruidos
▁permanecerá
▁preocupar
▁existiría
▁referirnos
diez
▁hecke
▁discutió
▁vendrán
▁apreciable
▁probados
▁sakellariou
▁235
▁bajado
▁merecer
▁cazadores
▁terminen
▁descendente
▁arraigado
▁emitidas
▁rectificativa
▁homólogo
▁justifiquen
▁saliendo
▁botellas
▁acabando
sospecho
▁rompe
omc
▁tomados
▁agendas
▁intermodalidad
▁pasivos
▁marie
▁múnich
▁musharraf
aplicación
▁hökmark
▁escolarización
▁preferentemente
▁prósperas
▁cambiantes
▁vertical
▁aumentaron
▁normativos
▁irregularidad
▁tigre
▁chocante
▁palpable
syn
▁menciono
▁munich
▁habitan
▁iniciadas
▁contaminar
▁auschwitz
▁pensaban
▁encubierta
▁descritos
▁explotando
▁aprovisionamiento
▁coincida
▁;
▁elegibles
▁optamos
▁felicitarse
▁colaboraciones
▁ultimar
▁contaminan
▁cuánta
▁desembocado
▁ventajosa
▁supondrán
contiene
▁incesante
▁ocupemos
▁informarse
▁atrevido
▁predominio
▁deseadas
▁desplegados
▁ries
▁desama
▁fernández
▁bloqueados
▁cerrarse
▁1950
▁nefastas
▁implícita
▁castigado
▁publican
▁carnero
▁librando
▁eficientemente
▁elefantes
▁colorantes
▁mcmillan
▁dominada
punto
▁ejecutados
▁650
▁permitida
▁sometiendo
▁esloveno
▁srebrenica
▁mineros
▁asentamiento
▁trabajaban
▁menrad
▁marginadas
▁caprino
▁laden
▁sommer
▁ertms
▁referían
▁reproche
▁desaparecerá
▁imprevisibles
▁parecidos
▁tnp
▁comencemos
▁­
▁desapareciendo
▁presentemos
▁residan
▁relacionar
▁consideraron
▁cáñamo
▁dirijan
▁inscribir
▁verbal
▁concluyente
▁referéndums
decimos
▁aclararse
▁determinen
▁repetidos
▁asombro
▁homogéneo
incluida
hacen
▁traslade
▁obtuvieron
▁presentase
▁contemplen
▁descendientes
▁intermediario
▁fervientemente
▁facilitarles
▁egoísmos
▁oscuro
▁selectivos
▁faltar
▁inusual
▁registraron
▁lograrán
▁instalado
▁restar
▁yacimientos
▁pez
▁incluiría
▁establecerán
▁niña
▁felicitarles
▁análoga
▁remitió
▁normalizado
▁corregido
▁anarquía
▁accedido
▁busk
▁escollos
▁consolide
▁conserve
▁anomalía
▁descrita
scott
▁formulario
▁acabaremos
▁requerirán
▁tacógrafo
▁adultas
▁complacen
▁heaton
▁eur
▁reinante
▁validación
▁baterías
▁gdansk
▁nanotecnologías
▁ecall
▁kuneva
▁klinz
▁antidúmping
▁orbán
▁distinguidas
▁fractura
▁capitalización
▁verticales
▁ilustrado
▁repugnante
▁denuncian
▁paradójicamente
▁indignante
▁astillero
▁noches
▁socorro
▁indemnizar
▁distan
▁estudiarse
▁definitivos
▁supriman
fui
▁maria
▁bastaría
▁agresivas
▁gracia
▁contrapeso
▁generaría
▁altener
▁encabezado
▁extremista
▁paralizado
desarrollo
▁fatal
▁insular
▁incorporada
▁admitidos
▁exclusiones
▁rin
▁dejara
▁afirmativa
▁desfase
▁divididas
▁obviar
▁caña
▁presiona
cientos
▁flaco
▁utilizarlas
▁sobreexplotación
▁transatlánticos
▁quiebras
▁trecho
▁perseguidas
▁delfines
▁apoyaría
▁sustituyendo
▁recordaba
▁aprobarlo
▁bioética
▁añadidura
▁derrotar
▁forzadas
▁biblioteca
▁procedamos
▁conocía
▁pudiésemos
▁supo
▁blottnitz
▁publicarse
▁llegaría
▁rwanda
▁corbey
cooperación
▁sadc
▁tamaños
▁uu
▁reiteramos
▁adverso
lejos
▁anastassopoulos
▁recomiendan
▁ecopuntos
ten
▁autogobierno
▁inoportuno
▁olas
▁arduamente
▁brinkhorst
▁adhirieron
▁laval
▁harkin
▁distinguida
▁consultiva
▁óptimas
▁precioso
▁abusivas
▁arriesgado
▁regalos
▁diecisiete
▁durará
▁preguntarme
claude
▁emitiendo
▁dirigirnos
▁diametralmente
▁lean
▁cerciorarnos
▁kouchner
▁alteración
▁teórica
principalmente
▁ciegos
▁arrancar
▁ponía
▁necesitaría
▁histeria
respeto
▁suspenso
▁obligó
▁incontables
▁obstaculizado
▁recompensar
▁resurgimiento
▁ofrecerse
▁húmedas
▁optimización
▁apasionante
▁originaria
▁demandan
▁acogidas
▁predicar
▁anticuado
▁homogénea
▁comúnmente
▁analizará
▁afrontado
▁desconoce
▁esforzando
93
▁nocturno
▁beneficiarían
▁fascista
▁herida
▁checheno
▁balances
▁activación
▁agregar
▁partimos
▁consorcios
▁incompleto
▁dudosas
▁estancado
▁human
▁caridad
▁tunecino
▁intervalos
▁consecutivo
▁predicciones
▁medianoche
▁vídeo
▁fourtou
▁azucarero
▁sirvió
▁intentarlo
▁goce
▁mineras
▁stockmann
▁competiciones
▁winkler
mejorar
▁persuasión
▁pasaré
▁vendiendo
▁wim
▁remunerada
▁app
▁rse
▁ashraf
▁microentidades
▁dijk
▁imponemos
▁alfabetización
▁respondo
▁aproximado
harris
▁soporta
▁velando
examinaremos
▁inacción
▁abordada
▁sentirán
▁delegado
▁sirio
▁albergan
▁quepa
▁pasaron
▁urss
▁precipitación
▁berger
▁harto
votaremos
▁diferenciadas
cuento
▁colabore
▁agravada
▁disfunciones
▁consistido
▁petrolíferas
▁sensatos
▁antipersonal
▁estuviéramos
▁querrían
▁don
▁gordon
▁míos
▁subraye
▁stenmarck
▁esquina
▁aires
▁diverso
▁vendidos
▁anónimas
▁incorporando
▁cielos
▁metano
▁subyacen
▁secretismo
▁precarias
▁gatos
▁consensuado
▁equivalen
proyecto
▁sorprendentes
▁gahrton
▁documentado
▁renegociación
▁lágrimas
▁celebraciones
▁prosigan
▁cumpleaños
▁insularidad
▁declararon
▁transmitiendo
▁energéticamente
▁alimentados
▁jaulas
tsagaropoulou
▁restringiendo
▁desvinculación
x
▁henderson
▁penalizaciones
▁septentrionales
▁aceleren
▁alcanzarán
▁minimis
▁pecado
▁justificadamente
400
▁castillo
▁conteste
▁discutirlo
▁ejecuta
▁estupidez
▁langenhagen
▁bastidores
▁dependerán
▁preocupamos
▁decencia
▁torturados
▁superioridad
▁cautelar
▁abusiva
▁usual
▁mejorarla
▁metal
▁vendedor
▁variante
▁caminar
▁desencadenado
estuve
establece
▁venía
▁embarcado
▁traen
▁galería
▁indonesio
▁solicité
▁vulneraciones
▁finalidades
▁desenfrenada
▁correctivas
▁revelador
▁sumado
subrayo
▁dramas
▁fragmentada
▁plantearía
▁almuerzo
▁attwooll
▁participante
▁audacia
▁vigile
▁variadas
▁suscritos
▁intacto
vale
▁rivales
debates
▁formalizar
▁incluían
▁145
▁requeridos
▁consensuada
▁negociables
▁regresen
▁familiarizado
▁distritos
▁friedrich
▁anime
buena
▁inhumanos
▁ratificaciones
▁libaneses
▁eufor
▁incumbencia
▁encauzar
▁despoblación
▁evidencias
▁reparaciones
▁petrolera
▁nombrados
▁leyendo
▁ocupaba
▁severamente
▁adhiero
▁ahorrado
▁convirtieron
▁derogar
▁negándose
▁presentaría
▁toxicomanía
▁nacen
semejante
▁augurio
▁característico
▁haberla
insistimos
▁polémicos
▁agujeros
queríamos
▁habana
▁intensivos
▁adherirme
14
▁pioneros
▁pesadas
▁disfrutando
▁doblemente
▁vela
▁atribuyen
▁atravesamos
▁expresaba
▁luche
▁agotar
▁vendedores
▁impera
▁fundamentado
▁lejanos
▁indiquen
agradecemos
▁imprevistas
▁arenas
▁decepcionantes
unión
▁animarles
▁coronas
▁armamentística
▁especialidades
▁neoliberalismo
▁vigésimo
▁acercando
▁casadas
▁adulta
▁remuneradas
plan
▁suplicatorio
▁pakistaníes
▁lesbianas
▁capturados
▁oleoducto
▁transplantes
▁alc
▁nepad
▁pinheiro
▁toubon
km
▁hu
▁caótica
▁parado
▁fijas
fundamentalmente
▁299
▁ultraliberal
▁tabla
▁resultara
▁despedir
▁hábil
▁viajado
▁proyecta
▁estudia
▁desplegado
▁psicológicos
▁perdería
▁credo
▁decírselo
▁surgidas
▁comandante
▁estimulando
▁ángulo
▁retrase
▁redistribuir
▁interpretan
▁conduciendo
▁publicitarias
▁huida
haré
▁perseverar
▁defendible
▁reflexionado
▁alimenticio
▁invertimos
▁orienta
▁desarrollemos
▁típica
▁acerque
▁informaré
▁proseguirá
▁presione
▁jungla
▁facilitó
▁brian
▁reiterando
▁logístico
▁abusivo
▁ofrecerán
▁apasionado
▁peligrosamente
▁tiro
lucha
▁negocie
▁dañinas
▁cemento
▁parangón
▁campamento
▁marcharse
▁prevalezcan
▁supervisoras
▁olsson
▁tolera
▁paraíso
▁olvidadas
▁fresca
▁kilo
▁contarán
▁respaldará
▁rodante
▁ruinas
▁unieron
▁pusieran
▁héroes
▁vasta
▁trabajó
▁venecia
▁preparen
▁ucranio
▁pasarela
▁fiyi
▁localidades
▁medirse
▁jurisdiccionales
▁trasladen
▁ilícita
▁recurra
▁carecer
▁pregunte
▁dueños
▁hombros
▁expresé
▁depositar
▁querrán
▁destinatario
▁indefinida
▁incluirlo
▁extrae
▁reafirmó
▁denunciando
▁enmarca
▁síntoma
▁creíamos
▁explosiva
▁desplazado
▁enfrentaremos
▁injustificados
▁arrastrar
▁contraposición
▁padecer
▁multiplicador
▁devueltos
▁protector
▁orilla
▁añadió
hacia
▁horizontes
▁cooperativo
▁sabio
▁violen
demasiado
▁sombras
▁égida
▁cuartel
▁perpetuar
▁apropiación
▁hermosa
▁subordinación
▁escuchas
▁negocian
▁indefinido
quinto
▁juguete
▁arroja
▁contagiosas
24
▁incipiente
▁destaco
▁martín
▁asentimiento
▁atravesar
▁mediciones
▁reanudará
▁analicen
▁south
▁predisposición
▁rechazados
▁alertas
▁deroga
▁andadura
▁adaptarnos
▁facilitarse
▁aplicabilidad
▁121
▁destaque
▁filtros
▁vaticano
▁mauro
▁devuelvan
▁capacitados
▁sanders
▁kivu
▁expiatorio
▁orlando
▁giansily
▁integrando
▁citaré
▁siderúrgica
▁felicite
▁agilidad
▁conjunción
▁disuasorias
conque
▁devastado
▁abarcará
▁estimule
recuerden
▁disminuya
▁suministra
▁exterminio
▁relacionan
▁serbias
▁solemnes
▁frustraciones
▁convertirla
▁ponerles
▁distanciamiento
▁seguidamente
▁apreciaciones
▁zanahoria
▁rígidos
▁veía
▁des
Últimamente
▁sorprendentemente
comunicación
▁aldeas
▁modestas
▁criadores
▁contrataciones
▁entrenamiento
▁permitiremos
▁seríamos
▁davos
▁autenticidad
▁pesimistas
▁encarceladas
▁soñar
▁ami
▁reunirán
▁mediática
▁penaliza
▁circuito
▁tuviésemos
▁alcoholismo
▁dimitir
▁brujas
▁relajar
▁frustrante
▁reorganizar
▁dominan
▁147
▁ocupantes
▁especificación
▁especificado
▁deudores
g
▁pesquería
▁potestad
▁tóxico
▁centroafricana
▁sal
▁contratistas
▁teorías
▁119
▁soviéticos
▁moreira
▁chivo
quaak
’
▁Šefčovič
▁díez
▁sentada
▁presentarla
▁contribuiremos
▁aprovechemos
▁agrupación
robles
▁ilícitos
▁perverso
▁comen
▁lineal
▁leales
▁ente
▁neta
▁Única
▁ciego
▁originario
▁anulado
▁regirse
▁comprador
▁enmendado
▁felizmente
▁sapard
▁paisajes
▁operatividad
▁valenciana
▁cuantitativas
▁procediendo
basándose
▁enfrentará
▁indicados
▁soberanas
▁disminuyen
▁lipietz
▁contencioso
▁intimidar
▁enviadas
▁dispondrán
▁facilitados
▁conformar
▁citas
▁aprendamos
▁simplicidad
▁interese
▁mosaico
▁propondría
▁rodeado
▁anne
neyra
▁multilingüe
▁gestione
▁élites
▁cartagena
▁desencadenar
▁mayer
▁estarlo
directiva
▁garrido
▁290
▁pertenezcan
▁sexualidad
▁priorizar
▁experimentamos
▁vulnera
▁atletas
▁mostar
▁recíprocas
▁aceh
▁actualizados
▁revisará
▁durão
▁alvaro
▁mavrommatis
▁jia
▁midlands
▁nociones
▁egoístas
▁disuasión
▁seleccionado
▁cálida
▁examinarlo
▁prometida
▁anteayer
▁colonos
▁asienta
▁abordadas
▁regularización
año
▁mantuvieron
▁muertas
▁conferido
▁aplicarlos
▁rotundidad
▁/
▁kaufmann
▁intransigencia
▁desconcertante
▁formarse
▁mencionarse
▁acuciantes
▁ingrediente
▁dictatoriales
▁asociarse
▁enumerado
▁reevaluación
▁bloquean
▁afrenta
▁incompatibilidad
▁condado
▁observó
▁geopolíticos
▁combinadas
▁complica
▁explicarlo
▁formularon
▁pagarán
▁transfieran
▁mathieu
observamos
▁corra
empezaré
decir
▁acidificación
▁secuelas
▁separarse
▁abusan
▁sagrado
▁opusieron
▁bloch
▁contundencia
▁cierren
▁predecible
propuestas
▁espere
▁agradecimientos
▁faenan
▁conserven
▁efectúan
▁cumplían
▁dover
▁facultativa
▁holte
▁desilusión
▁interfiere
▁alabanzas
▁hueso
mantener
▁monuc
▁saakashvili
▁gräßle
▁Ţicău
▁puntualizaciones
▁wulf
▁humanista
▁asigne
continuaremos
▁intermedias
▁llevaban
▁parientes
▁renuncie
▁cauces
▁traslada
▁trataron
▁equal
▁terminación
▁exclusivos
▁circula
▁efectúen
▁exportados
▁resonancia
agradecería
▁task
▁intervinientes
▁370
queridos
▁llamas
▁querida
▁cork
▁laborioso
▁enfocado
▁ignore
▁molesto
▁contemplando
▁cesado
▁distribuyen
▁posean
▁114
▁1977
▁variados
▁enfocada
▁necesitaríamos
▁rosa
▁excede
▁escandalosas
▁extenderme
▁mauricio
▁resumirse
▁formulo
▁talentos
▁inmensos
▁subcontratistas
▁gays
▁curiosamente
▁scheele
pongamos
▁concluyeron
▁dulce
▁jové
▁noreste
▁oscuridad
▁importadas
▁experimentales
▁organicen
▁contribuimos
▁nutricional
▁dota
▁privatizar
▁amablemente
▁pensábamos
▁calificó
▁acuerde
▁reforzarán
▁desesperados
▁ternera
admito
▁conquistar
▁asistió
▁136
▁delhi
▁its
▁posicionamiento
▁ecu
▁boogerd
▁khadraoui
▁herczog
▁kilos
▁consolidando
▁remisión
▁arraigada
▁planeando
▁fundamentar
▁mostremos
▁moratinos
▁disfrutamos
▁optó
▁reflejará
▁presido
▁ingenuidad
▁kg
▁calculan
▁originariamente
▁alimentado
▁monstruo
▁conservando
▁denegado
▁externalización
▁valoran
▁schierhuber
▁micrófono
▁delimitar
▁choques
▁verle
▁correspondía
▁sinfín
volveré
▁matado
▁inaugural
▁denunciamos
▁connivencia
▁llenas
▁antisocial
▁pretextos
▁disparate
▁inspirada
▁adoptase
▁atrasados
▁1951
▁1968
▁veterinarias
▁multimedia
▁estilos
▁dictados
▁suicida
▁velo
▁desconocidos
▁retenido
▁euromediterráneos
▁entrevistas
▁gratis
▁pasarse
▁vueltas
▁oleadas
▁111
▁arrojado
llegados
▁broma
▁herbáceos
▁verificado
▁congelado
▁inspeccionar
▁plantación
▁vendan
▁georgiano
▁expulsado
hungría
▁proporcionó
▁uigures
▁reintroducir
▁salmonela
▁143
▁respetemos
▁investidura
▁emitan
▁redactando
▁notificaciones
▁criticando
▁cesión
▁entrañar
▁examinarán
▁reducimos
▁difundido
▁cristal
▁gane
▁llave
▁ejecutan
▁dotados
▁exime
▁antonio
▁construyen
▁entraré
▁lobo
estimado
▁invite
▁ingenuos
▁firmamos
▁adicionalmente
▁deriven
▁provan
▁sufrirá
▁distantes
▁núcleos
▁induce
▁austral
▁leen
▁sumisión
▁comprometemos
▁verla
▁censurar
▁preguntarles
▁demostremos
▁comprobarlo
▁espléndida
▁estudian
▁1960
▁realicemos
▁solucione
▁impotente
▁conectados
▁liquidar
▁asegurada
▁presunto
▁concederles
▁echando
▁misterio
▁cobarde
▁habilitar
▁experta
▁depuración
▁diferenciados
▁inapropiada
decisiones
▁aguda
▁fisuras
▁rincones
▁pronósticos
▁infringiendo
▁célebre
▁chris
▁p
▁sustituirse
democracia
▁incluyeron
▁registrando
▁miremos
▁atacando
seis
▁transformados
▁hablara
▁explota
▁lloyd
▁legalizar
seré
▁otorgada
▁simplificando
▁terapéuticos
▁socrates
▁capturar
▁neyts
cuarteto
▁transporta
▁primar
▁humildad
▁europeización
▁ratificados
▁marque
▁audición
▁recuerdos
▁causantes
▁prestarles
▁reforestación
▁confeccionar
▁felicidades
▁alegato
israelí
estimamos
▁corona
▁poquito
▁voluntades
▁organizará
▁sustituidos
▁imponerles
sean
▁insistentemente
▁advierto
▁cómodo
▁silenciosa
▁vacunados
▁fijaron
▁íntegro
▁subterránea
▁pensada
▁permitirme
▁ejecutarse
▁cumplidos
▁formularse
▁queiró
▁categórica
mejor
▁merecería
▁desesperadas
▁coincidido
▁noruego
▁aplicaran
▁considerara
▁envase
▁concernientes
▁producimos
▁sobrepasan
▁pasara
▁pandora
▁intracomunitario
▁japonesa
▁permitiéndoles
▁esbozar
▁christodoulou
▁rivalidad
▁degradante
▁hueco
▁antoja
▁declarando
▁bebé
▁garantizo
▁publicitarios
▁resumido
▁eee
▁estabilizadores
▁liu
▁profesorado
▁erróneos
▁estadios
▁funcionó
▁afecto
▁pristina
▁&
▁nigeriano
▁inmobiliario
▁solares
▁ignalina
▁valenciano
▁fatah
▁audy
▁vondra
▁contestadas
▁seguían
mathies
▁vendría
votamos
▁destructiva
▁ifop
▁alfombra
▁amarga
▁humillante
▁prometedoras
▁infame
▁proveniente
▁criminalización
piensen
▁expliquen
▁buscarse
▁alegraría
▁renacimiento
▁juzgará
▁cosechar
▁discrepamos
▁tardan
▁paréntesis
▁organizativo
▁volkswagen
▁eliminados
▁insultos
▁contenciosos
▁vascos
▁oscuras
▁proyectar
▁sicilia
▁interdependientes
▁damas
prácticamente
▁resolviendo
▁clínicas
▁dudosos
▁coyuntural
▁idóneas
▁honrados
▁mongolia
▁implicando
▁enferma
▁that
▁disculpa
▁alzar
▁socavado
▁desconocen
▁dividendos
▁subiendo
▁fachada
▁enunciado
▁impulsora
▁costaría
▁letras
▁perjudicará
▁favorecida
▁fama
▁estalinismo
▁óxidos
▁cerdo
▁remitirse
▁inicios
▁encubrir
▁degradantes
▁portabilidad
▁preescolar
▁korhola
▁techos
▁vacantes
▁cerró
▁extraterritoriales
▁reprocesamiento
▁mutilaciones
▁emprendiendo
▁enfermas
▁reforzados
▁equipar
▁remolques
▁conseguiría
▁graduación
▁ime
▁sacrédeus
▁revueltas
▁romeva
▁foca
▁topolánek
▁győri
▁emitirá
▁despegue
▁esforzará
▁siderurgia
▁reclamamos
▁sobrecarga
▁agravan
▁siniestro
▁cuantificar
▁prolongadas
▁concedieron
▁sugiriendo
▁turnos
▁opacidad
▁multifuncionalidad
▁böhm
▁ofensa
▁estalinista
▁irrenunciable
▁epígrafe
▁invoca
▁aptos
▁excluirse
▁elefante
▁acentuar
▁corporaciones
▁plasmado
▁apartar
▁apunte
▁102
▁schleicher
▁vistos
▁850
▁comparativos
▁creyentes
▁escollo
salvo
▁botón
▁fluido
▁atribuidas
the
▁abolido
▁economista
▁sumido
▁variada
▁precedida
▁hablarles
▁destinarán
▁aportadas
▁proposición
▁reequilibrar
▁argumentado
▁fantasía
▁angela
▁bill
▁desglose
▁analizan
▁dogmas
▁supervise
▁exigida
▁saharauis
▁ecuador
▁contradecir
▁simplificarse
▁impulsan
▁tabúes
▁contratado
▁pesos
▁asimetrías
▁comunicarnos
▁incansable
▁eplp
▁convencernos
▁cónyuge
▁combinarse
▁maquinistas
▁radiactividad
▁cook
▁coexistir
▁desarmar
▁trabajaron
▁surgidos
▁estuviesen
▁comportará
▁rayo
▁tripulantes
▁atreverse
▁city
▁tjce
sis
▁zappalà
▁búlgaras
▁nordmann
▁papastamkos
▁mccartney
▁europeana
ancona
▁duró
▁inactividad
▁concienzudo
▁interrelación
▁programar
▁progresión
▁lejana
▁abundante
▁descartado
▁ruiz
▁ocupante
▁exposiciones
▁proporcionalmente
▁juzga
▁fortalecida
▁humanismo
habríamos
▁patronos
▁imprudente
▁pospuesto
▁sustantivo
▁tenida
▁acreedor
▁probada
▁elogiado
▁considerarán
▁inocuidad
▁lago
mucha
▁abstengan
▁tomas
▁coherentemente
▁razas
▁protectora
▁fluida
▁captación
▁bazas
▁fortalecerse
▁centrándonos
▁deportaciones
▁discutamos
▁navegar
▁influirá
▁descargas
▁filósofo
▁concediera
▁lograda
▁renegociar
▁paralelismo
▁concebirse
▁saddam
▁transfieren
alrededor
▁pidiera
decisión
▁tamil
▁insuficientemente
▁com
▁concluirse
▁estipulan
▁aromas
▁domina
▁cena
▁fructíferas
▁gaélico
▁geoestratégica
▁visitamos
▁collado
▁decadencia
▁financiará
▁recelo
necesita
▁llevarlas
▁bonificaciones
▁transferirse
▁atascos
▁describirse
dejando
▁veinticuatro
▁ayudaron
▁zagreb
▁transferidos
▁salieron
▁supondrían
▁andré
▁importamos
▁maystadt
▁joseph
▁konrad
▁jartum
▁rotatoria
▁implementadas
▁erupción
▁hutchinson
▁indnr
▁bielorrusos
▁gál
▁batzeli
▁lambsdorff
▁thomsen
▁falconer
▁obligaría
▁convenientes
▁dramáticamente
▁considerarla
▁corresponsabilidad
▁satisfechas
▁revelación
▁marcador
▁discrepar
▁propugnar
▁dañinos
▁vencido
▁acuerda
▁ejecuten
▁exageración
▁implante
▁vieran
estaremos
▁consuelo
▁ansia
▁inexistentes
▁intensivas
▁turba
▁trasladados
▁omitido
▁ocultas
▁acabemos
constato
▁pirineos
▁comenzarán
▁aguardan
▁diluir
▁oírle
▁formulen
▁despejar
▁apego
▁sucediera
▁schwaiger
▁practicada
▁promotor
▁delicadeza
▁incansablemente
▁cortina
▁abocados
▁consultó
▁explotadores
▁levantarse
▁femeninas
▁atípicos
▁tokio
▁urbanización
▁cabía
▁autóctonos
▁ofrecía
▁reaccionó
▁mitos
▁reticentes
▁desequilibrado
▁inventado
▁hermanas
▁inspire
▁paraguas
▁comparativo
▁identifique
▁busquemos
▁descuidado
▁solían
▁autoritaria
▁entusiastas
▁126
▁resistido
▁esforzándonos
▁pondré
▁mostraba
▁neerlandesas
▁acalorado
▁inclinación
▁simplificará
▁rodado
▁birmana
▁bebida
▁islamismo
▁fallecidos
▁proporcionarse
▁campeones
▁agroalimentaria
▁conglomerados
▁eutanasia
▁exenta
▁qatar
voté
▁siberia
▁contratiempos
2012
▁damasco
▁gbagbo
▁balkenende
▁mari
▁reul
▁busuttil
frontex
▁incorporados
▁dam
▁lejanía
tendríamos
▁corolario
▁discrecional
▁presentarlo
▁valorarse
▁espontánea
▁consorcio
▁usamos
▁rogar
▁quejado
▁evaluados
▁retrasa
▁acuda
▁saquen
▁extracomunitarios
▁désir
▁perversos
▁acumulando
▁mediar
▁altera
▁ordinaria
expreso
▁discordia
▁emisora
▁refiriéndome
▁anunciados
▁centrados
▁jurista
▁comunican
▁reorientar
▁impartir
hablar
▁subvencionado
▁benchmarking
▁floreciente
▁conociendo
▁indicada
▁philip
▁confieren
▁prometedores
▁trágicamente
▁implicaba
▁pormenorizada
▁honradez
▁oye
▁espectaculares
▁intentaba
▁transmitida
▁paneles
▁rechazara
▁recobrar
▁déjenme
▁volvería
▁fundar
▁perpetua
▁tecnológicamente
▁aclaran
comparte
▁ibrahim
▁letones
▁logotipo
▁solicitadas
▁institucionalización
▁miren
▁exageradas
▁aportaría
▁cortes
▁med
▁saltar
▁procederemos
▁entregados
▁especialista
▁proeuropeo
▁230
▁alineación
▁mínimamente
▁bonita
▁confirmaron
▁encabezar
▁cambiarlo
▁relator
▁pragmáticos
▁nube
▁ratificó
▁permitirle
▁optan
▁asumamos
▁estimulación
▁distanciarse
▁trastorno
▁unió
▁ciclistas
▁irreversibles
▁ortodoxa
▁casini
▁melilla
▁equitable
▁ceuta
▁karzai
▁vassiliou
▁traición
▁introducimos
▁estacional
▁incide
▁west
▁torre
▁perplejidad
▁enteramos
▁llamaba
▁registren
▁adriático
▁organizamos
▁confesión
▁determinarán
▁dividendo
▁ralentización
▁asimilar
▁multiétnico
▁argumenta
▁casual
▁construidos
trata
▁mantenerla
▁tira
▁confirmando
▁antidemocráticas
▁inimaginable
▁concebidos
▁selvas
▁adoptaremos
echo
m
▁intrínsecamente
▁escapado
▁concertadas
▁representaban
▁destinando
▁entorpecer
▁teóricamente
▁maestros
▁indígena
▁sangrientos
▁emprendidos
▁pelo
▁incalculable
citaré
▁gestionen
´
▁manteca
▁incoar
▁bárbara
▁aprecian
11
▁202
▁krehl
▁pertenecemos
▁codicia
▁incierta
▁skinner
▁remuneraciones
▁desacreditar
▁abonar
▁aprobarán
tendrán
▁guy
▁recta
▁refrendar
▁levanten
▁disparado
▁obliguen
▁nieguen
▁ecuánime
▁novo
▁convocatorias
▁nam
▁gastarse
▁desempleadas
▁hipotecarios
▁coreanos
▁bicicleta
américa
▁gobernados
▁prohíban
▁intensificarse
▁figel
pnr
▁roche
▁matsakis
▁gnss
▁vanhanen
▁hoppenstedt
▁modificará
▁generadores
▁aseguramos
▁house
▁devuelve
▁admiro
▁acudan
▁promulgación
▁mencionando
▁responderle
▁incorporó
comprendemos
▁volcán
▁combatirlo
▁curiosa
▁fundó
▁constitutivos
nación
▁aguarda
▁bernd
▁creador
▁manchester
▁aludir
▁infinitamente
▁someterlo
▁laico
▁biblia
▁soportando
▁clásicos
▁avanzaremos
▁epizootias
▁afronte
▁persiga
▁desconocemos
▁repentinamente
▁senador
▁correspondería
▁supermercado
▁ayudaremos
intervenciones
▁quisieron
600
▁añadida
▁tropical
▁perdidas
enmiendas
▁desconocidas
▁cofinanciar
▁destilación
▁condados
▁contestó
normas
▁estandarización
anteriormente
▁asalto
▁descaradamente
▁ceguera
▁transmitirle
▁dicte
▁walter
▁mombaur
▁revistas
▁devoluciones
▁bradbourn
▁provoquen
▁prohibió
▁tributarias
▁paralizada
▁pex
▁suscribimos
▁fibra
▁prolongue
▁presuntamente
▁competen
▁criar
▁national
91
▁knesset
▁asesina
▁gay
▁distorsionada
▁morris
▁hermange
definitivamente
▁egnos
▁sistémicos
▁capoulas
bowman
▁bowles
▁eulex
▁fabre
▁discutirá
▁prósperos
▁101
▁disminuirá
cuenta
▁añado
▁comunico
▁anhelo
▁ferviente
▁recojan
▁severos
▁hablarse
▁pomés
▁mostrarles
▁oralmente
permite
▁responsabilización
▁tratarlo
▁oscura
▁franz
▁invisible
▁descritas
justicia
▁incumben
▁permitieran
▁bosnios
▁vencimiento
▁negociadoras
afecta
▁empleamos
▁explicarse
▁estructuración
▁replantear
▁construya
cerca
▁quedaban
▁consumidoras
▁comente
▁presenciamos
▁reconocerá
▁garantes
▁desarrollamos
▁férrea
▁tomates
▁dotadas
▁emana
▁consumado
▁arriesgada
▁aclaren
▁creara
▁declaramos
▁refiriéndose
▁toro
▁mediadores
▁catastróficos
▁127
▁asesinar
▁lamentado
▁distribuye
▁nosotras
▁pragmáticas
▁afirmarse
▁equitativos
▁bondad
▁coordinando
▁investigador
▁industrialización
▁sÓcrates
▁dure
▁alan
▁terminal
▁miro
▁alcanzadas
▁suavemente
▁uniones
▁solapamiento
▁infravalorar
▁prevean
▁ocultos
▁frahm
▁otorgó
▁insertar
▁euforia
▁biotecnológica
▁típicos
▁samland
▁apoyé
▁televisiva
▁destructivo
▁haberle
▁finaliza
▁lactancia
▁blandas
▁usadas
▁plantar
▁munición
belarús
▁equilibro
constitución
▁posei
▁podestà
▁aletas
▁despachos
▁cumplamos
▁retrasados
▁nogueira
▁cee
▁archivo
▁pronunciarme
podrá
▁artesanos
▁hundido
▁acumulan
▁mediático
▁valdría
▁describió
▁encierran
▁entramado
▁apremiantes
▁escritores
▁adelanto
▁corran
▁vertidas
▁calmar
▁arrestado
▁pediremos
▁escéptica
▁aditivo
▁lienemann
▁muestro
▁aldea
▁estimar
▁ayudarse
▁relojería
▁indigno
▁célula
▁contemplaba
▁explotadas
▁desgracias
▁enfrentadas
▁desnutrición
▁acelerando
▁articulado
▁engañando
▁manipulaciones
▁sugeriría
▁exacerbar
▁metido
▁eurócratas
▁zapatos
▁delictivo
peor
▁recrudecimiento
▁coordinadora
▁acudió
▁colaborador
▁asumo
▁abandonadas
▁apoyara
▁desequilibrada
▁cesen
▁fluidez
▁ebner
▁paneuropeos
▁simplificaciones
▁151
▁ganará
▁pulmón
▁reservarse
▁destruida
▁rojas
▁compren
▁sugerimos
▁delincuente
▁protestantes
▁enfrentándose
▁airways
georgia
▁argelinos
▁chicos
▁hierbas
▁animando
▁fidel
▁grech
▁sesar
▁wathelet
▁rex
▁modificarlo
▁demostramos
▁1982
▁anonimato
▁radican
reconoce
▁jubilaciones
▁asistente
▁embarcarse
▁recíprocamente
▁prevemos
aparentemente
▁confirmara
▁publiquen
▁desaparecerán
▁roo
▁garantizarle
▁motivadas
▁asombra
▁rezagada
▁eche
▁intérprete
▁omite
▁roca
▁alas
▁espinoso
▁luis
▁retrocesos
▁1978
▁designada
▁llegaran
▁fraudulenta
▁ilusorio
▁salón
▁abrimos
prueba
▁reaccionaria
▁tardanza
▁oprimidos
▁logísticos
▁daniel
▁inesperada
tomando
▁atiende
▁portadores
▁adaptando
▁complementen
▁cambiamos
▁sagrada
▁accidentales
▁biotecnologías
▁conflictivas
▁asma
▁guiarnos
▁esfuercen
▁135
▁aportarán
▁enviaría
▁atacan
▁raseros
▁retirados
▁rutina
▁sometió
▁abominable
▁simplificada
▁acoja
▁intergeneracional
▁preferirían
▁atacados
▁redacte
▁flemming
tener
▁regido
▁comicios
▁deudor
▁progresa
▁amplió
▁incorporaron
▁premura
▁abogacía
▁intacta
▁powell
▁mobutu
▁camisón
▁emisor
▁agcs
▁fosfatos
▁fjellner
▁dalái
▁secchi
▁bontempi
▁vatanen
▁subordinada
▁submarinos
▁eurodiputado
▁visiblemente
▁debilitaría
▁limitaría
▁malversación
▁multiplicidad
▁rebelión
▁descansar
▁comunicarle
▁apartarse
▁sirios
▁colaterales
▁forzosos
▁historiadores
▁berthu
▁laureles
▁cánones
▁parten
▁requería
tengamos
▁enfrenten
▁generalizar
▁alimentando
▁liderado
▁desarrollarán
▁obstrucción
▁exponiendo
▁votadas
▁107
▁transforme
▁residual
▁arreglos
▁interrelacionados
▁promovida
▁convencerles
▁ocurridas
▁cushnahan
▁finalizó
▁aceptaría
▁vincule
▁adecuarse
menciono
▁paradero
▁papoutsis
▁informáticas
▁poblado
▁locos
▁provocaciones
▁numerosa
▁convenir
▁rellenar
▁esperanzador
▁repartidos
▁rechazarla
▁atolladero
▁conciso
▁rijan
▁mont
▁reconocieron
▁mueran
▁plato
▁flote
▁sucedería
▁cei
▁extraterritorial
▁identifiquen
▁transmitirse
▁cívico
derecha
▁raya
▁sembrar
▁reafirmación
▁agudo
▁inscriben
▁168
▁acusan
▁protectorado
▁islámicas
▁ejecute
▁laschet
dados
▁oscila
▁churchill
▁diferencial
▁adquirió
▁agotan
▁distante
▁abogando
▁fantástica
▁estigma
▁vietnamitas
▁kinshasa
▁frustrar
▁ventanas
▁semestral
▁crediticias
▁has
▁envejeciendo
▁portuario
▁aod
▁procedimentales
▁do
▁apoyaba
▁lisi
▁reavivar
▁schlyter
▁pittsburgh
aubrespy
▁paradójica
▁absolutas
▁aligerar
▁informara
▁espina
▁substancial
▁suanzes
▁cómoda
▁destacable
decía
▁compruebo
▁afectaron
▁cuidan
▁docentes
▁engañarnos
▁explicaré
▁conformarnos
▁solucionarlo
▁ganaderas
▁estallar
▁candidatas
▁interviniendo
▁aduciendo
▁congratularnos
▁borda
▁fabrica
▁ficha
▁advirtió
▁desaprovechar
▁reformista
▁masculino
▁conflictivos
▁rija
▁someterán
▁tremendos
▁nula
▁fotografía
▁fugas
▁artista
▁organizativas
▁distribuidos
▁dejarles
▁absurdos
▁alyssandrakis
▁confunde
▁protectoras
85
▁cruda
▁repentino
▁sustentar
▁escenas
▁cruzado
▁variación
▁conducirán
▁cordón
▁240
▁cicaa
▁mare
▁triunfar
▁sucio
▁acceden
▁ocuparemos
▁llamarlo
▁servirse
▁residuo
▁imaginado
▁respirar
▁patio
▁empeore
▁pedófilos
▁amargo
▁imitar
▁ferrer
▁dividen
▁psicológicas
▁deteriorando
▁anteponer
▁protecciones
▁privilegiadas
▁abordaremos
▁163
▁otorgamos
▁ocultado
▁inequívocos
▁corregirse
▁hegemonía
▁manipulados
▁cosechado
▁reelección
▁apremia
▁entenderán
▁oveja
▁220
▁inseparable
▁gobernada
▁prescribir
▁esposas
▁practicaje
▁emprenderse
▁pat
▁acortada
▁especular
▁rindan
▁cuestionarse
▁anexión
▁titularidad
numerosos
▁prospecto
▁2018
▁viñedos
▁supervisa
▁pandemias
▁srpska
▁lituana
▁libio
▁mahmud
▁“
▁záborská
▁papadimoulis
▁dini
curso
▁harrison
reducir
▁alejarse
▁fertilidad
▁emprendedor
▁condujeron
▁enviemos
▁admitió
carpegna
▁señalarse
exige
▁reconocía
▁oil
▁maltés
▁instaurado
▁mixtos
▁seísmos
▁sospechar
▁asistan
▁desembolsar
▁anticipadas
▁católico
▁posea
▁gestionadas
▁gestionando
▁corporativa
▁apareciendo
▁xenófobas
▁ciem
▁etnias
▁bernard
▁redefinición
▁cierne
▁llegase
▁plantearán
▁marchado
▁vinculan
▁geometría
▁permitiré
▁desproporcionados
▁as
▁prometen
▁comodidad
▁perderse
▁discriminadas
▁respondieron
▁empujar
▁combine
▁obvios
▁karabaj
▁enunciados
▁moviendo
▁secretarios
▁penoso
▁imperante
▁inviolabilidad
▁gravísimas
fuera
▁anticuados
▁publicitario
▁consolida
▁test
▁dormir
▁mentalidades
▁tributarios
▁tomaré
▁mejorados
▁acumulada
▁claude
▁intransigente
▁thatcher
▁volátiles
▁ceñirse
▁raciales
▁reproches
▁pulso
▁zanjar
▁regresan
▁visite
▁andorra
▁sustituyan
▁parkinson
dinamarca
▁tú
▁complemente
▁superfluas
▁polinización
▁invertirse
▁etíope
▁pierre
▁jiménez
▁inseguro
▁ocuparán
▁mbeki
▁adjunta
▁gelatina
▁microcrédito
▁velen
▁bombillas
▁abstengo
▁embarazada
▁editorial
▁imperfecciones
▁disculpo
▁california
▁geopolíticas
▁aprendiendo
▁hermanamiento
▁cohesionada
▁volcánica
▁enológicas
▁panafricano
▁battisti
▁belet
▁caspary
▁medvedev
▁andor
#
▁culminado
▁cautos
▁concisa
▁riis
digamos
▁abrigo
▁atienda
▁fatiga
▁navegan
▁acicate
▁coeficiente
▁aplaudido
quiénes
ofrece
▁arriesgar
▁exigirán
veremos
▁fundamentarse
▁suprema
▁concluida
▁estipuladas
▁sumamos
▁incomprensibles
▁exorbitantes
▁suprimen
▁conservado
▁entes
▁parezcan
▁bilbao
▁nicole
▁transmitidos
▁virtualmente
▁discuten
▁suscitadas
▁firman
▁frontal
▁nomenclatura
▁despiertan
▁lucrativos
▁alcanzarlos
▁artesanía
▁brillantes
▁polos
▁sobrecargar
▁inyectar
▁retomado
▁personajes
▁aguantar
pasemos
▁peligrosidad
▁supervisora
▁plasmar
▁maestro
▁goteburgo
▁afirmaron
▁actuaron
▁respetables
▁exigirse
▁cuestione
▁perjudiquen
▁unimos
▁edulcorantes
▁detectados
▁aprobarla
▁luxemburgués
▁ron
▁antaño
▁preso
▁progenitores
▁ofreciéndoles
▁nocturnos
▁modal
▁inexplicable
▁mantuve
▁creían
▁insignia
▁patrullas
48
▁señalización
▁deniega
▁hablaron
▁explicarme
▁clandestino
▁guardería
▁europarlamentarios
▁w
▁aproximarse
▁sentando
▁tempranas
▁ejecutando
▁argelinas
▁ácido
bei
▁honrar
▁videojuegos
▁nicolaï
▁aclarara
▁diversificada
▁sobradamente
▁estupenda
▁implícito
▁intervine
▁nefasta
▁aplazada
▁invocando
▁hermosas
▁lanzarse
▁adhiere
▁fundamentan
▁abriría
▁millardo
▁exacerbado
▁financiamos
▁proveer
▁respondería
▁indiscutibles
▁recaen
▁monumento
▁latente
▁inmiscuirse
▁asumida
▁asumidas
▁construida
▁kuwait
▁autorizó
▁rebajas
▁adulto
▁epizootia
▁prematuramente
▁dirigí
▁escandinavia
▁defendidos
▁cuestionables
▁coyunturales
▁ofensivo
▁octava
▁bloqueadas
▁conducto
contra
▁cumplieron
▁libera
▁protegemos
▁participaciones
▁pensionista
▁acompañe
primeramente
▁asista
▁diese
▁ocupadas
▁turista
▁abusa
▁destacaría
▁daban
▁descontrolada
▁vasca
▁espantosas
▁proactivo
▁asolado
▁eligieron
▁coincidan
▁paliativos
▁manifiesten
▁sentará
▁trabajaba
▁sed
▁resolvería
▁cuadros
▁argumentando
▁incomprensión
▁exhortar
▁consumados
méxico
▁originar
▁cable
▁evolucionan
▁opere
▁mcmahon
▁cautelosos
▁genoma
▁discutida
▁filtrado
▁ayudarlos
▁preocupen
▁fuegos
▁volvieron
▁potenciación
▁mayoritarios
▁notorio
▁maternal
▁generarán
▁helmut
▁luchó
▁nacionalización
▁emprendió
▁cumplía
▁embarazos
▁sortear
▁hallarse
▁gestor
▁beneficiarnos
▁budistas
▁internamiento
▁mezquitas
▁comerciante
▁correría
▁járóka
▁milinkevich
▁nanomateriales
▁icd
constituyen
▁disgusto
▁suplemento
▁comparan
europol
▁obstinación
▁prohibe
▁masculinos
▁señalarlo
▁enumeración
▁recomendadas
▁actualizadas
▁terrón
saludamos
▁incurrido
▁recurrentes
▁dirían
vivos
▁tv
▁culturalmente
▁politización
▁mencionarlo
▁listado
▁insistiré
▁moderar
▁eliminaría
▁sentía
▁sabiamente
▁luna
▁modus
▁subvencionadas
▁velará
▁dedicó
enhorabuena
▁atípico
▁adaptarlo
▁presupuestación
▁namibia
▁incita
▁bella
▁modestia
▁na
▁recibiremos
▁resisten
▁manejan
▁administran
▁troya
▁suicidios
▁are
▁rogarle
simultáneamente
▁ilustrativo
▁rogamos
▁prisionero
▁otorgando
▁dirigirá
vaya
▁escriba
▁gigantesca
▁igualar
▁fracasan
▁pagarse
▁vincularse
▁surtido
▁comporte
▁transeuropeo
▁colisión
▁genérica
convengo
▁vacilaciones
▁cabaña
▁asimetría
▁arancelaria
▁protectores
▁generadas
▁matemáticas
▁grandeza
▁fructíferos
estábamos
▁quedaran
▁invadir
▁exhorto
▁146
▁soviéticas
▁propondremos
▁emprende
▁alargar
▁belfast
▁radiactivo
▁emblemática
▁reanude
▁valientemente
▁microsoft
▁pancartas
corea
▁farc
▁percepciones
▁nervioso
▁neurodegenerativas
▁balanzas
lituania
▁rainsy
▁ltte
▁viticultores
▁efsa
▁ayala
movilización
▁coincidiendo
▁fruteau
▁representativos
▁berenguer
pregunto
▁aparta
▁trasciende
▁vallelersundi
▁instrumental
▁colectividades
▁incumplan
▁determinó
▁siguieran
▁impotentes
▁apoyarnos
▁batería
▁repetida
▁bienvenidas
▁lamentando
▁trío
▁ibérica
▁ganadera
▁causaría
▁reconsideren
▁arco
▁grises
▁tratarlos
▁tapar
▁completará
▁magníficos
▁discutibles
▁aclararlo
▁entregue
▁democratizar
▁salvación
▁muchísima
▁deplorar
▁beneficiarias
▁explícitas
▁amortiguar
▁heredado
▁analicemos
▁congelados
▁respaldó
▁106
▁analítico
▁cariño
▁imprimir
▁amistosas
▁skopje
recordamos
▁remitida
▁invertidos
▁condenable
▁facilitadas
▁atengan
▁sugeridas
▁diciéndole
▁primarias
▁hallado
▁enmendada
▁originó
▁acogería
▁reuniendo
▁revisados
▁observen
▁palma
▁anticiparse
▁carlotti
▁instalados
▁flor
▁permitiese
▁disolventes
▁miserable
▁respiratorias
▁movemos
▁socavaría
▁manzana
▁sangriento
▁suministradores
▁confunden
▁cajón
▁comidas
▁inscritas
▁ganarnos
▁entraría
dar
▁veían
▁carezca
▁criticó
▁ocupaciones
▁privando
▁faltaba
▁alterado
▁detectadas
▁cuantiosas
▁coordina
▁pcb
▁144
encuentro
▁aprovechamos
▁birmanas
▁doorn
▁visitan
▁reclusos
▁gallinas
▁caricaturas
▁bielorrusa
▁lucharon
▁electromagnéticos
▁enron
▁hahn
▁panayotopoulos
▁gilad
▁telkämper
▁funk
▁hallam
▁iso
▁cisterna
▁descuido
▁unirán
▁obreros
▁perfilar
▁llevaremos
ppe
▁reequilibrio
▁ultranza
▁inquebrantable
▁devastadora
▁inmensas
▁frustrados
▁impondrán
▁aplaza
▁increíbles
▁colectividad
▁compensa
▁materializado
▁entrante
▁animará
▁apreciada
▁soberanías
▁asistirá
▁consagradas
▁estimulado
▁pronuncian
▁rechazarlo
▁extrañas
▁confusiones
▁desarrollaron
▁estudiamos
▁diseminación
▁empuja
▁frescos
▁ordinarias
▁centralismo
▁rincón
220
▁ovinos
▁rebaños
▁ajustada
▁incluyeran
▁mejoramiento
▁diseños
▁menospreciar
▁sutil
recibo
▁competidor
▁saudita
▁fracción
▁especifican
▁preservando
▁confundirse
libertad
▁prolonga
▁densamente
▁comunica
▁fax
▁intencionadamente
▁empezarán
▁cambiarán
▁prisas
▁exportando
▁consolidadas
▁formó
▁vencedores
▁previendo
▁precipitadamente
▁negociamos
▁constituirse
▁leguminosas
▁inútilmente
▁neutralizar
▁limito
▁evaluadas
▁antidemocráticos
▁veraz
▁dificultado
▁discutirse
iraq
▁faceta
▁afortunada
▁tunecinas
▁cards
▁presas
▁fijemos
▁porcentuales
▁abordarla
▁penalizados
túnez
▁desaprobación
▁envejecida
▁dedicará
promover
▁garantizara
▁diligente
▁petrolíferos
▁coopera
▁museos
▁ariel
▁cedefop
▁apícola
▁ccg
gt
▁seeber
▁Őry
▁niif
▁atrasadas
▁expire
▁exhorta
▁ascendió
▁2025
▁concentren
▁tolerable
▁edd
75
▁previsiblemente
▁prisma
▁legible
▁vagos
▁usada
llevo
▁medieval
▁comuniquen
▁defendía
▁amistoso
▁deploramos
▁criminalizar
bruselas
▁voluntarista
▁honda
prevé
▁coca
▁lapso
▁indeseable
▁sorprendidos
condeno
▁municipio
▁disponiendo
▁ultraperiférica
▁temático
▁valga
▁dolorosos
▁arzobispo
▁anticipos
▁esperen
▁estrella
▁acababa
▁escribí
▁plenas
mantenemos
▁quedaremos
▁pretendan
▁mediterráneas
▁matriz
▁editores
▁indigna
▁conexos
▁excedido
▁mobiliarios
▁tranquiliza
▁apropiadamente
▁superada
servicios
▁anunciarles
ser
▁generosamente
▁imaginable
▁policy
▁comprendida
▁instaría
▁lance
▁cercanías
coincidimos
▁1983
▁destructivas
▁cansancio
▁renuencia
▁descarta
▁viajó
▁travesía
▁hojas
▁suministrado
▁actuara
▁commonwealth
▁exclusividad
▁ilegítima
▁itinerario
▁irritación
▁ayudarlas
▁proporcionarle
▁conozcamos
▁superará
▁hábilmente
▁favorecería
▁informaron
▁incontrolado
▁despiadada
▁inminentes
▁movilizarse
▁preparará
▁gasten
▁saldremos
▁118
▁prestatarios
▁prudencial
▁mejoremos
▁queroseno
▁señalaron
▁vertientes
▁vandalismo
▁noroccidental
▁locomotoras
▁cite
▁viajando
▁estratos
▁rompecabezas
▁goma
▁malnutrición
▁encajar
▁desproporcionadamente
▁comentó
▁cobardía
▁abonado
▁especifique
▁alpina
▁lactantes
▁semilla
▁sorprenden
▁gratuitas
▁autóctona
▁asesinada
▁enérgicos
▁kgb
egipto
▁mohamed
▁tpiy
pesc
▁payá
baronesa
}
▁lambrinidis
▁fértil
▁lamentan
▁deploro
▁instituido
▁confusos
▁transportadas
▁reproducir
▁basamos
800
▁prestarle
▁anticuadas
▁duele
▁gastados
▁reflexionemos
▁existirán
▁surgirá
▁hijas
▁reticente
▁aficionado
▁apaciguar
▁declararse
▁come
▁altar
haciendo
▁acude
▁predecesora
▁iremos
▁transmitidas
▁expedir
▁concienzuda
▁cariz
▁abrieron
▁pinochet
▁introducirán
▁gozado
▁publicitaria
▁marchan
▁continuando
▁subvencionables
▁inflexibles
▁replantearse
▁eventualidad
▁auxiliar
▁extractivas
▁traspasos
▁entable
▁beazley
▁inclino
▁escucharle
▁checoslovaquia
▁paolo
▁transfiere
▁sofisticados
▁moralidad
▁adversario
▁cruzadas
▁chechena
▁beneficiándose
▁gravan
▁quedé
▁labios
▁deteriora
▁cancerígenas
▁prescribe
▁baste
▁extrajudicial
▁modernidad
▁comportaría
▁refinerías
▁atrevernos
▁brie
▁colocan
▁crecerá
▁acudieron
▁indias
▁birdal
▁halle
▁trauma
▁ridículas
▁disciplinarias
▁metálico
inmediatamente
▁conspiración
▁involucrada
▁ganadora
▁dialogando
▁terapéutico
▁afortunado
▁162
▁dominó
▁taiwan
bélgica
▁guías
▁ten
▁cumplieran
▁fracase
▁consejero
▁burocracias
▁vagones
▁acumulados
▁eminente
▁níger
▁arsenales
otan
▁centenar
▁posponga
▁interrumpa
▁box
televisión
▁concluyentes
▁bicicletas
▁ingenua
▁karadzic
▁dybkjær
▁itre
▁socave
▁exceder
38
▁inclusiva
▁mineral
pe
▁terni
▁libicki
▁ahmadineyad
▁prüm
▁szájer
▁cassidy
▁confieso
▁concuerdan
▁preferiríamos
▁casualmente
▁prospere
jørgensen
▁incorrectamente
▁descentralizados
▁sacudido
▁irreparable
▁leña
▁consista
▁complementado
▁bloquea
▁estime
▁especulativo
▁alega
▁utilizaremos
▁denominarse
▁unmik
▁darían
▁calificada
▁programadas
▁atraso
▁meijer
▁contras
▁apostando
comenzaré
▁agroalimentario
▁mencionamos
▁causante
▁egoísta
▁proporcionamos
▁hablábamos
▁distorsionado
▁desviado
▁havel
▁ostentan
▁estipulados
▁ofrezcamos
▁burbuja
▁imitación
▁it
▁dudamos
▁crezcan
▁desatado
▁rugova
▁grata
▁leerlo
▁neil
▁intentaban
▁majestad
▁umbilical
▁faenar
▁previó
▁albergo
▁recibiera
▁protestado
▁fomentaría
▁telecomunicación
▁pésima
▁acuerden
▁famosas
▁percatado
▁inclina
▁nieve
▁veracidad
▁concretarse
▁defenderlos
▁ocupándose
▁desechar
▁helmer
▁quema
▁óxido
▁destacarse
suscribo
▁ofender
▁alineamiento
▁combinando
▁clasificaciones
bce
▁judía
▁extensos
▁introduzcamos
▁andrews
▁ainardi
▁exceptuando
▁tímido
▁repartirse
▁bofetada
intentamos
▁gen
▁preverse
▁equipamientos
▁regulatorio
▁guerrilla
▁kurdistán
▁influyentes
afirma
▁suposición
▁cot
▁intensificará
▁eslabones
▁estipular
▁paraguay
▁navieras
▁asumieron
▁malla
▁ahorra
▁incómoda
seremos
▁301
▁celebrara
▁intracomunitarias
▁benceno
▁sobrevivido
▁viet
▁prominente
▁ipcc
▁revuelta
▁atuneros
▁lage
▁cartel
▁radicalismo
▁yalta
▁vulneran
▁pregunten
▁moderadas
▁artístico
▁produjeran
▁ave
▁acuícolas
mercado
▁irradiación
▁royo
▁manzanas
▁blix
▁europass
▁politkóvskaya
▁schaldemose
▁xynthia
▁ajustados
▁propiciará
▁idóneos
▁reacciona
▁influenciar
▁bendición
▁camisa
▁arriesgan
▁auxilio
▁proximidades
▁ejercidas
▁disciplinario
▁sabias
▁fraternidad
▁iniciemos
▁eslovenos
▁rutinaria
▁eludiendo
▁force
▁construimos
▁pensarse
▁admita
▁instalarse
▁frena
▁cristianodemócratas
▁pares
▁impulsor
▁tributario
▁confíen
▁secundar
▁siembra
▁escuchados
▁limitemos
▁clínica
▁oiga
▁formo
▁perniciosa
▁sostengo
▁dignamente
▁evolucione
▁acontecido
▁cauce
▁otorguen
▁segundas
▁multiétnica
▁combatirla
▁vigorosa
▁subestima
▁ejercerse
▁lanzadas
▁sucedía
▁endémica
▁minera
▁veteranos
▁escuchó
▁consignas
▁avilés
▁eliminadas
▁191
▁ritual
▁gaulle
▁movernos
▁indivisible
▁enumerados
▁stop
▁canción
▁manteniéndose
▁larrea
▁out
▁descrédito
▁sexualmente
▁decidiremos
▁afortunados
▁oportunismo
▁series
▁addis
proporciona
▁menciones
▁involucre
▁transformando
▁dejaba
▁propusiera
▁milagros
▁defraudadores
▁abandonó
▁abstendré
▁escudos
▁desórdenes
llegamos
▁renuncien
▁detuvo
▁desenlace
▁musotto
▁sintomático
▁demolición
▁secuencia
▁camp
▁tesoros
▁concesionarios
▁vietnamita
▁opep
▁allana
señala
▁reducirla
▁supervisado
▁lograra
▁coreana
hablemos
▁prerrequisito
▁resistirse
reglamento
▁avícola
fse
▁clarke
▁mcr
▁severin
seae
▁eisma
▁upe
▁166
▁informo
▁preocupando
▁profundice
▁deseoso
▁homosexual
▁requerimiento
▁acertados
▁resultarían
▁1948
▁dijese
▁boetticher
▁repasar
▁vizcaya
▁prueban
▁formaban
▁calibrar
▁autocomplacencia
▁añadan
▁propugnamos
▁agradecérselo
▁intervendrá
▁transversales
▁penosa
▁redundaría
▁probables
señalo
trabajamos
▁alejan
▁mundos
nueva
▁desconcierto
▁aplicaron
▁sustitutos
▁delta
▁divertido
▁restaurante
▁contentarse
▁wuori
▁newton
▁acuse
▁recurran
▁impusieron
▁circulando
▁transforma
▁censurable
▁imprecisa
▁agradables
▁valore
▁soportes
▁atendido
▁alejar
▁consolidarse
▁ansiosos
▁ocultando
▁conlleve
▁impulsen
▁significaba
▁atraen
▁nubes
pretendemos
▁platos
▁pinturas
▁bárbaro
▁atentar
▁kedo
▁flamencos
▁estéril
▁mediadora
▁tardío
▁letal
▁funcionaría
u
▁arraigados
▁secretariado
▁certificar
▁extraños
▁tenerlas
▁pensaron
▁alejarnos
▁revisemos
▁planteara
▁rechacemos
▁exigían
▁totalitaria
▁venderse
▁nelson
▁descubren
▁compitiendo
▁birmanos
▁investigadora
▁stoa
▁intervinieron
▁117
▁296
▁engañosos
▁alegremente
▁golpear
▁blanda
▁cuartos
▁aportó
▁pompidou
▁sirviendo
establecer
▁acumuladores
▁piétrasanta
▁abordaré
▁estacionamiento
▁hagámoslo
▁aprobaran
nuevo
▁firmará
▁disparar
▁zoológicos
▁famagusta
▁manufacturera
▁cannabis
▁hall
▁fallido
▁bioetanol
▁abanderamiento
▁cameron
▁kelly
▁allister
▁bloom
▁chatzimarkakis
▁kittelmann
▁metten
▁parlamentarismo
▁cambiaría
▁rebasar
▁análogo
▁contaminadores
▁asignó
▁santidad
▁perversa
▁materializarse
▁enjuiciar
▁redactadas
▁mantenerlos
▁sirias
▁reafirmamos
▁bárbaros
▁acuáticos
defendemos
beneficios
▁visual
▁protejamos
▁detenernos
▁recuperando
▁tontería
▁clavo
▁invitaciones
▁jemeres
▁armónico
▁administrado
▁interesarse
hará
▁correspondido
▁esconderse
▁aportada
▁suspendió
▁negocien
▁molucas
▁institucionalmente
▁trucos
▁recíprocos
▁tremendas
▁confesiones
▁fraisse
▁callar
▁sanear
▁porción
▁sentiría
▁ritmos
▁dispensa
▁estancada
▁invitada
1996
▁sacamos
▁ruidosos
europe
▁escalas
▁interesar
▁contesta
▁industrializadas
▁brindó
▁figuraban
▁perfectas
▁simplifique
▁ocuparé
▁constataciones
▁ordenó
▁suficiencia
▁transigir
▁éticamente
▁opten
▁demostrarse
▁papeletas
▁tentaciones
▁cosmética
▁birregional
▁demostraría
asuntos
▁combinaciones
▁oyendo
▁abeba
▁directora
▁terminada
dec
▁acaecido
▁provenir
▁fiestas
▁evalúan
▁incorrectas
▁menoscaba
▁defenderá
▁situará
▁propugnan
▁impresos
▁súbditos
▁arduas
▁perceptible
▁clasificadas
▁militarista
▁encarguen
▁intenté
▁pedíamos
▁somalíes
▁persson
▁kim
▁sumida
▁belaruso
▁analistas
▁omar
▁enclave
peticiones
▁mamarios
▁hamas
▁cuestionando
▁holm
transferencias
▁biccis
▁georgieva
▁recaiga
▁intervencionismo
▁subsiste
▁indulgente
▁wiebenga
▁subordinado
▁impaciente
▁apelando
▁suplir
▁diques
▁impreciso
▁difundidas
▁atiene
▁propicie
▁silla
▁reunamos
▁animamos
▁aprobase
▁interparlamentarias
▁estudiada
▁interprete
▁responderán
▁doblar
▁cordero
▁ofrecieron
kosovo
▁abarquen
▁apoyándose
▁plusvalía
▁advierten
▁ratificarlo
▁correrá
▁crearemos
▁apoyarlos
▁nociva
▁anula
▁estiércol
▁intrínseca
▁restringidas
▁cuantiosos
▁hallen
▁embargos
▁desembolsado
▁perpetradas
▁dunn
▁vocabulario
▁conmemoramos
▁junker
▁not
▁presunta
▁inciden
▁vladimir
▁avalar
▁conectadas
▁contemporáneo
▁ciclón
▁intervencionista
▁restablecido
▁adaptan
▁echan
▁autosuficientes
▁cansados
▁capturado
▁depositadas
▁soportados
▁alcanzarlo
▁existieran
▁expiró
▁expresarme
▁camioneros
▁citan
▁oponerme
▁blanc
▁aplicase
▁lores
▁tardó
▁asentar
▁maestras
▁indiscriminado
▁estonios
▁sumen
▁gloria
▁reaccionan
▁almacenados
▁conceptual
▁castigue
▁reconociera
▁fósil
▁1981
▁precipitadas
▁Ésta
▁robos
▁robados
▁ganancia
▁queriendo
▁ilógico
detrás
▁temía
▁gravísimos
▁organizativos
▁acuerdan
▁diferir
▁estigmatización
▁taylor
▁trajo
pocos
▁polarización
▁plenario
trabajemos
▁procedían
▁ineficiente
▁convoque
▁agresivos
▁hidrológico
▁abastecer
▁elaboremos
▁artísticos
▁poignant
organización
▁herido
japón
▁sorprendida
▁declaren
▁153
▁anunciando
▁acelerará
▁lmr
▁palangreros
▁formadas
▁islandeses
▁1325
▁catarral
▁confusas
▁manifestarle
▁principado
▁desafiar
▁capacitar
▁entendamos
▁quecedo
▁cumplirlos
▁drogodependencia
▁resucitar
▁indivisibles
▁cama
▁dominados
▁palpables
▁cualidad
▁dividirse
▁líquido
▁comentando
▁disculpen
▁duplicidad
▁pros
▁apatía
▁amparados
▁recogiendo
▁significó
▁elaborara
▁tibet
▁poblados
▁penuria
acaba
▁condiciona
▁cediendo
▁violadas
▁reflejando
▁secesión
▁eminentes
▁repoblación
▁indicadas
▁europeístas
▁afrontarse
▁raramente
deberemos
▁masculina
▁participo
▁perea
▁aprendidas
▁patrimoniales
▁luchen
▁solucionará
▁street
▁lanzamos
▁inalienables
▁precursores
▁janeiro
▁violencias
▁expuse
incluidas
▁alcantarillado
▁aportados
▁analizados
▁robar
▁encajan
▁anunciaron
▁sacó
▁transcurrir
▁armonizarse
▁alimenticias
▁acceda
▁teóricos
▁almacenes
▁ubicados
▁indicativa
▁eriksson
▁380
▁lucrativa
▁efectuando
▁circulen
eslovenia
▁caluroso
▁autoritarismo
▁enriquecen
▁altiero
▁elegimos
▁completando
▁definirá
▁desfasada
▁sofía
▁maoístas
▁plata
▁rdc
▁bioenergía
▁expandir
▁trimestrales
▁lawal
▁lenz
▁bhutto
cassiotou
▁maldivas
▁ºc
▁lichtenberger
▁schmit
▁wojciechowski
▁mfp
▁bituminosas
▁emocionante
▁brilla
▁estructuralmente
▁felicitarlo
▁perfila
▁designa
▁concierto
▁mundialmente
▁tímida
▁causen
▁desperdicio
▁agresividad
▁enterrar
olaf
▁dorsal
▁especificados
▁típicamente
▁caracterizar
▁pescando
▁mediocre
▁bolkenstein
▁menosprecio
▁apoyarle
▁concederme
▁automovilistas
▁revuelo
▁verbales
▁inaceptablemente
▁reaccione
▁abusando
▁tolerarse
▁conforma
▁conexas
▁abstenemos
▁retrospectiva
▁rendido
dispone
▁fundamentadas
▁pureza
▁preferentes
▁acentuado
preferiría
mujeres
▁desreglamentación
▁comprometiendo
▁tentado
▁alegró
▁coro
▁admitimos
▁provenga
▁suelta
▁perplejo
▁esforzaremos
▁tolerantes
▁varones
▁free
▁perturbar
▁ampliarlo
▁asesorar
acerca
▁callados
▁cuasi
▁contactar
▁bouwman
▁evidenciado
▁philippe
▁deplorables
ocurre
▁conocerse
▁cerraron
▁incluirla
▁interesen
▁negociable
▁eliminada
cristiano
▁datan
ciudadanos
▁embarcarnos
▁chiste
▁propicias
▁dificultando
▁resentimiento
▁procedió
▁elegante
▁desemboque
▁pagada
▁aferrarse
▁ignorados
▁reanuden
▁facultativo
▁atenemos
▁selectividad
▁sobreproducción
▁chisinau
montenegro
▁elaboraron
▁leve
▁dañino
▁fatales
▁retornar
▁representarán
▁ganen
▁novedoso
▁duplicaciones
▁pannella
▁incorporará
▁módulos
▁sillas
▁doris
▁invalidez
▁viarias
▁paja
▁carcinógenos
▁oleoductos
▁hospitalidad
▁elector
▁hannan
▁dolencias
▁discrecionales
13
▁manda
▁plagado
▁124
▁laica
2014
cons
▁amina
▁libios
▁ceniza
paquete
privada
▁abbas
▁atalanta
▁leterme
algún
▁creadoras
▁otorgadas
▁respondemos
▁replanteamiento
▁restrinja
▁inspiradas
▁hamburgo
▁marsella
▁distintivos
▁oí
▁envié
▁azules
▁incluyamos
▁huyendo
▁monte
nuevamente
▁hartos
▁otorgará
curiosamente
▁debilitará
▁avanzará
▁operacionales
▁schultz
▁atenuación
▁irrefutable
▁eterna
▁percibimos
habla
▁irracionales
▁conocí
▁ponencia
▁mayoritarias
▁marinho
▁enfado
▁deutsche
▁seleccionadas
▁abordarlas
▁transforman
▁esperarse
▁proponerse
▁encargarnos
▁retome
▁abrigar
▁cancelaciones
▁honorarios
▁interpreto
▁llevarlos
▁contratante
▁directivo
▁consistió
▁golpeados
▁determinarse
▁convengo
▁montar
▁macedonios
paradójicamente
▁animan
intentaré
▁coronel
▁concebible
▁damnificados
▁cualitativamente
▁recopilados
▁mamíferos
▁responsablemente
▁abuse
▁tenaz
▁reivindica
▁enlazar
▁promovemos
▁transfiriendo
▁nox
▁sucumbir
▁motiva
▁amplísima
▁mexicano
▁platillo
▁revolucionaria
▁cumplida
▁apto
seguiré
▁tunecina
▁repetimos
▁intrínseco
▁fidelidad
▁obedecer
▁revelaciones
▁greenpeace
▁negligente
▁sintió
▁honrada
▁modernizado
▁pertenezca
▁sorpresas
▁ofreciera
▁estimulen
consideremos
▁defenderlo
▁predomina
▁hemisferio
▁explicará
▁prestaremos
▁efusivamente
▁estimó
▁criados
▁trivial
baste
▁académicas
▁giran
▁dudado
▁cooperamos
▁uniformemente
▁desperdiciar
▁alain
▁descarte
▁olvidados
▁ocasionalmente
▁impronta
▁beirut
▁mantovani
▁fingir
▁descarada
▁rayos
▁infundada
▁extiendan
▁ramificaciones
▁radioactivos
albania
▁entablen
▁bratislava
▁white
aae
eslovaquia
▁hipotecario
▁óvulos
▁evadir
▁bayas
▁enzimas
▁tonterías
feder
▁endocrinos
▁enisa
▁becsey
▁guellec
firma
▁eete
▁férreas
fíjense
▁armoniza
▁valerse
▁continuó
▁expirado
▁escatimado
▁alegan
económica
▁universo
▁imponernos
▁marpol
▁hundió
▁conducirnos
▁constató
▁terminarán
▁explico
▁concretado
▁reformulación
▁maneja
▁apagar
▁migratorio
▁cauteloso
▁celebrarlo
▁alpino
▁bioseguridad
▁implantarse
▁pasiones
▁transcurre
▁onesta
▁retrasada
▁perseguida
crecimiento
▁atinadamente
▁abrumador
▁estacada
▁ignoramos
▁abandonarse
▁imperativa
▁herederos
▁prometidos
▁generadoras
▁invitando
▁interparlamentario
cabría
▁riego
▁alcanzable
▁dirigía
▁antipersonales
▁titulaciones
▁acentúa
▁construcciones
▁minimalista
▁absorbe
▁algarve
▁pacifistas
▁incursiones
▁controlamos
▁instituye
▁punible
▁recibieran
▁investigados
▁incoherentes
▁camas
▁comprobando
▁agresor
▁inmediaciones
▁tumba
▁aconseja
▁remota
▁imposiciones
añado
▁abuelos
▁vector
▁juzgada
▁humanamente
▁garantizaremos
▁recomiende
▁frustrado
▁existiese
▁reiterados
▁posibilitará
▁prostitutas
lisboa
▁inscrita
▁impedirlo
▁cogido
▁sentarnos
▁revolucionarios
▁encontraría
▁corporal
aprobamos
▁introduciría
▁destruyan
▁excluyentes
▁sacerdotes
▁swiebel
▁captado
▁reducirlo
▁coma
▁deshacer
▁robles
▁lello
▁deduzco
▁evocar
▁heterogeneidad
▁alarmas
▁curación
▁colaboramos
▁cotas
▁deducción
▁virtuales
▁siglas
▁presumiblemente
▁suministrados
▁empecé
risas
▁coponente
▁construirá
añadiría
▁martinica
▁guadalupe
▁represalia
▁protestan
▁percibida
▁ratón
▁alinear
▁remarcar
▁azotado
▁volante
▁zumo
▁cerciorarse
▁hulthén
jakob
▁cambiemos
▁encomiables
▁multipolar
▁finalicen
▁jurado
▁alegar
▁pronunciará
▁inducido
▁sufrida
▁radiactivas
▁coptos
▁simon
▁tendemos
▁inteligible
▁expliqué
▁combinan
▁duplica
▁patrocinadores
▁violentamente
▁penetrar
▁zapata
▁obtuvimos
▁antisociales
▁abordarlos
▁operacional
▁receptividad
▁forrajes
▁contrabandistas
▁recorta
▁veintitrés
▁frigoríficos
▁boicotear
▁raee
▁complació
anuncio
▁matrícula
▁ópticas
▁trans
▁cedidos
▁deportados
▁lula
▁haitiano
▁sbrenica
▁cioloş
▁waddington
▁desvío
▁asistida
▁trascendentales
▁destruya
▁concienzudamente
permitirá
▁expectación
▁grava
▁huhne
▁centralizar
▁detienen
▁consiguientemente
▁reajuste
▁agravará
▁utilizara
▁concibe
▁equiparable
▁constan
▁valorizar
▁mantenía
▁juzgue
▁albanesas
apoyaremos
▁agradezca
▁regrese
▁sume
▁lícito
▁prevalencia
▁disfrutarán
▁impopular
▁reprochar
▁lisa
▁precipitaciones
▁resolvamos
▁despegar
▁taller
▁cerco
▁modificarla
▁viniendo
▁excluyan
▁participaran
▁incursión
volveremos
▁iniciarán
▁solucionen
▁enumeradas
▁concertar
▁formalización
▁alegrarse
urge
▁magia
▁examinara
▁opte
▁pietro
▁abundan
▁amalgama
▁trentin
▁comparada
expresamos
▁repulsa
▁persigan
▁parásitos
▁cívicos
▁concejal
▁blancas
▁boquilla
pone
▁incorporarán
▁stocks
▁denunciados
▁conversar
▁minando
▁traduciría
▁consideraremos
▁erigir
▁saliera
▁impunemente
▁magníficas
▁cogestión
imagínense
▁dilucidar
▁genitales
▁proclaman
▁toleran
▁vigorosamente
▁rebasa
euratom
▁invocado
▁bombo
▁ponderado
▁abonados
▁trade
▁globo
▁huecas
imaginen
▁reelegido
▁denota
▁defectuosos
▁imperfecto
▁subvencionando
▁análogos
▁tolerando
▁llaga
▁rinde
▁aprenden
▁fortalecen
▁oponiéndose
▁ida
▁eternamente
▁agota
▁rebeldía
▁unitarios
▁patrie
▁maderas
▁filial
▁letón
▁empiezo
▁creutzfeldt
▁terminando
▁armonizando
▁billón
▁pirámide
▁moreno
▁sitúen
▁189
▁destacarlo
▁obispo
▁atenga
▁modernizarse
▁infrinjan
▁ocasionará
comercio
▁investiga
▁benéficas
▁solteras
▁dedos
▁dificultará
▁adaptarla
▁enlaza
birmania
▁deducciones
▁sondeo
▁archipiélago
▁lindh
▁consensos
▁esquí
▁editoriales
▁sacará
▁congoleño
▁cometa
▁rice
▁victorias
▁acalorados
▁hugo
▁implicarnos
▁exóticas
▁hariri
▁bañistas
▁kerr
▁wibe
▁quisimos
▁versan
▁berend
▁erigirse
▁demandado
▁disciplinarios
▁consternado
▁arruinado
▁pólizas
▁draconianas
▁diablo
▁posibilite
▁llegaba
▁observadas
▁aparcamiento
▁topado
▁pecados
▁sancionados
▁sencillez
▁profesionalmente
▁decepciones
estará
▁ponderada
▁pnud
▁planetaria
▁liberada
▁sucia
▁frenos
forma
▁apostado
▁granito
▁kfor
▁concluimos
▁bank
▁cause
▁construyan
▁anticipadamente
habíamos
▁financiarán
▁acreditado
▁óptimos
▁tienes
dicen
▁irrelevantes
▁relacionarse
▁perseguirse
▁autoricen
▁diferencian
▁westminster
▁dañando
▁analogía
▁doquier
▁ahondar
▁apátridas
▁oua
▁sahel
▁disimular
▁ghana
▁concentremos
▁caricatura
▁consiguiera
▁revisa
▁maduros
▁reclamo
▁culpas
▁yugoslavo
▁encarna
▁convenimos
▁comercializarse
▁est
04
▁dejaran
▁refugios
▁vivida
▁expropiación
procedemos
▁redunde
▁atropellos
▁penurias
▁aversión
90
▁1958
▁fresas
poner
▁tenerlos
▁lanzan
▁dude
▁metáfora
▁colza
▁soslayar
▁ambages
▁incluirlos
combatir
▁ambiguas
▁lanzaron
▁rehabilitar
▁incitan
▁retirando
▁promovidas
46
▁colocando
▁desregular
▁preguntemos
▁detengan
▁acallar
▁ganaremos
▁extendidas
▁redactados
▁euromediterráneas
▁cannes
▁sembrado
▁codesarrollo
▁reducirían
▁oxígeno
▁amortización
▁infundados
▁transfiera
▁frescas
▁comentaré
▁avaricia
▁argelina
▁dediquemos
▁reasignar
▁hipoteca
▁supeditado
▁coponentes
▁mejoramos
▁huevo
▁cautelares
▁créanme
▁tentados
▁tramitando
▁invitarles
▁condicionantes
▁ayuso
▁incrementaría
▁patronales
▁obstaculizando
▁flete
▁forraje
▁gsm
▁cohesiva
▁pastel
▁hunde
▁nacimientos
▁straw
▁brindando
▁subsistir
▁prohibirá
▁cánceres
▁abjazia
▁adoptarla
▁preceptos
▁presentaran
▁relegado
▁blando
▁apariencias
▁eliminarán
▁vacilante
▁revertir
▁deplora
▁tel
▁rebatir
▁barents
▁propondré
▁abogada
▁arquitectónico
▁librado
▁belarusas
▁ecuménico
▁caracterizarse
▁disidente
▁reprogramación
▁malcolm
▁hablaban
▁comenius
▁bildt
▁rup
▁recreativas
▁jørgensen
▁generó
▁tempus
▁cnic
▁irish
moldova
▁larosière
▁pediátricos
▁cfc
fmi
▁trípoli
▁higgins
▁barsi
pataky
▁gurmai
▁marinescu
▁surján
▁barack
▁Šemeta
▁sindal
▁teverson
▁koch
▁desinterés
▁trasladando
▁reparten
▁mencionaron
▁148
▁perturbación
▁monopolistas
▁discrecionalidad
▁desperdiciando
▁conmocionado
▁elocuencia
▁obrera
muchísimas
▁irreparables
▁mareas
▁huracanes
▁exijo
▁adiciones
▁ocupara
▁contendrá
▁laan
▁sem
▁confirmadas
▁desaparecieron
▁sustituidas
▁cumpliera
▁enriquece
▁realizaciones
▁sometimiento
▁1244
▁indicarle
respetamos
▁utilizo
▁profundizando
▁redundar
▁economizar
▁rebajado
▁interfiera
▁sen
▁sustantiva
▁demorar
▁cofinanciados
▁poul
▁arrojan
▁guiarse
▁atraído
▁combaten
▁liberalizados
▁convocada
▁planteemos
▁precisado
▁escombros
▁bar
▁arruinar
▁comprendidos
▁valido
▁intencionado
▁percibo
▁reforzarlo
▁flamenco
▁but
▁subdesarrollados
▁desconocida
▁reembolsar
▁primarios
▁barras
▁cesa
▁leeré
▁alcanzo
▁quitado
▁habitadas
▁militante
▁francisco
▁subestimarse
ellas
▁desafortunadas
▁arenque
▁cuestionamiento
▁acierta
felicidades
▁sustituyen
▁definimos
▁recogía
▁rebasado
▁abonos
▁combatido
▁ocasionadas
▁antidiscriminación
▁reforme
70
▁negociadas
▁exportadora
▁alumno
▁equipadas
▁descendencia
▁plebiscito
▁hidroeléctrica
▁procuran
▁acercará
▁ayudarían
▁propagar
▁puse
▁documentada
▁entregó
▁khanbhai
▁utilizaba
▁alarde
▁deliberando
▁pronóstico
▁resistente
▁vehementemente
▁directorio
▁procedía
vengo
▁anticipo
▁ascender
▁134
sigamos
▁complacer
▁inesperado
▁unirá
▁apretado
▁tacógrafos
▁cometida
▁cheques
▁deteriorándose
▁visitaron
▁convenza
▁conservadoras
▁185
▁subvenciona
▁patriarcado
▁propician
▁hallaba
▁conmovido
▁votaran
▁restablezcan
ley
▁considerábamos
▁montones
[...]
