<blank>
<s>
</s>
▁the
,
.
▁of
▁to
▁and
▁in
▁that
▁is
▁a
▁for
▁on
▁this
▁be
▁we
▁are
▁it
▁have
▁not
▁i
▁as
▁with
▁which
▁european
-
the
▁will
▁by
▁has
i
'
▁commission
▁an
▁at
▁would
▁also
▁all
▁should
s
▁from
▁-
▁president
▁our
▁must
we
▁but
▁been
▁union
▁mr
▁states
▁parliament
▁you
▁can
it
▁member
▁more
▁was
in
▁report
▁or
▁its
▁their
▁council
▁there
▁like
▁do
▁very
)
▁eu
▁these
▁europe
▁they
▁one
this
▁countries
▁us
▁so
▁about
▁what
▁other
▁need
▁people
▁no
▁who
▁important
▁policy
:
▁my
▁new
▁only
▁time
▁because
▁if
mr
▁rights
▁support
▁up
▁am
?
▁such
▁now
▁out
▁take
▁make
▁between
▁into
▁those
▁work
▁(
▁economic
▁when
▁therefore
▁committee
▁being
▁some
▁them
▁any
▁political
▁made
;
▁were
▁than
▁way
▁development
▁social
▁believe
▁market
▁many
▁against
▁say
▁commissioner
▁proposal
▁first
▁fact
▁human
’
▁debate
▁group
(
▁think
▁well
▁issue
▁citizens
▁agreement
▁just
▁years
that
▁point
▁country
▁order
▁question
▁public
▁situation
▁future
▁right
▁two
▁community
▁'
▁measures
▁same
▁cannot
▁does
▁want
▁world
▁even
▁possible
▁financial
▁had
▁directive
▁here
▁state
▁international
▁today
▁most
▁could
▁part
▁national
▁said
as
▁much
▁where
▁good
/
▁already
▁common
▁clear
▁cooperation
▁year
▁me
▁within
▁too
▁how
▁vote
▁members
▁use
▁know
▁still
▁energy
▁particular
▁both
▁see
▁may
however
there
▁–
▁system
▁over
▁level
▁under
▁course
▁view
▁area
▁your
▁ensure
▁hope
▁taken
▁action
▁security
▁able
▁case
▁process
▁own
▁mrs
▁his
▁place
▁information
▁why
▁protection
▁treaty
▁however
▁then
▁government
▁put
▁number
▁gentlemen
▁means
▁example
▁last
▁house
▁without
▁problem
▁through
▁legal
▁rapporteur
%
▁problems
▁budget
▁great
if
▁resolution
▁women
▁rules
▁necessary
▁particularly
▁issues
▁trade
▁before
▁law
▁health
▁he
▁amendments
▁programme
▁united
▁long
▁end
▁give
▁presidency
▁regard
▁respect
▁given
▁areas
▁position
▁far
▁ladies
▁thank
▁decision
▁framework
▁matter
▁services
▁sector
▁whether
a
▁set
▁again
on
▁role
▁regulation
▁behalf
▁since
▁favour
▁further
▁proposals
▁basis
▁terms
▁crisis
▁next
▁certain
▁better
▁strategy
▁done
▁legislation
▁adopted
▁come
▁needs
▁help
▁different
▁aid
▁change
▁agree
▁amendment
▁present
▁institutions
▁continue
what
▁progress
▁opinion
▁after
▁working
▁transport
for
▁ask
▁wish
▁voted
▁high
▁employment
▁result
▁going
▁welcome
▁towards
▁concerned
▁general
▁approach
▁three
▁whole
▁research
▁environment
▁safety
▁forward
▁something
▁industry
▁few
▁current
▁including
▁conditions
▁fundamental
▁resources
▁importance
▁opportunity
▁principle
▁authorities
▁subject
▁go
▁together
▁provide
▁million
▁proposed
▁increase
▁really
▁policies
▁second
▁used
▁funds
▁every
▁procedure
▁specific
▁especially
but
▁during
▁internal
▁did
▁affairs
▁shall
▁third
▁environmental
▁greater
▁products
▁account
▁clearly
▁democracy
▁another
▁small
▁find
▁become
▁negotiations
▁serious
▁responsibility
▁least
▁itself
▁democratic
▁down
▁growth
▁regions
▁freedom
▁rather
▁effective
▁quite
▁access
▁call
▁society
▁attention
▁free
▁s
▁reason
▁always
▁implementation
▁making
▁real
▁difficult
▁essential
▁economy
▁once
▁food
▁control
▁interests
▁achieve
▁based
▁major
▁things
▁deal
▁taking
▁efforts
▁single
▁get
▁workers
▁large
▁positive
▁money
▁various
they
▁each
▁region
▁while
these
at
▁lisbon
▁yet
▁words
▁points
▁children
▁hand
▁foreign
▁global
▁agreements
▁competition
▁court
▁allow
▁less
▁back
▁1
▁concerns
▁full
▁reform
▁look
▁peace
▁objectives
▁involved
▁regional
▁consider
▁companies
▁having
▁step
▁relations
▁standards
▁quality
madam
▁eur
▁fully
▁interest
▁best
▁power
▁euro
▁dialogue
▁recent
▁often
▁programmes
▁solution
▁justice
▁following
▁objective
▁education
▁initiative
▁groups
▁majority
to
▁climate
▁party
▁bring
▁life
▁madam
▁decisions
▁simply
▁production
▁force
▁agricultural
▁her
▁concern
▁certainly
▁extremely
▁create
▁aware
▁questions
▁ago
▁fund
▁main
▁article
▁fight
▁context
▁developing
▁text
so
▁writing
▁risk
▁jobs
▁data
▁impact
▁plan
▁improve
▁mentioned
▁actually
▁convention
▁accept
▁form
▁period
▁non
▁start
▁might
▁results
▁joint
▁available
▁others
▁stability
▁indeed
▁open
▁consumers
▁meeting
▁day
▁currently
▁enlargement
let
▁concerning
▁field
▁management
and
finally
▁consumer
▁appropriate
▁understand
▁let
▁doing
▁systems
▁summit
▁act
▁conference
▁turkey
▁labour
▁cases
▁responsible
▁months
▁key
▁themselves
▁agenda
▁rule
▁civil
▁needed
▁solidarity
▁principles
▁parties
you
▁matters
▁thing
▁russia
!
▁compromise
▁reasons
▁costs
▁enough
▁funding
▁central
▁projects
▁sustainable
▁commitment
▁though
▁among
▁regards
▁governments
▁priority
▁activities
▁kind
▁local
▁individual
▁achieved
▁legislative
▁significant
▁reports
▁longer
▁tax
▁special
▁investment
▁lack
▁although
▁draft
▁promote
▁feel
▁minister
▁idea
▁markets
▁service
▁true
▁congratulate
▁strong
▁aim
▁provided
▁due
▁past
▁excellent
▁nothing
▁little
▁guarantee
▁young
▁sure
▁nuclear
▁cohesion
▁nations
▁prevent
▁line
▁terrorism
▁external
▁fisheries
▁final
with
▁regarding
▁structural
▁integration
▁mean
▁lead
▁perhaps
▁include
▁aspects
▁communication
▁agriculture
▁effect
▁business
▁agreed
▁above
my
▁project
▁makes
▁response
office
▁play
▁seen
one
▁transparency
▁remain
▁values
▁several
▁actions
de
▁moment
▁relation
▁comes
▁accession
▁war
▁budgetary
▁poverty
▁contribution
▁benefit
▁population
▁‘
▁upon
▁addition
▁apply
▁move
▁tomorrow
our
▁pay
▁technical
▁elections
▁existing
▁criteria
▁000
therefore
▁speak
▁regulations
▁share
▁assistance
▁practice
5
▁discussion
▁short
▁pleased
▁colleagues
▁provisions
▁changes
▁seems
▁procedures
secondly
▁crucial
▁voting
term
▁violence
▁him
▁creation
▁china
▁equal
▁answer
▁express
▁times
▁opportunities
▁soon
▁fishing
▁ourselves
▁left
▁training
▁success
▁consequences
▁basic
▁everyone
▁protect
▁statement
▁adopt
▁never
▁increasing
▁until
▁saying
▁carried
▁application
▁mind
▁cultural
▁2
▁off
▁instruments
▁increased
▁reduce
▁constitution
▁held
▁requirements
▁military
▁everything
▁item
▁farmers
▁organisations
▁asked
▁relating
▁thus
▁develop
▁show
▁meet
▁sense
▁balance
▁close
▁value
▁priorities
▁instrument
▁namely
▁presented
▁partnership
▁monetary
▁tabled
▁10
▁movement
▁parliamentary
▁term
▁required
▁job
▁throughout
▁draw
▁initiatives
▁20
▁face
▁around
▁monitoring
▁request
▁nature
all
▁closed
when
▁cost
▁across
▁called
▁un
▁road
▁stage
▁challenges
▁package
▁week
▁borders
▁demand
▁either
▁potential
▁address
▁mention
▁immigration
▁fellow
▁keep
▁water
▁review
▁conflict
▁reach
▁illegal
▁bank
▁using
▁levels
▁focus
▁previous
▁pressure
▁talking
▁expressed
▁reached
▁raised
▁medium
▁five
▁victims
▁3
▁implemented
▁effort
▁culture
▁minutes
▁task
▁powers
▁conclusion
▁decided
▁billion
▁private
▁recently
▁prepared
▁four
▁establish
▁experience
▁defence
▁partners
▁she
▁fair
▁vital
▁direction
▁try
▁enable
▁implement
▁absolutely
▁rural
▁home
▁coming
▁ever
▁ireland
▁reading
▁whose
▁waste
▁established
▁crime
▁doubt
▁included
▁supported
▁reality
european
▁sea
▁sectors
▁quickly
▁competitiveness
▁thanks
▁businesses
▁effects
▁east
▁democrats
▁talk
▁outside
of
▁republic
▁ministers
▁agency
▁coordination
▁list
▁tell
▁completely
▁emissions
▁reduction
▁living
▁note
▁prices
▁air
▁representatives
▁authority
▁organisation
▁encourage
▁live
▁found
▁africa
▁ensuring
▁criminal
▁additional
▁brought
▁giving
▁cross
▁natural
▁reforms
▁treatment
▁december
▁received
▁french
▁possibility
▁extent
▁almost
▁model
▁12
▁heard
▁creating
▁finally
▁along
▁assessment
▁took
▁price
▁direct
▁cause
▁document
▁innovation
▁unemployment
▁applied
▁amount
▁paper
▁relevant
▁light
▁strengthen
▁motion
▁behind
▁adoption
▁events
▁stress
▁

▁away
▁follow
furthermore
▁takes
▁media
▁offer
▁practical
▁5
▁care
▁remains
▁capacity
▁unacceptable
▁technology
▁approved
▁guidelines
▁knowledge
▁discussed
▁south
▁discrimination
▁goods
▁men
▁proper
▁solutions
▁days
▁confidence
▁aimed
▁nor
▁avoid
▁despite
▁family
▁discussions
▁expect
▁affected
▁honourable
▁british
▁2000
▁discuss
▁efficiency
▁lot
▁effectively
▁six
▁turn
▁contribute
▁asylum
▁add
▁instead
thank
▁15
▁equality
▁considered
▁old
▁scope
firstly
▁humanitarian
▁june
▁rate
▁begin
▁developed
▁2007
▁message
▁huge
▁enterprises
▁stop
▁difficulties
▁trying
▁precisely
▁administrative
▁conclusions
▁improving
▁reference
▁forces
▁active
▁shown
▁green
▁side
▁committed
▁according
▁challenge
▁providing
president
▁11
▁carry
▁oil
▁strategic
▁sitting
▁industrial
▁connection
▁circumstances
▁supply
▁benefits
▁personal
▁regime
▁accordance
▁independent
▁provides
▁combat
▁lives
▁created
–
▁speech
▁.
▁half
▁status
▁allowed
parliament
▁date
▁unfortunately
▁scientific
▁duty
first
▁promoting
▁return
▁provision
▁implementing
▁calls
▁participation
▁hard
▁total
▁successful
▁self
▁consideration
▁capital
▁comments
▁stand
▁goes
▁minimum
▁propose
▁history
▁views
no
▁beginning
▁brussels
▁rightly
▁purpose
▁4
▁forms
now
▁specifically
▁plans
how
▁seriously
▁stated
▁steps
▁accepted
▁considerable
▁mediterranean
▁closely
▁irish
▁co
▁germany
▁death
▁content
▁remind
▁beyond
▁constitutional
▁dealing
▁israel
▁receive
▁overall
▁anti
▁colleague
▁pact
▁referred
▁ways
▁requires
▁animal
▁urgent
▁financing
▁leave
▁ban
▁exchange
▁wanted
▁commitments
▁measure
▁institutional
▁representative
▁police
▁border
▁decide
▁middle
▁introduction
▁iraq
▁directly
▁activity
▁tourism
▁complete
▁25
▁setting
▁happen
2
▁supporting
▁annual
sized
▁low
▁animals
▁intended
▁produce
▁gas
▁paragraph
today
▁entire
▁per
▁competitive
▁30
▁poor
▁highly
▁prime
▁maintain
▁europeans
▁efficient
▁ambitious
▁higher
▁wto
▁product
▁perspective
▁sufficient
▁bodies
▁demands
▁january
▁former
▁paid
▁statements
▁wrong
▁internet
▁similar
▁2004
▁risks
▁greece
▁alone
▁event
▁myself
▁represent
▁known
▁properly
▁establishing
▁respond
▁shows
▁aspect
▁2009
▁opposition
▁join
▁study
▁speaking
▁eastern
▁combating
▁strengthening
▁exist
▁caused
▁calling
▁anything
border
▁conclude
▁weeks
▁delegation
▁led
▁genuine
▁represents
▁increasingly
▁type
▁prevention
▁improved
▁threat
▁limited
he
fr
▁early
▁north
▁discussing
▁whom
▁developments
▁achieving
by
▁de
▁gives
▁march
▁language
▁office
▁reducing
▁producers
▁ten
▁network
up
▁refer
▁infrastructure
▁name
▁expenditure
▁produced
unfortunately
▁happened
▁aims
▁emphasise
4
▁budgets
▁%
▁later
although
▁candidate
▁rise
▁firstly
▁2006
▁urge
▁convinced
m
▁manner
▁outcome
europe
▁looking
▁balanced
▁comprehensive
▁yesterday
▁useful
▁charter
▁obviously
▁broad
▁require
▁consensus
▁analysis
▁wants
▁origin
▁regret
▁2008
▁concrete
▁declaration
▁spanish
called
▁dimension
▁remember
▁influence
▁hear
▁6
▁sometimes
since
▁elements
▁rapporteurs
▁company
▁limit
▁50
▁recommendations
▁governance
▁damage
▁mechanism
▁italy
▁contrary
moreover
▁facing
▁directives
▁2010
▁recognition
▁recognise
making
▁earlier
▁sources
▁hold
▁becoming
▁september
▁cut
▁documents
▁networks
▁german
▁spirit
▁responsibilities
▁thinking
▁says
▁introduced
▁relationship
▁concept
▁introduce
▁laws
▁differences
▁agencies
▁thought
▁globalisation
▁romania
▁word
▁alternative
▁parts
▁2005
▁negative
▁building
▁press
▁establishment
▁reduced
▁pointed
▁currency
▁practices
▁added
▁entirely
▁asking
▁raise
▁closer
▁flexibility
▁staff
▁strongly
▁integrated
▁dangerous
▁acceptable
▁uk
▁parliaments
▁palestinian
▁targets
▁else
▁comment
▁spain
▁opening
▁ukraine
▁sanctions
▁liberalisation
▁probably
▁methods
▁failure
▁2003
▁kosovo
▁administration
▁body
▁rest
▁obligations
▁gender
▁child
▁improvement
▁association
▁november
▁attempt
▁meps
▁treaties
after
▁met
▁america
▁forget
nevertheless
▁trust
▁communities
▁chamber
▁goals
▁applies
▁exactly
▁american
▁ideas
▁growing
indeed
▁critical
▁chance
▁big
▁addressed
▁submitted
▁finance
▁seek
▁constructive
▁italian
▁institution
▁laid
▁commercial
▁freedoms
▁refugees
▁bear
▁7
▁sort
▁western
▁kingdom
▁drawn
▁choice
▁morning
▁person
▁mandate
▁ahead
is
▁persons
▁iran
▁happy
▁mechanisms
▁2002
▁putting
▁enormous
▁send
▁centre
▁leaders
▁build
▁method
some
▁managed
▁2020
▁informed
▁positions
▁resolutions
▁understanding
▁correct
▁independence
▁sensitive
▁mutual
▁dealt
▁technologies
▁consultation
▁transparent
▁unable
▁mainly
▁contains
▁age
▁reply
▁intervention
pl
▁ground
▁october
▁operation
▁fall
▁immediately
▁definition
▁thousands
▁leading
▁read
▁8
▁signed
▁peoples
▁trafficking
▁continuing
▁debates
▁ones
▁simple
▁organised
▁disaster
▁complex
▁guarantees
commissioner
▁board
▁easy
▁fear
▁recommendation
▁rejected
▁merely
▁turkish
even
▁includes
member
▁economies
▁impossible
▁protocol
▁worked
▁disease
▁lost
▁exercise
▁renewable
▁expression
▁instance
▁traffic
▁resolve
▁figures
▁adequate
▁run
▁intergovernmental
▁2001
▁evidence
▁official
▁promotion
▁situations
▁subsidiarity
many
▁came
▁families
▁seem
▁fish
▁territory
▁related
▁substantial
▁intention
▁elected
▁burden
▁acts
▁told
▁fraud
▁controls
▁failed
▁russian
▁discharge
▁mobility
▁payments
▁supports
▁weapons
▁speakers
▁involvement
▁schengen
▁degree
▁goal
▁bringing
▁barroso
▁obvious
▁secure
▁cyprus
▁wishes
▁desire
▁election
▁income
▁structure
▁plenary
▁immediate
▁land
▁totally
▁repeat
▁attitude
▁membership
▁9
▁maritime
▁socialist
▁table
▁linked
▁opposed
why
▁truly
▁getting
▁extend
▁rates
▁appeal
▁grateful
▁protecting
▁ought
▁cover
▁faced
▁diversity
▁forced
▁ready
▁highlight
▁votes
▁happening
▁recovery
▁greatest
thirdly
▁involving
▁conduct
▁poland
▁minorities
ladies
▁actual
▁intend
▁1999
▁talks
▁sides
▁travel
▁original
▁starting
▁sound
▁tackle
▁evaluation
▁committees
▁adopting
▁smes
▁shared
▁substances
▁lines
▁african
▁july
▁arms
▁re
▁credit
▁northern
▁belarus
▁portugal
▁assembly
▁safe
▁advantage
▁followed
▁round
▁defend
▁continues
▁suffering
▁meetings
based
▁recognised
▁seeking
▁swedish
▁bad
▁comply
▁heart
▁bilateral
▁competence
▁appear
▁carefully
▁vehicles
▁pollution
▁auditors
▁element
▁interesting
▁target
▁27
▁minority
▁c
▁customs
▁drugs
▁terrorist
▁reject
▁voice
▁thereby
▁designed
▁granted
▁subsidies
▁binding
▁oral
b
▁explain
▁causes
▁proposing
▁danger
▁ability
▁consumption
▁judicial
▁immigrants
▁export
▁detailed
▁serve
▁criticism
▁40
▁13
▁presence
▁range
▁covered
▁expected
▁structures
▁spent
▁regulatory
while
▁planning
▁bulgaria
▁changed
▁languages
▁consistent
▁emphasis
▁rapid
▁april
▁permanent
▁greek
▁involve
▁rail
▁standard
▁series
▁improvements
▁delay
▁heads
▁anyone
▁attacks
▁alliance
▁sign
▁roma
▁session
▁hours
▁18
▁otherwise
▁migration
▁citizen
only
▁campaign
▁entry
▁acp
▁factors
▁religious
mrs
▁100
▁domestic
▁visa
▁lower
▁functioning
▁limits
▁credibility
▁reasonable
▁politicians
▁monitor
▁worth
▁approval
▁affect
▁sweden
▁obligation
▁conciliation
▁debt
an
▁obtain
▁late
▁employees
▁21
▁naturally
▁van
▁amongst
▁welfare
▁source
▁professional
▁started
▁maximum
such
▁taxation
▁lies
▁harmonisation
▁inclusion
▁compensation
▁nos
▁neither
▁encouraging
pt
▁whilst
▁facilitate
▁participate
▁signal
▁ppe
from
▁works
▁14
▁initial
▁factor
▁fail
▁grounds
▁banks
▁czech
▁speaker
▁easier
▁passengers
▁mission
those
▁continent
▁moving
▁detail
▁arrangements
▁gave
▁delighted
▁trading
▁crimes
▁partner
▁temporary
▁enter
▁ombudsman
▁compliance
▁respected
▁investments
▁restrictions
▁month
▁floor
▁afghanistan
▁contributions
▁imposed
▁politics
▁generally
▁inform
▁referendum
▁numerous
▁copenhagen
▁appears
▁awareness
▁tobacco
▁transfer
▁conflicts
▁operations
▁experts
▁modern
▁flexible
▁purposes
▁capable
▁helping
▁requirement
▁commissioners
▁proposes
▁voluntary
▁millions
▁spending
▁via
▁interested
▁disasters
▁link
▁code
▁scheme
▁diseases
▁placed
▁sent
▁netherlands
▁equally
▁fighting
▁construction
▁effectiveness
▁chairman
▁liberal
▁impose
▁safeguard
▁guaranteed
▁reflect
▁century
▁labelling
▁opinions
yet
▁negotiating
▁baltic
▁likely
▁endorse
▁vice
▁existence
▁worse
▁16
▁personally
▁operators
▁allowing
▁solve
▁defined
▁demonstrate
▁technological
▁learn
▁evening
▁continued
▁scale
▁chinese
▁strasbourg
▁protected
▁firm
▁peaceful
▁forthcoming
▁associated
▁,
▁demonstrated
▁operate
▁separate
▁portuguese
▁option
▁sexual
▁amsterdam
▁resolved
▁attack
▁balkans
▁ii
▁payment
▁written
▁distribution
another
▁ultimately
▁individuals
▁glad
▁occasions
▁exists
▁post
▁remarks
▁examples
▁space
▁truth
▁traditional
▁letter
▁top
▁wide
▁primarily
▁p
▁legitimate
▁17
▁emergency
▁white
▁tasks
▁vulnerable
▁manage
▁path
▁base
▁average
▁assure
▁usa
▁violations
▁overcome
▁dignity
▁entitled
according
▁contained
▁luxembourg
▁nevertheless
▁knows
lastly
▁india
▁justified
6
▁property
2001
▁strict
▁dutch
▁passed
▁hands
▁concluded
▁speed
▁difference
▁revision
▁tried
▁loss
▁southern
▁collective
ec
▁suggest
▁february
▁statistics
▁planned
▁nato
▁clause
▁secondly
▁cooperate
▁imports
▁played
▁operational
▁car
▁officials
▁appropriations
▁got
▁vision
▁pension
▁firmly
▁exclusion
▁offers
despite
▁involves
▁nice
▁examine
▁amounts
▁excessive
given
▁whatever
▁cap
▁corruption
▁visit
▁insurance
▁decisive
▁noted
▁quotas
▁obstacles
▁extended
not
▁treated
▁stocks
▁substance
yes
▁aviation
▁allocated
▁industries
▁lose
▁realise
▁preventing
▁please
▁unless
▁material
▁accounts
▁mass
▁ecu
▁highest
▁sport
▁processes
▁supervision
▁happens
▁israeli
▁ethnic
▁prosperity
▁austria
▁requested
▁latter
▁places
▁exploitation
▁gone
1
▁approve
▁contact
▁spoken
▁barriers
▁tool
▁allows
▁compared
▁impression
▁stronger
▁confirm
general
nl
▁record
▁fishermen
▁abuse
▁spoke
▁considering
▁details
▁fuel
▁proceed
▁welcomed
▁expectations
▁man
▁prepare
▁pillar
▁croatia
▁preparing
▁undoubtedly
▁urgently
▁phase
▁constantly
▁extension
▁announced
▁farming
▁applying
▁keeping
▁universal
▁coordinated
▁patients
▁willing
▁taxes
▁equipment
▁pursue
▁beings
▁somewhat
▁asia
▁penalty
▁introducing
▁appreciate
▁drawing
▁facts
▁ratification
▁convergence
▁studies
▁strategies
▁latest
▁1997
▁electronic
▁behaviour
▁occasion
▁prove
▁operating
▁historic
do
▁gain
▁strengthened
▁precise
▁largest
perhaps
▁types
▁territorial
▁leadership
▁described
▁learning
▁ongoing
▁ngos
▁courage
▁confirmed
▁sensible
▁1998
▁represented
▁fulfil
▁innovative
▁relates
▁wonder
because
▁brief
▁proceedings
▁unfair
▁fiscal
▁pass
▁intends
▁materials
▁60
▁debating
▁succeed
here
▁sovereignty
▁amending
▁west
then
▁codecision
▁significantly
▁arguments
▁hungarian
▁determined
▁accidents
▁brings
▁seven
▁offered
▁kept
▁function
▁duties
▁published
▁cars
▁electricity
▁normal
▁clarify
▁legally
▁medical
▁maintaining
▁medicines
▁fields
▁politically
▁youth
▁finding
▁sustainability
▁submit
▁urban
▁19
▁urgency
▁follows
▁answers
▁driving
▁largely
th
▁identity
▁nation
▁insist
▁shadow
▁briefly
▁determination
▁condemn
▁realistic
▁stable
▁neighbours
▁test
▁georgia
▁acknowledge
▁dependent
▁invest
▁1996
▁news
▁suffer
▁school
▁define
▁serbia
▁advance
▁changing
economic
▁contracts
▁socialists
▁difficulty
▁believes
▁choose
▁coherent
more
▁vessels
▁careful
▁valuable
▁waiting
▁transition
▁felt
christian
▁pre
subject
▁genuinely
▁deficit
▁g
▁undertaken
▁zone
▁resulting
▁significance
▁understood
▁absence
▁highlighted
▁primary
▁exports
▁head
▁assess
▁television
▁waters
▁argument
▁seeing
▁fine
▁destruction
eu
▁restructuring
▁holding
▁perfectly
year
▁enforcement
▁forum
▁wait
97
▁qualified
▁petitions
▁proved
▁daily
▁neighbourhood
▁users
▁leads
▁actively
▁enjoy
▁disposal
▁referring
▁built
▁meat
▁statute
▁moreover
▁numbers
last
▁friends
▁24
▁deliver
▁investigation
▁wider
▁playing
▁milk
▁apart
▁species
▁claim
▁constitute
▁identify
▁satisfactory
▁considers
▁speeches
▁becomes
▁absolute
▁drug
▁figure
▁preparation
▁negotiation
▁amended
▁elsewhere
consequently
▁presidents
▁topic
▁gdp
▁neighbouring
▁condition
▁someone
▁etc
▁requests
▁suggested
▁societies
▁release
▁listen
▁sugar
▁greens
▁regular
▁reconstruction
▁obliged
▁front
▁identified
▁saw
▁latin
▁sets
▁governing
▁suffered
▁room
▁assume
▁prisoners
▁plant
▁tragic
▁greatly
▁schools
▁honour
▁80
▁belgian
▁stands
▁near
▁thursday
▁thanking
▁double
▁sufficiently
▁advertising
▁options
▁interinstitutional
thus
instead
▁previously
▁plants
▁multilateral
▁pakistan
▁black
▁indicated
▁opposite
▁wine
▁britain
▁issued
▁centres
▁500
▁concentrate
▁launched
free
▁proportion
es
▁possibly
▁remove
▁polish
▁conducted
▁satisfied
▁transitional
▁heritage
▁seeks
▁affects
▁check
▁extra
▁guaranteeing
▁links
▁poorest
during
▁inadequate
▁deserves
▁debated
▁partly
▁contain
▁meant
▁cities
▁maintained
once
▁barcelona
▁version
▁secretary
▁attempts
▁running
▁leader
▁complicated
▁chosen
▁23
▁counter
▁racism
▁diplomatic
▁addressing
▁helped
▁pensions
▁formal
▁possibilities
▁grant
▁generation
▁definitely
▁schemes
▁competent
▁carrying
▁went
▁gap
▁completed
▁passenger
▁prodi
▁spread
▁facilities
▁prospects
without
does
▁compulsory
▁tools
▁airlines
e
7
can
▁feed
▁spite
▁hungary
▁hundreds
▁2011
▁moral
▁massive
▁threats
▁phenomenon
▁afternoon
▁1995
▁hearing
▁himself
▁healthy
▁heading
▁worldwide
▁implications
▁ratified
▁nationals
▁skills
▁intentions
▁depends
▁22
are
▁tragedy
▁successfully
▁players
▁interpretation
▁red
▁whereby
having
▁opened
rapporteur
▁danish
▁taxpayers
▁savings
▁e
▁texts
▁increases
▁proof
▁surely
▁europol
▁transatlantic
▁achievement
▁vat
▁uniform
▁essentially
▁healthcare
el
▁enabling
▁adapt
▁geographical
▁demanding
ro
▁producing
▁assist
▁accident
▁foremost
▁constant
▁stock
▁bse
▁depend
▁eight
▁timetable
▁bit
▁extensive
▁extreme
▁purely
▁solely
▁reaction
▁sorry
▁worst
▁belgium
▁trans
▁core
▁harmful
▁prior
▁finland
▁stressed
▁focused
▁city
will
▁deals
96
▁yes
▁intellectual
▁heavy
▁communications
scale
▁decades
▁kyoto
▁bureaucracy
▁patent
▁environmentally
▁acting
▁remaining
▁relatively
▁stake
▁arrest
▁save
▁proud
▁manufacturers
▁island
▁exception
▁profits
▁suitable
▁considerations
▁reliable
▁cuts
▁korea
▁japan
▁spend
▁mistake
▁easily
▁claims
▁rapidly
▁refers
▁competences
▁promised
▁unnecessary
▁quote
▁openness
▁biggest
▁clarity
▁courts
▁extending
▁certainty
▁advice
▁correctly
▁deep
▁applicable
▁advantages
▁dispute
▁respects
▁determine
both
▁enhance
▁railway
▁recall
▁contributed
▁adjustment
▁wealth
▁unanimously
▁worrying
▁encouraged
▁strength
▁applications
▁granting
▁historical
▁favourable
▁crises
▁background
▁doubts
▁paying
▁ports
where
▁regrettable
▁size
▁charges
▁ships
▁oppose
▁hopes
▁considerably
▁replace
▁feeling
▁carbon
▁experienced
▁performance
▁legitimacy
▁violation
related
▁modified
▁spring
▁reflected
out
3
▁everybody
▁dynamic
▁foundation
▁willingness
▁electoral
▁removed
▁declared
▁unity
▁cuba
▁rich
▁constitutes
▁emphasised
▁reiterate
▁citizenship
▁succeeded
▁religion
▁affecting
▁d
▁federal
▁engage
▁fruit
▁category
▁launch
▁organization
▁reaching
▁tests
▁christian
▁lay
▁supposed
▁targeted
▁whereas
▁powerful
just
▁cancer
▁employers
2000
▁negotiated
▁afraid
▁bosnia
▁break
under
▁summer
▁science
▁sum
▁regarded
▁deeply
▁communist
▁greenhouse
▁entered
com
▁liberties
▁thorough
▁consequence
▁undertakings
▁austrian
▁mark
2002
▁simplification
▁buildings
▁26
▁0
▁sake
▁complaints
▁noon
over
▁utmost
▁army
▁section
▁arise
▁raising
▁deserve
question
▁weak
▁piece
▁incorporated
▁airports
▁fleet
▁restore
▁importantly
▁smaller
▁sought
▁disabled
▁obtained
▁reservations
▁31
▁declarations
sv
▁imagine
▁ordinary
▁explanation
▁marketing
▁creates
▁fairly
▁supplementary
▁armed
▁presenting
▁200
▁underline
▁leaving
▁aside
▁radical
▁credible
▁welcomes
▁arab
▁showing
▁settlement
▁excluded
▁eye
▁import
8
▁checks
▁port
▁islands
▁subjects
▁denmark
▁bureaucratic
▁eliminate
▁negotiate
▁drafting
▁meaning
▁vast
▁suggestions
▁necessarily
▁maastricht
▁revised
▁intervene
▁foundations
▁burma
▁shortcomings
▁terrible
▁enhanced
▁students
▁eyes
▁fourth
▁representation
▁educational
▁ambition
▁articles
▁firms
▁repeatedly
▁incentives
▁profit
▁jointly
▁70
▁tonnes
▁reflects
▁terrorists
▁resulted
▁prospect
▁undertaking
▁pse
▁wording
▁forest
▁honest
▁kinds
▁nearly
▁exceptional
▁hit
▁fewer
session
▁tackling
▁pleasure
▁delays
its
▁trend
▁outstanding
▁gaza
▁charge
▁justify
▁beef
▁bureau
▁territories
▁losses
▁periods
▁alcohol
▁examined
▁economically
▁admit
well
▁quota
▁below
▁hardly
▁combined
▁bearing
▁warmly
▁transactions
▁90
▁unemployed
▁procurement
▁expressing
people
nor
▁penalties
▁expense
▁28
▁physical
▁aircraft
▁chapter
▁retain
▁conventions
▁nonetheless
▁shape
▁drivers
▁boost
▁clean
▁qualifications
▁widespread
▁indicators
▁surprised
▁islamic
following
▁digital
▁candidates
▁repeated
▁broader
▁demographic
▁twenty
▁ecb
▁hence
▁turned
▁picture
▁allocation
▁falls
▁preserve
▁zimbabwe
▁undermine
▁marine
▁expensive
▁secret
▁macedonia
▁parents
▁insufficient
▁none
▁condemned
▁lasting
▁freely
▁stance
▁belief
▁register
▁finances
▁restricted
▁became
▁palestinians
▁prison
wide
▁suspended
▁raw
▁regulated
▁deadline
▁inflation
▁drafted
▁populations
▁liability
▁stay
▁extraordinary
▁shares
▁ethical
▁telecommunications
▁standing
▁satisfaction
before
▁unfortunate
▁commit
▁lessons
▁deaths
▁larger
▁banking
▁abolition
▁civilian
▁aids
▁executive
▁2013
▁regardless
h
▁widely
▁permit
▁preparations
▁indicate
▁turning
▁fast
▁journalists
▁necessity
▁ecological
▁promises
▁warning
▁processing
▁generations
▁regulate
▁relate
▁demonstrates
debate
▁occurred
▁uncertainty
▁biodiversity
▁collaboration
▁offering
▁killed
▁frequently
▁gradually
▁causing
▁institute
▁covers
▁elderly
▁millennium
▁withdraw
▁sphere
▁inquiry
▁slovakia
▁torture
▁observation
▁recommend
▁ignore
▁congratulations
▁coordinate
▁beneficial
▁buy
▁fresh
▁division
▁lithuania
▁amend
▁english
▁surveillance
▁noise
▁motions
▁albania
▁receiving
▁couple
▁reinforce
▁informal
▁supplies
▁contacts
level
▁puts
▁acquis
like
▁chain
▁abstained
▁rising
▁organizations
▁door
▁listened
▁egypt
▁promise
▁observed
▁explained
▁began
▁interim
▁declare
▁minute
▁prevented
▁supervisory
▁sovereign
▁promoted
▁textile
▁basically
▁conservation
▁associations
▁financed
▁engaged
▁dumping
▁29
▁yugoslavia
▁grow
▁geneva
▁bound
▁emerging
▁outset
▁collection
▁team
▁count
▁suggestion
▁lie
written
▁presentation
▁viable
▁ec
hu
▁transit
▁strike
▁perspectives
▁severe
▁unanimous
▁contract
▁undertake
▁forests
▁sending
▁inter
▁struggle
▁nobody
▁belong
▁canada
▁timely
▁crops
▁battle
▁vehicle
▁tribute
▁talked
▁choices
▁arising
▁divided
clearly
▁moved
2013
▁familiar
▁unique
▁b
rule
▁compatible
]
▁accompanied
▁1990
▁roads
▁london
▁efficiently
▁postal
▁night
▁rome
▁harmonised
▁clearer
▁congratulating
obviously
▁exclusively
▁faith
▁unions
▁sincerely
country
▁approximately
▁reconciliation
▁simplify
▁reserve
▁respecting
▁slow
▁fifteen
▁push
▁palestine
▁blame
▁occur
▁accessible
▁enlarged
▁morocco
2006
▁alongside
▁alternatives
▁loans
▁americans
▁campaigns
every
▁route
▁soviet
▁agrees
▁afford
20
▁directed
▁judgment
▁friend
▁coherence
▁mid
▁shortly
▁wage
▁pursued
▁experiencing
▁igc
▁opt
▁defending
▁distinction
▁emu
▁friendly
▁looked
▁clarification
▁migrants
▁prefer
▁progressive
▁moldova
▁joined
▁card
▁tangible
▁weight
two
▁disappointed
▁items
▁rejection
▁sharing
▁percentage
▁assessments
▁reflection
▁atlantic
▁troops
mediterranean
▁railways
▁strictly
▁organise
30
▁annex
▁multi
▁mere
▁compete
quality
▁housing
▁apparent
▁threatened
also
▁missing
▁trial
▁residence
▁revenue
▁coastal
most
▁evident
▁highlights
▁threshold
▁ashton
▁restrict
▁traditions
▁consequently
▁contributing
▁liberals
any
▁invite
▁permitted
▁outermost
▁estimated
▁chemicals
▁refuse
▁consulted
▁tradition
▁desirable
▁achievements
▁chemical
▁connected
▁soil
▁managing
▁treat
she
or
▁begun
their
▁authorisation
▁forgotten
▁signing
▁blood
▁replaced
nonetheless
▁prize
▁defining
▁alde
▁image
▁usual
▁dublin
▁disagree
▁react
▁parallel
▁joining
▁lacking
▁raises
▁furthermore
▁dramatic
▁worthy
your
▁acceptance
▁universities
▁refused
▁ruling
▁genetically
▁2012
eec
▁flows
▁doha
▁cultures
▁plays
▁underlying
2003
▁subsequently
▁stations
▁mobile
▁imposing
▁hoped
▁scrutiny
▁reported
▁[
▁controversial
▁35
▁resistance
time
▁yourself
▁notably
▁categories
▁ambitions
▁occupation
▁1994
▁characteristics
▁farms
▁imported
▁solid
▁integrity
▁freight
00
▁funded
▁resource
▁showed
▁emission
▁equivalent
▁respective
▁unanimity
▁advanced
▁socio
▁advocate
▁stakeholders
▁coal
regarding
▁banned
▁systematic
▁fifth
▁investors
▁impetus
▁observers
▁facility
▁confusion
▁track
▁surrounding
▁observe
▁valid
▁losing
vote
▁accounting
▁approaches
▁slightly
▁lebanon
▁victim
▁drive
▁protest
▁intensive
▁subsequent
▁preventive
▁airport
▁delegations
▁refugee
▁exchanges
▁helpful
▁destroyed
▁representing
▁safeguarding
▁mandatory
▁providers
▁pursuant
▁failing
▁chechnya
▁inhabitants
▁chair
▁regularly
▁popular
otherwise
▁accordingly
▁comparison
▁preliminary
▁nine
▁sales
▁woman
▁justification
▁notice
▁harm
▁tunisia
▁whatsoever
▁logical
98
▁conviction
▁iraqi
▁ratify
▁reporting
▁ill
▁assurance
▁movements
▁looks
▁multiannual
▁berlin
▁controlled
▁abuses
▁procedural
▁thousand
▁regimes
▁brazil
▁fails
▁convince
▁olaf
▁inside
▁malta
▁title
▁judge
▁300
▁abroad
▁ms
▁keen
▁gained
▁infrastructures
▁listening
▁error
▁founded
▁fire
▁hundred
▁mistakes
▁anniversary
▁resumed
▁block
▁tolerance
▁net
▁decent
▁covering
▁solana
▁wages
▁stages
▁solved
▁expansion
▁eib
▁assets
please
▁fuels
▁ageing
▁compromises
▁libya
▁visas
▁disputes
▁integrate
▁ignored
▁dead
▁breach
amendment
▁exceptions
▁partnerships
▁motor
▁dangers
▁older
▁consistency
▁infringement
▁win
▁privacy
▁functions
▁modernisation
▁sudan
▁eventually
▁restrictive
▁monitored
▁experiences
▁expertise
▁participating
discrimination
▁warrant
▁criminals
▁containing
▁patten
▁schulz
▁envisaged
▁fires
▁signs
▁rely
▁withdrawal
▁pilot
▁marked
allow
▁syria
▁humanity
▁registration
▁acknowledged
▁consolidation
▁actors
▁incorporate
▁resolving
governmental
similarly
▁models
▁pro
▁suggests
▁invited
▁violent
▁confident
▁dossier
▁ecofin
▁consent
▁visited
▁answered
▁liked
▁tonight
▁search
▁female
▁usually
▁accepting
▁examination
▁hour
▁reductions
▁swift
▁fears
▁applicant
▁monday
▁concentration
▁arrive
▁denied
▁jurisdiction
▁hopefully
▁august
▁galileo
▁lifelong
▁safeguards
▁finnish
▁variety
▁concludes
▁clauses
▁falling
▁died
who
▁organic
▁offices
reaching
▁entering
▁helps
▁employed
▁stabilisation
▁decline
▁backing
▁pursuing
▁revolution
▁accountability
▁disabilities
▁catch
▁gross
▁perfect
▁maintenance
▁renewed
▁detention
▁outlined
▁proven
▁focusing
▁sight
▁names
▁endorsed
▁length
▁dictatorship
▁albeit
▁wednesday
▁gradual
▁finish
▁investigations
▁distributed
▁pretext
▁visible
▁cutting
▁released
within
▁sentence
could
▁stringent
▁host
hence
▁criterion
▁closure
▁sites
▁substantially
▁argue
▁incentive
▁sincere
▁bush
▁explanations
▁birth
▁die
▁meantime
▁ideal
▁except
▁learned
▁badly
▁appointment
▁evaluate
▁recognises
▁autumn
▁autonomy
▁stockholm
▁collapse
▁consultations
▁exclusive
▁deficits
▁completion
▁indication
▁contrast
▁xenophobia
▁excuse
▁enables
may
▁features
▁voters
▁endeavour
▁university
▁avoided
▁iranian
▁biofuels
sk
▁productivity
▁sympathy
▁presidential
▁essence
▁tibet
▁destroy
▁sad
russia
▁consistently
▁shipping
▁paragraphs
▁gmos
▁brok
▁examining
▁inspection
▁devoted
▁intelligent
▁absurd
▁disastrous
▁storage
▁virtually
▁vocational
▁leaves
▁productive
▁commend
▁everywhere
cs
▁apparently
▁cope
other
▁game
▁train
▁meets
▁slovenia
▁observations
▁flow
▁adequately
▁testing
▁congo
▁tough
▁murder
▁responses
▁football
▁donors
▁acted
▁flights
▁fit
▁struck
▁democratically
▁sections
▁federation
naturally
▁accused
▁verheugen
▁scotland
▁damaging
▁mep
▁rating
▁enterprise
▁notes
▁presents
▁scientists
▁ensured
▁fixed
▁imperative
▁unilateral
▁lists
▁enabled
▁emerged
▁programming
▁borne
▁sub
▁initially
▁enshrined
▁personnel
▁gue
ngl
▁foot
ale
▁conservative
▁repression
▁hunger
▁desired
▁fate
▁repercussions
▁appointed
▁uses
▁romanian
▁minor
▁exemption
▁missions
▁wherever
▁verts
▁rigorous
▁seekers
▁removal
▁fundamentally
▁simplified
▁cheap
▁sold
▁recommended
▁farm
▁inequalities
▁ownership
▁arrived
▁shift
▁wall
initiative
▁attractive
▁games
▁statistical
▁explicitly
▁soldiers
▁tackled
▁hazardous
▁fought
▁expert
▁speculation
▁ceiling
▁immunity
▁volume
▁exposed
▁frontex
▁ministerial
▁platform
▁story
▁straight
▁inspections
▁civilians
day
▁osce
▁forestry
▁false
▁usd
▁attached
▁sums
▁dependence
▁planet
whilst
▁ship
st
▁routes
▁touch
would
▁floods
▁councils
above
▁deny
▁exploit
▁participants
▁sole
▁socially
▁satellite
▁linguistic
▁innocent
▁adapted
▁investigate
▁echo
▁corporate
▁notion
▁euros
▁obstacle
▁democrat
▁errors
▁consolidate
▁sit
▁internationally
▁stricter
▁continuation
▁mother
▁saving
▁transposition
▁disadvantaged
t
▁handling
▁surprise
▁silence
▁openly
▁transferred
▁laying
▁component
▁recycling
▁corresponding
fi
▁label
▁tape
friendly
▁attend
▁adverse
▁foodstuffs
▁researchers
▁friday
▁practically
▁closing
▁recital
▁fulfilled
▁potentially
▁sale
▁constituency
▁irregularities
▁delivered
▁unit
▁pays
▁placing
▁preparatory
▁tuna
▁logic
▁switzerland
▁homes
▁initiated
▁serves
▁director
▁minds
▁decade
▁detriment
▁twice
▁feature
▁accurate
▁stimulate
▁travelling
▁monopoly
▁foods
▁object
▁adaptation
▁ended
▁hiv
▁hamas
▁systematically
▁steel
▁retirement
▁sex
▁offences
▁won
▁generate
▁foster
2004
▁pharmaceutical
▁principal
▁seat
▁map
lt
▁irrespective
▁fischler
▁1992
▁pace
▁constraints
▁interference
▁appalling
▁contributes
▁protectionism
▁sell
▁pressing
▁subjected
▁pesticides
▁embargo
▁onto
▁wholeheartedly
▁inevitably
▁originally
▁pillars
▁comparable
▁75
employed
▁findings
▁survival
▁marks
▁incidents
▁patient
▁characterised
article
▁design
▁complied
▁references
▁comitology
▁telling
fourthly
▁race
▁topics
▁college
▁assessing
▁character
▁stick
▁harmonise
▁sports
▁seventh
▁fallen
▁stating
▁emphasize
▁concessions
▁democratisation
▁thirdly
▁demanded
▁investing
▁remained
▁town
▁grave
▁appreciation
▁democracies
depth
▁facilitating
▁zero
▁relief
▁objections
▁era
▁sixth
▁wished
▁recorded
▁stopped
▁quick
▁deciding
▁assessed
▁criticisms
▁alarming
▁channels
▁deadlines
▁presidencies
▁arrested
▁unprecedented
everyone
▁distance
▁camps
▁composition
▁pensioners
▁coordinating
▁abandon
▁obtaining
▁1993
▁wake
▁wise
▁victory
▁beneficiaries
▁thoroughly
▁discipline
▁demonstration
▁hague
▁horizontal
▁worried
▁inappropriate
▁blind
▁cold
▁broadly
▁ideological
▁elimination
▁cent
▁arises
▁audiovisual
▁medicinal
▁analyse
▁automatically
▁earth
▁lesson
▁persecution
▁audit
▁avoiding
2005
▁transfers
▁reserves
▁posed
▁grants
▁bottom
▁livestock
through
▁addresses
▁withdrawn
▁indirect
▁precautionary
▁scheduled
▁illegally
looking
▁assured
▁occupied
▁secretariat
▁creative
▁estimates
▁towns
▁madrid
▁producer
▁arctic
▁differ
▁olympic
▁indicates
▁mexico
▁formally
▁genocide
▁warm
▁instability
▁registered
▁radio
▁licences
▁attach
▁guilty
being
▁identification
▁pipeline
▁licence
▁congress
▁emphasises
▁donor
▁biological
▁reminded
▁45
▁400
▁conscience
▁criticised
▁stresses
▁incident
▁safer
▁burdens
▁everyday
▁micro
▁empty
▁ends
▁posts
▁workforce
▁wars
▁atmosphere
▁reverse
▁coast
▁reinforced
▁generous
▁baroness
▁37
new
▁christians
▁delicate
▁caucasus
▁messages
▁monopolies
▁indispensable
▁orientation
▁passing
▁mine
▁incomes
▁flag
▁bill
▁sustained
▁algeria
▁responding
▁disparities
▁born
▁exclude
▁cells
▁differently
▁witnessed
▁heavily
▁reviewed
▁bases
▁cycle
▁estonia
▁organized
▁authorised
▁realised
▁integral
▁class
▁parliamentarians
▁solving
▁mental
▁governed
▁patents
vice
▁translation
women
▁arrangement
▁attempting
▁caught
▁warming
▁recognize
cod
should
▁terror
▁remark
▁interventions
▁fashion
▁advances
▁toys
▁online
▁quantity
▁diverse
▁concepts
▁genetic
▁remarkable
▁pointing
▁praise
▁persuade
▁fleets
▁harmonization
▁moves
▁manufacturing
▁removing
▁faces
▁advisory
▁sees
▁moratorium
▁frattini
▁describe
▁served
▁divide
▁returned
▁abolished
▁condemnation
▁latvia
▁contradiction
▁anywhere
▁aspirations
▁promotes
author
▁ensures
▁frankly
▁availability
off
▁asian
▁isolated
▁consists
▁trends
▁relationships
▁believed
▁lowest
▁adding
▁prerequisite
▁gases
▁root
▁wonderful
▁tens
▁workplace
▁smoking
▁ultimate
▁thinks
▁guinea
▁drinking
▁inequality
▁transnational
▁enthusiasm
▁nigeria
▁remit
▁recession
▁clarified
▁refusal
▁santer
▁cattle
▁confirms
▁combination
▁enjoyed
▁whenever
▁isolation
▁satisfy
▁footing
▁minors
▁topical
▁gulf
▁enforce
▁unlike
▁dairy
▁poorer
▁paris
▁profound
▁maybe
▁emerge
▁irresponsible
▁publicly
▁energies
▁seas
▁dual
▁iceland
▁macro
▁player
▁eurostat
▁sectoral
▁dream
c
apart
▁recognising
▁doors
▁precedent
▁criticise
▁normally
▁tremendous
▁cfsp
▁guidance
▁veterinary
▁strive
▁civilisation
▁focuses
▁montenegro
▁gets
▁spectrum
▁blair
▁punishment
▁shame
▁securing
▁strikes
▁exploited
▁cease
▁requiring
▁modest
▁judiciary
▁saddam
▁gratitude
▁stem
▁eurozone
▁ours
▁location
▁secondary
▁teachers
▁survive
▁roots
▁tariff
▁relative
▁lays
▁entrepreneurs
▁limiting
▁rational
▁faster
▁pose
▁encouragement
▁earmarked
▁claimed
▁banana
▁watch
▁aiming
▁cloning
▁abolish
▁problematic
▁mines
▁preferences
each
▁intelligence
▁preferred
▁regulating
▁combine
▁broadcasting
▁girls
▁inevitable
▁abandoned
▁appeared
▁exert
▁pragmatic
▁frontiers
▁input
▁encourages
▁multinational
▁concluding
until
▁autonomous
▁interpreted
▁publication
▁indirectly
▁conjunction
▁2015
▁pluralism
▁danube
▁broken
▁unified
▁cod
▁dioxide
▁preference
thanks
▁von
▁zones
▁invested
▁units
▁disadvantage
▁threatening
▁preservation
▁coalition
▁traceability
▁delayed
▁mercury
▁suspension
▁rare
▁reproductive
▁affair
▁feels
▁controlling
second
▁medicine
▁quantities
▁complexity
accession
▁overwhelming
▁nordic
▁shortage
▁wind
▁mobilisation
▁plus
▁remedy
▁dedicated
▁uphold
▁pan
▁consolidated
▁fault
▁simplifying
▁taiwan
▁agents
▁driven
▁generated
▁expand
turkey
▁flight
▁laeken
▁weaknesses
east
▁york
▁enforced
▁95
▁demonstrations
▁understandable
▁handled
▁communicate
▁entails
▁guide
▁explicit
▁disability
▁enhancing
▁scandal
▁violated
▁perform
▁suppliers
state
▁banning
ranging
▁carriers
▁expressly
▁await
▁multinationals
▁drop
▁airline
▁administrations
▁urged
▁complaint
▁remote
▁signals
▁den
quite
▁150
▁symbolic
▁transmission
▁directorate
▁positively
▁disappointment
▁seats
▁diplomacy
▁fishery
▁renewal
▁strange
neither
▁abortion
▁privatisation
china
1999
▁adjustments
yesterday
▁author
▁philosophy
▁definitive
▁backed
▁continuous
▁cast
▁brutal
▁kinnock
▁residents
▁sis
▁halt
▁darfur
▁sadly
▁runs
▁ties
his
▁slovak
▁dear
▁postponed
▁separation
▁expenses
▁fragile
▁prostitution
▁infringements
▁components
▁muslim
▁pity
▁blue
▁selection
community
▁haiti
▁professionals
▁responded
▁devote
▁papers
▁threaten
▁split
▁rejecting
▁establishes
▁announcement
▁149
▁32
▁computer
▁belonging
▁holds
certainly
▁deregulation
▁invitation
▁roll
▁determining
▁depth
▁worker
▁tariffs
▁kurdish
▁implies
▁abstain
terrorism
▁analyses
▁sensitivity
▁acquired
▁vague
▁tensions
▁toxic
▁book
▁customers
▁tampere
▁owners
▁specified
▁tend
▁prosecutor
▁complement
▁advocates
▁balkan
▁sheep
▁displaced
▁ending
▁initiate
▁48
▁derogation
▁kong
which
▁feasible
▁deprived
human
▁conservatives
▁eliminating
▁quarter
▁detrimental
▁tension
▁indications
regulation
▁bananas
▁breaches
▁textiles
▁deliberately
▁issuing
▁streets
▁ukrainian
▁integrating
concerning
▁demonstrating
▁afghan
▁capacities
▁intolerable
▁merit
▁match
▁transportation
▁delivery
▁telephone
d
▁biotechnology
▁approving
▁convey
▁washington
▁doctors
▁selling
▁defended
▁radioactive
▁execution
▁asks
▁misleading
▁hussein
▁undermining
▁journey
▁margin
▁purchase
▁listed
▁concentrated
▁seemed
▁formulated
▁imbalances
▁located
▁derogations
▁rid
▁existed
▁propaganda
▁mugabe
▁channel
▁grown
▁expresses
▁preserving
▁witness
▁colombia
▁indigenous
▁accepts
▁judgments
▁famous
▁symbol
▁resort
▁prevail
▁organs
▁lawyers
▁officers
▁hong
▁identifying
▁pursuit
▁software
▁tabling
▁tourist
▁momentum
▁restriction
▁monti
▁circulation
▁barnier
▁officially
▁wishing
▁bolkestein
▁arbitrary
▁mutually
▁counterfeiting
▁liberalization
▁definitions
▁subsidy
▁insecurity
▁thoughts
▁beijing
▁gaps
▁opponents
known
▁imf
▁wholly
▁offence
▁engagement
▁fulfilling
▁depending
anyone
▁constituents
▁cotonou
▁theory
▁unsatisfactory
▁moscow
▁surprising
▁oecd
▁vietnam
▁ad
▁hoping
▁bears
▁revealed
▁swiftly
trade
▁electorate
▁redundancies
▁underlined
▁harbour
▁operates
▁courageous
▁narrow
▁al
▁poettering
▁explanatory
▁blocked
▁career
▁recognized
▁substantive
▁judges
▁hypocrisy
▁convincing
▁redundant
▁finds
▁helsinki
▁organising
▁certification
▁dates
▁escape
▁publish
▁learnt
▁knew
▁surplus
▁allies
▁worthwhile
▁structured
▁arisen
▁devastating
▁copyright
▁referendums
2009
wing
▁awaiting
▁alleged
▁proves
among
▁weekend
▁financially
▁exemptions
▁attended
▁noticed
▁optimistic
▁theme
▁speaks
▁36
▁inland
▁authors
▁definite
▁summary
▁successes
▁formula
▁mobilise
▁sky
▁distortions
▁reforming
▁wanting
▁mixed
▁update
▁clothing
▁voices
▁deterioration
▁salaries
▁merits
▁vis
▁twelve
▁newspaper
▁automatic
▁interoperability
▁accountable
▁continuity
▁realities
▁maternity
▁scenario
▁billions
▁christmas
▁nationality
▁chernobyl
▁senior
▁vitally
▁attitudes
▁suddenly
▁mountain
▁teaching
▁sooner
▁consult
+
▁olive
2010
▁exact
▁knowing
▁reassure
▁disappointing
▁formed
▁buying
▁conventional
▁refusing
▁contradictory
▁uen
▁proportionality
▁reconcile
▁cuban
▁packaging
▁killing
▁meaningful
▁fruitful
▁undermined
▁applaud
▁condemning
approval
▁frequent
▁wave
▁bigger
▁conferences
▁tribunal
▁slowly
▁hide
▁advocated
▁42
▁permits
▁liberty
▁inclusive
▁lengthy
report
▁complementary
▁newly
▁herzegovina
▁tuesday
▁bridge
▁costly
▁reformed
▁33
▁disproportionate
▁yugoslav
▁tendency
▁privileged
▁earthquake
determination
▁veto
▁church
▁swoboda
▁reactions
cns
▁agreeing
&
▁disarmament
▁mix
proliferation
▁incompatible
▁write
▁expecting
▁capabilities
▁rhetoric
▁centuries
▁dimensions
▁marking
▁contamination
▁postpone
▁reception
▁albanian
▁tested
▁modes
▁adapting
▁differing
▁pick
▁martin
▁supporters
2007
▁memory
▁vigilant
rather
▁acquire
▁belongs
old
▁rescue
▁proactive
▁suspend
▁142
▁inspectors
▁poses
▁founding
▁slovenian
public
▁compare
together
▁owe
▁incomprehensible
▁reunification
▁excise
▁restricting
▁user
▁interfere
▁god
▁confederal
three
▁cooperative
▁mentions
▁classification
▁compensate
▁slaughter
▁painful
▁34
▁palacio
▁geared
▁profession
▁trouble
▁competitors
▁macroeconomic
▁continually
▁reinforcing
▁destination
▁phrase
▁seriousness
▁putin
2008
▁cheaper
▁activists
▁sri
▁survey
amendments
▁prejudice
▁55
national
▁partial
▁eco
▁ep
social
▁eligible
▁cooperating
▁river
▁profitable
▁newspapers
▁65
▁discovered
▁outline
▁sentences
▁norway
▁severely
▁collected
▁excessively
▁immense
▁caution
accordingly
▁iii
▁launching
surely
much
political
▁entities
▁michel
several
taking
▁prohibited
▁returning
▁excellence
▁debts
next
▁indian
▁appropriately
▁hitherto
▁chancellor
▁neighbour
▁murdered
▁disregard
▁intense
▁mentioning
▁recommends
▁unclear
▁protests
▁underlines
▁viewed
five
▁deliberations
▁website
against
▁cfp
▁awarded
▁weakness
▁boundaries
▁timber
▁exceed
▁recourse
▁43
▁camp
▁techniques
▁navigation
▁basque
▁watson
▁ingredients
▁prisons
▁fairer
▁breaking
▁finished
▁gothenburg
▁pornography
▁viability
▁weaken
▁instances
▁artificial
▁supranational
▁airspace
▁drastic
building
▁globally
▁apologise
▁shoulder
▁feelings
▁lend
▁posselt
▁petition
▁charged
third
▁mothers
▁highlighting
▁anybody
▁1991
▁incapable
▁mercosur
▁departments
▁ineffective
▁technically
▁tolerate
▁translated
▁sends
▁dg
▁entail
▁receives
▁teams
call
▁euratom
▁chapters
▁diversification
whether
▁league
▁station
▁lacks
▁recover
▁punished
▁allowances
▁street
▁dare
▁meda
▁impunity
▁limitations
▁moderate
▁totalitarian
▁adhere
▁retained
▁simpler
▁assumed
fortunately
▁domain
▁silent
▁bulgarian
▁ruled
▁handed
▁records
▁pending
▁site
▁discriminatory
▁outbreak
▁promising
▁conditional
▁destroying
▁letters
▁sakharov
▁robust
▁ideology
▁creativity
▁austerity
▁prestige
▁smooth
▁migratory
▁precondition
▁revise
▁decrease
▁fossil
▁natura
▁measured
▁reputation
▁guiding
▁entirety
turning
▁pushing
▁relevance
▁globalised
▁contents
▁attempted
▁manoeuvre
▁argued
▁assent
▁cofinancing
▁scandalous
▁produces
▁insisted
▁summits
▁1989
▁transformation
▁forecasts
▁chose
▁opens
▁reciprocity
▁mining
▁requesting
▁roadmap
▁injured
▁psychological
▁conducting
▁mostly
▁extradition
▁opposing
▁blocking
▁disappear
▁spreading
▁visits
▁lifting
▁supreme
▁database
▁refrain
▁guided
▁panel
▁dismantling
▁worry
▁identical
▁prompt
▁mainstreaming
▁welcoming
▁accusations
▁serbian
personally
▁innovations
▁pressures
▁handle
▁supplied
▁cards
▁roles
▁suspect
▁attaches
▁asset
▁additives
▁hatred
▁perpetrators
▁entrepreneurship
▁threatens
▁judged
▁admitted
▁stood
▁supplement
▁missed
financial
▁600
▁exemplary
▁delivering
▁proliferation
▁professions
▁disagreement
▁internally
speaking
▁uncertain
▁vary
▁capitalist
▁profile
▁participated
▁laundering
9
▁attract
▁england
▁separately
▁weapon
again
▁informing
▁deemed
▁books
▁coexistence
▁erika
▁prosecution
▁independently
▁parameters
▁1980
▁exposure
further
▁processed
▁organisms
▁affordable
▁regulators
▁egf
▁eurojust
▁likewise
meanwhile
▁touched
▁lobby
▁sarkozy
▁wallström
▁israelis
▁cautious
▁distinguish
▁forcing
▁manufacture
▁cambodia
▁vaccination
▁hoc
▁frameworks
▁vienna
everything
▁suspicion
▁38
▁settled
▁cultivation
▁coins
▁objection
▁frank
▁prohibition
▁relocation
▁partially
▁emphasising
▁quantitative
▁precedence
▁department
▁linking
▁strongest
▁wrote
▁throw
▁racist
da
▁confronted
▁protein
▁wild
▁indonesia
▁love
▁harassment
▁securities
▁appreciated
▁erasmus
▁deplore
▁equipped
▁absent
▁pride
▁transposed
▁taxpayer
▁incidentally
▁settle
▁sentenced
▁harmonising
regional
▁deepening
▁assurances
▁dependency
▁plenty
▁jarzembowski
▁johannesburg
▁introduces
▁inability
▁ridiculous
speed
▁azerbaijan
▁taliban
▁occupational
▁distortion
▁deployment
▁ethics
▁motivated
▁neutral
▁evil
▁bans
▁anticipated
▁industrialised
▁islam
▁accompanying
▁allocate
▁caribbean
▁facto
▁edf
▁troika
▁standardisation
▁peripheral
▁dominant
▁confined
▁venture
▁jerusalem
▁complying
▁breast
▁minimal
▁film
▁chances
▁striking
▁qualitative
▁corbett
▁resume
▁academic
▁purchasing
▁schedule
▁reding
▁formulate
▁safeguarded
▁aquaculture
▁commerce
▁exercised
▁replacing
▁premature
▁screening
▁upheld
▁anyway
▁deeper
▁aggressive
▁boats
▁installations
▁divisions
▁alter
▁recruitment
▁precarious
▁tunnel
▁restoring
▁unresolved
▁imbalance
▁ministry
▁duration
▁adjust
▁disappeared
▁exceeded
▁goodwill
▁imperialist
▁permission
▁altogether
has
▁somewhere
▁warn
▁tone
▁phenomena
▁typical
▁managers
▁lived
▁soft
▁repressive
▁paramount
▁trialogue
▁fell
▁courses
▁wasted
▁pacific
▁circle
▁maintains
▁reconsider
▁entity
▁countryside
▁gambling
▁exceptionally
▁exercising
▁specialist
▁restoration
▁eat
▁assisting
▁owing
▁simultaneously
▁multiple
▁submitting
▁impressive
▁draws
▁benefiting
▁secured
▁duly
▁prevents
▁alive
▁passport
▁asean
▁emergence
▁neo
use
▁ilo
▁waiver
▁promptly
▁employ
▁optimism
citizens
▁forth
▁houses
▁costa
▁redress
▁cypriot
▁thrust
▁jeopardise
▁vitorino
▁pushed
▁scourge
▁strengthens
▁benefited
▁accord
▁unrealistic
▁preferential
▁expanding
▁abide
▁deficiencies
made
▁witnessing
▁vessel
▁investigated
▁speedy
▁restored
▁thrown
▁deliberate
▁assumption
aids
▁stipulates
▁servants
energy
▁sporting
very
paragraph
month
▁oppression
▁quartet
▁advise
▁prosperous
▁ex
▁guardian
▁44
▁draftsman
▁guantánamo
▁adjourned
▁unite
▁departure
▁retention
▁gains
▁envisage
▁description
▁unlikely
▁thirty
▁250
▁hygiene
▁alike
▁insofar
▁lawyer
▁risen
▁hearings
▁coordinator
▁privilege
▁updated
▁lift
▁acute
▁phare
▁transported
▁incorrect
▁san
▁overcoming
▁tibetan
▁settlements
▁understands
▁occurs
▁fundamentalism
▁harsh
nobody
▁fill
▁jean
▁replacement
▁imprisoned
▁ferrero
▁utterly
▁art
▁120
▁eradication
besides
▁machinery
▁acknowledges
▁formation
▁verification
▁ease
▁eliminated
vis
▁bold
▁wisdom
▁bus
▁berlusconi
▁drew
▁interpret
▁plain
▁saved
▁weaker
▁pack
▁emphatically
▁gaining
▁suggesting
▁decides
▁margins
▁endeavours
▁provisional
▁coverage
food
▁excess
▁piracy
▁vegetables
▁adults
▁inspired
▁barrier
▁disadvantages
▁evaluating
▁armenia
▁pnr
▁obligatory
cooperation
▁organ
applause
▁alert
▁protectionist
▁injustice
▁earn
▁evaluated
▁mistaken
▁700
▁confront
▁communism
▁neglected
▁sahara
▁lukashenko
unless
▁flood
▁classes
▁trials
▁gsp
▁afterwards
nothing
▁scene
▁decommissioning
▁award
▁japanese
▁fairness
▁dramatically
▁confused
▁damaged
▁observer
▁drought
▁incredibly
▁dollar
▁modernise
▁allegations
▁approaching
▁catches
▁concerted
▁challenging
waldner
▁lanka
▁advocating
▁vigorously
▁virtue
▁unification
▁flying
▁trained
▁calm
▁inherent
▁undermines
▁legislators
▁burmese
▁shameful
▁lobbyists
▁orders
▁successive
▁reactors
▁smuggling
▁straightforward
▁cash
▁spare
▁completing
▁vegetable
▁oomen
▁anticipate
▁begins
▁readmission
▁checked
▁unjustified
▁driver
▁stimulating
increasing
▁selected
▁thematic
▁conscious
▁imprisonment
▁somalia
▁chad
▁equitable
▁expects
▁crossing
▁lifted
▁rigid
▁intensify
▁evolution
▁decentralised
▁flags
▁crop
▁starts
▁böge
▁cohn
bendit
▁rehn
▁politician
▁blocks
▁dying
operation
▁smart
▁barrot
▁catastrophe
▁forefront
▁eve
▁hospital
▁lomé
▁chief
▁cornerstone
▁perceived
▁tv
▁announce
▁slavery
▁notification
▁virus
▁luck
▁detained
▁seize
▁striving
ruijten
▁addiction
dem
▁reiterated
▁workable
▁tells
▁harder
▁counting
▁eradicate
▁dominated
▁epidemic
▁disturbing
▁rigour
▁gallery
▁journalist
▁rehabilitation
enlargement
▁groundwater
▁ind
have
oriented
▁abolishing
▁connections
▁explaining
▁turns
▁improves
▁pull
▁legislate
▁39
▁father
02
sometimes
▁roth
members
▁occupying
▁miss
▁permanently
▁govern
▁pricing
▁tuberculosis
▁signatures
▁conversion
▁madeira
▁synergy
▁competing
▁replies
▁specify
▁accelerate
▁australia
▁migrant
▁judgement
▁fathers
▁treating
▁professor
▁radiation
▁ignoring
▁incorporating
▁signature
▁rape
▁kilometres
▁poultry
▁alleviate
▁forgetting
à
▁nationalism
▁currencies
▁800
▁exempt
▁visibility
▁tourists
▁splendid
▁pure
date
▁box
▁extremism
▁page
▁stepping
▁frontier
▁devices
▁fees
▁exporting
▁shipbuilding
▁economics
▁reasonably
▁poorly
▁individually
▁fortunately
▁repeating
▁?
▁guard
▁applause
▁contradictions
▁49
▁stipulated
▁deployed
▁backwards
▁consulting
democratic
▁encountered
▁salary
▁packages
▁consolidating
▁chocolate
▁resist
▁suicide
good
▁misunderstanding
us
▁rejects
▁confine
▁occurring
▁weather
▁proportionate
▁assuming
▁chaos
▁hidden
▁gesture
▁suspected
▁havens
▁cancún
▁—
▁modification
▁birds
▁appeals
▁claiming
▁censure
▁transferring
▁architecture
▁pointless
▁kill
▁urging
▁anxious
▁beautiful
▁mankind
▁damages
standing
▁trains
▁donation
▁mccreevy
▁replied
▁humane
▁serving
▁compatibility
▁intent
▁korean
aside
▁celebrate
▁failures
▁carries
▁correspond
▁stream
▁holiday
▁expanded
sl
▁substitute
▁ecosystems
▁timing
▁surface
▁unambiguous
▁analysed
▁repair
▁readiness
▁capitalism
minute
▁derived
▁accessibility
▁defenders
▁validity
▁centralised
▁dubious
▁sustain
▁overview
south
▁diagnosis
▁retail
▁lorries
▁tacis
▁attacked
▁illness
▁prominent
▁85
▁memorandum
▁geopolitical
▁postponement
▁intolerance
▁unknown
▁convictions
▁prevailing
▁engineering
▁intercultural
▁lastly
▁calculated
▁blow
▁pieces
▁uranium
party
▁adds
▁clarifying
▁reviewing
▁scottish
▁gm
▁indicative
▁proving
▁preserved
▁lehne
▁unilaterally
▁tight
▁translate
▁hypocritical
▁reaffirm
▁incredible
▁committing
▁perception
▁iron
▁codes
▁illustrates
▁reserved
▁analysing
▁imposition
▁electrical
▁sunday
▁embryos
▁stressing
▁legality
▁shocking
▁confirmation
▁contractual
▁swiss
▁mergers
▁radically
▁commodity
▁malmström
▁complain
▁florence
▁studied
▁grass
▁employee
▁persistent
▁pretty
▁extremists
▁passive
▁seville
▁overseas
▁barely
▁reliability
▁bid
▁collect
▁transaction
▁persist
▁antibiotics
▁supportive
▁facilitation
▁annually
▁scarcely
▁atomic
▁undemocratic
▁boosting
▁liable
▁counterparts
▁questionable
▁incurred
▁flooding
▁tries
▁quarters
▁taught
▁quoted
▁ratio
▁capability
▁el
▁methodology
▁shut
▁admission
▁condolences
▁ceasefire
▁prohibit
▁executions
▁41
▁enormously
▁cotton
▁thessaloniki
▁indicating
▁symbols
▁hinder
▁counterfeit
▁sceptical
▁shareholders
whatever
▁allowance
▁cereals
▁mandelson
▁hospitals
▁weakened
life
▁equity
▁lesser
▁aggression
▁venezuela
▁artists
▁regrettably
▁cypriots
▁switch
▁watching
▁underway
▁club
mouth
▁proceeding
developed
▁protects
▁congestion
▁exported
▁lobbying
▁honesty
▁engines
▁barón
▁discover
▁refuses
▁eligibility
▁ambassador
▁desperate
▁pages
▁broadband
▁province
▁quo
▁overlook
▁impacts
▁sessions
▁countless
compliance
▁viewpoint
▁lending
▁display
▁estimate
▁abused
▁behave
▁hostage
international
▁sharon
draftsman
bg
▁perpetrated
right
▁shaping
▁applicants
▁imminent
▁collectively
▁mortality
▁vaccines
▁refunds
▁distinguished
▁remembered
▁unequal
▁weakening
▁reveals
▁somehow
▁frustration
▁dictator
▁cow
▁capita
sadly
▁insisting
▁biomass
▁favours
▁shipyards
▁forming
▁46
▁denying
▁defeat
▁muslims
class
▁voiced
▁violate
▁47
▁responsibly
▁fines
specific
▁adult
▁lagging
▁wogau
▁honestly
▁breeding
▁themes
▁russians
▁humans
▁credits
▁coup
▁patience
too
▁azores
▁stepped
▁tune
▁arrests
▁visitors
▁crew
▁farmer
▁nowhere
▁annan
▁revising
▁cruel
▁struggling
▁meal
▁merkel
▁2014
▁belarusian
▁excluding
▁arrival
▁somebody
▁fly
▁distant
▁reminds
▁harmony
▁upper
▁stimulus
▁growers
▁passports
▁com
▁preferable
95
effective
▁underestimate
▁sme
▁corrected
▁religions
▁realize
▁visiting
▁persecuted
▁deleted
▁loan
▁crespo
▁pain
▁punish
▁assistants
▁sittings
▁shocked
▁illustrate
▁incorporation
▁mouth
▁denounce
▁seed
▁measuring
ini
▁misuse
▁sorts
▁nowadays
▁directors
▁collecting
▁contempt
▁obama
▁earliest
▁adopts
▁posting
▁lamy
▁referenda
▁designated
▁herself
▁appoint
▁lama
▁warnings
▁51
▁phasing
▁protective
▁extends
▁square
▁engine
▁rice
▁instructions
▁ethiopia
▁neoliberal
▁elite
▁unequivocal
▁opted
▁factories
▁fragmentation
▁defines
▁mediation
▁eldr
▁renewables
▁influenced
consumers
▁approached
▁bombs
▁chile
▁minimise
▁reacted
▁clubs
▁feet
▁engaging
▁reflecting
▁timor
▁john
▁alzheimer
▁wines
▁feasibility
▁checking
▁tragedies
▁contaminated
▁resident
▁enemy
▁limitation
▁authoritarian
▁breakthrough
▁comparative
▁deputy
▁labels
▁shorter
▁deadlock
▁vigorous
▁slight
makers
▁tongue
▁bay
▁concentrating
▁cure
▁legislator
▁licensing
▁duplication
▁reduces
▁automotive
▁communautaire
▁resolutely
▁favoured
▁yield
▁km
▁nonsense
▁ocean
▁bought
▁reveal
▁alarm
▁secrecy
▁mann
▁stabilise
▁privileges
▁male
▁eating
▁preconditions
▁foreseen
▁m
▁malaria
▁specialised
better
▁assigned
israel
▁sacrifice
▁fostering
▁worries
▁honoured
▁submission
▁sudden
▁classified
▁formulation
▁invasion
▁peacekeeping
intensive
▁onwards
▁arena
▁selective
▁operator
▁emphasized
▁controversy
▁52
▁revenues
▁store
▁unusual
▁music
▁sick
▁aforementioned
▁nets
▁injuries
▁headings
15
▁offensive
▁realisation
▁childcare
▁commendable
▁dissemination
▁performed
▁moments
▁locally
▁la
▁arriving
▁josé
▁ecr
▁urges
▁choosing
freedom
▁investigating
▁headquarters
▁catastrophic
▁varied
▁consist
▁suited
▁corrupt
▁tied
▁contracting
▁inhumane
ivoire
▁mad
▁gather
▁arafat
▁keeps
▁tender
▁personality
▁accede
▁arguing
▁enters
g
▁saudi
▁coelho
▁dr
▁dreadful
▁uncontrolled
▁explore
▁factory
▁verify
▁spheres
▁unreasonable
▁updating
▁temporarily
▁biometric
▁predecessor
▁iv
currently
▁fifty
▁organisational
▁condemns
▁disgrace
▁experiments
▁juncker
▁reads
down
▁worsening
▁conceal
▁misery
▁unconditional
▁generating
▁intra
▁traditionally
▁speeding
▁synergies
▁decisively
▁landscape
▁traders
▁labelled
▁charging
▁continents
▁bomb
way
▁convenience
▁confidentiality
▁rarely
▁outlook
▁pollutants
▁reciprocal
▁tsunami
▁wood
▁ally
▁infected
▁epp
▁employer
▁neutrality
▁illnesses
voting
▁gonzález
▁grand
none
▁trips
▁amnesty
▁o
▁disgraceful
▁web
▁alia
▁dollars
▁devise
▁prerogatives
▁oostlander
▁cia
▁relocations
▁modulation
▁exploiting
▁dark
▁distinct
▁suit
▁dealings
▁counts
▁liikanen
01
▁premium
▁weakest
▁calculation
▁ancient
▁attending
▁student
▁immigrant
▁cup
▁certificates
▁desperately
▁attain
▁allocating
▁overlooked
▁hearts
▁atrocities
▁combining
▁functional
▁standpoint
▁sharp
▁interaction
▁fulfilment
▁breakdown
▁dictatorships
▁younger
▁legacy
▁rebuild
▁loopholes
health
▁ballot
▁galicia
▁grasp
▁documentation
▁objectively
▁eleven
▁balances
▁fatal
▁medina
▁fragmented
▁images
▁manufacturer
▁discriminated
▁seconds
▁explains
▁dynamism
decision
development
▁supposedly
▁discretion
▁intimidation
▁demonstrators
▁window
research
▁stone
▁performing
▁manufactured
▁burundi
▁delors
▁inspiration
sided
▁delegated
▁cluster
something
▁backdrop
▁côte
sighted
▁dalai
▁reinforcement
africa
▁remuneration
▁ideals
▁nabucco
▁compliment
▁speculative
▁finalised
point
▁capitals
▁respectively
▁shop
▁colonial
▁neglect
▁endorses
▁rose
▁chairmen
▁adhered
▁evasion
▁130
▁besides
▁gathered
▁temptation
▁distort
▁skilled
▁david
▁smoothly
▁extremist
10
bearing
▁warned
▁embark
▁diet
▁admittedly
▁fed
▁expectation
long
▁profitability
▁jacques
▁ages
recently
▁readily
▁strip
▁loud
action
▁heating
▁smoke
▁counterproductive
▁imposes
▁renew
▁unequivocally
minded
▁fontaine
▁pledge
▁53
▁rio
▁doctor
▁deeds
▁churches
liberal
▁villages
▁verhofstadt
▁constructively
▁robert
▁assert
▁forwards
▁regain
▁subscribe
▁precious
▁superfluous
▁statutory
▁amounting
▁fabric
▁named
▁polluting
▁delete
▁bonino
equally
▁copy
▁refuge
▁principally
▁serbs
▁regrets
▁disappearance
▁heat
▁evans
▁indicator
▁inconsistent
▁studying
▁undesirable
▁civilised
▁file
▁specifications
high
▁angola
▁withdrawing
▁reaches
▁bangladesh
▁milestone
market
▁pave
▁relatives
▁displayed
▁habits
overall
efficient
▁observatory
▁mauritania
▁yemen
▁1970
▁thresholds
▁impartial
▁commodities
▁decoupling
▁insistence
democracy
▁norms
▁transform
▁solar
▁diesel
▁reservation
▁cite
▁specialists
▁frequency
▁envoy
▁petrol
▁backs
faced
▁toll
▁rulings
▁hedge
▁negotiators
▁reminding
▁relaunch
▁finger
▁enjoys
▁safely
▁jordan
▁literally
▁beliefs
▁brave
▁sudanese
▁algerian
▁egyptian
▁extraordinarily
▁accorded
▁boat
▁termed
▁accelerated
▁nielson
▁chaired
▁auspices
▁penal
▁insists
▁kyi
opening
▁continuously
▁juncture
▁tighten
▁modernising
take
▁interpreters
▁lebanese
▁conflicting
▁executed
▁corporations
risk
▁cited
▁cell
▁premiums
▁multilingualism
▁foreseeable
▁reasoning
certain
▁leap
▁slightest
▁generalised
▁calculations
▁congratulated
▁modifications
▁socrates
▁versions
▁responds
▁unchanged
▁electric
commerce
▁r
▁gathering
▁evidently
▁wondering
▁frame
▁spot
▁questioned
▁marriage
▁corresponds
▁parental
▁athens
annual
▁bonds
▁confrontation
▁peacefully
▁obsolete
▁nepal
▁machine
▁outcomes
▁catholic
▁tolerated
▁ford
▁entrusted
▁milosevic
▁escalation
▁imply
▁novel
▁blackmail
▁pupils
▁poles
▁legislature
tomorrow
▁afforded
▁winter
▁racial
▁traffickers
plath
▁stopping
▁mafia
▁describes
▁drain
▁frozen
▁reaffirmed
▁dimas
▁comprehensible
▁restraint
▁exchanging
▁shock
▁florenz
▁mutilation
▁buses
▁murders
▁prudent
ten
▁virtual
▁expressions
▁kurds
▁sterckx
▁bali
▁destructive
▁hunting
ultimately
▁appearance
▁horse
▁feeding
▁construct
▁92
▁encounter
financing
part
▁unwilling
▁suu
▁georgian
▁prioritise
▁54
▁hesitate
▁forwarded
▁canary
▁observing
▁liberalising
▁brain
▁trap
▁dividing
▁inventions
private
▁randzio
▁ankara
▁rests
▁chirac
case
▁castro
▁correction
▁cox
▁scoreboard
▁justifies
▁possession
▁advised
▁conformity
▁cohesive
▁2050
▁lithuanian
▁96
▁enforcing
▁retaining
▁overdue
▁wrongly
▁accomplished
▁ortega
▁ultra
▁cosmetics
▁cleaner
▁pregnant
▁lamfalussy
▁dropped
▁hectares
▁mulder
▁reminder
▁importing
▁moroccan
▁ceilings
law
▁unsustainable
▁hydrogen
▁maize
▁croatian
▁nobel
▁outrageous
▁accurately
▁recommending
▁vacuum
▁wales
▁profoundly
▁nutrition
▁quest
▁verdict
▁arose
▁quiet
▁publicity
▁supporter
▁representations
▁protocols
▁bulk
▁cancelled
▁accommodate
recent
▁detainees
▁beneficiary
▁karas
▁blatant
▁abandoning
▁foreigners
▁shops
▁shortages
▁mitchell
small
▁usefulness
▁storm
▁famine
▁coincidence
▁anxiety
▁originating
▁lulling
▁bangemann
▁consultative
▁proportions
▁assisted
▁modify
▁similarly
▁dozens
▁liberalised
▁targeting
▁king
producing
▁conferred
▁populated
▁operated
▁theoretical
measures
▁returns
▁garcía
25
▁relying
progress
▁undergoing
▁redistribution
▁ambiguous
▁fyrom
▁almunia
▁observance
▁characteristic
▁odds
▁optional
▁56
incidentally
▁recipients
▁acknowledging
▁systemic
▁berès
▁lowering
▁varying
▁tendencies
▁resettlement
▁exacerbated
▁friendship
▁basin
▁closest
▁holdings
▁hot
▁yourselves
unlike
▁exhaustive
▁persuaded
▁beforehand
▁score
▁byrne
▁deepen
▁dell
▁transpose
▁germans
▁portfolio
thirds
▁liquidity
▁110
▁barbaric
likewise
▁emerges
▁discrepancies
▁gold
▁corridors
▁deforestation
▁journeys
▁bathing
▁exciting
▁unnecessarily
▁arm
▁plea
▁le
nordic
▁questioning
▁salmon
▁practised
▁mobilised
▁ossetia
▁degrees
▁predict
▁ecosystem
▁celebrating
▁prompted
▁metres
▁designation
▁travellers
particularly
▁importers
▁shipowners
▁grips
▁thailand
▁rocard
▁combated
▁convicted
▁wallis
▁obesity
▁satisfactorily
▁secular
▁upholding
▁harmonious
▁possess
▁unstable
▁manipulation
▁odd
▁tropical
▁waterways
▁circles
▁uzbekistan
▁directions
four
▁insult
▁federalist
▁noting
▁concur
▁recipient
▁bloc
▁endangered
▁recalled
▁dialogues
greater
▁undertook
▁penalised
▁interpretations
▁derive
▁desertification
▁supplying
▁illicit
▁bankruptcy
▁homeland
▁incumbent
▁reimbursement
▁evaluations
▁habitats
questions
▁gear
▁reintegration
▁households
▁destiny
▁rwanda
▁unaware
▁kazakhstan
▁makers
▁influx
▁ratings
▁fortunate
▁belgrade
▁gmo
▁vigo
▁sanction
▁deteriorating
▁devised
▁daul
▁freezing
▁multilateralism
▁supplemented
behrendt
▁winner
▁singapore
employment
▁unavoidable
▁58
▁progressing
▁asbestos
▁equip
▁accessing
▁rooted
▁blockade
▁premises
▁arabia
▁cashman
maybe
▁reluctant
▁unlawful
▁curb
▁continental
smes
▁municipal
▁incomplete
▁liberalise
▁expectancy
▁forecast
▁notified
▁aung
▁bargaining
war
▁tunisian
▁intensified
▁kaliningrad
▁influenza
support
▁advisable
▁illustrated
▁deplorable
▁outdated
▁resumption
evident
balanced
▁bowis
▁glass
▁signatories
▁sierra
▁adjusted
▁experiment
▁varies
▁unjust
▁calendar
▁levy
▁rush
▁endless
▁suffers
▁sounds
▁films
hand
▁patterns
▁infection
▁exporters
▁policing
▁interior
▁batteries
cos
▁oblige
▁qualification
▁plight
▁delaying
▁57
▁altered
▁output
be
ukraine
▁abkhazia
▁wynn
▁tougher
▁crucially
▁illusion
▁disruption
▁rompuy
▁optimum
▁offset
▁justifiable
▁freeze
▁velzen
▁realism
▁winners
▁sulphur
▁canadian
▁volatility
▁transmitted
▁ticket
▁historically
▁coin
▁underestimated
▁turnover
▁coach
▁lampedusa
▁useless
environmental
▁holders
▁cigarettes
▁Špidla
▁publishing
▁confidential
▁filled
▁tightening
▁stories
▁grey
▁shot
▁feira
▁balancing
▁motivation
▁violating
▁skill
▁native
▁daphne
▁slogan
▁appealing
▁ecsc
▁inefficient
▁touches
▁emotional
▁separated
▁passage
▁seized
▁expulsion
▁distorted
▁tends
▁vicious
▁origins
▁indifferent
▁prescribed
▁pledged
▁complies
▁repatriation
▁underpin
▁cairo
▁bloody
growing
▁irreversible
▁dilemma
▁fulfils
▁dossiers
established
▁breaks
▁lakes
▁household
▁hopeful
▁teach
▁recitals
admittedly
▁authorise
▁rigorously
▁kyrgyzstan
▁transformed
▁differentiated
▁conform
▁grassroots
▁unfounded
▁soya
▁honey
▁langen
▁uncertainties
▁voluntarily
▁rebuilding
▁confusing
▁hesitation
▁ignores
▁endanger
▁massacre
▁cancellation
information
▁tickets
▁alexander
needed
▁preceded
others
▁thirds
▁rübig
▁develops
▁drink
▁saturday
▁practise
▁rivers
▁rises
▁mobilising
▁scientifically
▁generic
▁cites
▁schreyer
▁widening
▁tactics
▁stabilising
▁interfering
▁confirming
▁103
keeping
▁unreservedly
▁unrest
▁donations
▁educated
▁provider
▁drastically
almost
▁qualify
▁impressed
▁oslo
▁lively
▁undeclared
▁globalization
▁entrepreneurial
▁ratifying
▁gnp
▁shed
▁hierarchy
▁steady
▁incidence
▁ashamed
▁percent
▁endeavouring
▁violates
▁pertinent
▁consisting
▁ordered
▁63
▁66
▁lawmaking
▁benchmarks
▁sir
▁tankers
▁ascertain
▁endorsement
▁facilitated
▁format
▁confuse
herzegovina
▁spouses
▁wealthy
▁automobile
▁rethink
▁resolute
▁ball
▁constitutions
▁ict
sharing
▁edge
▁sacrificed
▁attacking
▁accommodation
▁feedingstuffs
▁constituent
▁destined
discriminatory
▁identifies
▁overly
▁degradation
▁allegedly
▁enthusiastic
▁waves
▁munitions
▁liberation
▁inspire
fifthly
▁forever
▁nuts
▁suppose
▁jewish
▁embarked
▁seeds
violence
▁eta
▁prague
▁aged
▁cardiff
raising
dumping
▁outlines
▁corner
▁hungarians
▁vigilance
▁nationalist
▁bio
▁associate
▁objects
▁traps
▁greenland
▁likelihood
▁emergencies
▁savary
▁oversight
▁criticising
▁mitigate
▁reconciling
▁rectify
▁acquisition
▁aznar
▁tenth
▁annum
▁killings
▁approximation
▁customer
▁ranging
▁staying
due
▁exerted
▁sacrifices
▁occupy
▁asem
▁merger
▁coasts
rate
▁gbp
▁conditionality
▁99
▁vain
▁contradict
▁herman
▁overnight
▁clearing
▁logistics
hopefully
▁disregarded
▁civilisations
▁command
▁dignified
▁lifestyle
▁plane
▁don
establish
▁prevails
▁differs
▁reluctance
▁conducive
▁lannoye
▁season
▁establishments
▁credentials
▁occasionally
▁quicker
▁attendance
▁unused
▁render
▁seal
▁intermediate
▁hostile
▁suppression
saharan
education
▁blokland
▁kenya
▁ignorance
▁summarise
▁baby
▁polluter
▁awarding
▁headed
prime
▁appearing
▁inviting
military
▁interconnection
▁solvit
▁watered
aid
fraud
▁standardised
eastern
▁universally
▁dedication
▁hugely
▁penalise
▁ambiguity
▁predictable
benefit
▁occurrence
▁erosion
▁leinen
▁despair
▁sexes
▁pockets
▁ozone
▁upcoming
track
▁junta
▁armenian
▁kallas
needless
▁acceding
ireland
▁chiefly
▁deprive
▁heartfelt
▁depleted
▁notwithstanding
▁rolling
▁coordinators
▁jeopardising
▁baringdorf
▁civic
▁village
▁tajani
▁vaccine
▁ludford
▁qualities
▁62
▁inclined
▁tortured
▁forums
▁denial
▁capture
▁corrections
▁scenarios
between
▁communicated
▁yours
▁interreg
▁midst
▁sheet
▁aftermath
▁agri
▁zu
▁supplier
▁stuck
regrettably
▁climatic
▁scandals
▁registers
▁illustration
▁identities
nuclear
▁subsidised
agenda
▁progressively
▁fits
▁phone
▁kashmir
▁shores
▁investor
▁accompany
▁catalyst
▁mayor
▁triggered
▁meaningless
▁imagination
▁reward
▁divorce
▁timeframe
▁introductory
▁fluctuations
▁intervening
▁volumes
▁350
▁globe
▁platforms
▁wellbeing
▁holidays
▁websites
▁titley
▁couples
▁cynical
▁surpluses
▁injury
▁gebhardt
▁absorption
▁motives
▁doubtful
▁composed
▁detected
▁challenged
commission
▁vulnerability
▁attributed
▁incineration
▁tables
▁abandonment
▁rothley
▁richest
▁fora
▁undergo
▁envisages
▁devastated
▁dictate
hour
▁undeniable
▁polls
▁outright
▁arrange
▁doyle
work
▁enjoying
▁contemporary
▁factual
▁spiral
▁fronts
▁equilibrium
▁suspects
▁livelihoods
▁ngo
▁mode
working
▁generosity
▁pretend
▁landing
▁militarisation
▁broadcast
climate
▁advancing
▁seafarers
▁impasse
▁declining
roots
▁distances
▁forty
▁exacerbate
▁trees
▁haarder
▁proximity
▁benchmark
▁senate
▁misunderstandings
▁databases
carbon
▁epas
▁Εu
▁passes
▁paradox
▁authorising
▁horror
▁v
▁premise
▁unregulated
▁gatt
▁leone
▁derivatives
▁predicted
▁roaming
▁supplements
▁surveys
elected
▁allotted
▁93
▁noble
▁channelled
▁audits
▁mature
▁scepticism
▁answering
▁consumed
▁intensively
▁allocations
▁referral
▁graefe
▁steadily
▁pandemic
far
▁decentralisation
▁marginalised
▁richer
▁champion
back
▁bösch
common
products
▁fundamentalist
▁buitenweg
▁hake
▁magnificent
▁forcefully
protection
▁comprising
▁curious
▁adherence
west
▁reinforces
▁indignation
▁stored
▁esdp
▁backward
various
▁denominator
▁shopping
style
▁doubled
▁differentiation
▁detection
▁preventative
existent
▁intensity
▁pleasant
▁stamp
▁feared
▁computers
▁explosion
▁enlargements
owned
▁inhuman
▁clashes
▁fraudulent
▁walls
▁doctrine
▁stupid
▁laudable
▁unlimited
▁cosmetic
ga
▁broaden
▁catalogue
▁generates
▁prevailed
▁synthetic
▁discourage
specifically
▁chechen
▁genital
▁motorways
▁motto
▁forgive
▁indifference
▁st
▁irrelevant
▁tripartite
▁wisely
▁distress
▁curtain
▁phased
▁grain
▁transparently
▁treatments
india
▁consume
▁postponing
▁upgrading
▁fantastic
▁timetables
▁dictators
▁contributors
▁describing
▁locations
▁achievable
children
line
▁hiding
▁empire
▁collins
▁waterway
▁shifting
▁misgivings
▁albanians
▁comprises
whereas
▁méndez
▁toy
▁advantageous
▁cocoa
▁hans
▁pigs
▁fao
▁presently
▁exercises
▁subsidiary
▁posted
▁letting
▁tiny
▁artistic
▁beg
▁argentina
▁inquiries
security
▁liaison
▁favourably
throughout
▁complementarity
experience
▁hautala
▁drift
▁machines
▁burning
▁homosexuals
▁unhappy
▁temperature
▁izquierdo
▁arranged
▁77
▁authorisations
▁risky
▁successor
▁revolutionary
▁flawed
▁provocation
▁lorry
romania
▁ce
▁lamassoure
▁broke
▁disciplinary
▁embrace
▁en
▁customary
▁situated
▁smallest
▁incorporates
▁repetition
▁enemies
▁utilisation
▁compensatory
personnel
▁59
solidarity
▁remedies
▁realising
05
council
▁scrapping
▁cancel
▁guideline
▁acknowledgement
▁bitter
▁disclosure
▁travelled
▁coupled
▁syrian
▁abundantly
▁awful
▁branch
▁horrific
▁extraction
▁sun
▁distribute
▁meanwhile
▁deploy
▁crowley
▁upset
▁unsafe
▁hardest
stop
▁moderation
▁magnitude
ethnic
▁tantamount
▁believing
▁super
▁favouring
▁eventual
▁unexpected
▁naval
▁trichet
▁seminar
▁sentiments
▁norm
▁clash
▁turkmenistan
▁eurodac
▁panic
▁institutes
▁67
▁marginal
▁insight
▁butter
euro
▁patenting
▁purchases
trafficking
▁bridges
▁heed
▁imo
▁crews
▁diplomats
green
▁ice
▁twin
▁andersson
▁discards
▁employing
▁cargo
▁overriding
▁91
non
▁master
▁mountains
▁salafranca
▁levelled
▁reactor
▁64
▁ferber
▁therapeutic
▁reopen
▁constructed
▁tempted
▁backbone
▁ranks
going
▁explosive
▁alpine
▁clients
▁bordering
▁coincide
▁maghreb
▁flagrant
▁zaire
▁miles
▁categorically
▁witnesses
▁unesco
▁pregnancy
”
▁busy
▁proportional
▁dismantle
▁kofi
▁basel
special
▁exceeds
▁mandates
▁inadmissible
▁livelihood
▁certificate
active
▁classic
▁critics
things
▁routine
▁extensively
▁mozambique
▁trace
▁klaus
▁annexes
▁decreased
▁volunteers
▁frassoni
▁par
▁bombing
▁aspire
▁cereal
▁eurogroup
▁weber
▁doubtless
▁86
handed
▁98
▁token
▁failings
▁fortress
▁administered
▁joy
▁massacres
▁catching
▁pirker
generation
egf
▁exit
▁stems
▁preferably
▁journal
half
▁anger
▁winning
▁monnet
▁morillon
▁detect
▁discriminate
six
▁files
▁cleared
▁agendas
▁colour
▁unduly
▁contentious
▁celebrated
▁h
▁codification
▁assassination
▁cloned
▁flu
▁eeas
▁seasonal
▁vested
▁theato
▁offenders
▁steering
▁pledges
▁legitimately
▁nazi
▁totalitarianism
▁sticking
▁careers
▁geographic
▁bankrupt
▁attracted
france
water
▁chronic
▁minsk
▁exhausted
▁dwell
▁exceeding
business
▁fingerprints
documents
▁bonn
▁eurobonds
▁changeover
▁auditing
▁permissible
▁roughly
▁interpreting
▁installation
▁notable
▁proceeds
▁headway
▁populist
▁137
either
▁landmines
▁likes
▁branches
▁450
▁grip
▁negligence
countries
▁crude
▁rationale
▁76
▁denounced
▁luxury
sustainable
▁fusion
▁taste
▁dayton
▁lasted
▁steer
▁deterrent
▁ring
▁maximise
▁transporting
▁enlarge
favoured
50
▁proclaimed
▁jews
▁adversely
▁tighter
▁decreasing
▁benchmarking
▁stops
respect
▁gene
▁nutritional
▁subcommittee
▁gladly
▁officer
explanations
▁fat
▁earned
▁concentrations
▁prohibiting
▁lady
▁diversify
▁preamble
▁abilities
▁piebalgs
▁unfavourable
▁jackson
▁commissioned
▁whoever
▁valued
▁bluefin
▁pakistani
▁fatuzzo
▁bees
▁flexicurity
▁trip
▁expelled
▁isolate
▁boycott
▁governmental
young
▁golden
▁spell
▁leverage
access
innovation
▁elect
▁libyan
▁sánchez
▁unthinkable
▁teacher
▁fleeing
▁deaf
▁harms
along
▁assertion
▁howitt
▁hostages
▁coffee
▁compensated
▁finishing
▁gravity
▁bills
▁fats
▁61
▁dreams
▁fischer
▁supervisor
et
▁insignificant
competition
▁stipulate
▁select
▁paul
▁68
▁interparliamentary
▁xenophobic
▁elaborate
▁revive
▁conception
▁happily
▁tailored
▁dry
▁oceans
terrorist
▁carrier
election
▁municipalities
▁admiration
▁expiry
did
▁prosecuted
▁da
▁martens
▁heated
▁artificially
government
europeans
▁fee
▁speedily
▁shelter
▁correlation
▁whitehead
▁counted
▁82
▁plainly
▁staffing
▁cows
▁compelled
▁indiscriminate
▁affirm
▁1988
▁listing
▁78
especially
▁nassauer
▁concession
▁giant
▁worded
basically
▁grossetête
▁maturity
▁formulating
▁berg
▁disposed
▁strain
▁outbreaks
▁mainstream
▁recovered
▁absorb
▁+
▁decree
▁domination
▁homework
▁flagship
▁obliges
▁prerequisites
poverty
▁exaggerated
▁guatemala
▁budgeting
▁soul
▁formalities
▁gangs
▁lucas
▁hughes
▁eradicating
▁leisure
▁uganda
▁remembering
▁infectious
▁lying
▁cigarette
▁censorship
▁dissatisfaction
▁owner
▁89
▁craft
▁resignation
▁assumes
▁gibraltar
transparency
▁facilitates
▁mistrust
▁losers
cost
▁carcinogenic
▁defensive
▁substitution
▁liese
▁monies
▁throwing
▁undergone
▁calculating
▁maltese
▁suffice
▁critically
colleagues
▁overhaul
▁wife
▁habit
cultural
▁invaluable
▁valencia
▁converted
▁mentality
▁distributing
▁misused
▁trakatellis
▁belder
▁childhood
▁goebbels
▁accords
▁1986
▁declaring
▁matches
▁sand
▁trigger
▁stereotypes
▁exerting
▁accusation
▁consular
corrections
▁walk
▁tightened
▁pictures
▁compromised
▁powerless
▁gay
▁arrogance
saving
▁fitting
▁dismissed
▁mckenna
▁convert
▁breathe
contrary
▁documented
▁transplantation
▁philippines
▁cabotage
▁mortgage
▁starch
▁paradoxical
▁strategically
▁stagnation
▁downturn
▁miracle
▁foresee
▁avail
generally
▁reside
▁mercy
▁hamper
▁wasting
▁71
▁prohibits
▁actor
▁mail
▁fava
▁airbus
▁94
▁omission
▁influential
▁sophisticated
▁abstaining
▁indefinitely
twenty
implementation
▁sjöstedt
▁waged
▁phases
▁pool
▁consequent
▁marketed
▁beet
▁criminality
▁evolve
▁cappato
▁quaestors
▁lord
▁embryonic
▁pattern
▁sorted
▁directorates
▁reversed
▁africans
▁opting
▁george
▁corps
▁continual
atlantic
▁broadcasters
▁defects
▁approves
▁freed
▁tibetans
▁apologies
▁crystal
▁monthly
▁bar
▁surrender
▁rapprochement
▁reactionary
▁counteract
▁subordinate
▁expired
▁unwanted
▁custody
interest
eur
▁paths
▁forge
▁precautions
▁dissidents
▁handing
▁veal
▁perceive
▁thereof
▁residing
▁nomination
▁provoked
▁relies
▁interview
▁cumbersome
▁genoa
▁ceremony
▁angle
▁initiating
▁standstill
▁nationally
▁recording
▁collapsed
▁ears
▁dealers
▁settling
▁nigerian
fire
▁takeover
▁comprehensively
▁maladministration
▁commonly
▁baghdad
▁groupings
▁n
▁volunteering
▁recast
▁eurobarometer
▁biogas
▁enp
▁pronounced
▁commented
▁corrective
▁strengths
▁closures
▁reproduction
27
▁accounted
▁distributors
moving
▁tonne
▁malaysia
▁bee
‘
▁schroedter
▁140
▁astonishing
▁appointments
▁improper
▁scarce
▁vi
▁obscure
▁dictated
▁beer
▁clinical
farmers
▁boards
▁69
▁district
▁conceived
▁tony
▁eurocontrol
▁argues
▁style
▁anticipation
▁revival
▁abstention
▁interrupted
▁72
▁mediator
▁variable
▁slaughtered
▁falsified
▁disparity
▁fruits
▁chains
▁constructing
▁instrumental
▁staes
▁laboratory
▁passion
▁gratifying
▁deletion
▁formerly
▁logistical
catch
sessions
institutional
▁drinks
▁mundus
▁pertaining
▁permitting
▁specifying
▁reacting
▁fauna
▁deepest
▁leonardo
▁unpleasant
▁communists
▁confederation
▁napolitano
▁900
▁polluted
▁inalienable
look
▁illusions
▁irregular
▁son
▁rasmussen
▁forbidden
croatia
▁pipelines
▁discrepancy
▁shipments
▁holocaust
▁nurses
▁predominantly
▁interdependence
▁echelon
▁waited
▁haug
▁kroes
▁evolving
cohesion
▁81
▁cornerstones
▁exempted
▁horrendous
▁incoming
mail
▁transposing
▁munich
▁definitively
▁mini
▁acquiring
▁unrestricted
▁inflicted
▁unbalanced
▁owned
▁sharply
▁hate
▁peru
▁latvian
▁intending
▁restructure
▁conveyed
▁excludes
▁pvc
▁properties
▁indonesian
▁kauppi
▁sacconi
▁doping
▁87
board
▁workings
amongst
▁turnout
▁clarifications
▁gift
▁elles
▁fix
▁suspending
▁lax
▁specifies
▁repeal
▁rebels
▁helms
▁tie
▁bone
▁verified
▁euromed
▁divergent
oral
▁umbrella
▁contradicts
▁presupposes
designate
▁deteriorated
▁edinburgh
▁signatory
▁cleansing
▁nominal
▁dozen
▁alps
▁warsaw
labelling
▁homosexual
▁gaddafi
▁harmonize
▁:
▁fore
creating
▁esf
▁peninsula
▁campaigning
▁forceful
▁eritrea
▁speculators
▁caring
▁presumably
▁metals
▁tyres
▁oldest
▁tannock
american
▁gradin
closure
▁abbas
▁wurtz
▁eighth
▁cleaning
polluter
▁accuracy
▁dire
alongside
▁flourish
▁lange
▁rossa
▁undue
▁108
▁embassies
▁warmest
▁turks
▁geographically
▁haulage
▁guantanamo
lv
▁underground
▁clinton
peace
▁surrounded
▁ruin
▁dominate
▁axis
▁progressed
▁constituted
▁confess
▁clearance
▁invoked
▁schmidt
▁peer
▁inflexible
▁broek
▁avian
decisions
▁exchanged
▁shipyard
greece
▁physically
▁aspiration
▁caudron
▁breyer
▁insecure
▁brown
▁warrants
▁contend
▁nicholson
▁vigour
▁rightful
▁comfortable
▁sterling
▁emotion
commercial
▁jensen
▁brilliant
▁giscard
▁eit
safety
▁mess
▁enrichment
▁doubling
▁delegates
industrial
▁confronting
consumer
▁mps
▁mineral
▁collaborate
▁ministries
lisbon
▁duff
funded
▁eggs
▁diplomas
▁recognizes
▁flynn
▁variations
▁matched
▁appropriation
type
▁flora
▁disagreements
▁correspondence
semitism
▁armaments
▁franco
▁lots
▁amazed
▁reassuring
▁mood
combating
▁endorsing
▁javier
▁bounds
▁pesticide
▁turmes
▁pope
founded
▁intermediaries
▁boys
iran
▁exile
sector
▁reviews
▁infringe
road
▁commence
▁ecologically
▁79
▁horizon
▁ambassadors
▁unhcr
air
▁recreational
african
▁landfill
▁laboratories
▁supervise
▁budapest
▁rendered
▁lobbies
▁contexts
▁zealand
▁gollnisch
▁prejudices
▁broadest
▁intervened
▁nord
▁holland
▁enacted
▁finalise
▁dictatorial
▁democratization
▁marriages
▁tomlinson
▁marco
▁needing
▁markov
▁row
▁comfort
▁mismanagement
establishing
▁spiritual
▁oppressed
▁underpinning
▁brazilian
▁unscrupulous
▁fourteen
▁recalling
▁diminish
▁restricts
negotiations
global
▁discharges
▁devising
▁alas
▁transforming
▁loyal
▁unpaid
▁icao
▁flee
▁adequacy
sufficiency
▁semester
▁manuel
▁transnistria
▁manages
reading
illegal
▁republics
▁fixing
▁complaining
▁expose
▁infringed
▁offshore
▁alcoholic
▁lancker
▁inconsistencies
▁del
▁video
▁residues
▁retailers
▁k
▁burg
▁colombian
▁opel
▁unquestionably
agricultural
▁constituencies
▁perverse
▁opposes
▁quoting
her
▁solvency
▁semi
▁cadmium
▁cry
▁diamantopoulou
driven
▁sympathetic
▁degrading
▁communicating
alba
▁simpson
▁attracting
▁thyssen
▁alliances
▁abstract
binding
▁weigh
▁clarifies
▁defends
▁embarrassing
▁rounds
▁timescale
▁prisoner
45
▁tired
▁embryo
▁courtesy
▁sharia
▁slave
▁cinema
▁iraqis
▁ramos
▁fur
▁orden
▁tobin
▁widest
▁superstate
▁haste
▁rewarded
▁excesses
▁tolls
legislative
▁respectful
▁inconceivable
▁protesting
▁revealing
▁dating
▁misguided
▁naples
▁appointing
▁resign
▁spatial
▁senegal
▁stalin
▁ebrd
▁morgan
▁apparatus
▁scrap
▁salute
▁sweeping
▁ample
▁reap
▁reconciled
▁streamlining
▁toward
burton
▁conceivable
▁weu
▁cooperated
▁arable
▁dynamics
▁accuse
­
▁istanbul
▁reassured
▁nationalities
▁italians
▁sensibly
▁flat
▁katiforis
▁alignment
▁footwear
▁unbundling
▁ribeiro
▁enquiry
▁astonished
▁tenders
led
tariff
▁congolese
▁disappearing
▁handful
▁utilise
▁persistence
▁lapses
▁fraga
▁solbes
▁rumours
▁disputed
▁cabinet
▁davies
▁treats
▁morally
▁announcing
▁appendix
▁diabetes
▁harmonized
▁icc
▁stoning
▁cunha
▁mccarthy
▁expires
▁lawful
▁applauded
▁downward
▁exhaust
▁1408
▁severity
▁prescription
▁desires
▁filling
▁accomplish
▁telecoms
▁schuman
chairman
▁purchased
▁88
▁unforeseen
▁97
▁henceforth
▁peter
▁hanging
never
▁harvest
fishing
▁equals
▁dirty
▁liberalism
▁brand
▁fascism
▁spectacular
▁adjusting
▁employability
▁encompass
▁unpunished
▁hazards
▁guards
▁bottlenecks
▁immunities
▁healthier
▁rebate
▁tanks
▁predecessors
▁renationalisation
▁stolen
▁enthusiastically
▁translations
▁mindful
▁practicable
investment
▁headlines
▁corridor
▁annexed
▁holy
▁technique
distance
▁mexican
cap
▁cruelty
▁deprez
03
▁buzek
▁advisers
40
▁duisenberg
service
▁purvis
▁commensurate
setting
unemployment
▁importation
▁unsuccessful
▁solemn
▁brother
▁utilised
▁vein
▁biased
▁experimental
▁accumulated
▁embassy
▁roure
▁superpower
▁supervisors
▁parent
x
▁ecj
▁diamandouros
seven
▁achieves
finding
▁veritable
▁monitors
▁homophobia
▁complicity
important
▁portion
▁unambiguously
▁chicken
▁jeopardised
▁calmly
globalisation
▁telecom
▁catering
▁efficacy
sweden
▁cyanide
▁ceased
▁environments
▁1985
▁relieve
▁comparisons
▁taboo
▁scandinavian
using
▁celebration
▁shoes
▁organize
▁efd
▁governor
▁requisite
▁compliments
▁attentive
▁slim
▁fourthly
▁170
▁esteemed
▁shoulders
▁blamed
▁attributable
▁endeavoured
▁magic
▁appreciates
▁percentages
▁intact
▁enhancement
▁anna
▁shaped
▁accelerating
▁cutbacks
estaing
▁renault
▁monterrey
resumption
▁bourlanges
▁logically
▁index
▁raft
▁distorting
▁73
▁pioneering
fledged
▁triangle
weggen
▁aegis
▁invention
▁hezbollah
▁pig
▁slots
▁sufferers
▁hauliers
▁compiled
▁endure
▁justifiably
loud
▁attained
▁passionate
▁determines
palestinian
▁brenner
▁simultaneous
▁naive
▁rectified
poland
▁depriving
▁objectivity
▁lambert
▁sellafield
▁kabul
▁carers
▁iter
▁appraisal
▁simplistic
defined
legal
▁spaces
▁admire
▁praised
▁outrage
▁wearing
▁unfairly
▁defeated
including
sufficient
▁holistic
already
▁lagendijk
▁administer
▁tolerant
▁drama
▁weekly
▁hectare
open
▁175
stay
▁potato
▁acta
▁widen
▁additionality
agriculture
▁halfway
particular
▁prosecute
▁jungle
▁tanker
▁notorious
▁prolonged
▁lodged
▁provoke
▁holder
▁madagascar
▁slip
▁dupuis
▁breached
▁rain
▁faithful
▁earnings
▁printed
▁bond
▁troubled
▁persists
▁appliances
▁essen
▁catalan
▁brutally
▁parish
▁129
▁campania
▁fukushima
▁compromising
▁vicinity
71
clear
▁costing
▁bizarre
▁kindly
▁parity
▁se
▁factions
▁rebel
▁starvation
▁borrell
▁equatorial
▁vodka
▁hänsch
▁bird
▁frustrated
▁casaca
▁deadly
▁erdf
▁knock
▁74
▁maij
fighting
▁beaten
▁spokesman
▁evade
▁calculate
▁levies
▁proceeded
▁atypical
▁habsburg
▁coreper
▁disorders
▁opium
▁paternity
▁enforceable
▁marketplace
▁scrutinise
enterprises
▁neighbourly
▁earthquakes
▁galeote
▁wear
▁unites
▁regulates
▁kick
▁externally
▁retraining
▁deferred
▁sentiment
▁dogma
▁regulator
▁rotation
▁designations
▁martínez
▁christianity
▁orthodox
▁wholehearted
▁dam
▁enlarging
▁corporation
000
▁geography
▁hampered
▁counterpart
▁outlining
▁provinces
▁guilt
▁talent
was
▁imagined
▁weiler
▁inconsistency
▁brink
▁flaws
▁realistically
▁watched
▁measurement
▁loses
▁sat
▁doomed
▁invoke
▁linkohr
▁satisfying
▁insufficiently
▁vertical
▁symptoms
▁underpinned
▁admissible
youth
▁1987
▁infections
▁flanders
▁educate
▁phones
▁hungry
▁exporter
▁sizes
▁avoidance
▁ferreira
▁aeroplanes
12
still
tech
▁marginalisation
▁notify
frankly
▁bread
▁encompasses
▁legislating
management
often
▁valley
▁motorway
▁employs
▁ottawa
▁rotating
▁wheat
▁unitary
▁pivotal
▁influencing
▁fierce
▁invites
▁wing
▁untenable
▁bonde
▁remainder
▁wholesale
▁originate
▁speeded
▁maaten
situation
▁tractors
▁relocate
▁feedback
▁tissues
▁chairs
▁uprising
▁tindemans
▁manifest
▁1967
▁compounds
▁devastation
▁complained
▁indebted
▁arts
▁recovering
▁resorting
equal
see
▁scenes
▁di
▁hardship
▁primacy
tax
nato
▁bail
▁missile
▁emphasizes
▁hesitant
▁defender
▁varela
ups
honourable
continuation
▁rejoice
▁bureaucrats
▁extinction
▁populism
▁assault
▁discovery
▁biotechnological
▁reversal
▁conversations
▁hotel
▁multicultural
▁pause
▁seppänen
▁casualties
german
examine
▁liechtenstein
▁lópez
▁intergroup
▁blank
▁lucrative
▁optimal
▁bologna
▁broadening
▁subsidise
▁punishable
▁superior
▁distrust
precisely
▁iaea
▁vojvodina
▁laos
▁scanners
▁gni
▁fta
▁storms
▁amounted
▁coastline
▁concentrates
▁impartiality
▁professionalism
▁unanswered
▁suits
▁emotions
▁undeniably
▁crossroads
▁enrich
▁centred
▁nominated
▁lifetime
▁unhealthy
▁ran
▁maps
▁champions
▁lip
▁terminology
▁rooms
▁ivory
▁zana
▁nightmare
▁keyser
▁diminished
▁accumulation
mentioned
▁random
▁overlap
▁crux
▁tree
▁homeless
▁feeds
▁babies
▁skin
▁supermarkets
nowadays
▁nitrates
▁uniformity
▁ideally
▁deposit
had
▁intensification
▁andean
▁illiteracy
▁hasty
▁figueiredo
membership
▁criticized
▁additions
▁comprise
▁interregional
▁hatzidakis
▁agent
▁modernised
▁colours
▁emigration
▁fled
▁streamline
▁prudence
▁excuses
▁minerals
▁varieties
▁incitement
▁abduction
▁dementia
▁terribly
▁hell
▁shifted
▁mainland
▁periodic
▁crossed
▁concise
current
▁shield
▁tandem
▁entitlement
▁precision
▁opportune
▁alavanos
▁reiterating
▁culturally
▁theirs
coming
▁fastest
▁1960
▁redouble
▁1950
▁prevalent
▁lunch
▁unionists
▁denies
▁grid
▁eurlings
▁abstentions
▁hole
▁jeopardy
▁wiped
▁greeks
▁blak
▁wolf
▁differentiate
▁segregation
▁sensitivities
▁muscardini
▁recipe
sea
▁slowdown
▁boxes
▁dismantled
▁peijs
▁punishing
▁twofold
▁dragging
▁utter
▁pressed
▁divergence
▁underlining
▁socialism
▁fascist
▁combustion
▁invented
profit
added
▁daughter
▁tense
▁underdeveloped
▁admirable
▁arbitration
▁measurable
▁diminishing
▁honduras
▁cultivated
italy
▁inherited
money
germany
▁liberia
▁epa
▁biofuel
▁authorization
▁tide
▁streamlined
▁economical
▁sanitation
large
▁unwillingness
informed
▁buried
▁bogged
▁prerogative
▁schröder
▁entitlements
acp
▁jail
▁1979
▁headline
▁breath
▁inserted
▁grows
▁quorum
▁f
▁garriga
▁kiev
▁ukrainians
▁taoiseach
prevention
▁equation
▁intensifying
▁superficial
beyond
care
▁motive
▁crazy
▁literature
▁scarcity
▁convened
▁analytical
▁epidemics
▁ironic
canada
▁midnight
▁unbridled
▁guise
▁renounce
▁cooling
▁preceding
▁miguélez
win
▁motors
2012
composition
35
▁spends
▁roman
▁elapsed
▁cyber
▁ira
▁provocative
▁triumph
▁behaving
▁mountainous
▁joke
▁majorities
▁maes
▁reopening
▁proteins
▁businessmen
▁olympics
▁polo
▁remedied
oil
▁succession
▁prescribe
▁thirteen
joint
▁hostilities
▁distinguishing
▁elementary
▁complications
policy
▁abducted
congratulations
▁borrowing
▁appealed
▁insolvency
▁loyalty
▁horn
▁fundamentalists
credit
▁residential
▁portal
▁potatoes
▁dna
▁bertens
▁suspicions
▁180
british
▁recalls
▁weakens
▁combines
▁trades
▁obstruct
▁deserved
improving
▁eager
▁sturdy
▁hormones
cut
▁togo
compulsory
▁madness
▁reimbursed
2011
▁combatting
▁catania
▁ahern
▁anticipating
▁catastrophes
▁clock
cutting
▁misunderstood
presidents
▁traded
▁arbitrarily
▁downright
▁reformist
▁destabilising
▁masters
step
▁fiji
▁preparedness
▁summed
▁inadequacy
▁commercialisation
▁perry
▁stalemate
▁schmitt
▁eurovignette
▁veld
▁probability
▁gil
▁beauty
▁busquin
▁hitler
▁decrees
▁montreal
▁immune
▁reorganisation
promoting
▁statutes
▁testimony
▁inefficiency
▁amazing
▁peculiar
▁loved
▁yields
▁oils
▁paralysis
▁possesses
▁starving
▁declined
▁align
▁seychelles
▁farage
▁hindering
▁economists
▁accustomed
▁cycles
▁der
▁bolster
▁tour
▁impede
▁angelilli
▁horrors
▁pulling
▁theatre
▁assumptions
▁skies
▁versus
▁resounding
▁overwhelmingly
▁hindered
▁sarajevo
▁sacred
functioning
▁depressing
existence
▁atmospheric
▁fodder
▁multilingual
▁contest
▁tehran
▁mitigation
▁boel
▁oettinger
▁renovation
▁regretted
▁federalism
▁meagre
think
▁contravention
▁swept
▁density
▁rewards
▁announcements
▁pen
▁viewpoints
▁gargani
▁contemplate
▁delegate
▁usage
▁obsession
▁campos
▁picked
▁upgrade
▁leeway
▁uruguay
▁sadness
▁tendering
▁humiliation
▁authentic
▁adam
governments
▁160
▁buttiglione
reducing
▁srebrenica
▁productions
▁marín
▁grosch
#
▁unjustifiable
▁jan
▁loophole
▁teeth
funding
▁reiterates
run
▁omitted
▁deteriorate
culture
▁enriched
▁networking
▁wipe
▁disproportionately
▁scratch
▁chairing
▁deportation
▁practitioners
▁planes
▁cogeneration
▁genes
▁therapy
▁connect
▁thomas
▁imperialism
▁avert
▁kok
▁neves
▁convenient
competitive
responsibility
▁focal
confidence
▁ninth
▁immoral
▁discusses
▁correctness
▁tyranny
▁flame
▁advancement
▁contributor
▁complements
▁succeeding
▁battles
▁wounded
▁hazard
developing
▁reprehensible
tourism
▁myth
▁resisted
▁pragmatism
▁influences
▁avoids
▁frequencies
▁divides
[
▁creditors
▁enhances
▁dogs
▁eures
▁nickel
▁rack
▁commenting
▁recruit
▁loading
▁83
▁royal
▁testify
▁sinking
▁lightly
▁pessimistic
▁ride
▁phthalates
▁theft
▁115
▁unqualified
▁motivate
▁kremlin
▁exacerbating
▁sleep
▁relax
▁realm
▁enact
increased
▁resistant
▁orange
▁predictability
▁containers
▁visions
▁treasury
▁endangering
▁philosophical
▁escaped
▁cheque
▁carpet
▁chooses
▁spared
▁verbal
▁yardstick
▁recycled
outs
anything
▁enlightened
▁lucky
▁easing
▁gröner
▁2030
▁ali
▁brothers
▁dishonest
11
▁stevenson
▁advertisements
▁profiles
▁turmoil
▁…
▁authorized
▁lynne
▁volatile
▁karl
▁explored
▁revisit
▁memories
section
▁detract
▁frightening
▁reaffirms
▁prioritising
▁acceleration
▁egg
▁blatantly
▁suffrage
industry
▁brutality
eye
▁bolivia
▁chairmanship
▁flexibly
▁uniformly
▁centralisation
▁papayannakis
▁circulating
▁stemming
▁bombings
▁lever
▁eagerly
▁libraries
adjournment
▁pluralist
▁interconnected
▁ldcs
▁timid
▁deposits
companies
▁concealed
▁manipulated
▁upwards
▁abu
▁covenant
▁homosexuality
▁bonus
▁withstand
▁pharmaceuticals
▁nafo
▁gps
▁goldstone
bc
▁eighteen
99
▁prosecutors
▁delivers
▁1976
▁brake
▁gomes
▁inventory
▁comparing
▁deter
full
▁bloodshed
▁rothe
▁dated
▁convene
▁fighters
▁destinations
▁outgoing
thousands
▁handicaps
▁certified
▁fitted
▁graduates
▁bin
▁susceptible
▁intermodal
▁presume
▁implements
▁disregarding
▁park
▁angry
▁selecting
▁beat
▁transmit
▁complemented
▁envelope
▁spotlight
▁ear
▁embarking
productive
▁separating
▁devoting
▁stretch
▁152
▁colonies
▁fortune
▁conversation
▁tacs
▁125
▁despicable
▁custom
▁ukip
▁satellites
▁paasilinna
▁tamil
were
▁repealing
handling
▁moldovan
▁organizing
▁lahti
▁justifying
▁scant
reform
▁cartels
▁supervising
▁138
▁tajikistan
seekers
▁needless
▁sustaining
▁gallagher
▁dioxin
▁dispel
▁compel
reference
income
▁commended
▁comparability
▁liquid
▁overturn
▁sheer
▁norwegian
▁gentleman
▁insert
▁hostility
labour
▁bovine
western
▁panacea
▁hall
growth
▁sciences
▁governors
▁mcguinness
▁1956
▁stubb
▁schwab
▁füle
55
▁sympathise
▁concede
▁bankers
▁suppress
▁appalled
▁irrational
▁synonymous
▁cederschiöld
▁clever
▁relaxed
▁judging
▁versa
▁schmid
▁1975
▁sparsely
▁cheapest
▁absorbed
o
▁engineers
▁fever
▁eplp
▁chichester
matthews
short
▁pedestrians
▁fp
▁uniting
▁drag
▁reasoned
▁audience
essentially
▁omissions
▁cessation
▁paved
▁endemic
▁dog
history
▁locked
▁wordings
▁distinctive
▁disseminate
▁succeeds
▁indisputable
spain
▁ferry
priority
▁legislations
▁michael
▁116
▁leon
▁riots
▁loose
▁districts
▁expire
▁advent
▁destroys
▁dismissal
▁neglecting
▁logging
▁landed
▁manpower
immigration
▁respectable
▁searching
▁probable
▁void
▁guarantor
▁consciences
▁destabilise
▁nitrogen
▁interrupt
▁cynicism
▁competitions
▁equivalence
▁default
▁subsidising
▁patentability
▁commits
▁jeggle
▁bushill
▁birthday
▁oreja
u
▁zapatero
▁wijsenbeek
transport
▁lag
▁remarked
▁delight
▁inconvenience
▁weighing
▁distressing
▁halted
▁attentively
▁specially
▁perseverance
agreement
▁penalising
someone
▁apology
▁aroused
▁cheaply
▁banotti
▁county
▁farce
▁consensual
▁screen
▁reflections
▁installed
▁avenues
▁humiliating
▁remarkably
▁communicable
▁prolong
go
▁enduring
strengthening
n
▁tillich
▁dictates
▁pleasing
▁l
▁enquiries
▁sine
▁thors
▁arrogant
▁seminars
start
▁alarmed
▁weighting
▁belts
▁tragically
▁fascinating
▁universality
▁mockery
▁stayed
▁ferries
▁shortfall
grass
▁lapse
▁device
2020
▁girl
▁vietnamese
crisis
▁gill
▁eroded
▁authoritative
▁recurring
portugal
▁defenceless
▁söderman
▁overfishing
▁kidnapped
ever
▁forged
▁stark
▁durable
world
▁broadcasts
▁tackles
▁layer
▁tip
▁schnellhardt
▁tenacity
▁fanaticism
▁prudential
origin
everybody
▁pérez
▁smokers
▁implants
attached
van
▁load
▁relocating
calls
▁unbelievable
▁inaccurate
▁morality
▁proposition
▁plurality
▁punitive
▁paedophilia
▁cop
▁contacted
▁shake
▁chickens
▁virtues
▁apartheid
▁morgantini
implementing
▁romanians
▁orientations
▁negotiator
▁ideologies
▁publications
▁109
▁napoletano
▁negatively
▁islamist
bissau
latin
▁salmonella
▁educating
▁evolved
▁naïve
▁bind
▁sailing
▁satisfies
▁auditor
▁halting
▁mixture
used
▁renewing
▁ambiguities
▁greed
▁kratsa
▁portfolios
▁oversee
▁parcel
▁acid
▁unreported
▁spinelli
▁suspicious
▁worsened
▁müller
around
▁cmo
▁silva
▁bahrain
▁plooij
▁peak
▁investigative
▁entailed
gender
▁incur
▁eurosceptics
▁contravene
▁twentieth
▁saint
▁deserving
▁verge
▁unwise
▁intrinsic
▁defer
▁withdrew
▁shocks
▁joins
▁acceded
▁y
0
▁petitioners
▁manifestly
▁dismiss
animal
▁zimbabwean
▁disciplines
▁nicaragua
▁polledo
considering
▁eastward
▁dragged
▁abusive
▁coastguard
emptive
pursuant
▁maria
▁thin
technical
▁rubbish
▁torn
▁disseminating
▁prominence
less
▁84
▁intermediary
▁prefers
▁interception
▁married
▁abortions
▁pretending
▁forging
▁allergies
▁plead
▁kilometre
bulgaria
▁leghold
▁recognizing
▁dissatisfied
▁attaining
▁literacy
▁onerous
▁shaken
▁immensely
minister
▁kills
▁turin
▁droughts
▁cooperatives
▁unpredictable
▁subsistence
▁anchored
civil
▁durban
▁savage
▁husband
▁weighed
▁flourishing
relations
▁infringing
▁charity
explanation
▁interconnections
▁decentralized
▁crash
▁revitalise
▁reminiscent
▁distorts
▁supervised
▁therein
▁marvellous
▁deriving
▁directing
▁overarching
▁phrases
parliamentary
▁richard
▁unsuitable
▁thereafter
▁geostrategic
▁diversified
▁vehemently
▁rearing
▁rhine
▁desert
▁loudly
▁designs
▁impending
▁unconditionally
▁cambodian
▁galician
about
▁multitude
▁keys
▁pöttering
▁estonian
▁myanmar
serbia
▁brittan
united
▁awaited
▁alleviating
▁questionnaire
▁drafts
▁releasing
▁qua
▁builds
▁strand
financed
efforts
▁bridging
▁orderly
dialogue
▁inaction
▁practising
▁1984
▁catalonia
▁fatalities
▁implied
▁adhering
▁trivial
▁carlos
▁niebler
▁miguel
▁finalising
▁papua
▁transplant
▁jouyet
▁disintegration
▁rapkay
▁deem
▁anonymous
92
▁interdependent
▁schüssel
▁grouping
cross
▁wheel
▁plastic
▁unpopular
conflict
▁survived
▁operative
▁retreat
▁pilots
▁unicef
▁glance
▁horses
▁competencies
▁kirkhope
▁tricky
▁plutonium
▁complicate
▁sacrificing
▁fernandes
▁ombudsmen
▁revert
sport
▁efsa
▁overweight
▁kovács
▁lewandowski
▁gauzès
▁modernization
▁seattle
▁pulled
▁grew
▁ante
▁ruined
▁instituted
▁exploration
▁circumvent
▁complacency
▁admitting
▁retains
▁seemingly
▁freeing
▁misled
▁harmless
▁glaring
▁correcting
additionally
▁activist
▁overlapping
fold
▁klaß
▁simplicity
▁750
▁longest
▁cabin
état
▁importer
corruption
▁originated
▁aligned
▁cat
▁safest
▁assistant
▁confiscated
▁murderers
▁metal
▁noticeable
▁radicalisation
▁designing
▁shortcoming
▁oriented
▁injustices
▁macedonian
▁paramilitary
earlier
▁purse
legislation
▁clothes
▁pet
▁louis
rights
▁bypass
▁cresson
▁retired
▁frustrating
▁boarding
▁herzog
▁beekeeping
▁tailor
▁radwan
workers
▁105
▁tiger
▁tracking
▁sacrosanct
▁heaven
▁scrapped
▁struggles
▁receipt
▁rationalisation
▁denouncing
▁speeds
▁thorny
▁naming
▁optimise
▁wounds
▁surprises
▁trapped
▁incorrectly
▁converting
▁suppressed
▁boeing
hearted
▁paving
▁inasmuch
▁informative
▁escalating
▁adoptions
▁regeneration
sec
▁centrally
▁verbatim
though
▁280
▁registering
▁pains
lasting
▁partisan
▁hormone
▁invitations
▁habitat
▁spade
▁pseudo
▁souchet
regardless
▁copies
▁aggravated
▁height
▁readings
▁blacklist
▁firmness
▁oppressive
▁screens
▁guests
▁exploring
▁relaxation
▁paradigm
▁firmer
▁disappoint
▁sexually
wto
▁commemorate
major
▁supermarket
▁slowing
▁aarhus
▁svensson
▁trapping
▁bucharest
▁exodus
▁unacceptably
▁handicapped
▁protagonists
recommendation
▁petty
▁inertia
▁sincerity
▁compound
▁fruition
▁james
▁czechs
▁focussed
▁asserted
▁quantified
▁lights
▁bbc
▁chaotic
▁devoid
▁thanked
▁yearly
▁conserve
▁admits
▁fullest
▁112
▁marques
▁outlets
▁abusing
▁coercion
▁electors
▁calves
▁cameroon
▁adolescents
▁volcanic
▁uneven
▁resisting
▁irresponsibility
▁diligence
▁eaggf
▁persuasion
▁breadth
▁dührkop
▁£
▁owes
size
▁dust
▁destabilisation
▁bjerregaard
▁pooling
▁modalities
▁karamanou
▁assemblies
▁implicit
▁eradicated
▁lands
▁brakes
▁taxed
▁charles
▁circulated
▁ash
▁unauthorised
▁ethiopian
▁hurry
▁ahtisaari
▁jöns
▁gucht
wolski
▁medvedev
▁confines
▁mayors
▁wondered
actually
▁nazism
▁stumbling
▁pollute
▁dogmatic
▁energetic
▁replaces
▁willingly
▁oneself
▁stateless
▁contravenes
▁prospective
▁tyre
24
▁coping
▁deficient
▁disturbed
▁armies
territorial
▁patented
▁backgrounds
▁barbarity
▁societal
▁activated
▁inactive
▁lalumière
▁acquainted
▁disorder
▁fifa
▁vitamins
▁dared
consuming
▁depopulation
▁dominance
▁warfare
▁undertakes
▁rojo
▁spirits
▁multifunctional
▁alluded
▁indivisible
▁vidal
▁mcnally
finland
▁adaptability
local
▁worsen
violent
▁summarised
▁spur
▁empowered
▁curriculum
▁rockets
▁122
▁vinci
▁implication
▁peres
▁ventures
▁mitigating
whenever
▁sights
▁manifestation
▁mislead
▁understandably
▁missiles
▁bosnian
▁planting
▁rushed
▁markedly
▁frankfurt
▁maternal
▁eminent
▁manual
▁saryusz
▁gorsel
▁pursues
▁protracted
▁hurricane
▁haven
▁periphery
▁compensating
▁disguised
▁revenge
▁anglo
▁tracks
paid
▁straw
▁redefine
▁rock
▁prioritised
▁declares
▁affirmation
▁regularity
▁episode
▁pluralistic
▁behaved
▁murderous
▁discouraging
▁collateral
▁connecting
▁workplaces
▁auction
eight
▁mount
▁futile
▁provisionally
▁hurt
▁lamentable
hundreds
▁compelling
▁emas
▁hübner
▁criticises
▁displaying
▁unrelated
▁typically
▁hunt
▁ortuondo
▁quasi
▁1945
▁schooling
▁overtaken
▁mildly
▁mixing
▁consuming
▁gifts
▁alien
▁rewarding
▁bare
▁bars
▁attractiveness
▁yielded
▁contention
▁deported
▁laden
▁sham
▁removes
▁differential
▁addicts
▁blocs
▁confiscation
▁berisha
▁prosper
▁attachment
▁rotterdam
▁caspian
▁commissions
▁releases
▁consciousness
renewable
▁motherhood
▁editorial
▁modifying
▁extract
▁governs
▁protested
▁milan
peripheral
▁wary
▁notions
▁broker
▁doorstep
▁innocence
▁burnt
▁accessions
strong
▁endured
▁cement
▁sixty
▁depart
▁barrel
▁gestures
▁fares
▁examines
▁exhibition
▁bonuses
▁porto
▁hizbollah
▁ets
▁cabrol
▁lankan
▁diverted
▁lowered
▁nationalistic
states
▁carriage
▁aeroplane
▁dedicate
equality
▁workload
▁kreissl
dörfler
▁decency
quadras
▁widened
▁lacked
▁fortnight
▁reuse
▁reassurance
businesses
▁creators
▁antibiotic
▁extracted
▁conclusive
▁print
▁cloud
▁wijkman
▁museum
▁negligible
failure
▁devil
▁poll
▁erroneous
▁hieronymi
legislator
▁bed
▁synthesis
▁leyla
▁interactive
▁färm
▁separatist
▁ben
▁levied
▁turbulence
▁bacteria
defence
▁anthem
▁cornelissen
▁das
▁writer
▁inferior
94
▁umpteenth
▁u
▁fished
▁tsatsos
▁kg
▁gauge
▁panels
▁epidemiological
▁overshadowed
▁participatory
▁insulting
▁occasional
▁occurrences
▁paralysed
▁malnutrition
▁remembrance
▁instructed
sex
▁culmination
▁hitting
▁miert
▁refund
production
▁truce
▁petersburg
▁socioeconomic
▁microfinance
▁examinations
▁fertile
▁totalling
▁filed
▁akin
▁stimulated
▁invisible
ahead
▁reintroduce
▁basing
▁marshall
▁impoverished
▁kohl
▁honouring
▁sidelined
▁santos
apparently
▁mccartin
▁cowardly
▁cancelling
▁shore
awaited
▁inseparable
▁elephant
▁klamt
▁rühle
▁favourite
▁depression
▁disrupt
organised
▁transplants
▁channelling
▁therapies
▁ghent
▁potočnik
card
▁temperatures
▁syndrome
▁disturbances
▁133
▁sizeable
▁salt
▁intervals
▁reinstate
▁parking
▁activate
▁resigned
▁commons
▁serb
▁manifesto
▁countering
▁moura
▁unwarranted
▁emphatic
▁alibi
▁restate
▁unifying
▁persuading
▁inspiring
▁penetration
▁foolish
▁medication
justice
▁hernández
▁mollar
▁arsenal
▁precedents
▁accusing
▁setbacks
▁particles
▁crossings
learning
▁discriminating
▁breeders
▁recruited
▁smet
▁gutiérrez
baroness
▁bauer
▁pimenta
▁pacts
▁unease
▁repealed
▁verifiable
▁rulers
▁ensuing
▁prey
▁dumped
▁indiscriminately
▁unquestionable
▁altering
▁usefully
▁pious
▁fool
▁abundance
millions
▁shifts
▁deceive
▁miranda
▁architects
imagine
▁rocket
▁fundamentals
▁predictions
▁residue
▁ruthless
▁technocratic
▁goodness
▁canaries
▁duma
▁resale
▁shy
▁interlinked
structural
▁attribute
▁repayment
▁reign
▁uclaf
▁cake
▁sink
▁inspect
▁spencer
▁exaggeration
▁freer
▁assertions
▁disclose
▁disguise
▁cheese
▁andalusia
▁inextricably
▁adaptations
▁miller
▁beginnings
▁blanket
▁draftsmen
▁swine
▁bavaria
▁till
▁conspicuous
▁colom
▁portability
▁flesh
ms
▁elites
▁dissent
georgia
▁prospectus
▁aelvoet
▁grubbing
▁dispose
▁paint
▁characterise
▁manager
▁slaves
▁eea
▁stays
▁eminently
▁designate
▁stakes
▁relaunching
▁abbreviated
▁derives
ensuring
▁originates
age
▁paves
▁curtailed
▁formality
▁flouted
▁jump
▁fraction
▁consisted
▁presumption
▁kabila
▁308
▁intelligently
▁realises
14
waste
iraq
▁cercas
▁utility
▁wiersma
▁setback
▁illogical
▁virrankoski
▁coffers
▁dinner
▁earmarking
▁nisticò
▁vaccinated
▁chávez
grassroots
mt
▁albertini
▁poos
▁commonplace
▁beaches
▁stipulating
▁implicitly
▁bowe
▁romano
▁chambers
▁campaigned
▁deprivation
▁redundancy
▁forcibly
▁indulge
18
▁flemish
▁infant
▁bias
▁underpins
▁clout
▁boy
mails
▁ludicrous
▁mg
treatment
▁overcapacity
▁circulate
▁formulae
fair
▁flax
simply
▁candidacy
▁gazprom
▁reprocessing
▁discoveries
▁athletes
▁workshops
▁profiling
▁pm
▁realized
▁criticize
▁macartney
▁materialise
▁rank
▁sorrow
▁evidenced
▁compassion
▁controllers
▁viii
▁patently
▁clearest
▁hurdles
▁imbeni
▁poet
▁untrue
▁anxieties
towards
▁supplementing
▁savers
▁tonnage
▁wetlands
▁broadened
▁earning
different
▁lifestyles
▁pessimism
integration
▁reproach
▁switching
▁survivors
▁terminal
▁pat
▁1049
qaeda
▁sars
▁haitian
▁estrela
▁tunnels
▁flautre
▁hindrance
▁boom
▁thread
▁vallelersundi
▁contested
▁upheaval
future
▁happiness
existing
▁segment
▁suitability
▁framed
▁flowers
▁preach
▁decidedly
▁vitality
▁isler
▁maccormick
▁confer
true
▁unworthy
▁waging
▁rough
▁contractors
communist
▁measurements
▁shooting
▁irreplaceable
▁downwards
▁projected
▁Álvarez
▁manders
▁illegitimate
▁tactic
▁silguy
▁reinfeldt
▁pasty
▁reversing
▁masses
olaf
▁inspected
▁circumstance
▁waive
remember
▁awaits
▁cares
▁consultants
▁ecology
▁grandchildren
▁awkward
fourth
▁whichever
▁affront
▁ruins
▁handicap
myanmar
▁veil
claude
▁deception
▁113
▁unusually
▁shadows
▁admissibility
▁discredit
▁signalled
▁classical
▁kidnapping
▁131
▁cents
▁plunged
single
▁giants
▁slower
▁posing
▁venezuelan
▁128
▁borg
▁harmed
▁strictest
▁imaginative
irrespective
▁gasòliba
▁raped
▁fragility
▁opponent
▁j
▁rationalise
ending
▁utopian
▁disseminated
▁pronk
▁incalculable
margallo
▁beneath
russian
▁band
▁proverb
▁surprisingly
anyway
▁storing
peter
▁paulsen
▁cornillet
debates
▁library
▁multimedia
▁nairobi
▁rigidity
▁toulouse
▁manageable
▁pkk
▁cook
▁litre
▁goepel
▁auctioning
▁tears
▁unbearable
▁kozloduy
belarus
▁stihler
▁acutely
▁receptive
▁incompetence
directive
▁polluters
▁wreck
▁arrives
▁dispense
▁estévez
▁tactical
▁invoking
considered
▁unworkable
▁star
▁nervous
▁characterises
▁herds
▁termination
▁upstream
▁béguin
▁beverages
▁obey
▁punishments
▁tap
▁recruiting
▁wretched
▁saddened
▁fiori
▁slogans
▁extremes
changing
▁1000
▁ltte
▁affirmed
▁silver
▁gates
▁blasphemy
brazil
▁monks
▁beekeepers
▁díaz
▁instruction
▁remoteness
▁lion
▁academics
▁harming
committee
▁axes
▁npt
▁wonders
▁upward
▁ingredient
▁compile
▁suitably
▁corners
▁circus
▁x
▁personalities
austria
▁relied
▁displays
▁stalinist
▁dose
order
▁pot
ranking
▁roof
▁keenly
▁impoverishment
▁economist
▁tanzania
examples
post
▁impaired
▁pocket
▁prosecuting
▁intellectuals
▁frightened
▁liabilities
▁stauner
▁privately
▁grasped
▁deva
▁picking
empt
▁seamen
▁prets
▁gahler
▁copper
▁comoros
▁standardization
▁colleges
▁retrograde
▁minimis
▁counties
▁mechanical
▁grief
▁directory
▁sustainably
▁burdened
▁traced
▁fostered
regions
▁crying
▁restructured
▁powder
▁nagorno
▁ripe
▁esa
▁1974
▁infamous
represented
▁beating
▁persevere
▁mounting
un
▁discretionary
school
▁founder
▁divergences
▁risking
▁responsive
▁guardians
▁pittella
▁wortmann
kool
▁google
▁tremendously
▁obliging
▁seldom
▁proclaim
▁eurosceptic
▁fun
▁pronouncements
▁mindset
▁rein
control
▁irony
▁virtuous
▁nerve
fifth
▁litigation
▁inner
▁juvenile
▁accommodating
▁jurisprudence
▁indictment
▁ucits
▁t
▁bones
▁administering
▁densely
▁wishful
▁helicopters
▁hybrid
▁encountering
▁watts
▁unborn
▁sahrawi
▁complacent
▁restart
▁privatised
▁fired
▁promotional
positive
▁drawbacks
foreign
▁maat
▁sadc
▁bottles
▁aegean
fly
▁alegre
▁leakage
patients
▁shalit
▁privatization
▁sorely
▁dawn
▁inadequacies
▁constraint
▁jurisdictions
▁länder
▁underdevelopment
▁classed
▁telephones
turn
▁rally
▁vanguard
▁elmar
▁residual
▁flames
▁chilean
▁translates
▁massively
▁soldier
▁defendants
▁gun
▁unfolding
▁parliamentarian
great
▁commenced
services
▁entrust
▁absurdity
▁compatriots
▁tending
price
▁fake
▁signalling
▁energetically
▁coincides
▁fibre
▁revolutions
▁innovate
▁magp
▁seveso
▁torres
▁battery
▁bullmann
▁unilateralism
▁netanyahu
°
▁vries
▁deleting
▁criminalise
▁trusted
discussions
fundamental
▁relieved
▁cologne
▁bull
▁legitimise
▁inward
value
coordination
▁bids
▁captain
▁bilaterally
▁190
▁guest
▁precaution
internal
▁grossly
▁1973
▁beans
▁reopened
studies
▁technologically
humanitarian
▁formidable
▁guess
▁restaurants
▁underfoot
▁salvador
▁occupies
▁andreasen
pillar
▁flowing
▁ethically
▁vii
▁redondo
▁turbulent
▁sponsorship
▁celebrations
▁disarm
▁eloquently
▁Århus
▁wim
▁somali
▁heroin
▁belarussian
▁fabra
▁donnelly
▁longstanding
▁thrive
▁unloading
rural
▁generously
▁hydrocarbons
▁irreparable
▁preclude
▁myller
▁inadequately
ended
▁modus
▁normalisation
▁crack
▁schörling
▁graça
▁youngest
▁roughshod
▁walking
▁husbandry
subsequently
▁entertainment
▁lyon
▁khartoum
▁villiers
▁cautiously
liberalisation
▁grams
▁tigers
▁straits
▁borrow
▁participates
▁contingent
▁adventure
might
▁container
▁institutionalised
▁trampled
▁mai
▁hits
notwithstanding
religious
▁lessen
▁prosecutions
▁updates
▁magazine
▁contraception
monetary
▁moraes
▁ahmadinejad
▁hampton
▁dalli
▁1957
art
putting
proof
▁austrians
▁casting
▁uncomfortable
▁laborious
▁discourse
▁visionary
▁sidelines
criticism
▁vocation
▁carrot
▁substitutes
▁participant
▁wiser
▁interruption
▁symptomatic
▁encompassing
▁raging
▁paperwork
▁tissue
starting
▁smith
issues
later
▁withholding
▁breathing
▁dangerously
▁allied
worse
▁federations
▁plundering
politicians
▁extrajudicial
▁kuhne
▁recess
▁nail
▁diagnosed
▁bi
▁groundwork
▁drives
▁attraction
nice
▁shipment
▁inject
▁deviate
▁blessing
▁convening
▁hampering
▁kouchner
▁fuelled
▁basle
▁jeopardises
▁heightened
▁ussr
▁infrastructural
▁fibres
▁greener
▁nationalists
▁condone
▁fingers
▁obstruction
▁lent
▁sits
▁kindermann
▁placement
karabakh
▁noteworthy
▁bury
▁stars
▁hill
▁empowerment
▁terminals
▁supremacy
▁piecyk
▁burned
▁perceptions
data
clock
▁interpol
▁coexist
▁icelandic
counterfeiting
▁memorial
▁marie
▁uncompetitive
recast
▁paediatric
▁nanotechnology
▁laperrouze
▁sepa
▁discontent
▁hereby
▁forgot
fashioned
▁minimising
▁outlying
▁bother
▁arduous
change
▁predominant
▁hemp
▁haider
▁altener
▁cultivate
▁spots
▁stir
▁hysteria
▁dies
▁successors
▁cork
▁ghilardotti
▁bright
▁holes
▁104
▁gats
▁mandela
▁brunt
▁petersberg
union
▁inshore
▁voggenhuber
▁bos
▁countrymen
▁colonialism
▁tb
▁commercially
▁sequence
▁owed
▁carte
▁sarnez
▁attaching
initially
stage
▁moscovici
judicial
▁luggage
▁proclamation
▁emi
▁joseph
▁santini
▁rendition
▁trautmann
▁politkovskaya
▁marker
▁lodge
▁draconian
▁courageously
▁comprehend
▁retire
▁strands
▁tribunals
▁dimitrakopoulos
▁)
▁spectre
▁cardiovascular
▁statistic
▁rife
▁jargon
strategic
nine
▁sewage
▁vibrant
▁passages
▁rubber
▁sakellariou
▁install
▁induce
▁dock
▁queen
▁occupations
poor
▁expulsions
▁teaches
neyra
▁disapproval
monitoring
▁iceberg
▁anomaly
▁recurrent
▁visibly
▁seals
training
▁tireless
▁deploying
▁faults
▁opaque
achieving
▁ecolabel
intentioned
▁watering
▁stifle
▁exhaustion
efficiency
▁afflicted
▁conscientious
▁incisive
▁123
▁guns
▁boast
▁cool
▁revisions
▁blaming
▁commencement
▁embodied
▁worlds
▁altar
▁bluntly
▁depletion
▁marset
▁parks
▁devaluation
▁hecke
▁pensioner
▁subjecting
▁sanctioned
▁writes
▁rhetorical
self
▁selfish
▁shortest
▁touching
▁quotation
make
▁presiding
▁discouraged
evidently
▁mario
▁burdensome
▁dover
▁smugglers
competitiveness
▁upholds
▁vallés
▁innumerable
▁bombers
▁göteborg
▁csr
▁arias
km
▁hökmark
▁reinstated
▁midlands
▁distinctions
▁hinders
house
▁prohibitions
▁managerial
▁patchwork
▁heartily
▁hulten
europol
▁insured
▁overturned
▁redeployment
▁futures
▁benches
▁spectacle
▁reconsidered
▁compiling
▁militias
providing
▁motorcycles
▁splitting
family
▁piecemeal
▁constituting
▁simplifies
▁curbing
▁trucks
▁brains
▁detergents
▁logo
▁substantiated
▁militarily
▁gahrton
▁processors
▁tachograph
▁friedrich
▁estate
▁reintroduction
▁protesters
▁outweigh
▁disregards
▁respectfully
▁furthering
▁debatable
▁ammunition
robles
▁antwerp
▁petroleum
▁tolerable
▁penny
▁alleviation
▁enshrine
▁normality
▁tirelessly
▁auto
▁nineteenth
▁obstructed
▁powerlessness
▁nonsensical
evaluation
▁foresees
▁staggering
▁internalisation
tsagaropoulou
▁copying
▁consciously
▁sweep
▁desperation
▁235
big
▁curtail
▁angela
▁sanitary
▁respiratory
▁knees
▁manifestations
▁assuring
real
product
▁slaughterhouses
▁busk
▁paedophile
▁manipulate
▁quarterly
▁grids
significant
▁turco
▁accreditation
▁overthrow
▁interlocutors
▁menrad
▁169
gdp
▁quietly
▁musharraf
▁plasma
▁erdogan
▁characterized
▁kuneva
▁kyprianou
frontex
▁shutting
▁federalists
▁tar
▁shell
▁flooded
▁reaffirming
▁illegality
controlled
▁auschwitz
▁lethal
▁evils
▁banner
▁applicability
end
▁inhabited
▁bargain
▁interact
▁wilderness
▁cancellations
▁expel
▁escaping
▁plug
▁echoed
▁performers
▁printing
anti
▁stenmarck
▁belt
▁iccat
▁ries
▁scandinavia
▁litres
▁carnero
▁disrupted
▁pets
▁windows
▁deregulated
▁nearer
▁iranians
▁electromagnetic
▁mubarak
▁sickness
▁gordon
▁bullying
▁neyts
▁etcetera
quaak
▁disbursed
▁pirates
▁withhold
▁tended
▁advising
▁exponential
syn
▁daring
plus
▁poisoning
▁raison
sensitive
nearly
▁pathetic
▁imperfect
▁bow
▁disservice
▁hopeless
▁empower
▁conglomerates
▁indefensible
▁magistrates
▁thankfully
▁diamonds
▁cradle
▁client
▁specification
▁hotels
▁herring
▁desama
▁intents
▁accidental
▁reliance
maintaining
▁defective
scott
▁cameras
▁catherine
▁unspent
problems
kyoto
▁sommer
▁boogerd
▁alvaro
▁klinz
▁ertms
▁orbán
▁ashraf
giving
▁humanist
▁sin
▁heaton
1998
▁spokesperson
▁flies
▁mandated
▁langenhagen
▁midday
▁renowned
▁radicals
▁compounded
▁commander
▁richness
▁esteem
▁strides
▁insurmountable
▁1930
▁featured
▁duplicate
▁brian
▁hang
▁observes
▁spreads
▁blindly
▁unify
▁cyclical
▁questioner
▁poison
▁staunch
▁harassed
compared
▁blottnitz
▁experimentation
▁145
▁mcmillan
▁slowed
▁fourtou
▁cape
▁horrible
▁stockmann
safe
▁buffer
draft
▁restaurant
▁winkler
hull
▁harmonizing
smoking
▁appropriateness
▁wayside
society
▁unleashed
harris
▁sister
▁dwindling
▁belonged
▁earnest
▁prepares
▁coherently
▁worship
▁refute
brussels
▁senseless
▁monster
▁scores
undoubtedly
adopting
▁speculate
▁stabilised
▁manifested
▁upgraded
▁execute
▁attwooll
wage
▁accomplices
▁sentencing
▁blueprint
▁conditioning
▁locate
traditional
▁uefa
▁thankful
▁monuments
▁corbey
▁pound
▁breaching
▁tracing
▁divisive
▁&
▁pole
▁airways
▁militia
▁brinkhorst
conventional
▁ecall
▁wulf
▁exposing
▁buddhist
▁recasting
▁reunited
▁consigned
▁burn
▁spontaneous
▁culprits
▁cofinanced
▁geo
▁deceived
▁unimaginable
similar
additional
▁stakeholder
▁equipping
▁replying
▁reviving
▁allowable
▁deepened
▁fence
▁hosting
▁laughing
▁inheritance
stability
▁fans
▁doses
▁guy
▁650
▁garrido
▁worthless
▁overlooks
▁unofficial
▁answerable
establishment
▁shark
soft
▁laval
▁harkin
▁bluetongue
▁apologize
▁discredited
▁299
▁affirming
▁irregularity
▁trail
qualified
▁arabs
▁scrupulously
▁seizure
modern
thinking
▁embraces
▁easiest
▁praiseworthy
▁wound
▁amateur
▁pyrenees
▁lump
▁incompatibility
▁deficiency
scientific
▁perpetuate
▁administrators
▁subjective
▁ritual
▁commonwealth
▁siege
▁audited
▁cartel
▁essentials
▁polling
▁overtime
▁reintroduced
▁shelf
▁ipcc
▁mackerel
▁programs
▁theories
▁architectural
▁modal
eib
▁moreira
▁féin
▁footprint
▁jpa
▁mari
▁hu
▁priori
▁dropping
▁monopolistic
orientated
examined
▁theoretically
▁blunt
▁misfortune
▁anchor
75
central
▁indulgence
numerous
▁criminalisation
▁needy
▁kaufmann
▁intransigence
▁translating
▁goats
▁levelling
▁disquiet
▁electronics
▁$
▁mirror
▁wastes
▁havana
▁bore
93
▁talents
▁invent
▁lung
▁paints
▁disappearances
▁song
▁scientist
▁doubly
▁photographs
▁olsson
▁wasteful
▁falsification
▁147
protecting
prepared
▁mesh
▁clandestine
▁vatican
▁afghans
▁anastassopoulos
▁jihad
▁depths
▁registry
▁119
▁thai
▁mauritanian
▁toubon
▁dijk
▁nuisance
▁disbursement
adoption
▁gigantic
▁conceive
▁hypothetical
▁radiological
▁streams
▁beware
must
▁berger
▁trademark
trading
▁prematurely
▁array
▁sapard
▁peculiarities
▁tread
▁audio
▁cord
▁archives
▁swedes
▁whisky
▁diversities
▁exorbitant
▁emancipation
▁fan
▁quantifiable
▁amends
▁deems
rich
▁slot
▁impossibility
▁hollow
▁fait
▁taiwanese
▁spouse
▁collado
emu
▁utilization
▁tear
▁sheets
hungary
▁knesset
▁venice
▁mostar
▁barometers
▁drc
amp
▁pinheiro
▁Ţicău
▁emphasizing
▁civilization
▁reorganization
▁henderson
mathies
▁merging
irish
▁restraints
▁paradoxically
▁wildlife
▁divert
▁rainfall
▁discriminates
▁stones
▁verifying
▁emanating
▁ethnicity
▁pray
▁sounding
▁reliant
▁hemicycle
▁reassess
▁feeble
▁lipietz
▁policemen
▁newcomers
▁policeman
▁forecasting
▁dismayed
▁deplores
▁prince
▁philosopher
politically
▁sharks
▁praises
▁complainant
▁pyramid
▁validation
▁toxicity
▁adviser
▁sanders
▁holte
▁aceh
sis
▁orlando
▁eufor
▁mathematical
standard
▁troubles
▁emit
▁adriatic
▁controller
▁landmark
▁plethora
▁scrutinised
▁böhm
▁catholics
▁preserves
▁buyers
▁scapegoat
▁contingency
▁segments
▁takeovers
▁downstream
▁lecture
▁woods
▁fiction
▁winding
▁codified
▁periodically
▁cholera
▁commemorating
▁thriving
▁davos
▁violently
▁methane
▁ambient
simplification
rooted
dates
▁regionally
▁bloch
▁endowed
▁impulse
▁spaniards
▁121
▁interoperable
▁290
▁embraced
▁trafficked
▁validated
▁mauro
▁heroes
▁horizons
▁easa
▁icty
▁saakashvili
▁Šefčovič
▁prestigious
▁lament
▁formulas
▁obstructing
▁judgements
▁crushed
▁citing
▁discharged
▁professionally
▁linear
▁dividend
▁rendering
racism
▁allay
▁ices
▁tac
▁switched
▁isolating
kosovo
▁parameter
▁renders
▁beset
round
▁scattered
▁harness
▁insertion
▁solemnly
▁fosters
▁horrified
▁surviving
help
▁regionalisation
▁skopje
▁relinquish
▁indians
▁relocated
▁sorting
▁rivalry
▁generals
▁maximising
▁herald
▁humankind
▁curricula
critical
▁schoolchildren
▁communiqué
▁rampant
▁dried
▁melting
▁decisiveness
▁mayer
▁fashionable
▁delhi
▁sinn
▁nutrient
▁slovakian
▁optical
▁gräßle
▁telecommunication
▁affords
▁disparate
▁inflict
▁looming
serious
▁remedying
▁timescales
▁lock
▁dividends
application
▁stimulation
▁licensed
▁relegated
▁schierhuber
▁schleicher
▁positioning
▁humble
▁publishers
▁button
▁korhola
▁matching
▁unimportant
▁sparked
▁intimidated
▁drilling
rules
▁metre
▁renegotiation
▁executing
▁1968
▁fills
▁dismay
▁deputies
▁dearly
closer
negotiable
▁chairperson
points
▁bands
▁firing
▁pollutant
announcement
▁nanotechnologies
▁jia
▁ccctb
▁giansily
▁tower
▁repairs
▁winds
▁nutshell
▁iberian
▁enriching
put
▁ceases
▁prejudge
▁begging
▁defect
▁infringes
▁cumulative
▁hastily
▁cis
▁voter
▁bible
▁demarcation
▁earnestly
▁promoters
▁endocrine
▁basins
▁114
▁converge
▁pronounce
▁farmed
▁dump
▁organisers
give
▁merge
▁standardise
effects
▁popularity
▁embedded
▁dioxins
▁1951
▁verde
▁fridays
▁anne
▁foresight
▁maría
▁overproduction
tunisia
▁discovering
▁insurers
▁christodoulou
▁shrinking
▁entrenched
▁agro
▁bolder
▁deliberation
▁narcotics
91
▁filters
▁asserting
request
▁vaccinations
▁mahmoud
▁fluorinated
▁khadraoui
▁herczog
▁díez
trained
▁hat
▁compilation
▁stubborn
▁briefing
▁premier
▁recurrence
▁coaches
▁masse
▁larrea
▁tricks
▁provan
▁beside
▁servant
approximately
▁mounted
▁passionately
▁;
▁reallocation
▁workshop
▁850
▁campaigners
▁presumed
▁armenians
▁junior
▁mauritius
▁des
▁spill
90
▁reckless
▁concealing
▁steam
▁staging
▁fernández
▁prevalence
▁fiasco
▁indent
▁orally
▁welsh
▁saga
individual
▁basics
▁stimulates
language
▁jiménez
▁consecutive
montenegro
▁à
▁inflationary
▁greet
co
▁privatisations
▁yushchenko
▁kivu
▁herbal
▁romeva
▁győri
▁143
▁electronically
▁contemplating
effectiveness
▁outraged
transparent
▁quecedo
schengen
▁prone
▁370
▁uncompromising
▁descriptions
▁anomalies
technology
▁displacement
▁repeats
▁aiding
▁interlocutor
external
▁elaborated
▁roundly
▁queiró
▁telephony
▁static
▁instigated
▁consignments
▁scheele
▁levying
▁devotes
▁receipts
▁classify
re
▁shirk
▁specialisation
▁flavourings
▁judicious
▁objected
▁equates
▁goat
▁liu
▁danes
japan
▁truths
▁136
▁triple
▁baggage
▁outward
▁firearms
▁ignalina
▁rabies
▁iuu
▁nordmann
▁papastamkos
▁batzeli
▁vanhanen
▁structurally
▁congratulates
▁elaboration
▁dissolved
▁sail
▁stuff
▁secrets
▁computerised
▁buck
▁ruiz
▁extermination
▁moratinos
▁interface
▁volcano
▁fuelling
▁trick
▁discarded
▁outsourcing
▁painted
▁aquatic
▁arranging
▁smuggled
▁attainment
▁schwaiger
resources
▁skilful
▁institutionally
▁shining
▁affection
▁deliveries
▁mathieu
▁payable
▁plate
▁casual
▁lends
century
▁lords
▁grotesque
▁diluted
▁hipc
▁documentary
▁warranted
▁filter
▁wool
conversely
▁111
▁utilities
▁diversifying
▁virgin
▁commemoration
▁konrad
▁qatar
▁fmd
▁sclerosis
blue
▁audy
▁falconer
▁vondra
▁pittsburgh
▁detecting
▁corpus
▁merchant
▁resultant
▁pernicious
▁momentous
▁degenerate
▁provincial
▁superiority
▁informs
▁ecus
▁persisting
▁indebtedness
▁travels
▁inviolable
▁philip
▁halved
▁imperialists
▁rival
▁graves
▁mystery
▁captured
▁yards
▁tokyo
thirty
mexico
▁stranded
▁relentless
▁negligent
▁med
▁edition
▁cartagena
▁spongiform
▁faithfully
▁trialogues
▁lloyd
▁sexuality
▁entrants
▁apple
▁moderates
▁sacrédeus
▁maystadt
slovakia
▁prejudicial
▁praesidium
▁nepad
▁industrialized
▁mavrommatis
▁nace
▁intrinsically
▁nogueira
▁havoc
▁fatigue
▁discontinued
▁transboundary
▁heights
▁yasser
▁terrifying
▁emigrate
representatives
▁eternal
▁springs
▁atrocious
▁focussing
▁seizing
profile
▁cancers
▁consultancy
▁subordinated
extending
▁predatory
▁facets
▁variation
▁unfinished
▁lake
▁abundant
▁embarrassment
▁unnoticed
▁yoke
▁beds
▁eleventh
▁humour
▁creditor
▁conserving
▁simplest
dependent
▁excellently
▁infants
▁revived
▁equate
▁informally
▁multidisciplinary
▁budgeted
▁fights
▁unhelpful
▁watchful
▁chip
rapporteurs
examination
▁carcinogens
▁attributes
▁testifies
▁bioethics
▁andré
▁needlessly
▁agreeable
▁biocides
▁hutchinson
▁balkenende
▁gál
▁lambsdorff
▁busuttil
▁topolánek
ancona
leaving
▁leaked
▁conveying
▁academy
▁frahm
▁barbarism
▁sceptics
▁warlords
▁structuring
▁competitor
▁autocratic
▁geological
▁bottle
▁tightly
▁defamation
▁untouched
▁sample
▁rescued
▁thermal
▁lunchtime
▁genetics
▁tunis
▁ravaged
▁230
▁reticence
▁embodies
flexibility
▁intermodality
▁dybkjær
▁invariably
moldova
▁cats
▁specificity
voluntary
▁shareholder
▁vilnius
▁gbagbo
▁specialized
▁thomsen
▁organizational
▁wathelet
▁messrs
▁accommodated
▁humility
sixthly
▁entrepreneur
▁industrialists
▁regression
▁fifg
▁heeded
▁rushing
▁diametrically
▁sponsored
▁reluctantly
▁contrasts
▁slap
▁bloom
▁recycle
▁unwelcome
▁sicily
▁cynically
▁extractive
▁fearful
▁lienemann
▁tribal
▁delude
▁unfamiliar
▁counsel
▁banknotes
prior
▁amply
▁eaten
▁echoing
▁earmark
▁painfully
▁principled
capacity
constitutional
▁hospitality
▁conspiracy
▁stalinism
roma
▁202
▁accompli
▁krehl
▁unhindered
▁shoot
▁ratifications
▁unreliable
▁coercive
child
▁espionage
16
▁lofty
▁niger
▁narrowly
▁spelled
▁fantasy
▁traces
▁presided
▁plantations
▁126
13
▁aligning
▁demography
▁hosted
▁australian
tobacco
▁poignant
▁collusion
▁subsidiaries
▁restructurings
▁trailers
▁grounded
▁euthanasia
▁oda
fits
▁casini
▁ceuta
▁zappalà
▁europass
▁mccartney
▁reul
▁hoppenstedt
▁vassiliou
▁desk
key
▁conceded
▁101
▁shellfish
natural
▁initiation
israeli
▁resuming
▁indefinite
▁attracts
behind
▁bernard
▁désir
▁bet
▁insults
▁eec
▁pounds
▁disappears
▁heroic
▁merged
▁hydrological
zero
▁childbirth
▁sands
▁terminate
▁mongolia
▁creatures
▁helpless
▁cushnahan
▁marfil
mutual
▁mysterious
▁knocking
▁undisputed
▁aggravating
▁sealed
▁distillation
▁chris
▁ibrahim
nowhere
▁bells
quarters
knowing
▁aggravate
pakistan
▁fanatical
▁liking
▁reinvigorate
▁illusory
▁cater
▁bradbourn
▁contracted
rd
▁fraught
▁steered
formal
▁legalisation
media
burma
▁unmarried
▁outcry
▁ariel
▁ruminants
▁morris
fired
independent
▁uzbek
▁khodorkovsky
▁flaw
▁hull
22
▁extradited
▁europa
▁embracing
▁developmental
▁imperatives
▁rationally
▁assign
▁misplaced
▁plague
▁framing
▁squandered
▁hint
page
▁publicise
subsidiarity
▁additive
▁102
▁mile
▁pitfalls
▁domains
▁extradite
low
▁jails
▁perpetrator
▁unskilled
▁senator
statement
▁categorical
▁shattered
▁daniel
▁deportations
▁containment
▁juveniles
harmonisation
▁distinguishes
▁colegislator
▁tooth
▁pill
▁renegotiate
▁bosses
▁overrun
▁miserable
▁skilfully
▁assesses
▁barred
▁expedient
▁volunteer
▁senegalese
▁concert
▁triggering
▁mentally
▁compliant
soviet
▁youngsters
▁ebner
▁surroundings
▁championship
▁fraudsters
▁diagnostic
▁leg
▁debtor
▁cybercrime
▁zagreb
▁orphan
▁executives
▁reprisals
impact
▁dissuasive
▁stalled
▁timeshare
▁lisi
▁fatah
▁karzai
▁matsakis
▁nicolaï
▁sesar
mobilisation
projects
▁envy
▁stripped
▁crosses
▁transcend
▁literary
▁foregone
▁multiply
▁hair
▁multiplied
▁assassinations
▁santa
▁sixteen
▁writers
▁dares
▁slovene
▁homogenous
▁fuss
▁conceals
▁ascertained
▁affiliation
▁allegation
▁secretaries
recital
▁artist
▁confers
▁inspires
▁deprives
▁angolan
▁liberated
▁fingerprinting
▁persistently
▁jové
▁confrontations
regulatory
▁mombaur
▁taboos
communication
▁trauma
▁skinner
▁invoices
administrative
▁pex
▁crunch
▁appropriated
▁viewers
▁info
yearly
▁monuc
organic
experts
▁sunset
▁podestà
▁srpska
usa
▁fishers
▁liquids
forwarding
▁bowles
▁vatanen
little
▁infancy
▁helm
▁suanzes
carpegna
▁derisory
▁nearby
▁inspectorate
▁nazis
▁pitiful
▁emitted
▁sounded
▁counterbalance
▁overlooking
▁crushing
▁discard
▁sam
proposals
▁manchester
▁instigate
▁repaid
▁beacon
visual
modified
farming
▁shortened
▁praising
▁taxing
▁meted
▁confinement
▁aspiring
▁auctions
▁unparalleled
▁foodstuff
normally
▁myths
▁invaded
▁anarchy
▁backlog
▁emigrants
▁warring
▁bleak
▁collapsing
▁finns
▁bell
▁fiercely
▁pipe
black
▁repay
▁penalises
supporting
▁unblock
▁manoeuvres
▁instigation
▁grim
▁samland
▁amid
▁151
▁undoubted
petitions
doping
faceted
▁bag
▁constrained
▁clusters
▁powell
▁dilute
▁melilla
▁damascus
▁specificities
▁roche
bowman
▁liberalized
▁harrison
▁complementing
▁meticulous
▁aided
▁1977
▁ills
▁gloomy
▁approximate
▁pomés
▁assaults
▁symbolises
▁viruses
▁proviso
producers
spot
▁monstrous
▁forbid
▁intake
▁tomatoes
conditions
holders
▁127
▁colony
direct
▁furthest
▁unchecked
attempts
▁bits
▁ramifications
▁monetarist
▁alerted
▁acidification
asylum
▁legalise
▁invalid
▁incite
success
▁projections
▁expenditures
▁formations
▁fanatics
▁stores
participation
▁reformists
▁complainants
▁inception
▁overseeing
▁cot
hungarian
▁statehood
▁novo
▁strains
▁endangers
▁homage
▁candidature
▁soils
▁fjellner
▁grech
▁eulex
▁fabre
▁endlessly
▁colossal
▁cubic
▁upheavals
▁pardon
▁relaxing
doing
▁settlers
▁electing
▁resurgence
motion
▁shorten
▁107
▁burst
▁pour
▁pioneer
▁washing
▁partition
85
▁echr
appropriate
▁desirability
▁culminated
▁idle
▁slowness
▁thwart
▁oxides
▁refined
▁sisters
70
▁divorced
▁flemming
▁135
▁demise
▁wives
▁invests
▁humiliated
▁patentable
▁pornographic
▁attendant
mindedness
centred
▁provoking
▁fertility
▁collaborating
▁hemisphere
▁unlawfully
▁gang
slovenia
sanctions
▁frankness
television
▁leather
▁migrate
▁nepalese
▁escalate
▁vineyards
▁eruption
▁mixtures
▁hermange
missile
▁electorates
entry
▁trilogue
▁schlyter
▁mera
iceland
▁biocidal
aubrespy
▁revitalising
▁detailing
▁1982
▁shelves
▁envoys
▁historians
▁berthu
▁contemplated
▁sabotage
▁prescriptive
▁awards
▁abattoirs
▁descendants
▁weighty
▁vastly
transfers
▁pretence
▁nearest
▁denktash
▁1978
▁deregulate
▁impress
▁subtle
▁imperial
ordination
few
▁subcontracting
▁diamond
▁vladimir
▁rogue
▁councillor
▁landings
▁eventuality
▁bombed
▁shrink
▁arouse
▁paedophiles
▁meddling
▁mouths
▁followers
▁uncontrollable
▁homogeneous
▁mafias
denmark
▁intentionally
power
▁breeds
▁intergenerational
▁pierre
▁fuller
▁excitement
▁offspring
▁churchill
▁straightaway
▁radioactivity
▁220
▁fertilisers
▁convincingly
▁egyptians
▁nominations
clean
▁exposes
▁warns
▁fishmeal
▁sender
▁soaring
▁durão
▁záborská
▁capoulas
▁jeopardize
▁bontempi
▁squeezed
▁riis
codified
▁communal
▁whistle
▁medieval
▁inputs
▁detentions
▁retardants
french
▁unmik
▁peat
▁coca
▁roo
▁sludge
▁deviation
▁luis
▁seeker
britain
▁optimising
▁afflicting
▁riding
▁sleeping
▁witch
▁bankruptcies
▁papoutsis
▁overwhelmed
▁muster
▁inflexibility
▁expedite
▁alan
▁nurture
▁mont
▁appreciable
▁incoherent
▁riches
▁penetrate
▁searches
▁swallow
46
▁whales
▁elephants
ecb
▁extraterritorial
▁criminalising
▁rent
▁defiance
▁mapping
▁168
mile
▁professors
▁accumulate
▁needle
proper
▁jams
▁belfast
▁revitalisation
▁multiplying
sexual
▁eurocrats
▁privatise
▁emotive
▁irresponsibly
▁volkswagen
▁subcontractors
▁sportsmen
▁kinshasa
▁uprisings
▁kenyan
▁camisón
▁surge
▁automated
▁2018
lithuania
▁bulgarians
▁ΝΑΤΟ
▁battisti
▁dci
▁europeana
▁telkämper
▁decentralization
▁hypothesis
users
▁inhabitant
▁onus
▁disciplined
▁qualifying
▁articulated
provided
▁standardising
▁coastlines
▁erode
▁quantify
▁representativeness
▁leaks
▁annoyed
▁impotence
▁naked
▁trio
▁demagogy
▁rings
▁bogus
▁persuasive
▁unprofitable
▁intensely
▁uneasy
▁stifling
▁entrance
▁bilbao
▁singled
▁evacuation
official
▁ado
colonial
▁revolt
▁bubble
▁covert
▁mbeki
▁restrained
▁levers
customs
▁aspires
▁unexpectedly
▁thatcher
▁advertise
▁exempting
▁strives
▁wins
▁wrongs
▁pandora
▁pork
▁reconstruct
▁hijacked
region
▁walter
▁mcmahon
▁lawfully
▁enshrines
▁163
▁halving
muslim
▁privatising
▁kidnappings
▁overbooking
▁helmut
▁laschet
▁stabilisers
▁tempting
▁feat
▁eloquent
▁similarities
migration
jobs
linked
north
▁cyclists
▁decoupled
▁exclusions
neutral
temporary
▁charitable
egypt
entities
▁issuers
▁hahn
pnr
▁funk
▁papadimoulis
▁caspary
▁ayala
▁gdańsk
▁ifrs
▁stabilization
▁andor
▁utilising
▁championed
▁acquisitions
▁publicised
▁hurdle
proposal
▁indulging
▁preoccupation
▁uprooted
▁multiplicity
refoulement
▁portrayed
▁burying
▁extensions
▁revoke
▁resemble
80
▁flower
▁hallmark
▁stroke
▁khmer
▁rouge
attention
▁appetite
▁assimilation
▁motorists
▁minus
▁106
▁drawback
▁prostitutes
▁forgiven
▁denominations
▁disturb
23
▁circular
▁preside
nd
recognition
▁formulations
▁authenticity
▁disrupting
▁mapped
▁instituting
▁appearances
▁dogmas
▁senses
▁ferrer
▁andorra
▁heterogeneous
▁parkinson
▁illiterate
▁boundary
▁protectorate
▁defuse
▁retaliation
▁smile
▁disrespect
▁casts
▁transports
▁aerospace
▁trademarks
▁heels
▁prolonging
▁bureaucracies
▁polite
▁lawlessness
▁hammer
meps
drugs
▁seated
lifelong
▁nitrate
être
▁upsurge
catches
▁cages
▁artisanal
▁rainsy
▁pandemics
implemented
▁tec
▁mdgs
▁járóka
▁gnss
▁gilad
▁xiaobo
▁realization
▁secchi
▁fruteau
▁retabled
forty
▁viewing
laundering
▁perceptible
▁stricken
▁antonio
semitic
▁residency
▁tons
▁blown
▁avoidable
▁disrepute
▁multiplier
▁landscapes
▁lags
integrated
bound
▁prominently
17
▁payers
cyprus
▁alyssandrakis
▁utopia
paradoxically
▁demonstrably
▁analogy
▁prescriptions
▁laugh
▁240
▁navy
science
▁cheating
finance
▁francs
▁ranges
red
▁plagued
▁rod
▁chechens
▁greening
▁collaborative
▁colonisation
▁heavier
▁revoked
▁empowering
▁portray
▁festival
▁microphone
▁legs
dec
▁146
▁instruct
▁motivating
▁juice
▁forwarding
▁vacancies
▁gelatine
48
▁guinean
▁wheeled
▁asthma
▁independents
▁sponsors
▁nursery
▁explosives
▁lage
▁ranking
▁doorn
▁mortgages
▁complicit
▁zeal
▁southeast
▁farc
creation
intelligent
▁posei
▁pilotage
▁irradiation
…
▁rueda
▁milinkevich
▁cfr
▁dini
▁iso
▁superb
▁spiralling
▁resorted
running
▁lenient
▁plunge
▁spells
▁regretting
▁shortening
▁cries
▁readable
▁complexities
▁legalised
▁biscay
▁frustrations
▁opportunism
offs
▁tranche
▁tentative
▁assembled
▁visual
▁episodes
▁demagogic
governance
▁unsolved
▁tse
▁situ
▁census
▁irrigation
▁cane
headed
▁footsteps
▁pragmatically
▁na
▁boldly
▁omit
29
▁voicing
▁impeded
▁powered
maritime
▁driftnets
▁boosted
▁martín
taxation
▁incinerators
owing
▁additionally
▁wireless
▁guerrilla
▁disagrees
▁horrifying
▁dance
▁objectionable
▁deducted
▁issuance
▁withheld
▁euroscepticism
▁162
▁reorientation
▁orphans
milk
▁injection
▁undervalued
▁hire
▁resentment
▁bishop
▁secretarial
▁debtors
▁technicians
▁anguish
▁abhorrent
▁landowners
▁fervent
▁initialled
▁microsoft
▁accountancy
▁mare
▁unreserved
▁defences
▁opec
statistics
▁poisoned
▁fidel
uyttebroeck
▁egnos
erasmus
chair
▁transeuropean
▁belarusians
▁belet
▁kellett
▁rosé
▁hallam
▁adjacent
▁disagreed
▁yellow
▁communitisation
jørgensen
▁thoughtful
▁owns
changes
▁bulbs
▁crown
▁dunn
▁andrews
▁wheels
▁cable
events
man
fifty
▁sinister
▁furniture
▁dispersed
▁indisputably
tier
▁gamble
▁scare
drug
▁ineffectual
▁impractical
fine
▁namibia
▁blowing
▁pouring
▁trojan
▁titles
▁intrusion
▁militant
▁neil
men
▁sins
▁blows
▁culling
▁herd
▁dolphins
▁downgrading
▁lips
▁hunters
▁carlotti
▁scourges
▁begs
returning
▁bite
▁belated
▁interviews
▁lobbied
▁apt
▁majesty
▁alteration
▁inmates
▁california
▁program
▁144
▁multifaceted
▁murdering
▁necessities
▁stigma
▁remunerated
▁stringency
▁queue
cfsp
▁panayotopoulos
▁lambrinidis
▁Őry
▁berenguer
▁stretched
▁hasten
▁exacerbates
▁unimpeded
▁histories
▁avenue
▁angles
▁morals
ppe
▁2025
range
▁grade
▁uncovered
▁terrón
▁newton
meaning
▁conceptual
▁embarrassed
▁subscribed
▁scales
▁echoes
▁bernd
▁réunion
sectoral
▁upside
▁forthright
▁inaccessible
limited
▁kosovars
▁litmus
▁protestant
▁kla
▁chorus
▁inconvenient
▁disclosed
▁implicated
▁distinctly
seated
▁upturn
▁samples
▁seabed
▁claude
▁guides
reports
improvements
▁suppressing
▁incompetent
▁consortium
▁eastwards
▁signifies
item
▁ainardi
▁identifiable
▁sweeteners
▁addis
▁colonel
▁pros
▁cons
▁gateway
▁au
▁distract
▁bothered
▁talented
lack
▁routinely
▁unintended
▁coptic
▁sympathies
▁301
▁relentlessly
▁breastfeeding
▁columbia
▁irradiated
▁georgians
area
38
texts
▁corrigendum
pe
▁seeber
▁clarke
eeas
▁preaching
▁grace
▁upsetting
▁floating
▁rolled
▁mourning
▁reforestation
▁dams
urgent
▁instil
ed
▁numbering
▁heal
▁forthwith
▁regularisation
▁abductions
▁averted
▁ensue
▁swing
▁pinochet
▁transferable
▁meijer
▁rewrite
▁apathy
▁archbishop
▁idly
▁diversion
budgetary
▁asymmetric
▁stipulations
▁contradicted
▁rivals
▁cared
▁tenor
▁hegemony
▁neighbourliness
▁methodological
▁intolerant
enough
▁191
sixty
▁helmer
▁exceedingly
▁abiding
▁ecuador
▁differentials
▁cofinance
▁miracles
▁impediment
▁submits
▁particulate
▁118
passengers
▁rodríguez
▁variant
▁inexplicable
credits
▁northwest
▁threw
▁mediocre
▁betrayed
▁disinformation
▁homophobic
▁resilience
▁remnants
wherever
▁mobutu
▁gcc
esf
▁directories
▁brands
imf
▁ccs
▁transpired
▁transcends
▁wastage
▁slick
▁shipwreck
▁avilés
▁stretches
▁traumatic
▁authorises
▁proponents
▁ideologically
▁founders
▁nominate
▁saves
▁null
▁inescapable
read
▁accent
partnership
▁hinges
▁interventionist
▁lucid
▁intangible
▁caricature
▁archaic
soon
▁wuori
▁implying
▁czechoslovakia
legislators
▁trustworthy
▁communitarisation
▁fisherman
▁lengths
▁necessitates
label
▁nox
▁oxide
▁solvents
▁linkage
▁unarmed
whoever
mixed
▁abject
▁brie
▁accessed
▁guerrillas
▁depressed
▁birdal
▁blindness
▁circumvented
door
▁basket
▁harvesting
▁kurdistan
▁fare
▁transgenic
▁stipulation
payment
▁rum
▁priest
▁mouse
▁cannabis
▁stoa
▁117
▁antarctic
▁conforms
▁olives
frontier
▁poured
▁centralized
cortines
▁cushion
ilo
▁iia
▁exploitative
▁mohammed
left
▁unaccompanied
▁unsolicited
2014
▁blix
▁terni
▁figeľ
▁eisma
▁cassidy
▁separates
seeking
sponsored
▁mild
▁repairing
▁intentional
▁performances
▁ostensibly
▁expediency
▁painstaking
▁1948
▁operandi
▁ugly
▁franz
▁doris
▁deutsche
▁attainable
▁forgets
220
▁delta
▁beazley
▁watchword
▁spurious
▁trusts
statements
▁secession
▁selectively
▁liberate
▁listens
▁milestones
▁evenly
resolution
▁clouds
▁drowned
sightedness
▁irritation
▁heinous
▁funeral
taken
▁magazines
▁plunder
▁teheran
▁succumb
▁proclaiming
▁selfishness
▁ringing
▁ljubljana
▁paraguay
▁handbook
▁surgery
▁performs
▁stockpiling
▁w
▁sluggish
▁folly
▁radar
▁mosques
▁dissolution
▁faiths
early
▁libicki
▁holm
▁maldives
▁chatzimarkakis
▁szájer
▁nanomaterials
▁schaldemose
▁severin
▁upe
▁generalized
▁166
▁tying
▁scrupulous
▁harbours
▁sunk
rapid
▁mooted
▁relaunched
syria
▁nearing
▁classifying
▁anticipates
▁boetticher
▁planted
▁stirred
▁underlie
▁bitterly
▁terminated
breaking
▁backwardness
▁preoccupied
skilled
▁accredited
▁kuwait
▁sampling
▁rebuilt
▁hindsight
▁nose
▁gaulle
▁waiving
belgium
thankfully
▁barbarous
knowledge
▁rear
▁spark
▁viola
▁instant
▁passivity
▁happier
▁correspondingly
▁accountants
probably
edge
▁schedules
▁patrols
ii
▁methodologies
▁296
▁rugova
▁laurels
consider
▁tasked
▁museums
close
▁kgb
▁valencian
▁ecopoints
reach
dear
motions
▁schmit
▁mdg
▁sócrates
▁kittelmann
▁assassinated
▁enacting
▁enlighten
▁offsetting
▁trillion
▁reticent
▁drowning
60
▁multifunctionality
liberalism
▁cooperates
consideration
▁headlong
▁leaf
▁modelled
▁mistakenly
▁pit
▁strata
▁sen
▁redistribute
▁havel
▁vocabulary
▁weaponry
▁associates
macedonia
▁expands
▁mp
▁mediate
▁insulted
▁fax
▁harvests
▁enjoyment
▁hooligans
▁conveys
▁offended
▁antisocial
▁vile
▁edifice
▁hardware
▁packed
▁sore
▁apprentices
▁spin
▁lighter
▁lately
▁meals
▁repudiate
turkish
▁alterations
▁kilo
▁refine
▁advocacy
▁124
▁hooliganism
elections
politics
▁pioneers
▁stretching
smokers
▁promoter
welcome
▁grievances
21
▁benzene
▁fox
▁dissident
▁offend
▁amicable
▁karadzic
▁justifications
▁bullet
▁ecumenical
▁cedefop
▁protestors
signature
▁royo
▁canning
▁cameron
▁1325
▁kelly
▁allister
▁higgins
▁georgieva
▁instructive
▁curbed
▁champagne
▁notifications
▁harshly
best
▁stationed
▁assignment
▁trainees
▁garden
▁salient
▁imprecise
▁sharm
▁compares
▁paraphrase
treated
▁relieving
▁demolition
▁catalytic
▁unprepared
▁fertiliser
▁modesty
pre
▁interpreter
▁exponentially
▁familiarise
crime
▁nicole
▁unjustly
▁recognisable
▁tagging
▁hangs
▁valle
▁unproductive
▁fringes
▁redefined
side
▁bouwman
▁truck
▁snow
▁summon
improved
▁mali
▁particulates
▁asymmetry
mention
▁donated
▁noisy
▁advertised
▁repaired
▁1981
▁inviolability
▁outlaw
▁irritating
▁mediators
▁intelligible
investing
processing
▁timeliness
▁repressed
▁spectators
▁simplifications
▁paradise
▁twinning
▁rejoicing
▁interferes
▁pompidou
▁uttered
▁tertiary
▁resting
▁peacekeepers
▁kim
▁lindh
▁stupidity
▁capitalise
elect
▁153
▁refining
▁siberia
galileo
cfp
▁marginalization
▁hotline
▁phosphates
▁civilized
▁barack
▁metten
▁brittany
▁specifics
▁drove
▁environmentalists
▁thick
advised
▁nights
▁effected
▁enlightenment
▁collision
▁underlies
▁undp
▁brush
▁deed
▁ignorant
▁symbolically
▁slide
▁strings
▁republican
▁infinitely
▁underscore
▁prohibitive
▁reassessment
▁astounding
▁pretexts
▁cubans
▁squeeze
imposed
04
▁entertain
▁intimate
▁fraisse
▁abyss
▁perea
▁laissez
▁spawning
stricken
▁prescribes
electronic
▁1983
▁supra
▁halve
▁crackdown
▁prompts
embracing
▁markings
▁displeasure
▁kedo
▁flanking
▁whaling
▁hydroelectric
▁uptake
produced
laughter
▁lifts
▁ababa
▁shipped
▁culminate
▁quickest
▁sandbæk
▁kerosene
introducing
▁donate
▁pelagic
believe
▁pristina
▁scrutinising
annex
▁piétrasanta
▁erected
▁tidal
▁unforeseeable
trust
▁radicalism
▁yalta
driving
▁disruptions
▁malcolm
educated
▁neurodegenerative
▁asensio
▁famagusta
advertising
▁slovaks
week
▁enron
▁biometrics
▁iasb
▁subsidized
▁cioloş
▁xynthia
▁summarize
▁completes
▁petersen
▁disturbance
▁martinez
▁anonymity
▁sem
▁1244
focused
▁exacting
▁ariane
▁comparatively
▁teenagers
▁pr
listening
▁unfettered
echo
▁fined
▁surround
▁programmed
▁timorese
▁pertain
▁abominable
▁ransom
▁swimming
thought
▁obscene
▁victories
exploitation
lived
▁crowd
▁disdain
▁paralyse
▁conversely
▁euphoria
▁blanc
▁priests
▁dispensed
▁testament
▁transmissible
▁gsm
▁ticking
▁deplored
▁towers
▁waived
▁frames
▁eeurope
▁rectifying
▁shortfalls
▁fattening
▁reared
▁moldavia
▁plausible
▁militants
▁exploits
▁inciting
▁boils
▁wings
switzerland
▁subordination
▁reportedly
▁puzzle
assistance
▁sans
19
▁altiero
▁greetings
budget
▁ugandan
▁mantovani
▁patiently
▁pedestrian
powered
▁paramilitaries
▁treasures
▁persson
▁suchlike
fortress
polish
▁proactively
▁bratislava
▁václav
cons
▁bene
▁shale
▁lawal
albania
▁adventitious
▁wojciechowski
▁advisors
sounding
▁loaded
▁approvals
▁huhne
▁wiebenga
▁redistributing
▁symptom
▁inclination
▁eroding
▁minimalist
▁onesta
▁individuality
▁glory
▁override
▁unwavering
▁outmoded
▁manure
▁discharging
▁grab
▁inserting
▁resembles
▁reigns
▁persecute
▁ushers
▁passively
▁researching
▁condemnations
▁transpires
▁diligent
▁progresses
▁cyclone
▁prejudiced
▁incidental
▁spills
▁industrialisation
▁crusade
▁unaccountable
▁tale
▁cream
▁bodes
▁sticks
▁departing
▁cultivating
export
▁tacit
▁murderer
▁secretly
▁pdb
▁revelations
▁greenpeace
▁genome
▁deceiving
▁politely
▁reintroducing
▁breed
▁militaristic
▁reporters
▁380
▁progression
▁stubbornly
▁stirring
▁carcasses
▁column
evidence
▁fervently
▁liquidation
▁solves
▁authoritarianism
▁creeping
▁outlet
▁stabilize
▁musotto
▁unprotected
guarantee
▁transporters
▁devalue
▁hannan
▁blockades
▁eliminates
enforcement
▁purposeful
▁rwandan
l
▁tbilisi
▁ramallah
▁astonishment
▁strangely
▁populous
▁unelected
▁preventable
▁bildt
▁omar
shall
▁psychiatric
▁darkness
▁valéry
▁republika
taiwan
▁islamists
▁croats
▁pollination
▁payá
▁larosière
submission
▁lenz
▁bhutto
▁lichtenberger
▁teverson
▁inactivity
▁principality
▁berend
▁ultraliberal
▁thoroughness
▁hamburg
▁sank
▁holiness
▁cart
▁chart
▁acceptability
▁looting
▁menace
▁belgians
▁distanced
▁marinho
▁monument
▁smacks
▁enlightening
▁interrelated
▁bypassing
▁unwieldy
▁outer
p
domestic
▁papandreou
▁algarve
▁culminating
▁oau
▁louder
▁spoil
▁restitution
▁revolves
saxon
▁ridicule
▁trentin
▁nasty
▁distancing
▁heralded
▁bench
▁stranglehold
▁philippe
alcohol
▁flavour
▁alarmingly
▁qualitatively
▁victor
▁swiebel
set
vaunted
▁friction
▁plot
▁knee
▁alcoholism
▁hotlines
▁unison
▁malpractice
▁faulty
▁fighter
▁policymakers
▁internationalisation
▁guadeloupe
▁scots
▁throws
▁variance
▁conquer
▁brick
▁boring
▁thwarted
▁sanctioning
▁prudently
minimum
▁arresting
▁liver
▁greeted
▁beirut
▁parallels
▁strenuous
▁discord
▁macau
▁commending
▁pushes
▁allergenic
▁dreamt
▁accountant
▁tiananmen
▁canned
▁haccp
cassiotou
▁dess
▁guellec
▁gurmai
▁hory
▁wibe
▁insensitive
▁impatient
▁entailing
▁et
▁notices
▁seventeen
▁palace
▁uncoordinated
▁fluid
▁sons
▁kosovar
▁variables
▁rotten
▁insistent
▁palliative
▁disadvantageous
▁laughable
▁climb
▁threefold
▁misinformation
▁terrain
▁bud
tens
▁junker
▁reorganise
▁paolo
▁pietro
▁tapping
▁explode
▁closes
▁odious
▁evacuated
regulated
▁selectivity
▁yielding
▁pin
▁numerical
▁presentations
▁inherently
▁camera
▁1972
▁harvested
noise
immediately
resistant
▁shouting
▁martinique
zimbabwe
▁blanche
▁staged
▁dress
▁commitology
bringing
▁locomotives
▁jury
▁taylor
▁brotherhood
▁pump
▁pannella
▁insularity
▁solomon
▁researched
▁lasts
▁formalised
▁allergic
▁pcbs
▁annoying
substantial
▁loser
▁koreans
▁mutagenic
▁narrowing
▁rescuing
▁vines
▁enzymes
▁figel
▁mcintosh
▁barents
▁alternatively
▁modules
▁layers
▁smell
▁148
framework
▁urbanisation
▁spontaneously
▁marpol
▁dgs
▁promotions
▁corollary
▁handover
▁amazement
▁ethnically
▁scheduling
court
▁kfor
▁span
previous
▁redefining
group
▁helplessness
essential
▁devolved
▁wet
▁businessman
▁westminster
▁sahel
▁creator
▁advertisement
hitherto
criminal
▁antiquated
▁codify
▁predicated
journalists
oh
▁reassert
▁embody
▁chasm
▁slump
▁dues
▁wash
▁marry
▁watertight
▁groundless
▁affirms
pressure
▁ineffectiveness
▁belatedly
▁clercq
▁appreciative
▁quotes
▁exaggerate
▁imperfections
developments
▁asserts
▁eritrean
▁frustrate
▁yard
▁decommissioned
▁curtailing
rail
▁trader
▁peril
▁urgencies
failing
▁accrue
▁complains
▁digitisation
▁souls
▁reinsurance
▁fruitless
▁mirrors
▁cowardice
▁hampers
▁accumulators
▁solitary
▁tel
▁rhythm
▁certify
▁nursing
▁wiping
▁binds
▁robbery
▁voyage
▁adaptable
mad
vaccination
▁zoos
▁annulled
constitution
afghanistan
▁glimmer
▁rebalancing
▁neoliberalism
▁amina
▁lula
▁enisa
▁becsey
▁poznań
▁marinescu
▁orban
▁atalanta
▁waddington
▁ghost
▁upshot
▁improperly
▁phytosanitary
▁gravely
▁honours
▁willy
▁tag
▁aptly
▁aforesaid
▁nut
43
urban
▁downgraded
▁overlaps
▁dreamed
▁feedstuffs
▁bundestag
▁codifying
▁developers
▁diverting
▁rationality
intervention
▁biblical
▁accompanies
▁detain
▁decreed
▁dynamically
▁lighting
enhancing
▁impatience
▁misinterpretation
▁harnessing
white
▁beggars
▁141
threatening
previously
emissions
twelve
▁181
▁cannes
▁curse
▁lamb
▁sway
gm
▁dietary
▁deceit
▁prizes
▁bred
liberals
▁slipped
▁anachronistic
▁ruining
▁gratified
welcomes
▁patrie
▁reallocated
dollar
▁grades
▁185
▁189
▁unleash
▁confidently
▁petitioner
▁brokers
▁seoul
▁opportunistic
monthly
▁reintegrate
▁zapata
▁remedial
▁bicycle
▁apples
▁circumventing
▁nurtured
▁comenius
▁enclave
▁scapegoats
unifying
▁sofia
▁treasure
▁hugo
▁kyrgyz
▁hoff
▁pca
▁hariri
▁ors
▁erdoğan
▁guardans
▁tripoli
▁krahmer
▁barsi
pataky
▁prüm
▁lehtomäki
▁surján
▁modernize
acta
▁Šemeta
▁leterme
▁pertains
▁interventionism
▁slice
▁disputing
▁tack
hulled
▁washed
▁bullets
▁laan
▁squarely
▁255
▁anchovy
▁shouldering
tuning
▁wavelength
▁symbolism
▁raphael
▁retrospective
▁demagoguery
▁foul
▁inauguration
▁signify
▁crippling
▁comfortably
▁sweet
▁chat
▁installing
▁commentators
▁photograph
▁similarity
▁believers
▁shaming
▁aggregate
▁criminalised
▁diligently
▁geremek
▁unsure
▁1958
reforms
▁dreaming
▁minimised
▁cardinal
fellow
▁induced
▁unspeakable
gas
regulating
▁unjustifiably
▁spraying
▁clinics
▁landfills
▁analysts
▁condoms
agreements
▁renunciation
▁lello
▁corn
land
▁traveller
▁lottery
▁outsiders
come
▁intrusive
▁eriksson
▁devalued
▁resolves
▁auxiliary
▁afield
▁surrendered
▁monde
▁assists
encouraging
▁slaughtering
▁pregnancies
▁infinite
▁contractor
▁1940
▁strait
▁newer
▁132
▁vilvoorde
morocco
▁aviv
fight
across
contractual
▁sinks
▁gdansk
▁sing
▁bent
americanism
balance
▁technicalities
▁ayuso
▁polar
▁weee
erdf
▁refinancing
▁kerr
▁esma
▁sindal
▁acquitted
▁businesspeople
funds
▁straitjacket
▁abnormal
▁sterile
▁du
▁inundated
▁bath
▁flout
▁prediction
▁regaining
▁hebron
▁uninterrupted
▁conciliatory
▁compatriot
▁comprehension
fascist
▁humanism
▁politicisation
▁patriotism
▁ancillary
▁overload
▁mira
structured
▁poisonous
▁refrained
▁killers
▁ladder
▁fond
▁menu
▁reinvent
▁mask
▁scrapie
▁deviations
environment
account
▁excited
▁countryman
▁ghana
▁burgeoning
▁clamp
▁europeanisation
strict
▁derivative
▁specialities
▁jumping
▁shamefully
▁overloaded
▁nicely
▁bravely
1996
▁booming
matters
78
▁clegg
▁contributory
emission
▁strife
▁offending
adequate
euratom
▁encryption
▁nucleus
▁resides
▁sowing
▁reactive
▁forensic
▁stifled
▁envisaging
▁khanbhai
▁spokesmen
▁reformers
▁farmland
▁154
▁congested
▁pleading
▁134
▁transferability
▁ardent
▁heartening
▁renaissance
▁entrusting
▁nelson
▁hulthén
▁slope
▁sincerest
dimensional
▁tunisians
▁sword
▁cherish
▁breakfast
▁alain
▁deceptive
▁capping
▁matrimonial
▁vans
▁shots
▁impeding
▁finest
▁uighurs
▁cures
▁320
▁fallout
demand
▁commencing
▁facilitator
▁hail
eighty
▁baku
▁libe
▁mrls
korea
26
▁cartoons
▁tempus
▁activation
▁isaf
▁cepol
▁Ó
▁bathers
▁grybauskaitė
▁beslan
▁leichtfried
▁beaupuy
▁marty
flexicurity
▁ki
▁qimonda
▁soulier
▁rex
▁rosado
▁koch
▁afresh
genuine
▁reinstatement
▁inappropriately
▁palermo
scientists
▁adheres
▁earners
tell
▁forbids
▁sponsor
▁absorbing
▁impair
▁idealism
▁unionist
▁brominated
▁pleases
▁complimenting
▁slander
▁malicious
dealing
▁collaborators
▁predicting
▁demographics
▁nazionale
responsible
▁highlands
▁befits
▁pillaging
▁amiss
▁finite
▁rationalising
▁gong
▁moluccas
managed
alas
pays
▁regained
▁appended
▁mammals
fisheries
representation
▁robbed
same
▁bags
▁subparagraph
hazardous
▁doom
▁articulate
ngos
▁trusting
▁coordinates
▁materially
alternative
bilateral
▁shameless
▁encounters
▁139
▁vitamin
▁renegotiated
▁hallmarks
▁destabilised
▁diverge
▁worryingly
▁crafts
▁bode
▁overestimated
▁tachographs
▁slippery
▁smokescreen
▁rangoon
▁frontières
▁clergy
talking
▁ski
▁nomenclature
faire
89
rest
▁tsvangirai
▁hero
▁baldi
▁rabat
▁nationalisation
▁hens
▁trilateral
▁ias
gsp
2015
▁harsher
ida
▁adamou
▁obese
▁mumbai
▁castillo
▁identifiers
▁cavada
▁trüpel
▁cramer
moon
▁mobilize
▁penalized
▁fuster
▁inaugural
▁stern
▁abreast
▁fifthly
▁delimitation
▁misconception
▁concomitant
▁string
▁sparing
▁edd
▁engineer
▁microcredit
▁chips
▁struggled
▁indignant
▁renounced
▁lectures
sheikh
▁anymore
▁pile
▁cusí
▁daughters
▁orchestrated
words
▁gravest
▁francis
▁macao
interference
▁silly
▁intervenes
▁boosts
▁precursor
▁hiring
sound
▁neighbourhoods
▁alienation
▁municipality
▁engages
▁misses
▁technocrats
▁floodgates
▁secretive
▁yorkshire
compensation
▁relay
▁quantum
▁bretton
▁cruelly
▁kuckelkorn
▁countered
▁sörensen
▁knowledgeable
▁interminable
▁plundered
emphasise
▁thirst
▁grapes
▁defensible
▁duplicated
▁mary
▁institutionalisation
net
▁compels
▁onset
▁yeltsin
▁posters
▁degraded
jerk
▁affirmative
▁biosafety
▁cdu
▁juan
▁indicted
▁closeness
▁robbing
▁whim
▁quisthoudt
▁duplicating
▁arrivals
▁charities
▁exemplified
▁patriarchate
▁banners
▁157
▁171
▁highway
▁bicycles
▁secularism
▁atrocity
bone
▁rift
▁barons
▁prescribing
▁clones
universal
▁koran
▁crush
▁respondents
▁sfor
▁1971
▁176
▁pests
preparation
▁lithuanians
▁neachtain
▁mikhail
epas
▁cañete
▁securitisation
▁nistelrooij
▁€
▁peneda
▁computerized
▁chişinău
▁tftp
amato
▁misunderstand
▁stamping
▁steadfast
▁publishes
▁doubted
▁ken
▁hulls
▁drifting
america
▁rosy
commissioners
▁enterprising
▁finalisation
programmes
▁ironically
▁pleas
▁disposing
▁necessitate
▁mitterrand
▁misinterpreted
▁corrie
▁bureaux
suffering
▁leak
▁bavarian
▁secures
▁pie
▁shaky
▁refocus
▁disarming
handedly
▁depicted
▁spaniard
▁brempt
▁realpolitik
▁redirect
▁hopelessly
▁contagious
▁lease
fishermen
▁vetoes
▁emperor
▁swifter
▁imitation
▁fearing
▁cruise
evaluate
▁dissociate
▁knowingly
▁nafta
▁depended
▁sensibilities
libya
▁impartially
▁pipes
▁bribery
▁rebellion
▁statesmen
insurance
▁aerial
total
▁insulation
▁flouting
pierre
▁186
▁robin
historically
▁breakthroughs
▁singing
▁secretariats
▁surrounds
▁stadium
▁pathogenic
▁muscle
▁raid
▁dressed
▁guatemalan
▁laureate
▁uniquely
▁entries
▁psychologically
▁550
▁wire
▁demolish
▁sectarian
▁scholarships
mobility
▁heathrow
▁haul
▁query
▁archipelago
▁barometer
▁imaginable
▁absentia
▁intifada
▁poppy
▁alstom
pollution
cyclical
▁sketched
▁plutocracy
▁erupted
▁euronews
▁disconnected
coordinated
▁dehaene
▁configuration
▁valenciano
▁withdrawals
▁tallow
▁plo
▁tallinn
▁racs
▁cesare
▁mon
▁kacin
▁takkula
▁Çiller
▁gleneagles
▁jørgensen
▁groundhandling
mff
▁holodomor
▁feio
▁fayot
▁irreconcilable
▁defendant
judging
▁reputable
▁reproduce
▁fvo
▁jacob
▁legislated
▁intransigent
▁appease
▁featuring
topical
▁quarrel
▁interviewed
consumption
▁admired
▁collaborated
▁cip
▁admirably
▁consternation
▁caroline
▁watchdog
▁alleanza
▁centralism
▁overshadow
▁pointers
considerable
▁steep
▁disgusting
▁servicing
▁schizophrenic
▁tdi
▁rightfully
▁crete
▁ordering
▁unconnected
▁rapes
▁wield
▁possessions
▁insane
▁aubert
fish
▁trawlers
▁unconstitutional
▁metaphor
▁astounded
▁reproduced
provision
▁hyland
▁detached
▁coincided
▁giovanni
getting
▁abovementioned
▁formalise
▁rails
▁islamabad
▁hunted
▁prompting
▁nuances
▁newest
▁haggling
▁factually
▁destitution
victims
▁manoeuvring
▁arouses
medical
▁hadep
▁elegant
▁260
▁seasons
▁geometry
▁bourgeois
saddam
▁gentle
▁lamenting
▁grouped
▁seller
▁affluent
▁queues
▁galleries
▁bathwater
▁fassa
▁lapsed
▁neck
▁oie
▁estimation
▁nurseries
▁brokering
▁merchandise
▁repress
▁underestimating
personal
▁inventors
▁damião
▁intergovernmentalism
plan
▁slipping
▁hume
▁monsters
▁standby
▁invade
▁sow
▁carl
▁mullahs
▁propagation
▁bishops
▁wrongdoing
▁disengagement
ict
▁215
▁spam
▁borghezio
▁prolongation
▁alerts
▁coral
▁tenzin
hamas
▁edit
▁―
▁authorize
▁larive
▁avalanche
▁román
▁jonckheer
▁dense
▁misappropriation
malta
briefly
▁rumour
▁engender
▁reassurances
▁redefinition
▁egoism
▁fragmentary
▁naivety
▁314
▁associating
▁lest
seen
▁prioritisation
▁fools
▁draftsperson
bse
▁ponder
▁cooking
nature
▁falun
▁escapes
▁certainties
enhanced
▁anew
▁brilliantly
▁shout
▁jurisdictional
▁laurent
▁confining
▁interfered
▁collections
▁email
aligned
▁eighty
exactly
▁packet
▁casino
▁192
▁allegiance
▁asymmetrical
▁latent
outside
▁corsica
▁gypsies
▁illustrating
▁timeframes
▁translators
thiery
▁proudly
▁korakas
▁victorious
▁photovoltaic
▁gerhard
▁qualifies
▁yardsticks
▁gloss
▁payer
▁damning
▁noticeably
▁unlock
▁bitterness
▁evaluates
▁conferring
internet
am
▁assyrian
▁Åu
▁decommission
▁rigged
▁visitor
▁obstructive
▁atkins
▁mosaic
▁fringe
▁encroach
policies
▁shelved
loving
▁domestically
▁uncover
▁repatriated
▁sarlis
▁reserving
▁confronts
generating
▁discarding
▁births
▁salaried
▁jigsaw
▁179
37
▁est
▁betray
▁arbitrariness
▁outlawed
islamic
▁dislike
signed
objective
▁blending
▁osama
▁hanoi
▁rabin
▁lied
▁endow
qa
▁sartori
▁andrei
▁bushmeat
▁gfcm
▁olli
▁nicolas
▁lgbt
▁mff
▁cariforum
▁gualtieri
▁damanaki
▁enactment
▁differentiating
▁hedkvist
▁centralising
▁perplexed
▁preferring
▁disgust
▁lesbian
▁gist
▁wrangling
▁hides
sustained
▁jha
▁materialised
efa
▁disapprove
▁mega
▁retroactive
▁toned
▁killer
▁recreation
▁usable
▁creditable
▁paltry
stick
▁filtering
cuba
▁perpetuating
▁vivendi
▁novelty
▁expansionist
bosnia
▁underhand
▁philoxenia
▁tenable
▁harmoniously
push
▁compulsion
▁salvage
traffic
▁myriad
ratification
▁stamped
▁intellectually
▁moon
▁chiapas
smart
technological
conservative
solving
▁pop
▁tribune
▁inflated
▁recipes
▁bean
▁extortion
▁advisor
▁guarding
▁pair
mass
▁comrades
paper
▁greedy
continuing
▁upbringing
▁renouncing
▁ok
▁reaping
▁hepatitis
▁numbered
▁wealthier
asean
▁amidst
▁descent
▁referee
▁denunciation
▁omits
▁emcdda
▁briefed
▁shamelessly
▁manifests
▁accomplishment
▁incapacity
▁biology
▁metallic
▁cocaine
▁brochures
▁arguably
▁flash
▁stocking
▁mistreatment
armed
transatlantic
distorting
▁presuppose
▁bohunice
▁bunch
▁vine
▁arabic
▁moreno
▁ettl
▁massacred
▁journalism
▁budgetisation
▁lima
▁assigning
▁georgios
▁csdp
▁hgvs
▁kimberley
▁bioethanol
▁berlaymont
▁hedh
bashir
▁mifid
▁bozkurt
▁tarabella
▁abyei
▁euronest
▁thrombin
▁criticizing
▁mierlo
▁competently
▁158
▁puzzled
grown
▁beach
▁determinedly
▁denounces
▁discontinue
▁kosovan
▁whereupon
▁bang
▁ceyhun
▁redistributed
▁fictitious
▁rage
applying
▁leaflets
▁lumped
heinz
racist
▁apportion
▁mainstay
▁distracted
▁overcrowded
organisms
▁stagnating
▁boil
▁incoherence
chinese
▁unattainable
▁lurch
▁deluding
▁suicides
▁251
▁mortal
▁weights
▁unmanageable
▁hub
▁brigade
▁strawberries
▁sober
practical
▁suffocating
▁statesman
▁toxin
▁antisemitism
▁enquire
abiding
▁acquires
▁forgiveness
▁speedier
▁robles
▁depreciation
▁decreases
▁ewing
▁rapex
▁sanctuary
▁functioned
▁goodbye
▁deduction
100
▁ethos
▁sliding
▁unrestrained
held
▁discern
▁ups
▁exploratory
▁onslaught
▁terrorise
▁curiosity
▁pensionable
▁assertive
▁lining
▁perpetuated
▁fragrances
sales
▁vacant
▁cjd
▁hook
rowohl
equipped
▁withdraws
▁undivided
▁overturning
warning
▁corporal
▁enshrining
▁liberalisations
▁soften
▁rica
seventy
▁interfaces
▁recur
▁obtains
▁165
▁reunion
▁redrafting
▁espoo
▁suckler
▁pyongyang
preparations
user
demographic
▁insurgents
▁counterweight
mercosur
▁mills
treaty
▁walked
▁adultery
▁maoist
▁normative
▁agnoletto
▁lenders
▁husbands
▁2017
▁sparkling
▁02
▁betting
▁rafah
▁ouattara
▁pflüger
▁hammerstein
▁gaubert
▁johnston
▁gpa
▁°
▁paliadeli
▁balzani
▁lindqvist
▁allocates
▁benelux
▁hurricanes
▁bedrock
▁swim
▁familiarity
▁insights
▁demolished
▁impressions
regulations
▁226
▁impracticable
▁darkest
▁stenzel
▁inglewood
▁succinct
▁especial
▁motorcycle
assessment
▁idealistic
▁litany
▁profiting
▁bidding
▁efta
▁meters
▁purity
▁untold
▁aberration
▁defy
▁salutary
▁forgery
▁underwent
▁merciless
▁robustly
▁fitness
inevitably
▁modernity
▁buenos
▁aires
▁burns
▁politicised
▁augur
▁durability
▁wallonia
economy
▁niche
▁backyard
▁loads
▁inhumanity
▁taxi
▁trampling
awareness
▁boumediene
▁westendorp
▁mediating
pronged
▁rob
▁raids
targeted
▁deduct
police
▁diplomatically
▁wuermeling
▁careless
reproductive
parents
▁stimuli
▁deductions
▁unheard
▁curtailment
▁temptations
▁accentuate
▁rethinking
somebody
▁1963
▁encephalopathy
▁awakening
▁undo
▁domino
▁troublesome
▁umts
employees
▁lecturers
▁researcher
▁meteorological
▁snapshot
▁teamwork
▁fireworks
▁profiteering
▁leaps
▁reliably
▁creutzfeldt
▁arrears
▁zanu
picking
▁lean
▁stigmatisation
▁extracting
▁dominates
▁seventy
▁simon
▁exiles
cypriot
▁péry
▁lobbyist
▁tyrant
▁counselling
▁callanan
▁advisability
▁sportspeople
06
▁gate
continued
▁unfairness
▁stalling
▁margaret
▁americas
▁instantly
▁conducts
▁203
▁impotent
ask
▁pops
▁ecstasy
▁terrestrial
▁patriarch
▁longliners
vietnam
▁speculating
▁saxony
▁remembers
▁editor
▁envelopes
▁ryanair
▁ppm
copenhagen
guaranteeing
▁marginalized
palestine
▁wemheuer
▁kicked
▁judaeo
▁cancun
▁casa
▁1441
▁cor
léonard
▁tabajdi
▁arif
▁dombrovskis
▁saïfi
▁kamall
▁podimata
▁cathy
▁taseer
▁colajanni
▁surrendering
▁unfulfilled
▁wealthiest
▁primitive
▁inspector
▁lovely
grade
▁unethical
▁fraternity
▁aliens
▁resourced
▁arson
▁homelessness
capital
▁plunging
▁intimately
▁astute
▁venue
partly
▁outlay
▁copied
▁155
addressing
▁squandering
▁romantic
▁resettle
▁deflation
▁nineties
▁diffuse
▁bonemeal
polluting
▁stephen
▁inaccuracies
▁thinly
▁minded
▁yugoslavian
▁orwell
▁pupil
▁calais
▁gorostiaga
▁interplay
▁dominating
▁diplomat
▁unita
▁summoned
▁accidentally
▁blinkered
▁grandparents
▁misconceptions
promotion
▁sown
erika
▁rewording
▁vehement
▁obsessed
articles
farm
▁cherry
▁applauding
▁irrevocable
▁edges
▁bypassed
initiatives
except
▁brokered
▁aeronautical
▁differed
▁obiols
▁publicising
▁nicotine
▁degressive
▁geothermal
▁revocation
▁ratifies
▁spelt
▁grind
▁plates
▁cocktail
▁captive
▁suburbs
▁pascal
present
▁stripping
top
▁combinations
hit
▁reckon
acting
▁apprenticeship
▁debit
▁retaliatory
▁consumes
▁jet
▁pirate
▁360
▁saturated
▁janeiro
▁156
▁superseded
▁swallowed
▁dissuade
subsidies
▁repayments
▁unreasonably
▁emulate
▁stealing
▁arsenals
▁curiously
▁günther
▁sized
▁persisted
▁restated
inspired
broadly
▁frontloading
▁ippc
really
convention
▁patrick
▁behest
▁possessed
▁unaccountability
▁danielsson
forest
▁magnetic
▁aired
▁annexation
▁ebro
design
▁gaze
▁conurbations
wine
▁dda
▁amazon
duty
▁oenological
▁cfcs
▁jäätteenmäki
▁tymoshenko
▁authorizing
▁garosci
1997
ninety
▁tomé
▁alsace
▁sometime
▁soundly
▁downfall
▁impinge
▁deploring
▁posturing
▁passions
▁rediscover
▁embodiment
car
▁hypocritically
▁antidemocratic
▁murphy
▁engendered
▁impacting
former
chancellor
▁159
▁fork
▁brevity
▁ably
▁drunk
▁curve
▁races
zone
▁purification
▁realms
▁marathon
▁springboard
▁administratively
▁legitimised
▁ray
▁270
▁dispatch
▁whereabouts
▁tearing
planning
▁downside
▁santiago
▁contravening
▁rebalance
▁ovation
▁highways
investments
▁discreet
▁shells
▁deposited
▁contravened
▁outrages
affected
▁inefficiencies
fuel
▁crept
▁profess
▁scot
▁maxim
▁reallocate
▁foothold
▁sunshine
▁tribes
torn
▁blurred
▁inexpensive
double
▁mill
▁polarisation
▁trieste
▁tyrol
tonight
jakob
▁benign
▁wagons
▁mox
digital
▁multipolar
▁exotic
▁soundness
▁capitalists
▁pasqua
▁deterrence
▁branded
▁dictating
▁oxygen
programme
▁toledo
▁boldness
▁repatriate
▁commands
▁1939
▁impediments
▁dogmatism
▁mince
feeding
▁intimidate
▁consulates
▁averting
▁textbook
▁ridiculously
▁homelands
ownership
visa
▁glorious
▁acids
▁characters
▁bastos
▁narcotic
▁asymmetries
▁barbara
▁worn
gert
abortion
▁saharan
▁mohamed
▁yemeni
▁caste
▁expropriation
▁intertwined
▁mazen
▁pollack
▁spices
▁pasok
▁itre
▁baltica
▁lundgren
▁freitas
▁coveney
▁enpi
▁dtp
▁killilea
▁pettinari
▁modernizing
▁moorhouse
▁sainjon
▁thesis
▁gemelli
▁scaremongering
▁harnessed
▁jospin
▁hired
▁practicalities
▁disappointments
▁dashed
▁unifil
▁mantra
▁heighten
▁sheepmeat
▁persecuting
▁openings
▁mitrovica
▁organises
▁tolerating
▁reunite
▁ambivalent
▁3000
▁suburban
68
animals
▁insidious
eventually
avc
▁historian
▁counterfeited
▁betrayal
counter
▁ahmed
▁restrain
terrorists
▁ulterior
solutions
▁khatami
▁unice
▁ruthlessly
▁alters
▁conceptions
▁punishes
forming
▁oh
▁peruvian
▁salzburg
▁cloak
▁uncontroversial
▁organism
▁hesitating
▁kitchen
majority
▁lifeblood
▁incurring
simplifying
▁kindness
▁grape
▁merry
inflation
▁harare
prices
▁plural
▁impatiently
▁echerer
▁untapped
77
▁encroachment
▁polemics
▁subsidize
▁guarded
reduction
▁formats
▁royalties
▁barbed
▁analogue
▁reprogramming
▁tank
▁franc
mercury
▁regressive
ministers
▁championships
▁sells
▁meltdown
▁lifespan
lebanon
▁malaysian
▁prophylactic
▁chemistry
subsidy
examining
jha
▁ottoman
▁honeyball
▁educators
jean
brain
▁oswaldo
rating
▁peterle
▁czarnecki
▁itälä
▁09
▁ek
▁hennis
plasschaert
▁benghazi
▁eff
deputising
▁mochovce
▁lefrançois
▁euromediterranean
▁rationalization
▁scapagnini
▁fourçans
▁aptitude
▁elisabeth
▁maiden
▁asturias
▁reconsideration
▁specialising
▁mammoth
▁pinpoint
▁converging
▁chasing
excessive
▁veiled
▁peking
▁conquered
▁fernando
▁ems
▁leftovers
▁expended
▁prioritises
▁rigidly
▁peanuts
▁resorts
▁buys
▁cohabitation
▁underprivileged
absolutely
▁salvation
▁vagueness
▁verbally
won
▁catchment
professional
▁rubble
▁healing
ideally
▁tally
▁reorganised
▁extricate
▁tomato
▁compact
▁elevated
▁equated
▁disarmed
▁windfall
paragraphs
▁valuation
▁repugnant
▁flown
▁eased
▁nationwide
▁lifeline
▁separatism
▁menéndez
▁inspectorates
▁proportionately
41
▁stormy
▁palm
▁conditioned
exporting
▁evading
▁unaffected
▁behaves
▁eagerness
▁uniqueness
▁empires
▁alienated
▁purchasers
▁saarc
▁legumes
▁stocktaking
▁erect
permanent
▁leukaemia
▁championing
▁wills
▁carrots
▁neatly
▁handles
▁mathematics
▁formulates
▁chronically
▁inhibit
▁bottleneck
▁sabena
▁striven
▁paralysing
▁graduated
luckily
▁bnfl
▁tedious
▁circuit
pf
▁booking
▁sauquillo
▁ecowas
encompassing
ins
serving
▁stuttgart
▁unviable
▁baia
▁downgrade
▁submarines
▁narrowed
▁transformations
▁switchover
economically
▁surpassed
job
▁pastrana
▁rounded
▁generators
▁swathes
luxembourg
▁dprk
▁waivers
▁visually
▁daylight
▁crashed
▁enclosed
▁refrigerators
▁consultant
▁nationalised
▁degressivity
▁reaffirmation
▁lesbians
▁xxiii
▁shoe
asia
▁graduation
▁apprenticeships
terror
▁sgp
▁simitis
▁retrain
▁toolbox
▁metropolitan
▁herbs
▁provocations
▁behavioural
▁yanukovych
▁liotard
▁−
▁olmert
▁kirilov
▁hedegaard
▁stavrakakis
▁molitor
▁parodi
▁fantuzzi
▁penalize
▁rehder
▁vivid
▁demonstrable
▁hears
▁embroiled
▁impenetrable
▁ordeal
compliant
▁calamity
▁hinted
0001
▁nepotism
▁subscribes
▁ceecs
▁odysseus
▁architect
▁resonance
▁unnatural
▁adenauer
▁mould
▁shedding
▁seguro
▁summing
▁musicians
▁solidly
▁buyer
▁humanly
▁dumps
▁qmv
▁painting
▁françois
▁downs
▁ispa
▁scars
▁participative
▁dilution
▁faction
▁cosy
▁reservoirs
▁contradicting
pressed
▁wipo
▁fold
▁fleshed
▁aground
▁interethnic
▁olle
▁reimburse
▁investigators
la
▁heel
▁espouse
▁multiculturalism
▁accumulating
▁pale
▁emotionally
mining
▁discrediting
▁affordability
▁knife
▁councillors
▁tents
▁cull
▁interprets
▁innovators
nigeria
▁oilseed
▁graham
·
▁submissions
▁exchequer
excuse
▁alarmist
▁abusers
▁speroni
▁egotism
▁pressurised
diversity
▁valdivielso
▁disillusionment
▁woolly
▁scorn
▁assures
▁surreal
▁noises
▁oft
▁confuses
registration
▁ward
▁discounts
meat
▁furious
▁unstinting
▁antagonism
▁portable
▁flesch
▁subversive
▁inch
▁pest
▁augurs
▁deadlocked
▁182
registered
▁theorin
▁guarantors
▁enjoyable
▁médecins
▁stadiums
▁plaice
▁laxity
▁coalitions
83
▁hardships
possibly
▁emblematic
▁amusing
▁flagrantly
▁multidimensional
higher
▁eia
forests
▁submarine
▁exiled
▁oligopolies
▁suicidal
▁heirs
▁implore
▁colin
▁ethanol
▁arsenic
▁obeyed
number
years
▁trawling
▁parliamentarianism
▁underage
▁obscured
▁vieira
preventing
hiv
▁patrol
▁ranked
58
▁militarism
species
female
▁crossborder
▁tirana
▁temple
▁clumsy
▁vvd
▁seafaring
▁pathways
▁karim
▁cdm
azerbaijan
▁aging
growers
▁tomczak
▁hassi
▁cambó
▁imco
▁berman
▁minimize
▁tavares
▁goerens
▁tfeu
▁matias
▁hardstaff
▁schaffner
▁lapland
▁delegating
▁sudre
▁são
▁multiplication
▁wrecked
▁loyola
▁cleaned
▁practicality
▁wheelchair
▁chest
▁oblivion
alternatively
▁scares
▁centralist
▁wieland
▁shouldered
▁caps
▁throats
▁rash
▁mighty
upon
▁taskforce
▁disruptive
▁walks
▁oligarchy
▁omen
▁sheikh
▁substandard
▁conclusively
▁ospar
▁mud
▁fission
▁priced
reality
▁toughest
▁unfailing
systems
chemical
▁inspecting
▁statistically
▁normalise
▁grandmother
▁1949
▁chiefs
▁oppress
▁wedge
▁militarised
▁senators
▁predominance
▁helicopter
▁platitudes
▁queries
▁pitch
▁deterred
▁antónio
▁stagnant
▁unbelievably
▁cyberspace
▁decimated
▁tastes
▁symbolised
▁spying
▁refineries
labels
▁untreated
▁constitutionally
▁stature
▁exclusivity
▁aluminium
r
ll
▁boasts
▁wrapped
▁citrus
▁jammu
▁apportioning
▁finuoli
▁stockpiles
▁strained
verification
▁revolve
▁culpable
▁bona
▁fide
▁misconduct
▁bat
▁negotiable
▁diyarbakir
▁justly
▁contesting
▁oxfam
▁reckoned
allowing
▁reacts
▁275
▁risked
▁shaking
▁cured
▁unintentionally
powerful
▁cleanest
▁anchoring
▁adamant
▁ruminant
▁cheques
unity
▁estates
▁departed
▁trample
▁scared
▁engineered
▁perfection
▁assad
appointed
▁attorney
▁truthful
▁retrospectively
confident
▁crowned
▁brigades
▁superpowers
▁trainers
manufacturers
▁aromatic
▁legalising
▁barrels
391
▁utterances
vehicle
▁garot
▁jong
▁caged
▁unfold
▁disobedience
▁consolidates
▁announces
▁nuanced
▁racing
▁quarantine
tabling
▁borrowed
j
▁mosque
▁schroeder
▁composite
▁kicking
▁invoicing
▁competency
▁misinformed
▁escalated
▁softening
▁supernumerary
▁aggressively
▁guys
▁ballots
▁vocal
estonia
▁fiscalis
▁chairwoman
▁antonione
▁commemorated
▁benazir
▁castex
▁weisgerber
ukip
▁mladić
▁mediumsized
▁consuegra
▁flegt
▁mikolášik
▁maňka
▁kilos
▁grandiose
▁tenets
▁overburdened
▁affording
▁reminders
▁heap
▁magps
permit
▁galvanise
▁localised
▁instructors
collective
▁evaded
winded
▁imaginary
▁purport
▁tail
▁mouskouri
add
▁csu
▁hun
▁integrates
▁investiture
▁dominique
▁photo
▁paternalistic
▁archaeological
▁cracks
▁burkina
▁complicating
▁afloat
▁plumb
▁baton
▁intercepted
▁zambia
28
marie
▁ancestors
▁stiff
▁inadvertently
▁cans
▁negotiates
▁collegiate
follow
▁frenchman
▁incontrovertible
v
▁cecilia
▁birthplace
▁commotion
▁dustbin
▁lungs
▁externalisation
▁contiguous
▁imprison
ante
▁silenced
▁inflicting
limit
▁id
supply
▁stomach
▁hysterical
▁refunded
▁transmitting
▁diploma
hard
▁coups
▁euphemistically
▁rivalries
▁cling
▁caesar
▁delek
▁meddle
▁convergent
▁skimmed
▁queuing
▁fledgling
▁seizures
differences
▁remotely
▁loop
pending
dominated
conditioning
▁interrogation
▁colombo
▁spelling
▁preposterous
▁grappling
opposition
practice
▁stoned
▁frauds
▁1962
largest
▁unbiased
▁puppet
▁cheated
▁cathedral
▁unfolded
▁225
▁disposable
▁tractor
▁objecting
suddenly
▁disillusioned
▁dependents
friends
average
▁possessing
▁standpoints
restructuring
▁surreptitiously
▁xinjiang
oecd
▁aggressor
▁tea
▁dissenting
▁allergy
▁dissolve
owners
manufacture
swift
▁mutilated
▁batch
▁combatants
▁counteracting
▁deceased
▁annulment
▁qaeda
▁goma
▁cesr
▁subcommittees
▁agus
source
▁rinpoche
▁sonar
▁nama
▁grabowska
▁szymański
▁lebedev
▁waal
▁gloser
▁manzella
▁mobilization
lapsed
▁wikileaks
▁utilized
▁belenguer
▁explosions
past
simplified
▁lighten
▁hierarchical
▁sails
▁woefully
▁vets
▁usher
disciplinary
▁jonas
▁wand
▁inflammatory
▁contaminate
▁existential
▁tiresome
▁fooled
▁commends
▁crèches
▁poul
▁boycotting
▁apprehension
▁deregulating
▁unveiled
▁obviate
▁tses
▁underfunded
▁csf
electoral
▁purchaser
▁embargoes
▁universe
▁pacifist
▁exaggerating
▁digging
▁merited
▁adversary
▁shelters
▁latitude
▁candid
▁substituting
▁ambit
▁desist
site
▁banish
inclusive
▁fujimori
▁connotations
▁shakespeare
▁inaugurated
▁spy
▁searched
▁astronomical
▁exerts
▁monsanto
▁reconfirmed
▁dependants
▁keppelhoff
▁thereto
▁sek
▁batten
▁dissociated
▁cervical
▁projection
taxes
▁prayer
▁ascribed
▁dispelled
banks
suffice
osce
▁motorcyclists
▁peasant
▁lecturing
▁superficially
▁spearhead
▁believer
openness
▁hinterland
▁marxist
▁valuing
▁inventing
▁perpetuates
▁uncritical
▁burdening
▁marrakesh
▁insider
▁musical
▁earns
▁jakarta
▁culprit
populated
steps
wheel
▁osman
▁betraying
amnesty
▁orchestra
▁aesthetic
tolerance
▁felipe
▁incarcerated
▁rehabilitate
▁ferrets
▁diminishes
▁multilaterally
▁ana
▁coding
opt
▁steal
▁emitting
▁octs
imperialist
▁2019
▁azerbaijani
▁argo
▁aspartame
▁draghi
▁smarter
▁rosati
▁kallenbach
▁roithová
▁wrocław
▁almadén
▁unhrc
▁caning
▁burtone
▁azzolini
▁forego
▁invalidity
▁fbi
▁muddle
▁watershed
standards
borne
42
▁desks
▁hefty
▁golan
▁hurried
colonialism
▁174
▁charters
▁fortunes
▁dutroux
shame
▁nuns
▁sworn
▁concretely
0009
▁injecting
actions
▁afternoons
▁scandalously
0015
▁methodical
▁funny
▁substantiate
convergence
▁faso
▁erase
▁squares
▁fraudulently
▁sui
▁nicosia
▁warmth
▁currents
▁modicum
▁vanish
▁1959
▁flimsy
▁puerta
▁ingushetia
▁summarising
▁parasites
▁broach
▁torrential
eleven
▁certifying
0017
▁rightholders
▁evasive
▁regenerate
anybody
▁egalitarian
▁thorning
schmidt
▁verona
▁oppressing
▁krarup
62
olds
▁protectors
▁marching
▁campaigner
▁forestall
▁cumulation
1990
healthy
▁silvio
▁addictive
spending
▁interruptions
▁slaughterhouse
▁traceable
▁noticing
▁weighted
▁adjourn
▁courteous
▁controversies
▁djibouti
▁solidity
▁inevitability
referring
▁presses
▁keystone
▁fatty
▁falsely
aviation
leading
65
tabled
▁winston
▁predetermined
dutch
▁disqualification
▁hesitated
▁roca
consensus
▁prelude
▁sab
▁squeezing
▁deferring
▁aeronautics
▁diverging
▁dismissing
▁malliori
▁mourn
▁diana
▁etf
▁revisited
▁nautical
▁narrower
▁tempered
▁reprimand
▁glante
▁overseen
▁mercenaries
▁vitro
▁stray
▁outreach
▁parade
▁fairy
▁timidity
▁placements
▁messina
▁173
▁fertilizers
▁solvent
▁discourages
increasingly
▁enclaves
▁rals
keepers
▁borrowers
▁01
▁separatists
▁transnistrian
▁ebadi
•
▁brún
▁plumber
▁883
▁vera
▁eqf
▁lehtinen
▁vălean
▁zimmermann
▁matera
▁danjean
▁kashgar
inoffice
▁standardized
▁daskalaki
▁interchange
company
▁interpretative
▁steadfastly
▁toothless
▁wherewithal
▁ascertaining
▁inexcusable
▁caretaker
▁modestly
backed
▁consolation
heartedly
▁creed
0013
▁henry
cycle
▁lille
▁dormant
▁negation
▁mediaeval
▁forerunner
▁insular
▁padania
▁woke
▁debacle
▁hats
▁democratise
▁reclaim
0020
0014
▁spectacularly
▁unamended
▁offing
▁177
guidelines
▁marginally
▁muddled
▁stances
▁affinity
▁sunlight
▁testimonies
▁clone
▁attends
▁habitual
strasbourg
▁irrefutable
▁conquest
▁imbued
▁swaps
generated
▁pigmeat
▁isles
▁codetermination
▁burial
fundamentally
▁battlefield
▁tyrants
▁estonians
▁chauvinism
▁biodegradable
▁precursors
▁haunt
▁legislatures
▁destitute
▁bn
▁infiltration
▁hosts
▁seventies
▁empirical
▁perversion
▁baden
discharge
▁monarchy
▁angels
▁mcavan
▁inconsiderable
▁bombarded
▁subjugation
▁miserly
emergency
▁commentary
▁beysen
0220
▁summaries
▁humanitarianism
tibet
▁ryan
▁battling
▁sbarbati
▁tempo
▁nurturing
▁scams
▁tablets
▁euphemism
▁invading
▁heartened
▁mdc
forced
▁tarnished
▁unequally
▁farewell
▁protections
▁tenet
▁humanely
▁nub
▁saddens
▁calf
▁automobiles
▁multimodal
▁criminally
aware
keep
amending
ridden
▁incurable
▁colegislators
▁armament
▁pumping
uk
place
▁gdr
▁fences
▁ha
▁giuseppe
▁algerians
▁farcical
▁turchi
▁frontal
▁marx
▁discount
▁clinging
▁beloved
tackling
sustainability
▁newman
censorship
▁flats
ias
markets
▁condoleezza
▁groves
▁hung
▁reunified
▁meyer
▁renditions
odihr
▁uribe
▁basques
▁martial
▁cmr
▁demilitarisation
▁intergroups
▁designating
oda
▁recoveries
fp
▁ag
▁dan
▁dick
gases
▁auken
▁fayyad
▁yanukovich
▁socalled
▁decisionmaking
shirts
dci
▁annapolis
▁isaak
▁chastel
▁kato
▁dha
▁visby
▁communitization
▁mosiek
▁schmidbauer
▁tappin
▁coinciding
1995
▁hindrances
▁capitalisation
0018
▁shetland
▁sleeves
▁sailors
▁machinations
▁pumped
▁carelessness
shore
▁initiators
▁bubbles
talks
▁guterres
▁fascists
scotland
▁unto
▁vendor
▁cherished
▁peers
▁crowds
▁albert
▁adherents
living
▁nominee
▁carlo
▁deafening
▁easter
▁whims
▁finely
▁bangkok
▁inexhaustible
▁rudimentary
▁wrecking
▁summarises
▁rationalised
▁ratios
▁isd
▁sharper
▁astray
▁disconcerting
▁prop
▁dismal
▁disarray
▁legitimisation
▁wells
▁canadians
table
▁eighties
▁tenacious
▁patchy
▁centralise
▁agony
▁guyana
▁lega
▁magna
▁fog
happily
▁anthrax
▁twelfth
▁dm
▁nokia
▁andrew
▁feminist
▁polisario
▁reins
▁242
▁sellers
▁proclaims
▁valleys
secretary
▁ink
▁succinctly
▁manipulating
▁leniency
▁wolfgang
▁fléchard
▁sweets
▁conscientiously
▁administrator
▁overhauled
▁blessed
meeting
112
▁cds
▁curing
▁philosophies
▁concealment
▁dary
▁institutionalise
▁contacting
▁hanged
▁bahamas
night
▁drops
▁felling
▁reallocating
▁plains
▁bust
shortly
▁188
▁decolonisation
▁stemmed
▁dig
▁unabated
▁eel
▁credibly
combined
▁iacs
▁deserted
ambitious
▁lateness
star
▁mitigated
▁deflationary
▁ensued
immediate
exist
▁viktor
▁refraining
▁offender
▁advises
▁reintegrated
▁reverting
▁manifold
▁sleight
▁ethic
▁bosman
▁greatness
▁devotion
▁hutu
▁hindu
▁clark
▁biodiesel
▁218
▁settings
▁unexploded
▁readers
▁schizophrenia
▁mladic
▁condolence
▁retiring
protected
▁nano
▁stunned
▁gabon
▁underestimates
▁transfusion
bud
▁leaflet
▁blot
▁207
▁marc
▁rainforest
▁sporadic
▁generis
latvia
▁ecopoint
▁billing
▁blinded
▁policymaking
▁schultz
▁vibration
▁marital
vat
▁03
▁04
▁undistorted
▁fontelles
▁lauk
▁locatelli
▁hegyi
▁priština
▁msy
▁maximize
▁subprime
▁caldeira
▁lehman
▁finalized
▁cancian
▁cen
legally
▁devolution
▁pas
delgado
▁sates
▁specialise
▁furnish
▁kid
▁securely
▁mastery
▁madame
▁proclamations
democrats
▁appeasement
▁drown
▁dint
▁macrofinancial
▁167
▁equivalents
▁qualms
▁unevenly
▁stewardship
▁orientated
parent
core
areas
▁horizontally
▁plentiful
▁filing
▁emphases
▁perilous
▁bolstering
▁brighter
employers
▁reckoning
▁subservient
▁sufferings
▁enrique
▁comprised
▁panama
▁botswana
▁hudghton
▁contrasting
▁lechner
▁causal
effectively
▁toe
▁!
▁hypocrites
▁kilograms
▁appreciably
▁overstretched
▁angel
▁distressed
▁genius
▁sundays
▁swamped
▁absurdly
▁broached
▁robinson
whichever
▁assemble
▁heterosexual
▁absolve
▁drainage
▁faint
▁classifications
arab
▁expelling
czech
▁disincentive
▁ashes
▁questionnaires
▁shady
▁squabbling
▁reproached
▁longing
▁folk
▁noses
sugar
▁monasteries
▁marketable
▁grapple
▁diktat
▁immersed
▁161
▁revitalised
▁sornosa
▁totals
▁pirated
▁460
▁ineligible
▁jobless
▁eva
▁encephalopathies
▁pathogens
▁injected
▁subscribers
▁hymn
▁interrupting
▁problematical
▁pools
▁template
▁dressing
▁monoxide
▁outgoings
▁functionality
▁assignments
tank
▁piling
▁optimist
mugabe
▁bulls
▁william
▁obscurantism
hoc
cancer
▁underpaid
▁shapes
▁golf
▁accuses
considers
▁bestowed
▁neutralise
▁staffed
million
med
▁collapses
recovery
▁cucumbers
documented
▁whip
▁ifs
▁amenable
▁competitively
▁couched
▁alienate
▁sangatte
imposing
▁dispersal
▁bookkeeping
▁critic
generational
therein
31
▁daunting
▁diets
▁rainforests
▁castle
▁joly
▁andria
▁deport
▁broadcaster
concrete
▁peacemaking
▁kigali
▁transversal
interjection
▁jenin
fao
▁durum
▁vlasto
▁scam
▁ai
▁bioenergy
▁1905
▁blackmailing
▁fledged
▁fins
▁jeopardized
▁ouzký
enp
▁sifunakis
▁milošević
▁liberadzki
▁visegrad
▁susta
▁janša
▁rivellini
▁ftt
▁goulard
▁renationalization
urbahn
▁sealing
▁deletes
functional
▁cocilovo
emphasis
▁wit
jacques
expenditure
▁repulsive
▁majeure
▁mainstreamed
▁countenance
▁dispensing
▁alicante
▁colourful
▁opera
▁behoves
disabled
▁democratising
▁plank
▁auroi
talk
▁recordings
▁178
▁autonomously
▁skins
▁misrepresentation
▁illuminating
fyrom
▁counterfeiters
▁custodial
▁exploded
▁semantic
▁gearing
launch
▁dismissals
▁upsets
▁unstoppable
▁morale
▁marches
hardly
▁rains
▁equitably
▁locomotive
▁overboard
▁graphic
39
▁crowded
▁circumcision
▁intimidating
▁riddled
▁speciality
▁sarah
▁sinti
▁tire
▁reader
▁interactions
▁isle
▁lukewarm
▁baker
▁starve
blown
▁emma
▁stunning
▁chicago
▁traumatised
▁gasperi
▁gratuitous
▁activating
▁demobilisation
▁dakar
▁confiscate
▁appallingly
▁amicably
▁staple
▁minced
▁tinkering
▁monastery
▁bilingual
sum
quint
▁carmen
▁profiteers
▁lame
▁canal
concerns
dr
▁injections
▁appreciating
▁spectator
▁marred
▁ornamental
arms
▁jack
▁merchants
▁erm
▁fallow
▁beatings
▁liverpool
▁unfit
light
▁prejudicing
▁optimisation
▁228
▁singular
interestingly
▁unspecified
protectionism
▁impel
86
immigrants
▁partido
▁multiethnic
▁resettled
▁perpetual
▁flavouring
▁adjournment
▁bhopal
▁ala
▁discernible
▁germ
fiscal
▁rallies
▁tolerates
▁fade
▁mm
▁annoyance
▁slorc
▁collegial
▁enumerated
▁grandes
▁creatively
▁loosely
▁floated
▁orient
biotechnology
▁brochure
▁prophet
▁seiners
▁bob
corporate
▁thrives
▁landslides
▁argentine
▁determinants
▁builders
▁bundle
▁lone
▁motivations
▁pronouncement
force
▁silicone
▁nuremberg
▁vanhecke
▁orphanages
▁meciar
▁hannes
▁fluctuation
▁bribes
▁terry
▁juices
▁emails
attacks
▁2016
▁sheltered
▁accrued
▁antipersonnel
mayer
▁ohrid
▁newens
fixing
▁stigmatised
▁alber
▁reimer
▁transcaucasian
▁joe
▁overregulation
▁bendtsen
▁saa
▁winemaking
▁detroit
▁kaczyński
▁inta
▁desertec
▁orlov
▁giegold
▁maguwu
▁ifor
▁pelttari
▁centralization
▁chanterie
▁freeways
▁zairean
▁kokkola
▁tidy
▁incidences
▁coffin
▁bravery
▁shipwrecks
▁warmer
▁restarting
▁miserably
▁instincts
0012
acceptance
▁plastics
cars
▁incentivise
▁butchers
▁ominous
▁engenders
1994
▁densities
▁charm
bad
▁balfe
▁filtered
▁vaccinate
▁watercourses
▁doñana
▁fateful
▁globalising
▁redistributive
0008
▁booked
▁fiftieth
▁malfunctions
▁liberating
▁powerfully
pension
▁exempts
sense
▁ojeda
▁terrified
▁fury
▁sheds
▁grammes
▁calibre
laws
▁backlash
▁isa
mandatory
▁nascent
▁teleworking
▁codex
▁aberrations
regular
08
▁groundbreaking
▁cooked
▁complicates
▁indulgent
▁fingerprint
▁sterilisation
▁script
▁crippled
lothringen
▁fig
▁battered
▁mistreated
▁opts
▁stall
▁chalk
▁vanished
swedish
▁placards
▁awaken
▁penultimate
▁issuer
▁plaintiff
▁insubstantial
▁unheeded
▁symmetry
▁sweat
▁transposal
▁achilles
fifths
▁206
conservatives
trial
▁undersigned
▁cheat
▁assimilate
▁defunct
▁ore
▁saddled
▁1915
spanish
▁patronage
▁bandied
▁rearmament
imports
▁aback
▁titanic
▁mastorakis
basic
▁slobodan
▁topped
fifteen
▁malaise
▁dash
▁soap
▁denomination
▁particularities
▁poster
▁distraction
▁pledging
restricting
▁duck
▁ping
▁dyes
results
▁tin
▁warships
▁unscathed
▁ipr
▁misrepresented
▁crocodile
▁torturers
▁transfrontier
▁bangladeshi
▁keg
▁unravel
▁islamism
afterwards
▁lamentably
▁youths
▁biotechnologies
▁riot
▁ramp
statistical
▁putten
▁doesn
▁refrigeration
▁sms
▁splendidly
▁oilseeds
italian
tonne
▁vandalism
▁initiator
▁tainted
▁sunni
▁repressing
ldcs
▁wholesome
home
don
▁lanes
▁autocracy
▁decouple
▁davignon
▁siemens
▁indices
▁mujahedin
▁fissile
▁depositors
▁pharmacies
▁accra
▁rumsfeld
chairs
▁circumvention
▁restores
▁memoranda
flight
▁liner
▁abruzzo
▁antitrust
▁furs
▁hellenic
passenger
▁econ
▁dawit
▁beneš
▁cbrn
▁bachelot
▁groote
▁zaleski
▁tőkés
▁zelaya
▁weiwei
▁baldarelli
▁crashes
▁ultraperipheral
▁bruno
▁ceasing
▁instigating
▁taxable
▁segregated
▁cargoes
▁liaise
▁wrought
0006
▁equalisation
▁hurts
▁sovereignties
▁derogate
▁totalled
▁proportionally
madame
▁racists
▁saturation
compromise
▁consenting
▁supranationalism
▁intractable
▁ghettos
▁glasgow
▁diffusion
▁decay
▁overthrown
0067
▁permissive
need
▁penetrating
▁fairest
electric
▁estuary
▁adversity
▁gruesome
▁thirteenth
▁physics
▁foregoing
▁analogous
▁extinct
▁unchallenged
born
▁mirrored
▁abuja
compatible
▁prospectuses
heavy
0019
▁ironed
▁confession
eurostat
▁abound
▁entitles
▁christ
▁vetoed
▁dos
▁blight
▁empathy
▁repetitive
▁glasses
▁unconvincing
▁launches
▁hydrocarbon
▁disgracefully
▁brushed
▁packets
▁precariousness
▁purposefully
▁populace
late
▁hotchpotch
▁farther
conscious
ethical
incineration
▁teething
▁chlorine
▁troubling
▁latvians
▁inventive
▁vanity
▁predicament
▁peasants
▁deferral
▁johannes
▁arming
▁reconstructing
cites
▁sylla
▁mussolini
▁casualty
0203
▁impulses
▁tangled
▁kilowatt
▁perfected
▁bundesbank
▁tenure
▁reconfirm
▁jo
▁obstinacy
▁undignified
▁lessening
death
▁boudjenah
sixth
▁uproar
allocation
piracy
▁abolishes
▁headache
▁trustees
cases
mobile
▁precede
▁volvo
respecting
▁boss
▁366
debt
▁suspensive
opinions
▁charleroi
interruption
▁wei
▁migrations
▁equating
▁engagements
▁etuc
440
▁carcass
▁practises
introduction
▁obstructions
▁orphaned
▁descend
▁macsharry
▁caveat
▁abatement
▁friendliness
▁footballers
▁scaled
▁afforestation
▁fallacy
▁impedes
▁toxins
▁burundian
▁spurred
▁blockage
removing
▁420
maker
▁bortone
▁caveri
▁phnom
▁apportioned
▁sufficiency
▁gotthard
▁credited
derived
▁nutrients
▁unsound
▁grandfather
▁orthodoxy
▁actuarial
negative
helping
▁wooden
▁refuted
▁limbo
▁338
▁baron
▁herbicides
cities
▁shanghai
bureaucratic
truths
▁attestation
▁burke
▁ventilation
▁invasive
▁muscat
▁hammered
▁rallying
▁irrevocably
▁vividly
▁reconversion
popular
▁lenin
▁emits
▁zalm
▁ascribe
▁jirga
▁1920
▁vibrations
▁generics
▁louise
barcelona
▁betancourt
▁checkpoints
▁unblocking
▁renovated
▁bruton
▁ftas
biofuels
▁fluctuating
▁addicted
dressing
▁azo
▁pharmacovigilance
▁wolfowitz
▁arcelor
▁pradier
▁patriots
▁apiculture
efsa
▁vanunu
▁benita
▁althea
▁sinnott
▁karimov
▁finno
▁partsession
▁eafrd
▁zīle
▁guerreiro
para
egnos
▁billingham
▁cadec
tfeu
▁bhatti
ecu
▁crampton
▁vecchi
▁piquer
▁caccavale
▁ahlqvist
▁valverde
0087
▁wreak
0002
▁capitulation
▁woodland
▁anxiously
▁maltreatment
saying
▁persuasions
▁seconded
0011
seeing
0169
▁audiences
▁chromium
▁connivance
▁boot
▁painstakingly
▁enlist
▁lets
▁doubting
▁captains
▁originality
▁facet
▁hydro
▁annihilation
▁hydraulic
▁dilemmas
▁packaged
▁indecent
▁makeshift
▁redirected
▁macedonians
▁1929
harmonised
0136
▁financiers
▁exploiters
▁démarche
depending
▁francisco
▁resilient
▁mechanics
▁unilever
reliance
▁vector
northern
▁scored
▁indivisibility
▁necessitated
▁tortuous
▁protector
▁poisons
mainly
▁ruler
▁mastered
▁victors
scepticism
▁notoriously
▁limitless
schools
▁overestimate
▁unavailable
insofar
▁manisco
▁unmistakable
▁germà
▁apologised
▁axe
▁prejudging
▁jewel
▁rocked
▁alley
▁clichés
württemberg
▁retrospect
▁demonise
▁headphones
0086
▁illustrative
▁272
▁sos
▁fitzsimons
sooner
▁generalise
discipline
▁tones
▁ferri
0098
wiechert
▁televisions
▁dim
▁herbert
▁carnage
▁lira
▁swede
59
▁zimbabweans
▁dedicating
▁obiang
▁unwittingly
▁procure
▁consulate
▁deepwater
▁branding
dell
▁bulwark
▁sensitively
▁mao
▁elearning
▁footnote
▁astrid
▁improvised
▁1966
▁supranationality
▁organizers
originally
▁oligopoly
▁/
▁ephremidis
▁vexed
56
▁208
▁della
▁daytime
fighters
▁unrelenting
▁leipzig
▁quantitatively
▁veyrac
▁textbooks
0963
▁reconciles
▁elaborating
wheeled
▁genders
▁penh
▁dental
▁physiological
▁titford
▁buts
▁mouthpiece
▁christa
▁accentuated
▁despotic
▁gael
frequency
▁parenthood
▁1961
▁ailing
▁erecting
enter
▁splits
▁icann
▁arlacchi
exchange
▁murky
primarily
▁démarches
▁vacancy
▁completeness
▁confrontational
▁impairment
▁patronising
▁applauds
▁protestants
dual
▁deutsch
▁shields
intellectual
▁poaching
▁lng
▁maroni
▁539
▁martyrs
▁coefficients
▁creditworthiness
▁emsa
▁bayona
▁scanning
▁“
▁bam
gaza
▁lászló
▁aylward
▁andijan
▁brejc
ets
▁antunes
▁mattel
▁liberalizing
▁rüffert
▁subsidizing
▁destabilization
▁dichloromethane
▁dementias
▁billström
▁meissner
esma
▁nedelcheva
▁fischbach
▁festive
▁texas
▁harmonises
0004
▁hi
▁aggravates
▁climates
restraint
▁learns
speak
payers
shop
▁sustains
governing
▁marseilles
▁nominees
▁commissioning
▁limb
response
▁untimely
▁gama
▁reuniting
▁jörg
▁dogged
▁renationalise
0045
▁handouts
▁rude
save
▁tongues
▁incinerated
pse
▁endogenous
▁reworking
▁startling
comprehensive
▁reworded
0119
▁gypsy
▁regularise
gmos
0209
frame
▁totality
▁labours
▁singularly
0117
▁scotch
▁undercut
rev
▁lamented
protocol
▁enormity
technically
▁banished
▁reorganising
▁discriminations
▁monica
0176
▁reassessed
▁recoup
gue
▁smiling
▁haddock
contractors
▁delicacy
▁reparation
▁pinning
▁phenomenal
▁expounded
▁shrouded
▁vegetation
port
▁praying
▁rewritten
▁ammonia
dangerous
▁isn
▁collisions
▁ether
▁infrequently
▁crumbs
▁blackmailed
▁bully
0217
▁adjoining
▁surgeons
▁adduced
discussion
▁unsubstantiated
independence
▁circumstantial
face
▁tamils
▁precipitate
▁refreshing
▁obeying
▁productively
earned
▁lazy
ordinary
▁weighs
▁reformulate
limiting
▁algiers
▁hereditary
▁tidying
▁pleaded
▁evoked
▁mercilessly
▁radius
▁palpable
▁trump
▁zeitung
▁spinal
▁primates
▁admissions
▁overcrowding
▁blighted
▁squander
selection
▁feminisation
▁poised
▁lodging
▁euroland
contracting
▁shrimp
seventh
▁transitory
▁425
▁sanchez
▁elizabeth
0189
▁irritated
▁populists
▁mirage
▁slashed
hunt
▁micrograms
▁responsiveness
▁patch
▁unambitious
payments
▁bridged
▁enriches
▁refinery
styled
▁policyholders
▁priceless
▁wrap
▁potentials
▁briefings
▁invigorate
▁leasing
▁hotly
▁scaling
▁dealer
▁amato
▁subscription
▁1500
34
▁parma
▁epicentre
flexible
▁quarrels
virtually
bottom
▁dwarf
▁conflagration
▁sarcophagus
▁giorgio
▁214
travel
▁monaco
▁intensifies
▁mgp
▁koukiadis
▁balearic
▁roberto
▁emitters
▁dalits
▁hideous
▁rated
▁marta
▁nobilia
▁activism
▁bossi
▁finning
▁kashmiri
▁rebates
▁ivorian
▁reefs
▁artemis
▁dankert
▁gotovina
▁dolphin
▁ecdc
▁estemirova
▁erbakan
▁abacha
▁transylvania
▁ehler
▁pfos
▁stabilizing
▁pe
▁dati
▁camara
▁sotoudeh
▁bladel
▁lindholm
▁treason
▁dwellers
0078
▁collate
▁steelworks
▁thorn
▁legitimising
0212
▁wonderfully
▁charterers
▁unintentional
▁triumphed
▁tracts
▁unavoidably
▁perpetrate
▁flatly
▁adversaries
▁potent
▁margot
▁leanings
0022
▁bosnians
0010
▁monumental
07
▁vintage
possible
▁thumb
granting
▁trailing
▁europeanist
▁dot
▁censor
▁fancy
calling
0023
0027
▁circuits
▁permeated
▁lund
▁rental
▁arbiter
try
▁breakaway
▁minefield
▁jure
▁awake
0162
▁immemorial
▁vengeance
▁outskirts
0154
▁correspondent
▁guiana
▁hills
supported
▁gillig
▁jorge
▁tales
▁habeas
system
▁connects
▁polarised
▁collating
▁eels
▁furthered
▁stereotyping
▁navigate
▁consortia
normal
▁roadside
list
▁yawning
▁marrakech
▁craftsmen
▁remiss
▁immeasurable
▁prognosis
▁extracts
regulate
▁incursions
▁cronies
nation
▁jonathan
patents
▁reused
▁karel
▁validate
▁buitenen
▁retailer
▁heterogeneity
▁abdullah
▁cemeteries
▁credence
▁werner
empty
▁abrupt
▁broadens
▁segmentation
▁gavel
▁cerdeira
▁liège
▁hailed
get
tune
0237
▁jailed
highly
▁alvarez
▁throes
▁trifling
▁incursion
▁auctioned
▁academia
▁faculties
▁jim
usually
49
▁infer
▁moroccans
▁mitch
▁matured
▁unsettled
▁temelin
▁protagonist
▁benevolent
▁receivers
33
▁shippers
iii
▁bullied
▁kilogram
▁bolkenstein
▁indoor
▁mentalities
▁cinemas
▁shine
▁pitting
▁kidnap
▁outlawing
▁decibels
36
▁reclassification
▁invalidated
▁scaffolding
▁ladders
faith
▁singling
▁aversion
▁ldc
▁conforming
torture
▁poli
freight
▁inexorably
heading
▁proverbial
▁fin
▁consignment
▁infighting
▁insecticides
▁miners
▁statues
ordinated
▁tim
inclusion
iron
▁designer
▁wrestling
▁captivity
▁healed
▁undecided
▁succumbed
▁heath
metre
▁204
show
▁revolving
edf
▁ruffolo
notes
▁zoonoses
return
▁slows
▁mello
breast
▁riga
fear
▁hgv
▁foetal
▁gaming
▁clementines
▁ceramics
▁rohs
▁johnson
patient
stresses
stress
▁invaders
▁xv
▁lech
▁parmalat
▁ilves
Τhe
▁1559
▁helios
▁millán
▁bisexual
▁kelam
▁ipa
▁marian
modality
▁privatized
▁criticizes
▁albinos
pvv
▁carlgren
▁prespa
▁castricum
organized
▁oddy
▁malerba
▁barthet
▁terminating
material
▁befallen
▁picks
▁bp
▁seismic
▁discourtesy
▁survives
▁apologising
performance
via
▁reservoir
securing
amsterdam
▁xi
▁marinos
note
▁unattractive
▁heckling
▁wolves
▁bend
0007
▁prima
quotas
▁bottomless
logically
▁legitimises
▁delinquency
▁slums
▁ambitiously
satisfaction
▁charming
▁excellency
▁poem
▁metering
▁günter
▁migrating
▁purports
▁underscores
▁ostrich
0044
▁remits
0032
▁harbouring
▁custodian
successful
▁und
acquis
▁perceives
▁ejido
▁thugs
0165
0179
▁snail
▁renovating
▁pentagon
▁audacious
▁engulfed
▁overtake
▁viral
▁predators
▁frontline
▁audacity
▁theological
▁bolted
▁resembling
▁impacted
▁understatement
▁inherit
▁poggiolini
dg
▁profitably
▁contaminating
▁strangers
▁prides
▁patriotic
emerging
▁otto
▁imperialistic
▁nostalgia
▁subjugate
drawing
▁whale
0046
▁hypotheses
sceptics
▁sabotaged
▁concurs
▁emanates
▁organically
▁onward
▁sordid
▁typified
▁impart
▁horns
▁thieves
▁dubbed
▁insoluble
▁classrooms
▁provokes
▁treading
▁exhaustively
▁trodden
▁entitle
aged
unanimity
gmo
▁europhile
▁procrastination
bn
0116
▁diaspora
▁immaterial
▁winterbourne
planned
▁midway
▁inferred
▁congratulation
▁addendum
▁shrunk
▁counterfeits
fibre
▁exhausting
micro
performing
limits
designed
▁interdisciplinary
▁glaringly
▁graduate
▁affiliations
▁notifying
multilingualism
▁1965
democrat
▁tory
exploited
▁bolstered
▁rocks
▁pelinka
▁preoccupations
▁languedoc
▁globalized
▁boxing
integrating
▁pervenche
▁truest
▁nip
▁bowing
▁barrage
▁bothers
▁calmer
sudan
▁needles
▁kidney
▁advisedly
▁jordanian
▁deconcentration
▁expropriated
recognising
▁deindustrialisation
▁digitalisation
▁succumbing
▁polices
▁karin
▁gods
▁sponsoring
▁accessories
▁hopelessness
▁shah
▁sap
▁networked
huge
▁commute
▁consign
▁pooled
▁fist
72
▁rejoin
▁horticulture
islam
▁veterinarians
▁censured
▁disbanded
▁knot
▁dichotomy
▁nod
▁unlocking
▁detaining
▁imprisoning
▁sergio
▁dramas
▁memorable
▁sour
▁tangibly
▁collects
▁borderless
▁contending
cadmium
costs
▁epilepsy
worldwide
▁incarceration
▁luca
▁lobster
▁candle
▁theocratic
esdp
▁curie
▁223
▁déby
super
▁smoother
66
doha
▁miraculous
▁unexplained
innovative
▁shackles
▁devaluations
▁antimicrobial
▁720
▁entertaining
▁martti
▁refuges
▁durant
▁dockers
▁plenum
▁maoists
▁censored
▁bastion
▁xvi
sheet
target
▁reimbursements
▁aguilar
▁baseline
▁earl
▁patijn
soil
▁cowen
▁personalised
wider
▁joan
exit
▁grooming
fta
▁acknowledgment
▁andrikienė
▁guillaume
▁thyssenkrupp
▁szczecin
▁presedo
▁hennicot
▁toia
▁geringer
▁cottigny
▁interbank
▁nanoparticles
▁correia
▁rivera
gnss
▁băsescu
▁transgender
▁preda
1089
▁wohlfart
▁locating
▁undefined
▁sourced
eighteen
▁countermeasures
ecological
mainstreaming
▁affiliated
december
▁194
▁wicked
▁ulster
▁ix
▁hops
0005
recycling
▁cables
▁contagion
nazi
▁repudiated
▁instinct
▁valentine
0095
▁retroactively
0082
▁blunder
backs
▁turnaround
▁marginalise
▁burner
▁essex
▁sociological
▁braking
0025
genetically
▁leaking
▁swell
▁insects
0021
▁thermonuclear
▁granada
▁afflict
0033
macro
▁fragment
▁cordial
admission
forgive
0053
reciprocal
▁flagged
▁recreate
▁replicate
relevant
▁christopher
▁cue
▁throat
▁andalusian
▁archive
0171
▁meticulously
0112
▁wade
▁nodding
▁umbilical
0081
▁employable
▁generalisation
▁carve
0218
▁staggered
▁overt
▁delocalisation
▁quieter
▁disturbs
▁symbolise
▁slash
▁adulterated
▁woken
▁montesquieu
▁obsessive
▁untouchable
▁breathtaking
▁ingenious
▁fend
▁propagate
▁localities
▁clan
▁rolls
▁conveniently
▁beautifully
▁216
0080
▁surgeon
▁watchwords
▁nutritious
▁construed
▁rub
▁marianne
▁provocatively
christians
▁renationalising
▁insurer
▁lawless
▁extravagant
▁210
transitional
▁respite
▁imagining
fatuzzo
▁chronological
▁derail
appointment
▁digest
▁likened
0131
▁terrorised
0111
▁semblance
maximum
▁subcontinent
▁vertebral
▁overburden
0183
interoperability
hitting
space
▁industrially
trying
holding
▁donating
en
▁chase
▁cleverly
▁windmills
▁irreversibly
▁entourage
declaration
constructive
motivated
▁omnibus
▁hardworking
▁relegate
▁tumours
category
june
▁baccalaureate
▁stressful
▁unscom
preventive
▁towed
▁rectification
▁cult
0188
plans
fact
▁fertilisation
▁disincentives
▁bloodbath
▁arithmetic
▁graphically
activities
0229
▁substituted
bureaucracy
▁internalising
▁shallow
▁registrations
▁expansive
▁idiotic
▁habitually
▁reinstating
▁didn
fuels
▁211
▁diagnose
▁logistic
▁heaviest
▁bursting
▁172
▁proficiency
▁fridges
▁deduced
▁ousted
▁meles
execution
facing
▁sacked
▁devaluing
▁chadian
approved
▁angelika
▁perish
f
▁factored
▁technocracy
remunerated
▁relativism
extraordinary
▁retabling
concentration
▁tripled
▁prototype
▁hubs
▁ar
▁lex
▁corfu
▁akp
▁sonars
▁viking
▁genk
▁bolivian
▁geostationary
▁yukos
▁kohlíček
▁exiting
▁cognitive
textile
solvit
▁lévai
▁dink
▁ferrari
▁cras
▁mobilizing
▁crs
schäfer
▁jeopardizing
▁legalization
▁summarized
▁elise
▁inadmissibility
▁subvert
▁expeditiously
▁periodical
▁540
▁boundless
▁refocusing
▁juris
▁timetabling
▁coastguards
▁slicks
construction
▁evenings
0003
▁infinitum
▁teu
▁piled
foot
▁barak
▁syrians
ecofin
▁fanciful
▁spaak
▁squabbles
▁verdicts
passing
▁facie
▁ultimatum
▁bowed
minority
▁synchronised
▁hinge
▁vertically
tape
▁interlinking
▁disunity
0168
▁reconsidering
▁drying
▁borderline
▁linkages
▁luckily
▁harrowing
▁landmine
▁creep
▁sanctity
▁coloured
▁blurring
▁340
▁internationalist
0166
▁evolutionary
▁refinement
▁err
▁adapts
▁combats
▁rugby
0159
0163
▁restraining
▁grozny
0173
traditionally
▁testified
▁interpersonal
▁spilled
chief
0191
▁minster
▁vaguely
0043
0047
▁spoils
proclaimed
▁dury
▁distributor
professor
▁hectolitres
▁transiting
▁labouring
▁eutrophication
09
▁robs
▁contests
▁mars
▁polemic
analysis
▁1964
▁limburg
▁rapidity
▁väyrynen
▁naïr
▁carter
▁awakened
▁escb
0207
0213
▁cué
▁precept
▁positioned
▁betrays
football
▁reintegrating
▁photos
▁masks
westphalia
▁crumbling
▁tabloid
▁marched
▁sounder
▁undernourished
consultation
▁alternate
▁theonas
▁doctoral
0135
▁deduce
▁mixes
▁mock
0219
▁lotteries
▁apace
▁inventiveness
▁overstep
groups
▁conservatism
emphasised
▁thinkers
▁lagged
▁celebrates
▁venues
▁atom
timed
▁relinquishing
▁uniforms
▁charade
portuguese
▁divine
▁erased
▁marino
estimates
▁semen
orcoyen
final
▁fixes
▁infertility
▁dutchman
▁ravages
▁inexorable
▁outburst
▁disburse
▁stealth
▁iivari
▁guido
conceived
▁drawer
▁converters
▁obscurantist
▁arusha
▁flux
▁constrain
▁harass
▁danone
▁parthenon
▁unconvinced
▁ria
▁gendarmerie
▁bart
▁thoroughgoing
▁subregional
▁transitions
▁injunctions
▁duped
▁positives
▁biotech
▁charlie
▁imitate
▁sunt
▁servanda
▁forbearance
twinning
▁blockages
▁triangular
▁allergens
▁slashing
▁catered
▁demersal
▁maze
▁revisiting
▁gloom
▁eba
▁apportionment
▁kissinger
▁diary
asian
▁bruges
▁rekindle
orozco
▁loya
▁particle
▁tyrannical
▁onboard
▁messaging
▁suez
healthcare
▁hobby
▁glimpse
▁ordnance
▁mismatch
▁renamed
abbreviated
▁konver
▁sachs
▁nanosciences
▁punctuality
▁poppies
▁hansen
▁eidhr
▁passerelle
▁subheading
▁whistleblowers
▁’
▁landsbergis
▁fluoride
▁overlay
▁vits
▁sophia
▁siberian
▁westlund
$
ugric
▁nongovernmental
▁peacebuilding
▁cizelj
▁göncz
▁xxiv
▁litvinenko
▁censuses
▁censenda
▁antimicrobials
▁ghs
▁jobbik
▁ufm
▁penalizing
▁marinucci
▁papakyriazis
▁graenitz
0105
0104
0083
delays
▁probity
0107
▁sparse
curiously
▁spokespersons
▁compassionate
▁foundered
▁ff
infected
prone
▁permeate
▁gauges
0040
▁celtic
▁republicans
▁fpÖ
▁stigmatise
▁reich
▁cosmopolitan
▁politeness
▁conceivably
▁stranger
▁faceless
0194
▁lightweight
▁resurrect
▁generalisations
▁enlarges
0024
calais
▁noxious
0029
▁espoused
▁immature
focusing
opened
▁sickening
▁cobbled
0042
▁honorary
▁knocked
▁optimised
▁loyally
▁indecision
▁shades
▁jesus
▁correspondents
▁puzzling
0205
students
▁pleasantly
▁hijacking
▁reshaping
▁contemptuous
▁celsius
▁accommodates
conservation
▁tact
closing
▁strenuously
▁digression
▁retable
▁invoice
▁shutdown
understandably
0223
▁milligrams
revision
▁hesitations
▁maker
▁legible
▁warmongering
54
▁reparations
0076
▁fascinated
▁perpetuation
▁subscribing
▁hushkits
▁judiciously
▁antagonistic
▁reconstructed
provoking
0061
▁vander
▁taelen
cloning
▁scarred
▁pulse
▁implacable
▁reproaches
▁toxicological
refugees
▁vitae
▁markers
fewer
0225
▁departs
▁gabriel
▁continuance
▁uca
▁centrepiece
prudential
▁abandons
defending
0077
▁runway
▁canteens
▁fiddle
▁slant
▁deutschmark
▁ruinous
▁victimisation
414
▁obasanjo
▁afoot
▁assigns
own
▁pond
▁encompassed
0138
▁jingsheng
cop
▁florida
▁biarritz
▁oppressors
▁reverend
▁assiduous
obligatory
▁diminution
▁silk
▁pharmacists
doctors
sidedly
▁gag
▁outspoken
▁reaped
insufficient
▁amalgam
▁boycotts
eminent
▁animated
project
▁concertation
ironically
▁bombardment
▁tips
condition
▁moderating
▁inert
esteem
▁mast
▁muscles
▁biologically
▁eif
exports
▁alright
▁navel
▁comforting
▁sweetener
▁telematics
▁dysfunctional
▁asleep
▁tramples
▁insinuations
▁stcw
▁wandering
▁dispersion
▁normalising
87
▁terrific
▁preached
▁rfos
▁arrogantly
▁ham
▁intercontinental
muslims
▁mercedes
▁mushrooms
▁lender
▁vet
namely
▁persecutions
▁songs
▁specious
▁retrial
▁ointment
▁complication
▁attest
▁commuted
▁cm
▁despotism
▁illustrious
▁1947
▁hurting
▁fatally
▁hygienic
▁swap
▁unfeasible
▁lucidity
▁treasuries
▁heralds
▁outstandingly
▁nominating
conflicts
▁emirates
▁seamlessly
▁junk
▁garrett
▁locking
matter
▁islamophobia
▁edward
▁housed
▁bashir
▁marseille
▁undone
▁starved
▁sharpen
false
▁valiant
▁jericho
▁gmes
▁compass
▁stockton
▁karen
▁ppp
▁stamps
▁arabian
weee
▁rangel
▁adoptive
rome
▁icts
▁salam
▁geopolitics
cola
pesticides
▁croatians
Α
▁empa
▁montenegrin
rising
▁parities
▁guidoni
▁togolese
▁benedict
▁evictions
▁261
▁bono
▁castiglione
▁pieper
dys
▁søndergaard
▁eis
▁jadot
▁computerization
▁soltwedel
▁kestelijn
▁triviño
▁cunningham
0106
resistance
▁leavers
▁assimilated
▁competitivity
▁misdemeanours
▁chiquita
0228
▁rhône
▁stubbornness
▁strictness
▁submerged
▁holidaymakers
▁millennia
▁cogent
▁stagnate
ensure
▁banker
reconstruction
▁dancing
▁rabbit
▁assaulted
▁outwards
▁romany
▁reinvested
▁dagmar
▁orwellian
phase
▁monopolised
▁vlaams
▁ploy
▁resemblance
▁decourrière
▁militate
organisations
▁propensity
▁restating
foodstuffs
▁pandering
▁spa
▁sourcing
0141
0034
▁experimenting
▁murcia
▁verging
▁orbit
▁temper
▁abomination
▁ponte
▁inquisition
0031
▁displace
▁marin
▁disposition
▁propositions
il
everywhere
▁aggressors
0170
0153
0172
67
▁nineteen
▁climax
0037
500
▁negate
▁beam
0016
▁categorisation
▁confiscating
▁provenance
▁preconceived
quota
▁alimentarius
▁dishonesty
▁crowning
▁icrc
0265
▁demagogues
▁punch
paul
0068
▁sketch
▁gauntlet
▁categorised
▁restarted
▁timed
stock
0227
elsewhere
recognised
▁plebiscite
▁aachen
▁accruing
▁journalistic
systematic
tested
▁skewed
▁messenger
▁gays
fresh
▁mornings
▁jumped
▁pollen
▁overloading
0065
checks
▁insure
▁traits
▁kids
0299
strategy
▁waking
▁spd
▁dole
▁ravaging
0092
0128
presumably
▁göran
▁seamless
▁evolves
▁coms
▁psychology
▁disagreeable
stone
▁matikainen
▁watches
▁330
▁intricate
▁stoiber
▁revelation
▁pasture
screening
▁hearty
▁presumptuous
▁accessory
▁adverts
▁surpass
▁flew
▁manipulative
▁goings
▁frighten
▁unholy
▁shirking
▁projecting
gathering
▁waning
▁improbable
body
▁deck
▁agitation
communism
▁collated
▁lethargy
▁paciotti
▁pioneered
▁accomplishing
greek
▁interval
▁silencing
modal
▁averaging
▁lusaka
▁incomprehension
▁blessings
leave
▁cephalopods
▁instalments
▁gripped
▁tormented
▁swoop
▁sanco
▁sensed
▁receptiveness
▁elitist
▁redevelopment
▁ifi
▁meaningfully
▁plaster
▁q
▁internalise
▁tame
▁gore
▁taba
▁lawmakers
▁vulgar
copyright
▁defies
internally
▁cabinda
▁perpetrating
▁blew
▁smoked
▁abides
▁tall
▁denials
▁heaters
▁cavalier
▁tampering
▁natalia
▁massoud
intensity
▁dumb
▁flagging
▁buddhists
▁allusion
▁monk
▁logged
▁kidnappers
importantly
▁adulthood
▁unsavoury
▁cycling
▁blend
▁travesty
▁tags
▁contraventions
accident
▁197
▁immovable
▁renegotiating
▁recruits
▁untying
▁entrench
▁pits
▁refurbishment
▁descended
▁yitzhak
gross
_
▁barracks
coal
▁duplications
▁clinic
73
▁elder
▁bracket
▁birmingham
sulphur
▁dwelling
▁emigrated
▁turkestan
fund
▁relays
▁cormorants
determined
▁outflow
▁ethyl
▁preselection
block
▁andreas
▁humanities
▁newborn
▁shirin
▁capturing
▁limerick
▁onyszkiewicz
▁jerzy
▁foglietta
▁eupol
▁metrology
▁lobo
=
▁eurostars
▁pmoi
printing
▁institutionalized
▁borloo
▁buşoi
▁foll
▁rushdie
▁provera
▁merkies
▁deauville
harmonization
▁mecu
▁abiola
sierens
▁nikitin
relating
▁fifths
expanding
0069
▁overstate
tuned
▁jurists
▁karlsruhe
▁gears
▁tab
▁lorraine
▁greeting
0041
▁pervades
▁soares
▁erratic
▁keyword
▁vouch
codecision
400
▁recyclable
▁cheek
▁pad
▁nostalgic
▁governability
gentlemen
▁quaestor
▁underused
▁pretends
▁marginalising
▁impassioned
▁vu
▁arlene
▁owning
▁dread
32
▁approximating
▁misconceived
▁alleging
berlin
0049
0253
opinion
▁laboriously
listen
0308
interim
playing
468
handedness
0157
radio
▁reporter
0164
▁diabolical
marketing
▁swingeing
▁naively
▁blanco
▁robustness
300
floods
▁pervasive
potential
▁sobering
▁spoiled
▁karelia
▁predominate
▁indulged
▁provisos
families
0201
placed
0190
0202
0312
0062
0063
▁inventories
▁garcia
0050
▁ghetto
▁batasuna
commitment
▁revulsion
▁evoke
▁squads
▁classroom
▁politico
▁niels
▁consented
0263
▁lurking
▁airborne
▁ivanov
0248
▁las
▁genesis
0210
november
▁redeploy
▁commercialised
pass
▁cd
▁salami
beginning
concern
0216
▁softer
▁820
▁dependable
▁defying
▁bothering
▁disorganised
▁cemetery
eldr
▁unconventional
review
▁vicissitudes
▁returnees
▁delusion
0115
▁shuttle
▁apprehensive
▁deterring
▁grazing
▁relex
▁configurations
▁screened
▁dull
▁shambles
▁jrc
▁exhibited
protests
▁ccees
▁integrationist
▁finishes
▁shrimps
▁characteristically
▁neglects
▁underscored
▁veterans
▁invalidate
▁sided
▁exterminated
▁po
▁unachievable
emcdda
▁retract
▁moderately
▁manners
▁diagnostics
▁contrived
▁chairpersons
schmid
769
▁medically
biodiversity
▁eviction
sir
▁regularised
▁algeciras
▁colonised
▁virginia
assad
▁trivialise
overcoming
▁1918
▁derogatory
▁reflexes
▁zorba
▁cinematographic
▁longed
▁mopeds
▁glase
▁circuses
▁ioc
▁ambulance
monopoly
▁tutsi
criminals
▁legalistic
▁hazan
crimes
▁glove
▁monoculture
▁caucasian
▁faltering
▁assassins
▁preconceptions
europa
▁animosity
▁mcdonald
feed
▁availing
▁insinuation
▁pericles
▁poetry
▁eventualities
▁pitted
▁composers
authors
▁topping
improvement
▁credo
reduced
citizenship
▁gorbachev
▁apposite
▁swill
patent
▁algae
▁unaffordable
▁extinguished
▁constructions
▁nomadic
▁tentatively
▁rounding
▁involuntary
drafted
▁neurological
▁selfsame
deep
▁synchronisation
▁owen
uniform
▁abhor
▁325
▁jessica
▁holmes
▁732
▁outwith
september
▁ridden
▁ingrained
▁whiting
▁download
▁videos
▁liquefied
▁necks
▁annul
▁understandings
weapons
▁presidium
▁chlorinated
▁loving
▁bioterrorism
sorry
▁tenderers
▁alleviated
▁grub
▁biagi
▁dwellings
▁1946
sale
▁poultrymeat
▁frightens
▁demarches
stakeholder
▁yiannitsis
▁oligopolistic
▁duplicity
▁córdoba
▁antiviral
74
▁broiler
—
▁kósáné
▁belohorská
▁mote
▁kinga
▁herrero
▁kaczmarek
▁libyans
▁ajello
▁eas
schoepges
▁nyerere
mdgs
▁oedenberg
▁badia
▁1701
▁kibaki
▁mhz
▁saberi
▁salman
▁jędrzejewska
▁liberalize
▁kjer
▁malone
▁argyros
▁kofoed
▁authorizations
▁schiedermeier
▁megahy
▁sympathize
▁guinebertière
▁164
0208
0122
▁aggregated
overs
▁restates
0090
▁disrespectful
extremely
▁mired
▁randomly
▁unforgivable
▁relinquished
▁troop
▁exportation
▁yen
▁emptied
▁sideline
▁reappraisal
▁ghosts
▁gainful
wise
▁albright
▁rediscovered
0180
▁emblem
▁gifted
▁misusing
▁infiltrated
▁adjective
▁corrects
▁mechanically
▁élite
▁viviane
▁miscarriages
▁teresa
▁arid
▁unusable
▁gently
▁proliferate
▁barring
▁culpability
0035
▁expertly
▁masterpiece
0174
▁otc
restrictions
▁confessions
▁outbursts
▁labourers
▁mob
0178
0156
0177
▁blames
▁tisza
▁emigrating
▁spoilt
▁brewing
▁assiduously
▁bereft
▁helplessly
0039
▁shimon
▁gillnets
▁unexploited
▁deplete
▁overstated
▁religiously
▁unleashing
historic
▁advantaged
▁cliché
▁accomplice
▁eats
▁pereira
▁inscribed
▁doggedly
▁dishes
speakers
0055
0094
violations
▁excused
▁recriminations
▁widows
religion
▁sensational
0054
0056
▁deceitful
beijing
▁apprehended
▁outweighs
▁nicholas
▁overshoot
▁languishing
▁replenish
▁mancha
reaction
0204
0211
▁professed
▁efficiencies
▁intercept
genetic
▁loathsome
▁compulsorily
▁emanate
▁unhappiness
▁virulent
▁emergent
▁evicted
▁businesslike
▁paisley
111
winner
▁312
contaminated
▁coli
0129
0088
ethiopia
▁crave
▁dearth
▁tug
▁tendentious
▁practicability
▁occupiers
▁georg
smaller
supervision
▁complexes
▁plots
airlines
▁overrule
▁hazelnuts
▁bricks
rarely
▁precludes
▁devastate
▁antagonisms
▁regretfully
▁soared
initial
▁lured
earners
▁contraceptives
▁foretaste
race
guinea
▁nld
▁gatherings
▁nuance
▁molluscs
heckling
▁breathed
▁voltaire
▁disingenuous
isolation
▁shevardnadze
▁perennial
checking
▁ian
▁arbitrator
▁injunction
▁con
0221
▁pacification
▁outweighed
procedures
▁hormonal
▁weary
0085
▁embezzlement
▁edfs
▁glenys
▁theatres
▁piloting
▁mooring
▁overland
▁insignificance
▁redesign
▁flare
▁legitimation
▁184
▁antidote
▁transcending
officially
▁prawns
▁saddle
▁peaches
▁instalment
ground
▁inverted
southern
▁domiciled
▁ingenuity
▁reflex
▁tsiakourmas
▁epizootic
▁marbles
▁backup
▁depleting
▁sardinia
▁evaporate
▁revoking
▁entangled
▁incipient
▁lowers
▁cosac
▁scholars
▁umberto
fast
head
▁settles
▁overheating
▁caricatures
▁enumerate
▁swayed
destruction
chile
▁perished
▁bunker
▁stockpile
▁availed
▁surgical
▁harshest
divide
▁ida
▁chartered
agency
▁hood
▁somaliland
▁microchip
▁connectivity
▁barton
▁eads
▁interestingly
extensive
eurojust
▁roundabout
▁cannibalism
▁scruples
▁forbidding
▁implant
▁poseima
▁5000
▁zrihen
occupied
▁unbureaucratic
▁bric
▁glaciers
▁cassation
▁determinant
▁kronberger
▁oxford
▁strauss
▁booth
▁elena
▁rewriting
▁1933
▁rethought
interpretation
uzbekistan
▁interdependency
▁commonality
▁artillery
▁phrased
▁inexplicably
▁appendices
▁flexibilities
▁shiite
▁babel
voters
▁tamper
march
▁ingrid
▁contraction
▁rim
▁hundredth
▁unblocked
▁likud
▁scholarship
heiner
▁vouchers
▁abidjan
▁kampala
▁cetaceans
▁zakayev
natura
▁icelanders
associated
martin
▁afet
▁erkel
▁herranz
premises
▁vallvé
▁aliyev
enisa
▁molotov
sinn
▁cherries
▁siekierski
▁janusz
▁rachinel
▁fazakas
▁mintz
▁disruptors
▁davis
▁pascual
▁longterm
▁larrañaga
▁fidesz
▁kalfin
▁madurell
▁eaw
▁príncipe
▁sinai
▁eurolat
▁amr
114
▁lenarčič
▁sârbu
▁sba
▁lunacek
▁magistris
▁haitians
▁giannakou
▁patrão
▁nagoya
▁afiuni
▁destabilize
▁assange
▁tamino
▁finalize
▁couto
0108
▁aparicio
▁staunchly
▁bailout
▁renationalised
▁suspense
safeguarding
▁ne
▁unseen
0158
▁biosphere
▁hype
▁decently
▁520
▁bestow
▁insistently
▁assuage
▁elevate
▁impressively
▁timidly
▁constitutionality
▁sledgehammer
0341
granted
▁convoluted
▁nigh
▁spearheaded
▁enthusiasts
stepping
▁falsehood
▁drained
mountain
▁nanny
▁glossed
▁debilitating
0242
▁arc
0134
measure
▁tightens
0036
▁gestation
▁electioneering
▁intimated
▁navigable
▁decentralise
▁denigrate
▁siding
▁delightful
▁stringently
▁rides
▁impositions
comitology
▁derailed
▁triumphant
0160
0152
0161
▁exonerate
▁redressed
weight
▁duchy
▁sophistication
rightly
▁inferiority
▁biologists
▁starkly
▁seine
▁seafood
▁vaunted
▁inhabit
▁plucked
▁horst
0249
0097
▁surfaced
▁overstepped
▁movers
▁summertime
▁perfecting
▁polygamy
▁demonising
▁defeating
▁twist
▁headaches
▁olds
▁1954
▁fry
▁stunt
0246
0276
0257
▁plummeted
▁tempt
▁aspired
▁underwrite
▁blacklists
▁abattoir
0214
▁consults
▁fantasies
▁capped
▁shoots
electricity
0070
▁209
▁lure
▁influxes
▁unannounced
▁accomplis
▁dosage
▁inspirational
▁hutus
▁incomparably
▁estimating
▁gaseous
0102
▁surname
modernisation
▁pittance
▁gaelic
▁enslavement
▁frivolous
▁foresters
▁perceptive
0146
▁intentioned
▁fooling
▁slack
presentation
▁creations
▁480
▁tgv
▁carriages
▁sloppy
▁minimises
▁revaluation
▁paradoxes
sceptic
clarity
▁invokes
presidency
escalation
▁persian
▁hammering
▁fortified
unilateral
▁anachronism
dublin
▁pedro
▁clique
▁tenants
roussillon
institutions
▁punctually
▁torch
▁adage
built
▁kennedy
▁inventor
▁uphill
▁mesopotamia
▁reinvigoration
▁bearer
0300
overdue
▁widens
▁absorbs
▁biomedicine
▁diagnoses
▁amman
▁gary
▁reproducing
▁loudest
▁turbines
▁murmansk
▁moi
▁bearable
▁impeccable
▁flex
searching
committal
restoring
▁259
▁trebled
▁il
▁mecca
▁assyrians
▁karabakh
▁secessionist
algeria
▁pinpointed
▁consequential
▁exams
containing
▁reread
▁agrarian
▁pressurise
population
▁tories
▁click
▁server
▁heir
ve
▁uighur
▁boris
utri
▁alluding
▁reshape
▁rug
▁shia
▁initiates
▁portals
▁hiroshima
▁lignite
▁poker
▁seaports
▁imbalanced
▁comic
authorisation
▁lifecycle
▁maskhadov
▁mme
gcc
▁renate
▁spanner
▁rovno
away
fed
asking
▁alonso
▁zenawi
hasty
▁tradable
▁pinned
▁textual
▁medications
▁pears
▁remittances
▁coupling
empting
▁watchdogs
utilisation
▁mutuality
urges
▁foam
▁decabde
fruit
▁incommunicado
▁insurgency
▁azf
▁lane
pacific
october
▁dispatched
▁950
▁recapitalisation
▁flour
▁mined
seventhly
▁revisionism
▁halls
▁ambivalence
▁agglomerations
▁encroaching
▁falsifying
▁distilleries
▁yassin
▁karachi
▁altruistic
▁magical
▁nasa
alone
▁785
▁demos
▁backtracking
opting
eminence
▁cantons
marine
▁propulsion
act
▁stavros
▁divorces
island
▁altmark
iuu
pack
▁józsef
▁romani
ukrainian
▁ransdorf
▁romagnoli
decent
▁timeline
▁apparel
▁iturgaiz
▁helpline
▁bloggers
▁plassnik
▁hrant
▁blogs
▁frança
▁facebook
▁morvai
▁icesave
nle
▁esm
▁thermie
▁revitalize
▁castellina
▁todini
▁arroni
0066
0121
0073
▁punches
▁aborted
▁foisted
▁effecting
▁layoffs
▁exxon
▁firemen
organisation
tv
officials
▁helmets
▁tom
▁siting
▁camre
▁reinvigorated
▁valve
▁medal
▁smear
▁dodge
february
▁snake
▁kings
▁rabble
▁precepts
▁underneath
▁exploding
▁quagmire
▁guigou
▁domicile
exceptional
▁unsuccessfully
simple
cambodia
▁surfaces
▁sixteenth
▁alba
▁anomalous
0026
▁cornwall
▁substantively
0057
parallel
0222
▁barzanti
▁klm
▁unctad
0260
47
▁antithesis
▁interwoven
▁disquieting
0199
▁hardening
▁crumble
[...]
