<blank>
<s>
</s>
.
▁the
,
▁of
▁and
)
▁be
2
▁to
▁in
▁shall
3
1
▁a
▁or
(
▁for
-
4
▁with
▁(
5
▁is
▁that
▁not
6
▁fire
7
:
▁by
▁as
▁are
▁system
a
▁an
▁on
▁where
8
▁equipment
▁from
▁at
▁than
▁permitted
▁accordance
▁systems
▁other
▁should
▁used
10
▁required
9
]
▁this
▁protection
▁requirements
▁provided
▁[
▁all
▁installed
b
▁such
▁building
▁ft
11
/
▁following
▁m
▁nfpa
▁standard
▁any
▁use
▁means
13
▁water
▁can
12
▁mm
▁have
▁one
▁conductors
▁sprinkler
▁alarm
▁power
▁less
▁it
▁area
▁section
s
▁1
▁more
▁class
▁if
▁each
▁test
c
▁within
▁storage
▁through
▁pressure
▁electrical
▁control
▁circuit
▁smoke
▁emergency
▁when
▁sprinklers
▁no
▁code
▁listed
14
▁installation
▁protected
▁located
▁service
▁approved
▁design
▁devices
▁space
▁conductor
▁materials
▁safety
▁areas
▁type
▁supply
▁2
▁which
▁grounding
▁cable
;
▁having
▁3
▁level
▁between
▁comply
▁table
▁7
▁minimum
▁maintenance
15
▁buildings
▁automatic
▁testing
16
▁see
▁device
▁egress
▁air
▁chapter
▁conditions
▁only
▁floor
▁location
▁operation
▁apply
▁pump
▁general
▁exit
▁construction
▁pipe
▁include
▁they
17
▁rating
▁metal
▁valve
▁so
▁provide
▁cables
▁10
▁maximum
▁8
d
▁current
▁tank
▁6
▁load
20
▁two
▁under
▁has
▁single
▁4
▁occupancies
▁but
▁exceed
▁part
▁gas
▁circuits
▁provisions
▁open
▁unless
▁specified
▁occupancy
▁will
▁discharge
▁ceiling
▁piping
▁ground
▁figure
'
▁also
▁locations
▁high
▁motor
22
▁hazard
▁fuel
▁access
▁might
▁information
101
▁connected
▁13
▁time
▁material
▁including
▁door
▁room
▁9
▁above
▁source
▁jurisdiction
▁designed
21
▁temperature
▁these
▁containers
▁applicable
▁methods
▁percent
▁12
18
▁point
▁note
▁edition
▁into
66
the
▁performance
▁spaces
▁wiring
▁their
▁authority
e
▁considered
▁structure
▁combustible
24
▁manufacturer
▁branch
▁facilities
▁communications
30
▁using
▁connection
▁wall
see
▁operating
▁heat
▁method
▁been
▁during
▁—
▁both
▁voltage
23
▁capacity
▁doors
▁inspection
▁tanks
▁distance
▁limited
nfpa
▁unit
▁assembly
informational
▁hazardous
▁made
▁detection
▁standards
▁outside
▁least
°
▁its
▁i
▁number
▁liquid
▁20
▁those
f
▁existing
▁over
–
figure
▁care
▁conduit
▁personnel
▁5
▁resistance
▁tests
▁parts
▁work
▁flammable
▁without
▁flow
▁liquids
▁valves
▁rooms
▁meet
▁notification
▁damage
▁operations
▁size
▁there
▁intended
▁hazards
▁either
▁necessary
▁signal
▁rated
▁facility
▁enclosure
▁height
0
▁identified
19
exception
▁does
▁prevent
▁life
▁additional
▁line
▁article
25
▁grounded
▁detectors
▁30
▁new
▁criteria
▁interior
▁tested
▁available
▁below
▁ensure
▁openings
▁same
▁types
▁based
▁application
▁individual
▁electric
▁appropriate
▁special
▁being
▁require
▁0
*
▁portable
▁procedures
▁data
▁fittings
▁overcurrent
▁detector
▁normal
▁components
▁greater
▁low
▁hose
▁maintained
▁confined
▁units
▁condition
▁specific
▁switch
▁11
▁disconnecting
33
▁otherwise
▁container
▁could
▁may
▁surface
▁walls
▁enclosures
▁connections
type
▁similar
42
▁protective
26
▁zone
▁assemblies
▁spray
▁bonding
▁opening
▁entry
▁transfer
▁ahj
▁side
▁do
▁lighting
▁occupant
▁response
▁50
▁manual
▁b
▁structures
▁steel
▁plan
▁purpose
63
▁250
▁process
▁requirement
▁ventilation
▁adjacent
▁throughout
▁horizontal
▁vertical
▁insulation
▁travel
▁risk
▁exposed
▁public
▁alarms
▁accessible
▁exceeding
▁101
▁example
▁installations
▁some
▁persons
▁stored
▁determined
▁department
▁flexible
▁appliances
▁suitable
▁multiple
▁met
▁15
▁marked
▁complying
▁purposes
▁volts
▁except
▁18
▁given
▁box
▁associated
▁recommended
▁heating
▁total
▁=
▁battery
circuit
▁separate
▁loads
▁width
g
▁occupants
▁was
▁ansi
▁100
▁evacuation
▁acceptable
▁health
27
▁raceways
▁fixed
▁against
▁follows
▁ii
▁failure
▁contact
▁physical
▁25
32
▁main
▁14
▁separated
▁electrode
▁finish
▁would
▁gases
▁subject
▁determine
▁boxes
▁instructions
▁l
▁national
28
▁dry
▁after
▁classification
▁potential
▁full
▁ignition
▁common
▁vehicle
▁primary
▁exits
▁owner
▁cord
gas
▁defined
▁per
▁mechanical
▁300
▁sources
▁permit
▁continuous
▁equipped
▁analysis
▁roof
▁raceway
▁lp
▁length
▁elevator
▁controller
based
▁performed
▁lightning
▁direct
▁energy
▁described
▁safe
▁equivalent
▁engine
▁proper
▁pumps
▁inside
▁support
▁due
▁characteristics
▁station
▁spacing
▁marking
�
▁visible
▁distribution
▁directly
▁cylinders
▁corrosion
▁release
▁set
29
▁industrial
▁flame
▁16
▁every
31
▁most
▁remote
▁capable
▁document
▁c
▁provides
▁shown
▁solid
▁enclosed
▁case
▁light
▁arranged
▁rate
▁were
▁nonmetallic
▁up
in
▁containing
▁program
▁top
▁before
▁signals
▁included
▁group
▁evaluation
▁relief
▁position
▁supervised
▁exterior
▁qualified
▁covered
▁possible
▁underground
▁sections
▁codes
’
▁vapor
▁gal
▁addition
▁24
▁constructed
▁field
▁need
▁stairs
hour
▁barrier
▁because
▁person
ul
▁division
▁compliance
▁inspected
▁motors
▁d
▁stair
▁prior
▁extinguishers
▁closed
▁applied
▁switches
▁attached
▁present
▁path
▁signs
▁nominal
▁receptacle
▁cause
▁well
▁upon
rated
▁metallic
43
▁lines
▁listing
▁sufficient
▁levels
▁results
▁first
▁signaling
▁conducted
▁manner
▁three
▁supplied
▁portion
▁frequency
▁short
▁while
▁annex
▁exposure
▁non
▁combination
▁property
▁receptacles
▁factors
▁another
▁basis
▁different
▁exhaust
▁large
▁chapters
▁function
▁documentation
▁corridor
▁larger
▁intent
▁management
▁secondary
▁copper
▁arc
▁times
▁outlet
▁changes
▁ampacity
i
▁cooking
▁loss
▁dwelling
▁fires
40
▁premises
▁wood
▁measured
▁sleeping
fault
▁transformer
▁training
▁66
▁operate
▁working
▁result
▁placed
▁who
▁scope
▁must
▁17
▁22
▁residential
▁oil
▁breaker
▁mist
▁operated
▁center
▁place
50
▁vehicles
▁60
▁aisle
▁classified
▁event
▁indicate
▁arrangement
▁floors
▁nozzles
▁vapors
▁compartment
▁points
▁barriers
▁internal
▁specifications
▁form
▁audible
▁change
▁end
▁normally
▁features
▁limit
▁removed
for
rack
▁taken
69
▁designated
▁however
▁self
m
▁output
▁hot
▁e
▁70
▁insulated
▁small
▁appliance
▁complete
▁day
or
▁adequate
▁readily
▁iii
▁contain
▁rescue
▁range
▁terminal
▁allow
60
▁examples
▁out
▁local
▁services
▁clear
36
▁publications
▁surfaces
▁phase
▁astm
▁1000
▁effective
▁plans
▁wet
▁corridors
▁properly
▁typical
▁concrete
▁practice
▁products
▁lb
▁tubing
▁escape
▁off
▁automatically
▁awg
▁contents
▁protect
▁higher
▁racks
▁definitions
▁bottom
▁riser
▁40
▁found
▁rack
▁network
▁further
▁density
▁transformers
▁portions
▁supplies
▁plastic
▁ceilings
▁terminals
to
▁lower
▁repair
▁noncombustible
▁monitoring
▁value
▁cannot
▁23
▁mounted
▁supported
▁2010
▁dispensing
▁engineering
▁important
min
▁43
▁kg
▁structural
▁values
▁critical
▁wire
▁energized
▁controls
▁occupied
▁electrically
▁separation
▁assessment
▁regulations
▁elements
▁attachment
▁amperes
▁providing
▁feeder
▁check
▁product
▁consideration
▁identification
▁sign
where
▁calculated
chapter
▁action
▁includes
▁component
▁flash
▁standby
▁19
▁ambient
▁chemical
▁2012
▁four
▁excess
▁indicated
▁seating
▁demand
▁commissioning
▁ungrounded
▁cross
▁dc
▁needed
▁breakers
▁prevention
▁suction
▁guide
▁applications
▁apparatus
▁psi
▁occur
▁obstructions
▁intermediate
▁suppression
37
▁staff
▁430
▁permanent
▁whether
▁perform
▁combustion
▁luminaires
▁gauge
▁elevators
▁batteries
▁ac
▁supervisory
▁provision
▁equal
▁fault
▁then
▁members
▁modified
▁site
▁plug
▁intervals
▁procedure
34
▁diameter
▁order
▁down
▁asme
▁cases
▁generator
▁auxiliary
▁supplying
▁make
▁meeting
▁determining
▁clearance
▁serve
▁cover
▁until
▁maintain
▁record
▁shutoff
▁smaller
▁involved
▁foam
▁integrated
▁factor
▁documents
▁specifically
▁handling
▁review
▁many
▁panels
▁thermal
▁covers
▁hours
▁temperatures
▁reduced
▁dust
▁communication
▁identify
▁entrance
▁33
▁sound
▁replaced
▁bar
▁serving
▁acceptance
▁direction
▁expected
▁110
▁effects
▁visual
▁reduce
sig
this
▁32
▁speed
▁ratings
▁established
phase
▁recognized
▁approval
▁grade
100
▁outlets
▁close
▁immediately
▁fuses
▁board
▁compressed
▁volume
▁supervision
▁secured
▁termination
▁150
▁related
▁spread
▁gpm
▁effect
65
care
▁21
▁entire
current
▁around
▁free
ft
▁permanently
[
▁sized
▁story
▁heaters
▁verify
▁written
▁minimize
h
▁quantity
▁along
▁wires
▁period
▁address
▁connectors
▁near
▁stationary
▁aircraft
▁×
▁ability
▁input
▁run
▁mass
▁initiating
▁replacement
▁alternate
▁allowable
▁knowledge
▁limitations
▁outdoor
▁permits
▁practices
▁supervising
▁development
▁72
▁alternative
▁capability
▁nozzle
▁likely
▁various
▁integral
▁trouble
▁technical
▁requires
▁kept
▁production
▁temporary
▁finished
▁movement
▁housing
▁mobile
▁activation
▁optical
▁partitions
▁project
▁integrity
▁items
▁external
▁long
▁drain
▁increased
voltage
▁home
▁prohibited
▁fully
▁positive
▁typically
▁reliability
▁cylinder
▁panel
▁calculations
▁selected
ansi
▁transmission
▁cell
▁controlled
▁operational
▁k
▁functions
▁organization
▁bonded
▁uses
▁voice
▁reserved
▁obstruction
▁supports
▁f
▁them
▁served
▁records
▁h
▁fiber
▁usually
▁lead
resistant
▁covering
▁responsible
▁forth
▁minutes
▁removal
▁scenario
▁developed
▁contained
38
▁ordinary
▁start
000
▁employees
▁documented
▁400
▁how
▁310
▁ducts
▁42
▁insulating
▁actual
▁cords
▁nameplate
▁state
▁extinguishing
▁joints
▁commercial
▁isolated
▁inspections
▁fill
▁neutral
▁parking
▁quantities
▁definition
▁locked
▁trained
▁shutdown
▁pass
classified
▁overhead
▁base
▁coverage
▁patient
▁stories
▁specification
▁smoking
▁contains
▁600
▁rigid
▁atmospheric
▁way
▁generally
61
▁followed
▁security
▁welding
▁aboveground
▁commodities
▁sides
▁vent
▁vessel
▁exist
▁concealed
72
52
▁report
▁oxygen
▁depth
▁requisite
▁hand
▁thickness
▁tools
▁independent
▁burning
▁atmosphere
▁needs
▁illumination
▁representative
▁isolation
▁team
▁duration
▁overall
▁addressed
▁electronic
▁luminaire
▁therefore
▁starting
®
▁committee
▁reference
▁processing
▁agent
▁warning
▁weight
▁parallel
▁mounting
▁published
▁limits
▁affect
▁measurement
▁term
400
▁monitor
▁referenced
▁explosion
load
▁thereof
▁cleaning
▁loading
▁able
▁technology
▁125
▁contractor
▁environmental
▁26
▁guest
▁guidance
astm
▁currents
▁machine
saf
▁added
▁processes
▁carbon
▁together
▁iv
▁trip
▁indicating
▁120
▁back
▁telephone
51
▁objectives
volt
▁2011
▁operator
▁wide
powered
carrying
▁exceeds
▁heater
▁measures
▁tray
▁association
▁recommendations
▁take
▁controllers
rise
▁200
▁extinguisher
▁36
▁beyond
▁certain
▁separately
▁plant
▁amount
▁often
ampere
▁aluminum
▁street
▁utility
▁selection
▁increase
▁allowed
▁clearly
▁central
▁cabinets
▁manually
▁calculation
▁disconnect
▁2013
▁job
▁informational
▁static
▁waste
▁500
▁junction
▁kw
▁seconds
▁conductive
▁model
▁indicates
▁terms
▁presence
▁even
▁authorized
▁petroleum
▁mercantile
▁v
▁extend
▁configuration
▁leakage
power
▁routing
▁mode
▁paper
▁hardware
▁overload
▁revised
▁body
41
▁evidence
▁business
▁requiring
44
▁steam
▁distances
wire
▁90
▁factory
▁derived
▁display
▁private
▁ventilating
▁resistant
▁29
▁sizes
▁approach
▁pressures
▁series
▁excessive
▁securely
▁checked
▁spaced
▁63
▁quality
▁bulk
▁contacts
▁double
▁environment
▁entering
▁plastics
▁hydraulic
▁stage
▁element
▁periodic
▁particular
▁compartments
▁skills
▁date
▁aisles
▁earth
▁suite
if
▁servicing
▁tube
▁employed
▁detention
▁occurs
▁initial
▁live
▁avoid
▁2015
▁consist
▁produce
▁articles
▁concentration
▁shut
closing
▁80
▁duct
l
▁fitting
▁joint
▁according
▁scenarios
▁drills
▁filled
▁resulting
▁utilization
▁accomplished
▁surge
▁obtained
▁explosive
mounted
▁drop
▁recorded
▁standpipe
▁properties
▁models
▁filling
▁connector
53
▁message
▁plants
▁furniture
▁sequence
▁edge
▁generators
▁manufacturers
▁waterflow
▁return
▁machinery
▁toxic
▁rules
conditioning
▁weather
▁degree
▁second
▁activities
▁evaluated
purpose
▁u
▁damaged
▁quick
▁stations
▁arrangements
▁whichever
▁incident
▁electrodes
▁become
▁mall
▁refer
▁refuge
▁tread
▁experience
▁professional
▁seal
▁head
▁essential
family
▁homes
▁radiant
▁glass
▁inspector
▁research
▁trays
▁radio
▁exists
▁fireworks
▁longer
▁remain
▁pipes
▁utilized
▁employee
▁original
▁medium
▁meets
▁cooling
▁here
▁american
▁stairway
▁800
▁strike
limited
row
▁average
▁½
▁what
▁supervisor
▁user
▁duties
▁escalators
▁dead
response
▁name
▁n
▁natural
▁years
▁sealed
connected
▁turbine
▁regarding
▁extent
▁continuity
▁ramps
▁correctional
▁plate
▁pv
▁text
▁mains
▁58
▁dimensions
▁patients
▁several
▁impact
▁column
▁approximately
▁ends
▁jumper
▁31
▁initiate
▁conform
▁manufactured
up
▁interconnected
▁fluid
▁extended
▁deluge
▁75
▁velocity
▁combined
▁broadband
▁cl
▁vessels
▁sample
▁remove
▁list
▁corrosive
▁fewer
▁shaft
▁significant
▁charge
▁setting
39
▁protecting
▁roofs
▁annually
▁depending
▁switchgear
▁dispensers
▁people
▁treatment
▁initiation
▁completed
▁connecting
▁supporting
▁continued
▁cargo
▁moisture
▁relative
▁done
▁forms
r
▁plane
96
▁risers
▁voltages
45
▁problems
▁color
▁plus
water
▁engines
▁federal
▁aggregate
▁splices
▁fastened
▁drawings
▁pre
▁labeled
▁fan
▁once
▁consider
▁preaction
▁threaded
▁affected
▁interface
▁enter
▁2008
▁drive
55
▁commodity
▁frame
▁personal
▁guard
article
▁plugs
▁windows
▁wind
▁drainage
▁situations
▁transportation
▁dwellings
▁window
▁horizontally
▁house
▁bypass
ii
▁cabinet
▁bus
▁assumed
▁conduct
▁highest
ieee
▁responsibility
▁coating
temperature
▁create
▁panelboard
▁running
407
▁feeders
▁major
▁injury
▁regardless
▁dedicated
▁complies
▁largest
▁step
▁programs
▁across
▁about
▁lieu
▁28
▁2016
▁qualifications
▁assigned
▁nature
▁laboratories
▁venting
▁69
▁basic
▁severe
▁sensitivity
▁serves
▁expansion
▁strength
▁delay
▁connect
▁impedance
▁sheath
▁2009
site
▁known
▁performing
▁caused
▁immediate
▁clean
▁inlet
▁content
▁forces
▁lamps
▁plates
▁locking
▁evaluate
▁240
▁noise
▁vents
▁plenum
▁anticipated
▁fuse
▁beam
▁foundation
▁messages
▁final
▁international
▁reduction
▁130
▁nearest
▁references
▁actions
▁unprotected
▁monitored
▁prime
_
way
▁measure
▁away
▁year
▁since
▁ampere
▁duty
▁industry
▁apartment
▁extra
▁tables
▁sets
▁eps
▁iron
▁ul
▁lowest
▁verification
▁option
▁450
▁possibility
▁establish
▁marine
▁suspended
▁paths
▁outer
▁detailed
▁good
▁consistent
▁220
46
▁ambulatory
▁simultaneously
▁markings
reserved
▁lobby
▁horsepower
▁2000
▁furnishings
▁penetrations
▁completely
▁practical
▁proposed
▁follow
▁closing
▁exception
▁sum
▁thus
▁relocation
operated
▁seismic
▁hangers
▁events
▁growth
▁perimeter
▁boundary
▁consisting
▁upper
and
▁diesel
▁respect
▁sprinklered
▁impairment
▁liquefied
▁correct
▁joists
▁chutes
▁supervisors
▁accumulation
▁fra
▁medical
▁metric
▁schedule
retardant
▁very
▁flue
▁curtains
▁suites
▁reporting
▁taps
▁vibration
▁considerations
▁elevation
insert
▁limiting
▁powered
▁label
▁landing
▁27
▁pallets
▁flat
▁actuation
▁locks
▁psig
▁held
▁bodies
▁leaf
▁command
▁chemicals
▁measurements
80
▁sensing
▁completion
▁reliable
▁attended
▁opened
▁entrant
▁membrane
▁501
▁goals
▁tenant
▁couplings
▁paragraph
▁show
▁rise
▁continuously
▁withstand
note
▁noted
▁g
▁reasonable
▁individuals
▁fueling
▁ignitible
▁indication
▁seats
▁recreational
▁dampers
▁face
▁produced
110
▁owners
▁moving
▁interruption
▁alternating
▁cleaned
▁lamp
▁leading
▁accidental
fired
▁outdoors
▁variable
▁future
▁intelligibility
▁investigation
▁appurtenances
▁garages
▁210
35
▁vertically
▁re
▁centers
▁practicable
▁heated
▁routine
▁subjected
▁beams
▁ieee
▁governing
▁guidelines
▁laws
▁precautions
▁living
▁utilizing
▁regulators
▁parameters
▁maintaining
▁software
▁transverse
▁p
▁applies
▁educational
▁human
▁placement
▁frequencies
305
▁shows
▁details
▁extinguishment
▁involving
▁certified
250
▁coatings
▁leads
▁shock
▁ladders
▁truck
▁sight
▁built
▁repairs
▁retail
▁fuels
▁degrees
half
▁unobstructed
▁tap
▁joist
▁hydraulically
supply
▁submitted
▁monoxide
▁handbook
▁causes
▁index
▁techniques
▁laboratory
▁driver
▁seat
▁residents
pressure
▁activated
▁antifreeze
▁status
▁probability
▁decorations
▁organic
▁cutting
▁pool
▁computer
▁responsibilities
▁backflow
▁gravity
▁liquidtight
▁key
▁office
control
▁isolating
▁policies
▁highly
▁controlling
▁sheet
▁hydrant
▁reach
▁planning
▁freezing
▁lengths
▁coupling
▁displacement
▁clothing
▁administration
▁solids
▁situation
▁cells
▁regulator
▁mechanism
▁sidewall
▁lockout
▁ppe
▁stop
▁api
▁columns
▁restricted
▁net
▁stream
▁zones
▁entrants
fire
▁modifications
▁whenever
of
▁develop
▁member
▁preparation
▁handled
▁terminated
140
▁achieve
▁peak
▁read
▁projection
▁initiated
▁determination
▁cryogenic
▁food
▁rates
▁whose
▁hydrogen
▁objects
▁slope
▁lock
▁repaired
▁front
▁observed
▁rather
▁carry
th
scale
▁dimension
76
▁next
such
▁inverter
▁48
▁interconnection
▁towers
iii
driven
▁2014
▁multiconductor
▁task
▁surrounding
it
▁allows
▁deck
▁closets
▁instrument
▁vary
▁assumptions
▁contractors
▁activate
▁although
related
▁725
▁adopted
▁evaluating
air
▁solution
▁facilitate
end
▁switching
▁introduced
▁feature
▁conducting
▁fluids
▁institute
▁enough
70
▁propane
▁likelihood
▁leaves
case
▁relay
▁pattern
▁230
▁treated
▁combustibles
▁boiler
resistive
▁cfr
152
▁others
▁six
▁designer
▁channel
▁created
▁aerosol
▁2007
▁tag
▁detect
120
▁correction
▁force
▁deflector
▁pathway
▁clearances
▁receiving
▁drains
annex
fun
▁delivery
▁vacuum
▁certification
▁consumer
▁accepted
240
▁wired
▁atmospheres
▁adjustment
▁nor
▁reports
▁crowd
▁charging
▁upholstered
▁item
▁previous
▁motion
▁identifying
▁posted
▁reducing
▁welded
▁containment
241
k
▁extending
▁gauges
▁modification
▁block
▁behavior
▁square
▁audio
▁bare
▁vault
▁accommodate
2012
▁keep
▁loose
▁760
▁fall
▁simultaneous
▁designs
▁description
▁previously
▁operable
▁constant
▁hard
▁moved
▁origin
▁activity
▁vicinity
▁ma
▁coverings
▁sales
▁positioned
▁hour
▁effectively
▁indicator
▁constantly
▁fixtures
▁array
▁calibration
n
▁issued
▁compatible
▁peroxide
▁handle
▁extension
▁notify
▁s
▁consists
combustible
654
▁simple
▁verified
▁curve
▁electricity
▁configurations
▁coaxial
▁shield
▁mc
▁interfere
▁guards
▁hearing
▁spot
▁safely
▁lights
▁38
▁problem
▁si
▁passageways
line
▁nuisance
▁relays
▁letters
▁emergencies
fighting
▁collection
▁spark
▁sensor
▁passage
including
minute
▁terminate
▁volt
▁effectiveness
▁frames
▁respond
▁seals
▁grease
▁especially
▁referred
▁much
▁rubber
▁annual
▁deemed
▁traffic
▁meter
▁longitudinal
▁opposite
▁reported
▁pole
▁prepared
▁via
▁park
▁mattresses
▁yard
▁platform
▁flames
▁partial
▁overheating
▁tower
▁diagrams
▁employer
▁understand
▁desired
▁five
▁ramp
▁individually
150
▁danger
▁continue
▁objective
▁installing
▁loop
▁eliminate
▁shell
▁equation
▁illuminated
▁sizing
▁availability
▁exempt
▁505
▁mixtures
▁de
▁periodically
▁pit
▁movable
▁bolts
▁paint
610
▁hydrants
▁x
▁smooth
▁bends
▁directed
▁last
▁foamed
▁pile
▁regular
▁heavy
▁shelf
▁hoistway
▁transmitted
▁pendent
▁insurance
▁rotating
▁annunciation
▁disconnected
tagout
p
▁introduction
▁losses
▁terminations
▁exhibit
▁conversion
▁alcohol
▁accessories
entrance
▁usage
▁interrupting
pole
▁functional
▁impractical
▁corrected
▁receive
asme
▁elevated
1144
▁dusts
▁active
▁workers
▁always
▁chamber
▁dispenser
percent
▁editions
▁dangerous
▁vaults
▁propagation
▁runs
▁involve
▁pull
▁ring
▁abnormal
▁communicate
▁circumstances
▁manufacturing
▁scale
▁groups
▁indoor
▁released
extinguishing
▁corrective
j
▁stages
▁measuring
▁assistance
5000
▁third
▁airport
▁inert
handling
▁categories
▁upright
▁adequately
▁left
▁deficiencies
▁pilot
when
▁capabilities
▁cycle
▁agents
▁concentrations
▁kpa
▁dot
▁ventilated
▁conjunction
▁alert
▁account
▁recall
▁allowance
▁epss
▁developing
▁issues
▁reviewed
▁company
▁55
▁break
▁screw
▁elsewhere
▁meters
▁projections
▁style
▁adjusted
▁kv
as
an
▁priority
▁instruments
▁aid
▁prohibit
▁45
o
▁900
▁communicating
▁received
▁unoccupied
▁steps
▁angle
▁ratio
▁switchboard
▁expanded
▁37
▁agencies
▁cost
▁mixture
▁cold
▁category
▁attendant
▁closer
▁particularly
▁rods
area
▁readings
▁prescribed
▁demonstrate
▁utilize
▁trucks
93
102
▁nursing
▁fibers
▁shelving
▁difficult
▁achieved
▁recognize
▁rod
▁314
▁letter
▁agency
▁supplemental
v
▁filters
▁car
▁understanding
▁principles
▁laundry
54
▁efficiency
230
▁involves
▁machines
▁indoors
▁edges
▁presented
▁passageway
sec
entry
430
flow
▁green
▁mi
▁820
operators
▁mandatory
▁applying
▁easily
▁circulation
▁manufacture
▁difference
▁pathways
▁reset
▁jacket
▁radius
▁heights
building
▁reason
▁outlined
▁showing
▁protectives
▁shelves
▁polyethylene
▁relatively
▁demonstrated
▁proximity
▁handrails
▁move
▁remotely
▁regard
▁incorporate
▁days
▁transport
▁impaired
▁like
▁stairways
▁indicators
producing
▁capacities
▁reading
▁hvac
▁mechanically
▁corresponding
▁tasks
operator
2011
amperes
▁517
▁interrupter
▁2006
▁photovoltaic
▁still
▁primarily
▁storing
91
▁media
▁incapable
▁fabricated
▁sealing
▁foreign
▁solutions
▁months
▁attention
▁leaks
▁engineer
sectional
▁safeguards
▁obtain
▁states
▁vented
75
90
▁infrared
▁sparks
▁holes
▁discharged
▁orifice
▁subsequent
▁occurrence
▁assist
▁beneath
▁smokeproof
▁threads
▁help
▁layer
▁calculate
▁protector
▁substantial
▁34
▁differences
▁soil
▁operators
▁adjoining
▁drill
▁cut
▁fans
▁compared
station
interrupter
▁ladder
▁fail
▁stand
122
▁floating
▁exposures
▁unauthorized
▁solely
▁itself
▁rapid
factor
▁actuated
▁brass
▁releasing
▁ice
▁early
▁deflectors
▁complex
▁aware
▁ups
▁2003
▁making
▁reasons
▁reinforced
▁downstream
58
▁clients
▁passing
▁1½
▁replace
▁discharges
▁thick
▁delayed
▁sti
▁stated
56
▁piles
48
▁entirely
▁balcony
▁stress
▁esfr
compressor
▁tire
▁revisions
▁audience
▁society
▁sampling
▁pressurized
▁view
▁wherever
▁causing
▁handrail
▁t
▁flues
▁monitors
▁arcing
▁vegetation
▁carrying
▁inspect
▁informative
▁contaminants
▁incidental
▁post
▁tubes
▁best
▁apart
conductor
▁770
▁extracted
▁regulatory
▁classifications
▁physically
▁burn
▁permissible
▁characteristic
▁spill
▁diagram
▁periods
▁depends
▁speech
▁wireless
▁lampholders
▁official
▁j
▁decision
▁satisfactory
▁35
▁intrinsically
▁particles
▁cap
▁community
▁coordinated
▁hydrostatic
▁commonly
▁snow
▁layout
▁coordination
▁too
▁capacitors
▁54
▁organizations
▁rehabilitation
▁engineers
▁road
▁fusible
▁shielded
▁instruction
▁w
▁partition
filled
▁frequently
▁scheduled
▁percentage
▁kitchen
▁retrieval
x
▁bracing
▁education
▁resources
▁outline
▁white
182
▁tight
▁own
190
▁threshold
▁authorities
▁restrict
alarm
▁modules
▁bearings
▁encountered
▁directions
▁charger
▁flush
▁increases
▁bushings
▁antenna
▁r
sheathed
▁unstable
▁mean
▁right
▁shop
▁flowing
ceiling
▁packaging
▁lodging
use
▁entries
▁latch
▁prompt
▁buried
▁specialist
▁necessarily
▁legal
▁implemented
burning
▁piers
▁labeling
▁deposits
▁generated
▁cfrs
▁gross
▁taking
▁background
▁directional
▁obstructed
▁bearing
▁addresses
▁distinctive
▁receipt
▁carried
▁screws
grounding
▁notified
▁incinerators
▁swinging
▁independently
▁concerned
▁booth
▁pneumatic
113
▁proprietary
▁instantaneous
▁absence
specific
▁straight
▁powder
▁attendants
300
▁swing
▁video
303
▁mover
▁shafts
▁object
▁consequences
▁red
▁spare
▁damp
▁tripping
▁dielectric
▁flushing
▁brace
▁counterpoise
▁houses
▁remainder
▁law
▁furnished
▁examination
▁solvent
▁symbols
▁inc
▁government
57
sensing
▁resident
▁divided
▁leak
▁removable
▁restored
▁refrigerated
▁risks
▁allowing
level
▁platforms
▁pvc
▁kpag
▁narrative
▁capacitor
▁braces
▁winding
▁ka
▁uniform
▁request
▁install
▁store
▁called
▁resist
49
▁labels
▁behind
▁severity
▁casing
▁users
▁classes
▁potentially
▁specify
▁vehicular
▁decorative
104
▁sensors
▁shore
▁formed
▁limitation
▁conveyors
▁feed
▁coated
by
▁instead
▁redundant
▁awwa
▁updated
▁secure
▁act
▁film
▁folding
▁sites
▁environments
▁mixed
▁reasonably
▁booths
▁masonry
▁accessibility
▁consulted
▁defining
▁study
▁employing
▁jet
▁explosionproof
▁significantly
▁ranges
rub
▁survivability
▁registered
▁listings
treated
story
▁ordinarily
▁displayed
130
▁osha
preservation
▁hospital
▁mixing
▁contamination
▁better
▁onto
▁hotels
▁switchboards
actuated
▁broken
▁forming
▁caps
▁failures
▁shields
▁sufficiently
▁friction
▁electrostatic
▁removing
▁stresses
▁manifold
▁sfpe
▁preferred
▁revision
▁give
▁grandstands
▁recovery
▁intensity
▁raised
▁reaction
▁unclassified
controlled
▁transient
▁pier
▁painting
▁mesh
▁options
▁establishing
▁utilities
▁visually
▁hood
clad
▁transmitting
▁concepts
▁pumping
▁foundations
▁concept
these
ray
▁quincy
▁incorporated
▁www
▁judgment
▁constitute
▁textile
▁2001
▁z
▁ductile
▁tester
▁84
▁threat
▁piece
▁offices
▁sheets
▁signage
▁route
▁omitted
▁keeping
▁stainless
time
▁define
▁familiar
▁refrigerant
▁studies
protected
▁�
org
▁draft
▁television
▁rail
▁ready
▁certificate
▁5000
▁flammability
▁grid
▁hold
▁treads
▁lateral
▁wear
▁centerline
▁glazing
▁attics
760
▁concentrate
▁supplementary
▁carefully
▁unique
▁alignment
▁nonconductive
▁cm
▁enters
plug
▁armor
▁transmitter
▁accessory
▁places
▁principal
▁recording
acid
▁occupiable
▁transmit
▁exceeded
▁producing
▁expressed
▁partially
▁serious
▁boards
▁rooming
▁uncertainty
▁deep
▁domestic
▁optional
▁acid
▁monthly
▁strainers
▁densities
▁ampacities
trade
▁epm
▁amusement
▁regulated
▁2005
▁airflow
▁vaporizer
▁securing
▁65
▁unusual
▁legally
▁hanger
▁chloride
service
▁tier
▁guarded
▁gutters
▁functioning
▁desirable
▁bushing
rotor
▁panelboards
▁830
▁spds
▁mitigation
▁charged
▁2004
▁49
▁cathodic
▁fast
92
▁tree
▁lubrication
▁manager
▁legible
▁character
▁sleeve
▁earthquake
no
▁far
▁household
▁harmonic
▁rule
▁linen
▁bolted
▁penetration
▁multi
▁fm
▁symbol
▁exhausted
154
▁operates
▁row
▁reflect
▁accuracy
▁subsection
▁closure
▁hospitals
▁though
▁externally
▁extends
▁inherent
▁flexibility
▁interrupt
▁burial
▁690
▁phases
▁shared
▁tub
▁tool
▁picture
▁promptly
▁filter
▁1500
▁extensions
▁amounts
▁conventional
▁grouped
▁concern
▁numbers
▁ways
▁manuals
▁backup
▁arrays
▁finishes
▁contract
▁fitted
▁stacks
all
▁preventive
▁adoption
▁cotton
▁additions
▁alteration
▁99
▁750
▁historic
▁residues
▁electrolyte
64
▁restraint
▁age
▁prescriptive
▁prevents
▁modeling
▁upward
▁evaluations
▁parked
▁deterioration
▁returned
▁enclosing
▁rest
▁plaster
▁correspond
▁dirt
▁44
▁settings
▁quickly
▁extreme
▁mercury
awwa
▁wildland
▁themselves
▁decisions
▁formulations
▁usable
▁word
▁merchandise
▁etc
▁closely
418
▁describe
▁evacuate
▁¾
▁recessed
▁impairments
▁sole
▁gray
▁adjustable
▁panic
▁atrium
▁instructed
▁totally
▁blower
▁accurate
▁clamps
▁detected
▁formula
▁approaches
▁windings
▁faults
▁392
▁airfield
▁newly
▁creating
▁explosives
api
heating
▁preventing
▁nitrogen
▁patterns
▁composite
▁bathrooms
▁comparison
▁remaining
▁pockets
iv
▁calculating
▁mpag
▁solar
▁busway
▁hz
▁copy
▁his
▁fails
▁gaseous
▁united
▁master
▁packaged
▁dormitory
▁screen
▁minor
3050
▁spring
▁palletized
▁pallet
&
▁restrictions
457
▁deficiency
open
▁additionally
▁driven
▁gfci
▁680
410
▁ads
contained
▁enforcement
▁interference
▁occurring
▁watch
▁confirm
▁dioxide
▁312
▁oils
▁among
▁3000
▁becomes
▁nonsprinklered
▁sliding
1220
915
▁engineered
▁eight
▁subdivided
▁bending
stage
▁influence
▁few
▁arresters
▁channels
▁just
▁know
▁torque
▁curves
▁225
▁jumpers
▁tone
▁occurred
▁obstruct
▁substitute
▁designation
138
▁radiator
▁vaporizers
▁interval
▁variables
▁assess
▁leave
csa
▁mechanisms
▁twice
▁avoided
▁discharging
egress
▁iiia
▁planned
▁fixture
▁selecting
▁worker
▁lockups
▁changed
▁balconies
▁paragraphs
▁brackets
▁debris
▁herein
▁equivalency
▁represent
▁call
▁flux
▁refrigeration
▁stock
▁circular
▁generating
▁feet
▁btu
47
103
▁sodium
▁hotel
▁sometimes
▁compressors
y
▁awareness
▁useful
▁stripe
▁converter
▁technologies
▁fasteners
▁thoroughly
▁compressor
▁radiation
▁pad
▁passes
▁phrase
▁interlocked
▁tie
▁establishments
▁designing
▁worn
▁insulators
▁trainees
▁employ
▁issue
expansion
▁turbines
▁particulate
▁723
▁appendix
▁unenclosed
▁frequent
▁straps
253
▁identifies
▁bathroom
▁posts
▁successful
▁variations
▁generation
▁eliminated
▁speaker
▁decks
▁protocol
▁differential
▁penetrate
▁anchor
▁implementation
▁observe
▁sphere
▁drawing
▁flows
▁refers
▁dependent
▁currently
▁interlock
▁dual
810
▁digital
▁examined
▁had
▁2002
▁examiner
▁clothes
▁calibrated
▁malfunction
▁residual
179
▁combinations
▁exclusively
▁framing
▁interconnecting
▁remains
▁gate
▁painted
▁module
▁cellular
01
▁cast
▁internally
▁population
▁roads
▁comprehensive
▁551
▁tension
▁photoelectric
2013
▁masts
▁spd
▁harmonics
ids
▁appear
▁concerning
▁incidents
▁conforming
▁disaster
year
▁differ
▁51
▁metals
▁1910
▁screens
▁permission
▁walking
200
▁mezzanine
▁obvious
▁701
state
▁restoration
▁perpendicular
▁missing
▁half
supported
▁balanced
▁illustrates
▁disconnection
▁resin
▁impeller
▁plume
▁pickup
▁specialists
▁survey
▁designator
▁protectors
▁trade
▁matter
▁96
▁packages
▁oxidizers
▁stable
▁core
▁predetermined
▁streams
▁variety
▁depend
▁satisfy
▁curtain
▁underside
▁hoses
▁stores
▁poles
▁trapped
class
▁carts
▁downward
other
▁track
▁440
sss
▁approve
▁retained
▁experienced
▁context
top
▁shape
62
limiting
▁sense
▁compound
▁melting
▁contiguous
▁ensures
▁foot
side
▁stakeholders
▁relevant
▁vision
▁links
t
▁probable
not
454
▁502
▁sure
▁interpret
▁council
▁extracts
▁trash
▁tents
▁washington
▁stops
title
▁projected
▁sensitive
▁greatest
▁slow
▁plainly
▁cars
▁strainer
▁conduits
▁characterized
▁adequacy
▁qualification
▁municipal
▁annunciated
exit
▁roofing
▁sway
▁intersection
out
▁drops
hard
nominal
▁respectively
▁bureau
mm
▁employers
▁rp
▁sepss
▁hp
▁resistors
▁textual
▁notices
▁temporarily
▁varying
▁walkways
▁retardant
▁620
▁serviced
▁stack
225
▁miscellaneous
▁transferred
272
▁suitably
▁competent
▁turn
▁orientation
▁2½
▁damper
▁molded
▁weekly
▁started
▁distributed
▁receiver
▁lobbies
1830
▁imposed
▁shielding
▁isolate
▁grandstand
▁rows
▁slip
▁repeated
▁interlocks
discharge
▁angles
▁minute
▁suggested
▁describes
▁breathing
▁shunt
▁embedded
▁explanatory
▁violation
▁implement
▁contribution
▁hangars
▁responders
▁extensive
▁broad
▁inverters
▁negative
▁dissipation
▁technique
68
▁volatile
▁cartoned
▁predicted
▁role
▁dormitories
▁children
▁affixed
▁ductwork
▁firestop
▁loaded
▁past
▁outputs
▁convenient
▁driving
▁reaching
▁flange
▁automated
▁investigator
▁studs
▁cooktop
424
neta
▁determines
▁instances
▁costs
▁displays
▁deflagration
▁vinyl
webster
▁dispensed
▁family
▁inserted
▁already
121
▁minimal
warning
▁dryers
▁draperies
▁uninsulated
▁workplace
▁locating
▁separating
▁bars
▁noncontinuous
▁quarterly
▁housings
on
▁breakdown
▁strain
▁cycles
▁protocols
▁snap
volts
▁pltc
ci
▁administrative
▁title
▁119
▁passenger
▁explosions
emergency
▁avenue
700
▁now
▁ignite
▁solvents
▁trees
▁subdivision
▁modes
▁respective
▁39
off
▁appropriately
▁arrester
▁fabric
▁bank
▁accumulations
▁correctly
cm
▁grilles
▁tape
500
▁sloped
▁port
▁investigated
▁effort
▁widths
▁substantially
▁humidity
▁come
▁thrust
▁truss
▁rotor
▁disconnects
▁516
▁db
▁flanged
▁lift
▁thread
table
energized
▁watts
▁centrifugal
690
ground
ecs
▁o
▁nationally
▁her
▁fabrication
▁furnace
▁accommodations
▁versus
▁produces
▁daily
▁corrugated
▁stands
▁words
▁laid
▁estimated
▁similarly
▁pocket
05
▁piped
▁pits
▁hoods
▁trailer
▁mast
▁quantitative
▁band
alone
▁ip
▁busbars
commissioning
▁wireways
with
▁ensuring
▁applicability
▁52
▁61
▁cga
▁distinct
83
114
▁occupational
▁consequence
▁accurately
▁simulated
▁lockers
▁hanging
▁attachments
▁susceptible
▁rings
▁interrupted
▁suitability
▁schools
▁ties
hr
▁blocks
▁sunlight
▁add
▁instrumentation
▁accessway
▁350
▁lockable
installed
▁02169
▁interim
▁attempt
▁false
▁maintains
▁creates
▁pyrotechnic
▁plenums
▁basement
▁composition
▁pitch
▁essentially
▁enclose
piled
▁alerting
▁gap
▁films
▁standpipes
▁anchors
▁flashover
▁intervening
▁extinguish
▁specialized
▁checklist
▁flaming
▁changing
▁firmly
▁manhole
▁oz
▁switched
▁hoistways
▁cranking
▁interconnections
▁busbar
▁polarity
▁alternatives
▁writing
▁party
▁telescopic
▁smoldering
▁410
67
▁analyzed
99
106
initiating
▁fighters
▁unwanted
▁accomplish
▁galvanized
1120
style
▁push
protective
▁matrix
▁layers
▁magnetic
reducing
▁empty
▁baffles
▁tile
▁diameters
▁.
▁caution
▁little
▁inadvertent
isa
nema
▁instructor
▁rtrc
▁wireway
section
▁keys
▁engaged
▁detail
▁select
▁furnaces
▁1999
▁disposal
▁combustibility
▁unloading
▁gear
▁rails
▁ignited
▁blocked
▁latching
▁closet
▁theaters
▁unused
▁fence
▁forced
▁toward
▁506
▁encapsulated
▁relationship
▁pavement
▁extremely
▁landings
▁baseline
▁nema
▁610
▁splice
▁nonincendive
▁disclaimers
▁affecting
▁detached
▁nearby
▁statement
▁sale
▁gasoline
fm
▁1975
▁±
▁nickel
▁moderate
71
450
▁roll
914
▁pose
▁represents
▁log
▁automotive
203
▁tires
▁designers
▁fundamental
▁inadequate
▁passive
▁routes
▁fact
▁tampering
▁breaks
▁exceptions
▁adjustments
▁acoustical
▁transition
▁convenience
▁accumulate
▁responding
▁doorway
▁railings
▁language
▁framework
▁aerial
▁degradation
▁coils
▁exercised
▁increasing
▁encased
▁ats
▁nec
▁messenger
▁microphone
▁aspects
▁regulation
▁thereto
▁unattended
▁york
▁1998
▁barrel
▁apparent
▁aerosols
▁therein
▁assembled
▁package
280
▁relation
▁goal
▁assumption
▁mission
▁renovation
▁inaccessible
▁atomizing
▁chute
▁defective
▁basements
notes
▁inputs
▁lbf
460
▁satisfied
▁adult
▁reached
▁idle
▁electromagnetic
also
▁header
insulated
600
▁4000
▁recognizes
▁circulating
▁550
▁520
▁seamless
▁cmsa
▁span
▁delta
▁tentative
reactive
▁accept
▁establishes
▁halon
▁wharves
▁burner
▁wheeled
1000
▁fine
▁publication
74
▁converters
▁comprised
▁pipeline
high
▁transported
85
▁leaking
▁alloy
▁incorporating
118
160
▁stability
▁exposing
▁plugged
▁prevented
smoke
▁deliver
▁buildup
▁never
▁takes
▁sloping
▁revolving
▁unlocked
▁bases
▁boats
▁drying
▁routed
▁solenoid
▁coupled
▁importance
▁480
▁understood
▁+
w
▁locate
517
▁stranded
▁208
▁equipotential
▁contribute
▁notice
▁indirect
▁collect
▁ovens
▁ny
▁commission
▁housekeeping
▁rapidly
▁emissions
▁possibly
▁falls
220
▁thereafter
▁nonresidential
▁gypsum
▁flood
▁77
▁tour
▁managers
back
▁shops
▁heads
▁flooding
▁observation
▁53
680
▁demanding
▁assumes
▁book
▁nipple
▁selective
▁multiplied
▁ionization
▁700
▁iec
▁406
▁spa
▁format
▁regulating
▁pertinent
▁officer
▁brought
▁safeguarding
▁demolition
▁286
▁conversions
▁goods
▁mark
415
▁tent
▁neither
▁actuate
▁transients
▁wharf
▁occupy
▁adverse
▁magnitude
▁tactile
▁preceding
resistance
▁halls
▁lath
▁115
▁pressurization
▁excluding
▁improper
▁iiib
▁adversely
▁incoming
▁shelter
▁interactive
▁nonexpanded
▁discussed
▁corner
▁pendant
▁elbows
▁contactor
▁rescuers
▁fighting
▁question
▁interest
▁delivered
▁advised
▁again
▁whom
▁289
▁cone
▁finishing
82
▁relieving
▁reaches
▁observations
▁equations
▁unintentional
▁axis
▁¼
▁generate
▁residue
▁pitched
▁lesser
▁begin
▁hole
only
▁obscuration
▁restrained
▁knowledgeable
▁bridge
▁image
▁go
▁metering
▁ammonia
▁instructional
▁additive
▁benefit
▁shower
speed
▁electrolytic
▁induction
▁countertop
▁busways
pro
▁adding
▁appeals
▁oxidizer
ahj
▁alterations
▁thereby
▁conformance
▁relating
▁varies
▁pertaining
▁amended
▁fit
▁designations
▁conditioning
standard
cga
▁underwriters
▁dictionary
▁course
▁occasionally
▁diked
▁presents
84
▁compensate
111
▁reactive
▁jacketed
▁inner
▁licensed
▁retain
▁representatives
▁contrasting
▁bolt
520
▁canopies
▁entrances
▁old
▁checking
▁additives
▁subscriber
▁depths
6100
▁soon
▁chassis
▁drained
enclosed
▁guarding
▁linear
▁put
▁bed
▁notes
▁compression
▁chosen
▁drivers
▁traditional
▁closest
▁md
▁electrified
▁web
▁target
▁unbalanced
▁fcc
▁rf
▁altered
▁wording
▁rendered
▁omission
▁advance
▁west
▁conductivity
▁zero
1124
▁packing
low
86
▁principle
▁pieces
▁tissue
173
146
▁governmental
term
▁lumber
▁react
▁spraying
▁decrease
▁bend
▁installer
▁assessing
▁leaving
▁ecm
▁connects
third
▁walks
▁touch
▁overfilling
▁cartons
▁flanges
▁your
duty
▁worst
▁tightness
▁drawn
▁injuries
▁get
▁dba
422
▁wye
through
▁speakers
▁waveform
subcontractors
▁unqualified
▁intersystem
flyings
620
▁fitness
▁transit
▁jurisdictions
▁viewed
▁copies
▁valid
▁batterymarch
▁conveying
▁92
▁704
▁recirculation
▁va
▁iso
▁opens
105
▁bin
▁expose
▁conspicuously
▁makes
▁unlock
▁designate
▁attendees
▁minimized
▁impair
▁criterion
▁ferrous
▁initially
▁radial
▁demands
▁departments
▁gaskets
▁intervention
second
▁preferably
▁cutout
▁actually
▁_
▁upstream
▁localized
▁surges
▁cranes
490
▁tee
▁necessitate
▁permitting
▁gloves
▁basin
interactive
▁fused
▁cablebus
▁separable
▁june
▁pyrophoric
▁sent
▁scene
▁collected
▁recharging
▁holding
▁continues
7471
▁viii
▁pa
▁strips
▁canada
▁releases
▁skin
normal
▁mental
▁slatted
▁interstitial
▁inch
▁unsafe
▁considering
▁analyses
▁inoperative
▁nosing
▁textiles
▁schematic
▁louvers
▁2500
▁sounding
▁turned
▁visibility
▁widely
▁tags
▁weatherproof
▁contaminated
▁latches
▁pair
▁stroke
▁kitchens
▁intake
▁equally
▁inherently
▁absorption
▁drives
▁replacing
▁momentary
▁carton
▁methodology
▁compatibility
▁withdrawal
▁numbered
▁regional
▁chief
▁city
▁interfaces
▁burns
▁industries
▁alerts
▁csa
▁led
▁strikes
▁zinc
mea
▁intelligible
▁circuitry
▁jprs
▁testers
▁starter
electrical
▁welders
▁subsidiary
▁interrupters
▁tracking
▁autotransformer
▁ballasts
▁fuseholders
▁deenergized
▁ibf
▁dact
▁fighter
▁ozone
▁reconstruction
▁participate
▁printing
▁cigarette
▁craft
117
▁whole
▁recommendation
▁absolute
safe
360
▁processed
89
▁detecting
▁ongoing
▁originating
133
▁predict
135
▁garage
▁branches
▁accident
186
205
210
▁farm
▁speeds
▁assume
▁fastening
▁concerns
▁divisions
▁orderly
▁prepare
▁adapters
▁burners
▁trap
▁rolling
▁facing
▁coil
▁180
test
▁farthest
▁spills
▁shift
▁proscenium
▁split
▁rear
▁thermally
▁black
▁specifies
▁tc
▁formal
▁purging
▁ballast
▁exchange
▁hoists
▁rotary
vi
▁exchanger
▁780
?
▁solidly
▁2017
▁immersion
▁mdc
▁strobes
▁1997
▁68
▁assuming
▁suspension
▁abandoned
▁mists
▁105
▁160
▁soft
▁oxidizing
▁railroad
▁butane
▁collegiate
▁infrastructure
▁land
sensitive
115
▁substances
hazard
▁compounds
▁falling
▁preclude
▁safeguard
▁ineffective
▁originates
▁undergoing
▁predominant
▁annunciator
dc
▁traveling
▁overpressure
party
▁thorough
▁doorways
▁schedules
▁tops
▁dining
▁sand
▁recognition
▁mounded
▁dusttight
▁blades
▁literature
427
▁careful
%
▁descent
▁entities
▁implementing
▁questions
▁424
▁qualitative
▁316
▁inverse
▁cabling
▁coefficient
▁nuts
▁flushed
▁welder
▁durably
▁multiwire
▁lampholder
▁nonheating
551
▁resulted
▁assurance
▁nitrate
▁warrant
▁mitigate
▁relieve
▁composed
▁standing
▁summary
day
▁cellulose
▁worship
▁1996
▁56
▁mattress
▁merriam
▁lithium
▁plumbing
95
▁notifying
▁draining
▁rotation
▁alone
▁guides
▁buses
▁assessed
▁entity
▁enhance
1525
▁lack
assembled
▁rooftop
▁progress
▁walk
232
sliding
▁multilevel
▁1200
▁offer
▁reserve
▁contraction
▁rigidly
▁boundaries
▁clamp
▁ic
▁did
▁incorrect
▁illustrated
▁504
▁why
▁strobe
▁ordinance
▁503
opening
sleeping
▁fed
▁rms
▁proportioner
▁kva
▁rcm
tia
▁interpretation
▁true
▁approvals
▁issuance
▁affects
▁agricultural
▁challenge
▁dike
▁particle
81
▁–
136
▁warehouses
point
▁stopping
▁segment
▁segments
▁warehouse
▁conforms
▁beginning
▁contrast
▁refueling
▁durable
▁cement
▁unsprinklered
▁washers
built
two
es
▁damaging
▁strap
†
▁housed
▁utilizes
▁fences
▁boat
fueled
▁gaps
▁centered
group
▁audibility
▁ancillary
▁formulas
▁failed
roof
▁acceptability
▁faster
▁numerous
▁spacings
▁reservoir
▁fluorescent
▁stripes
▁ahead
▁695
▁npt
▁handhole
▁polyamide
▁substations
▁668
▁originally
▁history
▁enforcing
▁mandated
▁govern
▁mineral
▁viewing
▁fresh
▁potassium
▁substance
▁fumes
▁entertainment
254
▁choice
▁starts
▁unnecessary
▁chain
▁play
▁specimen
▁boilers
▁cutouts
▁samples
▁trim
▁substituted
▁file
free
▁joined
▁collar
▁converted
▁register
▁dynamic
▁gates
▁actuating
455
▁regularly
▁gutter
moving
▁routinely
▁spilled
▁ingress
▁comparable
▁tubular
▁sags
▁smallest
▁formation
▁reinforcing
▁soffit
▁stems
800
▁nonautomatic
size
▁graphical
¼
▁catv
▁overpotential
▁excluded
▁140
▁parties
▁exhibits
▁ordinances
▁durability
▁opinion
▁architectural
▁dipping
▁consumption
▁1994
▁decomposition
▁global
▁trailers
▁firestops
over
112
125
▁yards
▁braced
▁striking
▁pounds
▁unacceptable
▁restore
▁exercise
▁tamper
▁placing
▁attic
▁teaching
applied
iron
▁scenery
▁relate
▁pin
▁introduce
▁precedence
▁efficient
▁shutdowns
each
▁ship
560
660
▁brazing
▁float
▁arcs
▁manifolded
▁experimental
▁terminating
▁condensation
▁wave
▁easy
▁mawp
▁disruption
▁real
q
▁accordingly
▁ensured
example
▁inductive
▁induced
▁705
▁422
▁rectifier
cooled
energy
▁underwater
▁retransmission
▁recipient
▁substation
▁rmc
impedance
▁itc
▁faceplates
▁cmp
▁enhanced
▁insufficient
▁exempted
▁court
▁streets
▁defects
▁destruction
fuel
▁lay
▁&
▁41
▁95
▁stray
211
165
▁hallways
▁mg
▁death
▁neon
▁labor
▁emission
▁judged
▁improvement
▁legibly
▁evacuated
▁inspecting
▁frost
▁calcium
▁month
▁incorporates
▁balance
▁photoluminescent
227
▁hinged
one
▁passed
▁lng
▁inerting
ppe
▁anchored
▁said
▁overflow
▁filler
▁antennas
▁tenants
▁colored
▁assure
▁chlorine
▁diaphragm
▁sustained
▁gauging
▁abrasion
▁conference
▁droplets
some
▁steady
▁provider
▁incandescent
▁discussion
▁spans
axm
▁counted
▁catwalks
▁influences
delay
▁counter
▁uninterruptible
▁compact
▁frostproof
▁625
▁mic
426
▁discrete
▁unbalance
▁errors
buried
▁nm
▁restrictive
▁renovations
▁render
▁police
▁preliminary
▁entered
▁presentation
▁grounds
▁telecommunications
▁88
▁resistivity
▁rectifiers
▁immersed
▁walkway
▁spectrum
▁transferring
▁meals
▁rupture
▁eye
▁reliably
▁cumulative
▁simulate
premises
▁icc
▁assessments
▁adapter
▁page
▁mezzanines
▁firm
▁consensus
▁submerged
▁positions
▁proven
▁positioning
▁networks
▁vestibule
▁respiratory
covered
▁sump
▁46
▁tunnels
▁wooden
equipment
▁incipient
▁protects
▁casings
▁mutual
▁december
▁810
▁sea
u
▁meant
▁>
▁clarify
▁influenced
at
▁timely
▁benefits
▁cracked
▁graphic
▁velocities
▁tolerance
however
▁yellow
▁begins
▁checklists
▁-
▁elbow
▁cops
▁intrinsic
appliance
▁hermetic
▁starters
▁ofnp
▁ofcp
▁cmr
▁mts
optic
▁adss
▁msc
▁projects
▁standardized
▁differs
▁unable
▁fields
▁printed
▁illustrate
▁703
▁scheme
▁deterministic
▁distillation
gases
products
172
▁awaiting
▁qualify
▁diagonal
▁defines
▁extinguished
▁pools
▁overspray
step
▁fiberglass
▁older
▁angular
▁accesses
▁igniting
▁impracticable
▁necessity
▁managed
▁communicated
▁ia
▁serial
▁lugs
▁thermoplastic
▁#
▁earlier
▁yet
▁wavelength
▁supplement
▁brief
▁ease
▁compartmentation
▁interaction
▁temporal
▁variation
▁focus
▁helps
▁resistor
▁directory
▁detrimental
2007
▁multiplying
▁embankment
▁responsive
▁roles
▁internet
▁vi
▁campus
▁datum
▁unbroken
▁514
▁kcmil
440
produced
▁acoustic
▁stipa
circ
▁q
▁deleted
▁editorial
▁existence
▁requested
▁proceedings
▁establishment
▁findings
▁cultural
▁unfired
▁pads
▁bands
▁chargers
▁intentionally
▁strategy
▁canopy
▁burned
78
▁hydrocarbon
88
refer
▁warranted
▁ultraviolet
134
▁none
▁peroxides
▁symptoms
▁illness
▁majority
▁intimate
▁conservative
▁cleared
▁opportunity
▁planes
▁unknown
320
▁penetrating
▁shutting
▁addressing
▁bags
▁appreciable
▁drums
▁evacuating
▁malls
▁pedestrian
▁accessways
▁characters
▁confinement
▁erection
▁rain
▁belt
▁configured
▁elimination
▁sharp
03
▁hydride
▁rectangular
▁purged
▁bring
any
▁multifamily
▁simply
▁dilution
▁estimate
▁you
factors
▁improve
▁great
▁watertight
▁consistency
▁polyvinyl
▁multistage
▁transducer
employees
▁north
▁fabrics
▁enhancement
▁interpretations
thirds
▁ahjs
▁corrections
00
▁85
▁91
▁animal
▁409
▁resource
▁1995
▁pipelines
94
▁assignment
139
▁injection
▁incompatible
▁advantage
▁trusses
▁predictions
▁certify
▁analytical
▁earthquakes
transmitting
▁shortest
▁historical
▁aligned
▁retrofit
▁carpet
09
▁cubicle
▁successfully
▁grades
▁recharge
dry
▁emptied
▁forward
▁unfinished
▁figures
▁,
▁brush
▁gradient
▁reductions
▁coded
▁drilled
▁blowers
▁laser
▁conveyor
▁flameproof
▁feeding
▁bond
▁reverse
▁flashes
▁match
▁refilling
▁fraction
▁corroded
▁minimizing
loaded
▁classrooms
caution
coated
▁almost
▁organizational
▁resultant
▁analyze
▁confusion
▁retention
courtesy
▁bell
▁<
▁co
▁spiral
▁outages
▁strands
▁heskestad
▁interconnect
▁thermosetting
bending
▁uf
▁fountain
▁amplifier
▁amendment
▁august
▁explanation
▁superior
▁statements
si
▁identifiable
▁fireplaces
▁241
▁oxide
▁cans
▁263
▁pure
▁ports
142
194
222
▁capture
▁backfill
▁stakeholder
▁discovery
▁strip
▁decking
▁roofed
▁shipment
▁verifying
▁propellant
▁nonrequired
complete
▁disabilities
▁offered
▁capped
▁convey
▁exposition
▁night
▁informed
▁find
▁soiled
reinforced
▁inoperable
▁abuse
▁accumulated
▁rely
▁giving
▁trench
▁july
▁usual
▁coordinate
▁bent
suspended
▁shapes
▁complexity
▁logic
▁vital
2014
▁modern
▁outage
▁rti
▁sag
▁hollow
▁unsupported
▁redundancy
▁ptd
▁designators
2010
neutral
▁emt
▁fuseholder
plenums
▁645
314
▁ofnr
▁ofcr
725
▁cmg
▁talkbox
▁descriptions
▁baled
▁inclusion
▁nothing
▁investigate
▁acting
▁civil
▁phone
▁furnish
▁warm
▁265
▁transporting
▁1600
▁650
▁1993
▁nonflammable
▁standardization
▁il
▁advisory
▁january
▁boiling
storage
▁waiting
59
▁rubbish
▁fireplace
▁represented
▁considerable
188
▁statutory
▁volumes
▁yoke
▁plywood
▁margin
▁collapse
▁separations
▁fueled
▁inlets
▁strong
▁sheathing
▁cartridge
▁delivering
▁stamped
▁school
▁functionality
▁link
▁storm
▁wider
▁handles
▁blasting
▁clearing
▁reservoirs
▁cng
pipe
▁develops
▁chases
energize
cadmium
▁socket
▁malleable
▁215
▁consequently
▁lag
▁shopping
▁dip
▁geometry
▁difficulty
▁identical
▁cpvc
▁braid
▁checks
▁delays
corridor
▁policy
▁works
▁timing
minimum
▁override
▁gasket
▁deviations
▁biological
locking
▁compare
▁movers
▁brazed
▁soffits
▁attach
bar
▁staves
▁tapped
▁moc
▁vii
▁porcelain
▁envelope
▁ofng
▁ofcg
▁ofn
▁ofc
▁sf
▁catvp
molded
▁rights
▁amendments
▁1992
▁charges
▁designating
information
▁submittal
▁conspicuous
▁coal
▁studio
▁marinas
2001
▁resistive
—
▁7500
fiber
grade
▁approving
▁footnote
▁merchandising
lb
▁species
▁responds
▁ppm
▁asphalt
▁oven
▁chips
▁religious
floor
266
▁oriented
▁mobility
▁decreased
▁reflected
▁)
▁corners
▁cool
▁undue
▁intakes
▁1¾
transfer
▁efforts
▁underneath
▁dressing
▁carrier
▁1989
▁vaporizing
▁solder
except
▁malicious
system
▁exact
▁exclusive
▁zoning
▁classroom
▁chambers
▁rounded
▁interlocking
▁exemption
▁proportion
▁improved
▁surveillance
▁belowgrade
▁mil
▁backs
▁settlement
▁docks
▁feasible
▁blow
▁fireproofing
▁collector
▁stay
▁customer
▁institutional
▁exclusion
▁thresholds
▁intermittent
▁gallons
▁sink
694
▁activating
▁governed
▁breaking
▁distortion
▁requalification
▁marshal
examples
▁cal
▁validation
▁advisable
▁chance
▁pins
▁technician
▁accidents
than
▁refill
▁imo
▁asce
▁escalator
run
▁nurses
▁timer
▁draw
single
another
▁slightly
▁contactors
▁overvoltage
▁bronze
seconds
▁root
675
▁spliced
▁cock
▁originate
408
potential
▁loudspeakers
692
705
▁fplp
hou
▁octave
▁correlations
▁modify
▁justify
▁stating
▁59
▁76
▁111
▁490
▁woodworking
▁1990
2009
shaped
▁freight
▁inspectors
▁555
asce
▁meaning
▁comprising
79
▁phenomenon
▁detonation
▁inventory
▁strategies
265
▁reactivity
▁brake
▁terminates
▁relocate
▁reduces
hazardous
▁involvement
▁evident
▁candles
▁explicitly
▁endanger
▁ownership
▁ashtrays
▁seasonal
3048
▁bulletin
▁artwork
▁mj
▁thin
▁silencing
▁appears
▁3½
07
▁sidewalls
510
▁nonrated
710
▁diagnostic
▁spontaneous
▁kettles
▁asbestos
▁slopes
▁eaves
▁erosion
▁harmful
▁privacy
▁dividers
▁hybrid
▁cracks
▁undertaken
▁descending
place
▁flooring
▁reinforcement
▁ample
▁shipping
▁fusion
▁purge
er
▁therapeutic
▁requalified
▁supplier
▁refilled
▁freely
▁lost
▁volumetric
73
▁juvenile
▁whereas
▁trial
▁poor
▁organized
▁sectional
▁brick
▁repeat
▁recent
▁generic
▁slowly
wall
while
▁unlikely
▁supplements
▁random
▁receives
▁irrigation
▁manholes
engineered
▁al
▁correlating
▁outcome
▁going
wide
½
▁nipples
mic
▁nonencapsulated
820
▁mv
▁imc
▁552
552
▁hunt
▁relocated
▁restriction
▁stopped
▁responses
▁extraction
▁chimneys
▁326
▁sulfur
▁914
▁108
119
▁nonrefillable
▁swivel
ulc
▁heliport
▁april
▁artificial
regulated
▁airborne
264
127
▁employs
97
weighted
▁timber
180
▁drinking
ups
208
▁sprayed
▁uncertainties
▁minimizes
▁relied
▁enable
▁reads
▁skylights
bearing
▁arms
density
bonded
▁heard
▁jockey
▁retest
▁warnings
▁nameplates
▁potentials
▁hydrostatically
▁stratification
testing
▁torch
▁classify
▁restaurants
▁unvented
▁attend
▁64
▁plugging
▁stacking
▁round
▁chord
▁submergence
▁cloud
required
▁he
▁reviewing
break
▁mentally
after
▁radar
▁lifts
head
▁unlimited
356
oil
▁grouping
▁withstanding
▁tend
▁consultation
▁stringent
hz
▁uprights
▁blank
▁residence
dot
▁logical
▁clinical
▁encouraged
▁later
▁dynamics
▁update
▁learning
kw
▁silence
▁adjust
▁multistory
▁consult
▁look
incident
▁60079
▁lists
health
330
▁breakage
▁165
▁inform
once
▁resolution
▁correlation
▁retransfer
▁rpm
▁attenuation
▁electromechanical
▁dissimilar
1½
▁nails
interrupting
502
▁hoop
▁staples
▁crane
▁semiquantitative
▁sideflash
▁511
▁dimmer
▁conditioner
vaportight
niche
▁catvr
▁ont
▁1971
▁soundstages
▁conflicts
▁approximate
▁pyrotechnics
▁refuse
▁170
▁boatyards
▁ethylene
▁refrigerating
▁10016
▁polypropylene
▁demonstrates
▁yield
▁scientific
▁reactions
▁flammables
▁magnesium
▁commercially
▁numerical
170
▁gathering
▁varied
▁comes
▁brigade
▁impacts
▁precision
evaluation
▁maze
▁resetting
▁lubricated
▁governor
▁loosely
▁penetrated
▁freezers
▁describing
▁overspeed
▁attendance
▁rechargeable
▁720
▁distinguishable
▁roadways
▁lot
▁guy
▁turning
membrane
▁curbs
▁grain
▁lubricating
▁submersible
▁misalignment
▁nonferrous
▁lining
▁lifting
▁reactors
▁drip
▁1¼
▁universal
▁labs
▁beds
▁peer
▁disturbance
▁impossible
▁offset
▁computed
▁wearing
▁mills
▁specifying
▁ultimate
▁splicing
▁tagging
▁chlorate
jurisdiction
life
▁330
▁fundamentals
▁tias
▁suppress
▁errata
generator
▁equalization
▁nut
▁preventer
▁impellers
▁interchangeable
▁lfnc
▁discoloration
formerly
▁instance
subcontractor
350
▁communicator
▁anesthetizing
530
▁corona
▁downtime
▁imminent
▁afford
▁enforced
▁therefrom
▁interpreted
▁allied
▁calorimeter
▁libraries
rd
▁overfill
▁toxicity
▁recreation
▁626
▁halogenated
▁sp
▁qualifying
▁sudden
▁flight
▁chemistry
▁irregular
▁rolls
77
▁emitted
▁rises
▁relates
▁autoignition
▁inpatients
▁dock
▁aids
▁manifolds
▁firebrands
▁parameter
▁performs
▁architect
▁warn
▁confirmed
▁challenging
▁blocking
▁participants
▁lighted
▁lettering
▁ball
▁590
▁dumbwaiters
▁afforded
▁coordinator
▁twisted
height
core
▁sleeves
▁rock
▁festival
▁arenas
▁returning
▁managing
▁objectionable
▁1984
▁electronically
▁annunciators
▁crawl
▁divide
▁apartments
▁impede
▁faces
▁electronics
▁preservation
334
▁uppermost
▁taped
▁exiting
▁climates
▁prohibits
▁art
▁rope
▁trenches
▁footrests
▁collectors
threaded
▁soldering
psi
▁loops
▁np
▁leader
▁expert
▁shipped
▁orifices
▁freestanding
▁bays
▁leg
▁wheelchair
▁college
▁programming
▁error
▁modeled
640
▁tall
▁competencies
▁disabled
vii
▁computers
▁petrochemical
▁probabilities
▁theater
there
▁kind
▁chart
▁tubs
risk
▁497
▁introduces
▁advanced
▁leather
meters
▁lc
2002
▁galvanic
▁polymeric
fir
ind
285
▁winders
▁compromised
▁galleries
▁nonuniformities
▁integration
▁candidate
▁science
▁jpr
▁overtemperature
▁choose
▁175
▁joining
▁midpoint
▁km
▁amplification
▁delichatsios
▁multiport
▁tolerances
▁460
▁autotransformers
▁intentional
tube
▁retro
▁tagout
▁slc
▁execution
▁transmitters
▁suffix
breaker
646
▁fplr
770
840
▁trainee
▁addressable
▁repeater
▁reflects
▁parks
▁conflict
▁seven
▁chair
▁companies
▁$
lng
▁307
▁nw
▁quarter
penetration
▁obtaining
national
▁springfield
▁reactor
▁highway
dimensional
▁disposed
ember
▁makeup
▁weighing
▁intact
144
▁contaminant
kg
ignition
▁psychiatric
191
239
▁overlap
▁skids
▁announcements
▁conformity
▁banks
▁unlocking
▁blockage
▁restricting
▁swimming
▁press
▁habitable
▁brand
▁recharged
▁initiates
▁bedrooms
output
▁dates
▁issuing
▁305
▁bridges
▁lux
▁tightly
▁overview
▁owned
▁freeze
▁106
▁spillage
▁dissipate
▁confine
▁alternatively
source
▁ib
fitting
378
▁discovered
▁diversion
▁nearly
▁tip
▁lose
▁condensate
▁ships
▁specially
▁colors
▁tensile
▁optimum
typical
▁helpful
regulating
▁summarized
▁subclassification
▁probably
▁uniformity
342
▁differing
▁opposed
▁advantages
▁reproduction
▁tightened
▁dial
▁seek
▁troubleshooting
▁customary
▁underfloor
intensity
▁substitution
▁deal
▁economic
additional
iec
▁os
▁throw
▁perchlorate
butyl
▁/
▁hereby
▁355
sfpe
▁se
cooling
▁analyzing
▁profile
▁nominally
▁interruptions
▁firestopped
▁ventilator
▁drilling
▁silenced
▁slab
▁cues
energizing
▁ducting
▁calls
▁paralleled
▁overloading
▁bay
▁unions
▁soldered
▁impulse
▁contacting
▁mating
▁churn
▁recorder
▁trough
▁powering
▁deteriorating
550
▁nonlinear
base
▁362
paddle
368
compressors
▁dimmers
▁plfa
830
nas
▁dacr
▁acu
www
▁emphasis
▁certificates
▁retroactive
▁dangers
▁barricades
▁justification
▁chimney
▁proximate
▁wells
▁expertise
▁recommend
▁wherein
▁102
▁260
▁408
▁495
▁communities
▁museums
▁1031
223
nd
▁castings
▁accelerated
503
▁meanings
▁wholly
vrla
▁equals
▁erected
▁logs
▁detects
▁concentrated
215
▁cubic
176
sei
▁mitigating
244
251
▁client
▁escapes
▁nosings
▁regulate
▁adults
▁gravel
▁documenting
▁contacted
tight
▁selector
▁placard
▁achieving
▁ascertain
▁dividing
332
nonsprinklered
▁staffing
▁books
▁cutoff
▁hangar
▁skill
▁tensioned
▁janitor
▁season
▁sewers
▁polyester
▁abort
▁scheduling
▁tapping
▁share
▁bypassed
▁faulty
▁wash
▁660
708
02
▁°
▁maqs
▁exchangers
automatic
910
▁girder
▁staggered
sr
▁stem
▁departmental
▁motels
▁proportional
liquid
▁hence
▁exothermic
355
▁distinguished
▁overcome
▁distinguish
▁1991
▁desire
▁preferable
date
▁supplemented
▁avoiding
▁furnishing
▁bedroom
▁audit
▁minus
▁disturbing
2000
▁wrought
▁displace
▁proportioning
▁reorganized
▁cage
▁et
down
▁hatch
▁inorganic
▁hierarchy
281
▁shedding
▁subsystem
▁transoms
▁rafters
▁statistical
▁pertain
▁bandwidth
▁445
▁undervoltage
▁faulted
▁sediment
▁gridded
▁inserts
▁flowmeter
625
▁708
▁gland
▁hoops
plate
▁thermometer
isolating
▁multioutlet
310
▁multipole
▁pendants
▁relamping
▁plaque
▁404
▁nmc
▁ent
▁multiplex
501
▁loudspeaker
▁hoist
▁fpl
▁blp
▁vol
▁ecs
transceiver
▁tones
▁requests
▁annexes
important
▁administered
▁familiarity
▁bear
▁82
▁mines
▁october
▁northbrook
▁recirculating
▁1632
merriam
▁402
▁gain
▁workstation
▁wound
87
▁embers
▁tends
126
131
▁kettle
▁wheels
▁tar
145
▁strict
178
ntp
▁disability
▁steeper
▁cardboard
▁appearance
▁wheel
249
▁resisting
▁distribute
▁search
installation
fail
▁reviews
▁perceived
▁crop
release
▁stipulated
▁reflective
▁eave
▁baffle
2440
▁possess
▁uncovered
▁unventilated
▁multipurpose
▁sports
▁porches
▁bulb
▁forklift
▁horns
▁shells
▁readiness
▁lubricants
▁traps
865
▁pairs
na
▁alleys
▁leasable
965
1065
▁remoteness
▁suspected
▁narrow
▁screening
▁prohibiting
▁sold
▁513
▁hall
▁announcement
▁supervise
▁mud
▁guardrails
▁prohibition
▁nonabsorbent
▁polystyrene
esfr
▁roller
▁recirculated
▁pai
▁improperly
▁groundwater
▁vaportight
▁cfm
relieving
▁button
▁1100
▁sparking
▁seen
▁ducted
▁ceramic
▁sharing
406
relief
▁corporation
283
▁restraining
▁brushes
=
cell
▁migration
▁cylindrical
▁excavation
▁dikes
▁impoundment
▁lubricant
fed
metal
cylinder
▁commensurate
▁investigations
▁university
▁military
▁greatly
▁handicapped
▁640
which
▁pp
▁vulnerable
▁fashion
▁7½
critical
typically
using
▁reversal
▁growing
▁orange
▁ill
portable
▁quite
▁arrive
▁grow
▁deicing
▁dump
▁costly
505
▁bladder
▁weld
▁silicon
▁microns
▁1221
tms
▁auditorium
▁mitigated
▁dimensional
▁catwalk
▁lockup
▁undesirable
▁outlines
tests
▁witness
▁coldest
▁ece
▁cp
▁longest
extended
▁droplet
▁fluctuations
winding
▁halves
frequency
▁amplifiers
▁fras
▁endpoint
▁watercraft
▁nonelectrical
aerial
▁conditioners
number
▁multimotor
▁pm
▁cis
copyright
▁http
▁trademark
▁retroactively
▁applicant
▁publicly
▁competency
▁1144
▁middle
▁breakaway
▁790
▁nonmandatory
▁subsystems
flammable
▁whereby
▁sanitation
▁therewith
116
▁exhibition
▁lethal
▁inhalation
▁propylene
141
▁promote
▁outpatient
▁week
▁projecting
▁separators
248
threatening
▁mathematical
start
▁becoming
▁familiarize
▁relationships
▁fencing
▁accumulating
like
▁border
▁sills
▁demonstration
▁voids
▁wrench
starting
▁cart
▁efficiently
▁wetting
▁wrong
▁deactivate
▁version
▁systematic
▁pan
latching
self
▁waived
▁climatic
▁decreases
▁murals
▁projectors
▁execute
▁onboard
▁cleanliness
▁driveways
▁continuing
▁stone
▁lightweight
▁raw
▁submit
▁heavyweight
▁cleaners
▁ohms
▁rust
▁withdrawn
▁she
▁arising
▁sumps
▁coming
▁relaxation
▁reel
wired
face
front
▁charts
▁magazines
▁bottoms
▁lighter
▁raise
▁135
▁child
▁viscosity
▁threats
▁carries
▁acknowledged
▁acronym
▁commanding
▁acceleration
▁confused
▁fluorine
▁clinics
▁infants
▁kinds
▁laundries
▁paid
▁latter
▁topics
▁gives
▁contemplated
residential
▁pulls
▁pulled
▁region
▁refrigerators
▁recognizing
▁train
▁shipboard
▁telephones
greater
technical
▁pages
▁turnstiles
▁success
▁sounds
action
▁outcomes
▁nist
▁acoustically
▁camera
▁gaithersburg
▁representation
▁graph
benefit
▁programmed
▁pitting
▁doing
▁criticality
▁simplified
▁trapeze
▁ix
inch
pvc
▁grooved
▁hazen
williams
electric
▁november
▁adjusting
353
hl
▁unloader
arc
▁struts
▁bump
trip
▁ita
▁kit
informative
▁cabled
kva
2008
wiring
340
344
352
▁strut
▁pd
404
▁bathtub
▁lens
device
▁paging
▁storable
▁shorten
▁masked
prs
▁runner
▁schifiliti
▁©
▁supersedes
▁654
▁committees
▁agreement
▁anyone
▁86
▁semiconductor
▁heliports
▁601
▁1124
▁ashrae
▁circle
▁cup
▁1967
containing
▁hands
▁wrapped
▁substrate
▁passengers
▁electrochemical
lp
▁preparing
▁phenomena
sensor
108
109
785
▁rats
▁xenon
▁undergo
151
▁million
163
▁railing
▁renders
▁technically
▁sustain
242
269
from
▁insofar
▁safeguarded
▁satisfactorily
▁satisfaction
▁spreading
▁unavailable
▁grass
▁polarized
590
▁duplicate
▁lint
heat
▁adhesive
▁turns
▁ridge
▁shutters
▁vibrations
receiving
▁coolant
▁startup
battery
maintenance
▁prominently
▁closers
candle
▁calling
1900
▁stacked
▁auditoriums
▁latest
▁endangered
▁dependability
new
▁shutter
▁faa
▁footboards
▁inadvertently
▁toilet
inflated
dispensing
▁seriously
312
▁deactivation
▁wholesale
▁accidentally
▁tendency
▁particulates
▁washer
▁poured
▁coupler
▁chlorinated
gal
▁airspace
▁eliminating
▁cluster
▁173
▁heavier
▁inches
▁deviation
▁buoyancy
▁counters
▁assignments
processing
▁144
▁155
▁finding
▁transfers
▁retested
▁tenders
vent
▁proved
▁cooled
▁maritime
process
▁furthermore
▁deflection
▁evaluates
▁terrorism
▁expectations
▁hallway
that
volume
366
▁coat
▁mandate
▁prolonged
▁probe
▁atriums
▁justified
duration
▁preserve
▁convection
▁practiced
degree
▁cameras
▁reciprocating
▁bethesda
▁280
▁anywhere
int
▁venue
▁accommodation
279
▁energize
caused
▁tracks
▁interpolation
▁springs
▁british
▁encompass
▁journal
grid
▁rescuer
▁conclusions
▁investigative
▁radiators
▁ammeter
cmsa
▁axial
▁blade
▁reclassification
drop
lubricated
▁manage
▁hubs
▁insertion
▁faceplate
▁subcontractor
▁intelligence
▁indirectly
354
▁wattage
▁deflected
rmc
imc
▁368
▁overvoltages
▁352
▁334
4½
▁nms
358
362
▁knife
▁livestock
555
665
▁capacitance
▁cmx
▁wavelengths
▁gently
origin
▁studios
▁ammonium
▁heading
disclaimers
▁brigades
▁proof
▁examine
▁welfare
▁fulfill
▁financial
▁clarity
▁violations
▁authorization
▁card
▁acetylene
▁mock
▁radioactive
▁1963
▁barr
▁harbor
▁19428
2959
▁kerosene
▁drum
iso
▁333
▁pfingsten
▁60062
2096
▁bales
▁passages
▁dispersion
▁distributing
▁gastight
criteria
▁fume
▁harm
rescue
▁zoned
187
▁pot
▁roadway
273
▁prediction
▁behaviors
▁defend
▁kj
▁unintended
▁treat
▁proposals
▁verbal
▁weeds
▁uninterrupted
▁tagged
▁layouts
▁maximize
▁replacements
▁weights
▁chains
▁stretch
▁coolers
▁legs
▁lined
▁student
▁assign
▁fenced
▁bracket
▁subsections
▁reacceptance
▁selectively
2090
co
▁centrally
▁compliant
▁confirmation
▁mirrors
▁credited
2030
▁workmanlike
▁priorities
▁landscaped
▁resolve
▁fired
▁posting
▁administrators
▁recycling
▁refresher
▁retarding
▁library
▁transmissions
▁stake
▁doubled
▁bulkheads
▁sewer
▁repairing
▁forest
▁ethyl
▁papers
▁discuss
▁demonstrations
304
540
do
▁gasketed
▁spots
▁frequented
3000
▁unlisted
▁miscible
laden
▁semiannually
▁washing
▁na
▁jurisdictional
▁uncartoned
▁impressed
▁modular
▁compartmented
▁weak
▁anchoring
▁emptying
▁arm
supporting
▁resilient
▁showed
▁rising
▁locally
▁classed
product
▁psychological
▁kindergarten
▁reclassified
▁couple
▁somewhat
▁choosing
▁ratios
▁tenable
▁eventually
▁nurse
more
▁tell
bottom
▁knob
▁observing
▁intrusion
▁geographic
▁challenges
▁cleaner
▁trigger
maximum
▁decimal
▁nj
▁september
▁aci
▁omit
▁estimation
▁probabilistic
▁fifth
525
▁correlate
due
▁`
`
▁send
▁anode
▁enamel
pe
372
▁reconditioned
▁potable
▁priming
▁freshwater
▁east
▁flexural
vertical
disconnecting
▁ethernet
▁firmware
▁2018
▁subcontractors
▁abrasive
▁clusters
▁concurrent
melting
▁630
▁kilovolt
▁hdpe
382
▁relaying
▁320
▁drawout
▁nonshielded
▁fished
324
348
▁lfmc
392
▁nonconductor
▁nonlocking
▁wd
▁dumbwaiter
char
▁blr
▁decal
ma
▁swells
▁cd
▁dispatch
fluid
▁valuable
▁remodeling
▁accompanied
▁substantiate
▁sidewalks
▁commander
▁suit
▁unreasonable
▁calendar
▁meetings
▁weeks
▁collecting
▁validity
▁signature
▁211
▁252
▁257
▁303
▁415
▁rural
icc
▁conshohocken
▁precautionary
▁ch
design
▁142
▁restaurant
▁un
sti
▁synthetic
material
▁traversed
▁irreversible
▁crude
▁compensation
147
▁cloth
▁lane
▁dissolved
▁noncorrosive
▁mill
161
166
167
307
▁guardian
▁mostly
▁impeded
▁occupying
189
204
▁registration
road
▁neck
▁achieves
approved
▁animals
▁appropriateness
▁patio
08
▁trunk
▁disturbances
▁stove
▁compromise
▁visit
▁anything
fabricated
ff
▁legitimate
▁stadia
▁storerooms
▁workmanship
▁escaping
▁deployment
▁increments
▁stairwell
▁referring
▁reconfiguration
▁devoted
▁obscure
▁slide
▁timers
▁siding
▁subdivisions
▁waterways
▁bins
▁projector
▁deferred
▁photographs
▁grinding
·
▁seams
▁inflation
motor
▁raising
▁paved
▁deactivated
▁electrician
▁unexpanded
▁rolled
▁transparent
▁blowing
▁y
▁clogging
▁cease
▁farther
▁considers
bsee
▁6000
▁footing
▁touching
before
▁lowered
month
▁fl
▁curing
safety
▁vrla
▁shaded
▁schemes
▁extremes
welded
▁customers
▁abutting
▁vulnerability
np
protection
▁activates
▁linings
▁commerce
▁ornamental
▁churches
▁indicative
▁ride
▁blast
person
▁proceeding
▁agreed
▁arise
▁broader
occupancy
▁evacuees
▁crossflow
▁estimating
▁safer
▁comparing
▁coding
component
▁binding
▁explicit
▁protruding
▁1988
▁improvements
less
▁slower
▁consumed
▁automation
▁precaution
because
▁phthalate
▁moves
▁sentence
imo
▁conical
gov
▁climbing
▁ramped
epss
▁resists
▁arrest
defined
▁returns
▁prerecorded
support
▁comprise
▁comment
data
▁predictive
▁waterproof
▁pitot
▁educated
▁investigators
▁clarified
▁isolators
▁millivolt
usually
▁tracing
meter
▁tiers
559
▁tees
▁balancing
▁changeover
▁taper
▁default
churn
▁portal
▁convective
▁103
▁neat
▁warranty
coded
failure
393
recorded
▁injured
▁tolerable
▁analyst
▁192
▁uw
lightning
encased
▁ferromagnetic
▁celsius
▁polarization
gfci
▁727
▁analyzer
506
▁runway
626
668
▁675
▁nplfa
▁blx
▁meacham
▁62305
▁heavily
▁grills
▁extensively
▁constitutes
▁signed
▁proceed
▁contest
▁orders
▁disseminated
▁construed
▁membership
▁cited
▁mail
▁accepting
▁1301
▁drycleaning
▁mining
▁204
▁251
▁pleasure
▁407
▁rocket
▁suburban
aiha
▁1220
▁aviation
▁dryer
▁fines
▁express
▁retard
▁progression
▁demonstrating
▁locker
156
2800
▁accommodated
213
247
▁annunciate
▁winds
▁abilities
▁nonemergency
▁methodologies
▁institutions
▁ordered
▁curriculum
▁preparedness
▁someone
▁discontinued
▁capital
▁wallboard
▁void
▁shorter
▁cavity
▁escutcheon
762
▁rays
▁sun
▁dance
▁vandalism
▁afff
▁destroyed
▁presignal
▁coincide
▁impediments
▁gallery
▁legend
▁dispose
▁attaching
▁ridges
▁sounded
▁separates
▁wetted
▁absorbed
▁catastrophic
▁solenoids
▁actuators
▁distant
▁conclusion
▁abovegrade
connect
▁flying
▁cab
▁perforated
▁grating
▁runways
▁regeneration
▁hygiene
▁holders
▁abut
▁dried
▁resins
720
▁ph
▁salt
▁river
▁strictly
▁trips
▁impingement
part
▁kits
▁floods
▁assigning
▁surrounded
▁nonmiscible
▁coast
▁compacted
▁impounding
630
▁functionally
▁tunnel
▁assured
▁reinstalled
▁saddle
522
445
▁coefficients
388
▁emit
▁suggests
under
▁voluntarily
▁hypochlorite
▁encapsulation
▁constraints
▁alter
▁indications
▁resting
outlet
▁dictate
exposed
prior
▁relies
▁explained
▁lever
▁considerably
▁depicted
▁rarely
▁aging
several
approximately
▁flashing
▁repetition
▁soils
▁exclude
▁radiated
▁1300
▁screwed
▁trend
▁warming
▁sprays
gpm
▁glasses
▁nitric
▁normalized
▁preference
pound
▁1987
metallic
▁hyperbaric
▁headers
▁gridirons
▁notifications
▁slots
▁modernizations
▁kiosks
▁fatalities
▁slight
▁disabling
operation
▁2513
▁116
▁completeness
▁infrequently
2016
isolation
docinfo
▁crank
▁bypassing
▁lug
▁bridging
▁console
▁microbiologically
cpvc
▁encasement
cement
▁butt
▁thicknesses
▁renewable
▁peaked
▁shallow
▁database
▁obstructing
▁sixth
▁sd
▁stuffing
▁tripped
angle
▁inserting
▁providers
▁globe
▁356
▁planks
▁itm
replace
▁hydropneumatic
functional
▁workplaces
▁weighted
▁host
▁we
▁thermocouple
▁countertops
rtrc
▁energization
▁nonflexible
▁directories
▁rough
▁fmt
▁concealable
390
▁ear
▁fountains
▁multispeed
ignitionproof
60079
▁nonintrinsically
▁microphones
645
▁1685
tray
propagation
▁694
▁840
▁bl
▁ks
tm
▁amplitude
▁analyzers
▁apparel
▁underlayers
▁talk
▁disseminate
▁america
▁professionals
generating
notice
▁asterisk
▁deletion
▁]
▁modernized
▁enabling
▁remedy
▁appeal
▁261
▁318
▁competence
▁interchange
▁1192
5990
▁ferritic
2004
cup
2006
▁la
▁concentrates
▁comparative
▁913
distribution
▁1977
504
▁152
175
▁piling
▁partly
▁union
▁precipitation
▁oxidation
▁lid
▁motorized
▁poses
137
▁inhibit
lc
▁argon
▁accelerate
▁violent
▁prefabricated
149
▁hogged
155
164
▁unrestricted
199
▁paperboard
tread
▁girders
▁struck
▁humans
▁untenable
▁realistic
▁proposal
▁unexpected
▁vacant
▁lawn
▁accessing
▁hatches
▁accordion
▁operability
▁latched
▁simulating
▁treatments
▁identifier
▁grout
▁jackets
06
▁cellophane
▁1986
standby
▁movements
▁bound
▁tracer
▁landscaping
▁simulation
▁catchment
▁bleachers
▁discretion
inclusive
▁residences
▁intersections
▁charcoal
▁subfloor
▁360
▁halide
▁conveyed
▁comfort
▁adhere
▁crew
▁collision
380
▁definite
▁dispense
▁wing
▁gun
▁allowances
▁793
▁styrene
▁refineries
▁47
▁reconnected
▁diffusion
▁parentheses
▁theoretical
▁piled
sprinkler
▁justifies
▁appurtenance
frame
▁strains
▁blown
▁illustration
▁auto
▁ember
▁combines
▁discipline
▁1970
▁subjective
384
▁standpoint
▁acquisition
▁evacuations
▁impacted
▁attitudes
▁storms
▁distinction
▁decide
▁perspective
▁1974
▁comparisons
▁tenability
although
▁unheated
▁servers
▁onset
▁imperative
▁corresponds
▁completing
▁97
▁graphics
▁build
▁elevations
▁interfering
osha
▁blends
▁worked
▁expensive
▁plot
▁economical
▁dirty
▁pumped
▁originated
▁reveal
▁reorganization
▁attack
535
▁uncontrolled
▁lasting
▁lowering
▁barium
▁violate
▁flyings
▁surveys
▁1976
asse
mer
▁traverse
▁visibly
▁ten
▁nonuniform
▁students
▁bulkhead
total
>
systems
▁measurable
▁concise
▁compute
▁sending
▁calculates
▁victims
charged
▁atss
▁synchronized
static
▁dropped
▁poly
responsive
▁ss
▁welds
▁groove
▁cushion
indicator
545
▁vs
▁mixer
▁lakes
▁ponds
▁moist
▁fmrc
▁mixers
jockey
▁settling
▁duplex
hp
▁rs
reading
▁disable
▁email
▁squares
public
integrated
326
▁cancelled
▁cancel
▁loc
▁messaging
▁constructions
1998
370
374
▁backfeed
▁ears
409
▁energizing
▁547
▁646
682
▁catvx
▁bmr
▁esd
▁mcc
▁lumens
numbers
▁custer
▁worcester
▁officials
▁concurrency
▁extract
▁difficulties
▁filed
▁prototype
▁expense
▁save
▁assisting
▁matters
▁discussions
▁examinations
▁disposition
▁suspend
▁reviewer
▁abatement
▁221
▁259
▁cigarettes
▁909
▁rocketry
▁10036
▁1961
▁ed
▁93
▁396
▁1590
▁1966
▁closures
▁340
▁luminous
can
▁20402
maq
▁530
▁sheltering
▁nomenclature
▁diking
▁stimulus
▁draws
▁dark
▁resale
98
▁goes
132
▁gallon
▁median
▁albino
143
153
171
3660
▁surgical
▁showrooms
▁refrigerants
vessel
▁comprises
271
▁prevailing
▁conservation
▁inappropriate
▁recommends
1600
flame
▁pots
▁marker
▁loud
▁carpeting
▁detailing
ac
▁combiner
▁retrofitted
hh
▁extremities
▁2404
▁anchorage
fill
separate
▁defense
▁condensed
▁plain
▁uniformly
▁imply
▁twenty
▁premixed
▁anti
▁reused
▁shoulder
▁audibly
▁disturb
general
listed
▁appurtenant
rolling
▁approaching
▁narrowest
▁recognizable
▁foyer
▁staging
▁bbl
▁overhangs
▁map
▁overlapping
▁successive
▁accommodating
▁credit
▁session
▁bedridden
▁summon
363
▁fly
unless
▁representing
▁footrest
▁docking
▁berth
▁amperage
▁mix
▁unreinforced
layer
▁nylon
▁fluoride
▁megohm
▁relocating
▁molten
▁98
▁purchase
▁deadman
750
▁dome
▁splashing
▁inadequately
▁ranging
▁subassemblies
▁schematics
▁flaring
cycle
▁entirety
▁73
▁imported
▁lake
▁waterway
▁prevail
▁crush
▁rad
sealed
▁convert
▁pneumatically
▁restraints
▁ignitions
monitoring
▁strategic
▁differentiate
▁backing
four
▁shelters
▁anhydrous
▁skid
outside
▁1972
▁1033
▁categorized
▁precise
▁cane
▁condominium
called
▁cracking
▁strongly
▁perception
▁acts
▁incomplete
▁implications
▁landlord
▁phones
▁mind
▁nonstructural
▁spreads
scenario
nec
▁332
▁133
▁offers
▁enables
▁ones
▁easier
▁durations
▁blue
▁acids
+
quarter
▁knobs
▁1985
▁estimates
▁male
▁female
▁percentile
common
▁microwave
▁mats
▁cookers
▁adapted
effective
▁mw
▁wheelchairs
▁aloud
▁extraneous
▁exactly
▁ream
▁firespread
▁bulbs
▁coats
per
▁vaporization
▁electrotechnical
▁attempts
▁naturally
▁transportable
clearance
induced
▁canadian
▁sulfide
▁permanganate
▁thereunder
▁1981
▁concurrently
▁putting
▁edited
com
res
▁predicting
patient
▁headroom
▁carpeted
▁wait
▁terrace
▁rheostats
▁incapacitated
▁tied
▁computational
▁detact
▁426
▁percentages
▁1670
▁1983
▁dripproof
▁excitation
▁fema
▁nuclear
▁overloads
▁noncritical
▁overloaded
▁sei
vinyl
900
▁looped
▁disc
▁evenly
▁gratings
▁cinder
hook
▁hvls
▁node
▁favorable
ip
▁rsp
695
▁sequential
▁overhung
▁squirrel
primary
▁depletion
480
▁armature
▁dressed
▁insulations
▁yearly
branch
facilities
minutes
▁waterbath
▁afci
▁nucc
▁igs
▁locknuts
▁multigrounded
▁fasten
ta
¾
▁fmc
376
386
398
▁spas
▁sine
▁skeleton
▁monorail
▁khz
▁analog
▁fireproof
▁bm
▁pc
▁reenergized
found
absorption
▁fpts
▁briefing
▁broadcast
▁retransmitted
▁templates
▁pu
▁trademarks
▁massachusetts
▁exercising
▁fees
▁former
▁urban
▁revising
▁retroactivity
▁existed
▁filing
▁pursuant
▁inability
▁penalty
▁232
▁253
▁302
▁418
▁lots
▁20005
seated
▁biodiesel
▁814
▁4880
▁switzerland
▁oh
▁147
▁1040
▁1479
▁nations
▁magazine
▁boil
▁lounges
▁chip
234
▁litter
▁positively
▁premise
107
▁fleet
▁eliminates
▁valved
▁acute
169
▁orally
msds
▁crankcase
▁anesthesia
▁transaction
▁rented
▁leased
▁incinerator
218
221
▁slats
▁directs
▁strapped
245
▁dunnage
▁displaced
▁automobiles
257
▁warehousing
▁quantified
during
▁reliance
▁participation
▁christmas
▁absorb
▁construct
▁stoves
▁suppliers
▁closes
▁128
▁unexposed
▁annular
▁firestopping
▁slag
▁specimens
▁exemptions
detection
▁porte
cocheres
1115
▁gymnasiums
946
▁converting
▁attain
▁smoothly
▁screened
▁nonrechargeable
used
▁disassembled
▁pressurizing
▁opaque
▁obstacles
▁registers
▁introducing
▁instant
ethe
▁4½
▁reception
▁accessed
▁courts
diagnostic
▁situated
▁progresses
▁prefire
▁storeroom
▁curb
▁susceptibility
measured
▁impose
▁crates
▁constituting
▁belonging
▁6921
▁absorbent
▁playing
▁chairs
▁membranes
▁camping
▁scuppers
930
▁cinders
▁treating
▁thermocouples
▁saw
access
▁acetate
▁mediumweight
▁fairly
▁slipping
▁upset
dthe
▁destructive
▁bolting
▁entrapment
▁filtration
▁presumed
▁cabin
▁propulsion
▁laminated
▁fusing
▁clogged
▁spacers
wash
fat
▁subjects
▁footnotes
metric
▁62
▁presenting
278
▁collars
▁inclined
▁wastewater
▁shifting
▁endangering
124
keep
zone
▁proportions
▁proficiency
▁mainline
shell
▁congested
420
▁dependable
▁join
▁coarse
▁turbulence
▁tapes
▁114
▁nonrefrigerated
▁catering
acting
▁licensing
▁evaporation
▁preset
▁characterize
▁combine
occupants
▁factories
▁employment
▁social
▁assisted
chapters
▁usability
▁fourth
▁subsequently
▁discrepancies
▁thought
▁merely
▁teams
▁names
evacuation
▁facilitating
▁attempting
job
▁historically
▁digits
▁conflicting
▁unsatisfactory
▁merit
▁intend
▁wardrobes
▁matching
rti
▁wrenches
▁intense
▁occasional
▁sulfate
▁knowing
▁prevalent
▁clause
▁career
▁remember
▁winter
▁alerted
▁discoverer
▁malfunctions
322
▁odor
▁footwear
▁prudent
▁benzoyl
▁clarification
efficient
▁primer
▁executive
▁shunts
▁di
▁rat
▁excessively
▁nc
▁aws
▁geneva
▁262
▁acted
▁sb
▁pivot
resisting
▁music
‡
▁ceases
▁guardrail
▁demarcation
▁crossing
▁ci
▁rigging
span
▁pushed
charging
▁sheathed
▁experts
▁ink
▁accompany
▁matched
▁audits
▁suggest
hours
▁complaints
▁complaint
▁jobs
▁files
▁please
▁website
eps
loop
▁inertia
▁alloys
▁scan
viii
▁prospective
▁inhibitors
▁waterworks
either
▁operative
▁escutcheons
▁reducers
▁bore
▁fins
▁webs
▁armover
▁plotted
▁worksheet
pv
▁microbes
▁mount
▁redesign
▁february
▁mph
check
▁asd
▁investigating
553
1997
▁zoi
differential
▁indefinitely
▁hub
▁symmetrical
▁limiters
ies
sound
▁salts
▁geographical
516
▁waterline
▁bored
▁decreasing
those
▁actuator
▁bacteria
application
▁preventative
▁preplanning
▁lel
▁sec
701
▁phasing
▁trolley
▁427
▁bushed
▁capacitive
▁spt
▁sectioned
▁1650
▁518
cables
▁hydromassage
▁aex
▁iic
▁915
▁catenary
▁thunderstorm
▁ohm
▁reconnaissance
▁shermco
▁synchronization
▁autonomous
▁delinquency
▁mns
▁sounder
▁twin
▁2167
▁1980
▁71
▁enforce
▁vacate
▁delineate
▁damages
▁holds
▁facts
▁license
▁holder
▁submittals
nonmetal
▁255
▁1126
▁395
▁blend
▁distillate
▁silane
1211
▁reston
▁specialty
▁2079
tc
▁compilation
▁takeoff
402
▁packed
▁railway
▁polymer
paper
▁bimetallic
▁distributor
▁affords
128
▁psia
▁nonliquefied
282
▁rapidity
▁chronic
168
▁dose
▁generates
▁outsiders
185
▁wrapping
206
▁rdp
▁relocatable
▁segregated
▁moment
262
▁continually
▁cooperation
▁overhanging
▁torches
▁advise
▁visitors
▁patrons
▁floats
▁hip
▁valley
1219
cable
▁eyes
penetrations
▁mortar
▁monolithic
▁recalled
▁unduly
▁workshops
▁hangings
▁shuts
▁tiles
▁preplanned
▁frozen
▁restoring
▁insects
▁distilled
▁ms
▁inverted
▁obscured
▁fulfilled
▁fffp
▁remained
swinging
▁interrupts
▁openable
▁restrooms
▁distinctly
▁hung
luminous
▁strokes
▁recess
inspection
aid
▁accumulates
▁commencement
▁saddles
▁highways
lined
▁audiences
▁grate
round
2100
▁announced
▁guests
▁blind
▁reducer
▁laterally
▁cleanrooms
▁runners
▁biennially
465
▁marina
▁arrival
▁prominent
▁ventilate
▁soundstage
▁mentioned
▁dispersed
wrapped
flowing
▁sanitary
470
▁belts
▁nonhazardous
▁begun
▁conduction
▁island
cold
▁515
▁exchanged
▁denoting
▁concessions
▁flooded
▁crossover
▁idlh
manual
▁medicines
ia
▁ntp
▁ranking
▁nace
▁switchover
▁divert
▁tear
▁appointment
miscible
▁sill
three
▁inerted
▁diverse
▁toe
▁unloaded
▁interstate
▁420
▁dense
▁convention
▁wrap
▁opposing
▁significance
▁rare
ml
▁scanning
▁courthouses
▁town
▁aged
▁taught
▁barns
▁satisfies
▁expect
▁relying
▁agreements
▁ideally
▁distributions
▁educate
▁sequencing
generally
training
▁gained
▁qualities
▁queuing
z
▁traction
▁attained
tias
04
▁wardrobe
▁contracted
▁looking
▁creation
▁deteriorate
▁inconsistent
▁awaken
▁acknowledgment
▁certifications
▁contributes
▁grids
▁detectable
▁unusually
impaired
▁luminance
since
▁melt
▁london
▁oral
▁subjecting
▁tailored
aws
▁finally
▁washed
▁nonconducting
▁travels
▁deeper
▁rests
sprinklers
▁explain
▁facilitated
▁retraining
▁grated
▁496
▁microbial
▁hemispherical
triazinetrione
▁bromate
cfr
▁qualifies
▁crossed
▁count
▁1982
▁hypobaric
▁214
▁268
▁499
▁921
fses
▁comments
▁satisfying
▁alexander
▁fifty
bcf
hea
▁combining
▁dealing
184
▁consecutive
▁breakout
▁perpendicularly
▁distinctively
▁tablet
▁timed
▁stabilize
▁buttons
▁computation
▁detainees
▁desks
▁preceded
▁diode
▁bodily
▁hermetically
▁feedback
five
capacity
▁beneficial
▁harness
about
▁terminology
▁denied
▁acquired
▁examining
▁targeted
▁incumbent
▁updates
▁1581
▁confidence
▁guideline
▁impending
▁derating
▁verifies
▁torsional
▁disasters
▁differently
▁purchaser
remote
▁lan
▁benchmark
▁torqued
dipped
▁prestressed
▁fpw
▁hexagonal
▁clips
▁chords
▁mild
▁modulus
▁purlin
▁rocks
▁pointed
▁ignored
▁bath
▁cycling
▁shadow
▁decaying
▁prove
▁smith
▁converts
▁characterization
▁1449
▁polyphase
proof
▁vane
pumps
±
▁machined
▁restart
cage
▁secondaries
hand
▁concentric
▁amps
▁troubles
▁sacrificial
▁rigidity
▁transmits
▁pedestal
▁negligible
immersed
loss
▁pillow
▁fluctuation
1993
▁ultrasonic
▁relieved
▁histories
▁rescues
emi
▁respirators
supplied
▁distress
▁auditing
▁variability
pa
▁catalog
held
▁sockets
▁sheaths
▁277
▁festoon
▁edison
▁armored
▁locknut
▁organ
▁emerge
▁386
fittings
▁348
throw
336
394
▁showcases
▁nonsinusoidal
▁pushbuttons
▁iib
513
▁stanchions
514
▁commutator
547
▁expandable
▁counterweight
▁substitutions
727
epm
▁interharmonics
▁flicker
▁microhm
▁mistakes
▁nonmelting
▁mfvn
▁interaural
▁localization
▁rarsr
▁thesis
▁seawater
▁late
▁67
▁beside
▁complied
▁substantiated
▁authorizing
▁believe
▁custody
▁ropes
▁alternates
▁statistics
▁thereon
▁stamp
▁385
4070
▁653
turn
▁2859
▁weathering
▁136
▁1352
▁1353
hinged
▁chicago
disposable
▁299
▁711
▁1715
▁2085
▁halocarbon
▁reaffirmed
faa
▁drug
▁circulate
159
▁barricade
▁cadmium
▁engage
moderate
▁scrap
▁199
▁barbecue
▁abnormally
diameter
▁eating
wood
▁setup
▁augment
▁fugitive
propelled
▁empirical
▁predominantly
148
pel
▁instability
▁formulation
▁yields
193
▁seller
forming
207
▁ceremonial
▁profession
▁effected
▁impediment
▁diminished
▁translated
▁horn
▁duplication
▁blanks
▁survive
▁townhouse
▁hinges
▁char
▁penetrates
▁wool
measuring
▁foyers
▁arrange
▁rivets
▁dislodgement
▁outward
▁powders
▁boots
▁hundred
▁discarded
▁printout
▁canceled
local
sampling
▁cleanup
▁trends
▁grille
▁aggregated
▁scissor
▁porch
▁enlarged
▁performances
▁footage
▁rags
▁stripping
▁lids
▁steep
▁neighboring
prone
▁trimming
▁sheds
▁hay
▁straw
well
▁rearranged
▁kindergartens
▁preschool
▁senior
▁infirm
▁nonsleeping
▁actively
▁committed
▁feeds
▁hinder
▁automobile
▁semi
▁footboard
▁odors
▁superseded
▁grading
▁surfaced
▁separator
▁matches
▁laying
normally
▁receivers
▁expand
▁mop
▁clouds
▁stall
▁frictional
▁fibc
▁blanket
kpa
asee
▁shear
▁bilge
▁placards
▁crushing
cleaning
glass
2500
229
activated
▁forwarded
▁sludge
doors
▁fryers
▁fat
fthe
▁nl
▁pharmacopoeia
▁ammunition
▁rubs
▁english
▁riveted
ventilation
▁valving
▁crushed
▁upgrading
▁patrol
▁triangle
▁270
▁staged
001
▁seam
csee
▁courses
▁rim
▁chemically
▁railroads
▁siting
even
▁deformation
▁thrown
650
▁weighed
▁california
▁traditionally
▁basically
▁club
▁crowds
▁birth
444
▁dementia
▁stables
▁validated
▁interchangeably
▁expectation
▁conversely
▁subset
▁graphically
▁reality
▁everyone
▁promulgated
▁therapy
made
▁consistently
▁kilowatts
▁masses
▁promoter
▁attendee
▁counterflow
▁possibilities
▁choices
▁indices
▁installers
▁davis
actual
▁tankers
▁purchased
▁glycol
▁licensure
▁technicians
▁filtering
▁shifted
▁channeling
▁optimal
▁getting
1980
▁1949
▁necessitates
▁footings
▁outermost
▁glazed
▁ca
▁truant
▁resort
▁bottles
▁dictated
▁deposit
▁silos
▁dilute
▁applicator
▁saturated
▁lavatories
▁pans
▁semiannual
▁desk
▁implies
▁fractional
challenge
▁loadings
▁perchloric
▁respects
▁denver
▁st
▁disguised
▁1801
▁20191
working
288
▁frying
▁bounding
▁foreseeable
▁wings
▁revolutions
▁paired
coating
▁summoning
▁markers
▁nonbearing
▁dental
dependent
▁daylight
485
▁unguarded
▁refrigerator
1675
▁litterborne
▁undercut
paragraph
standing
performance
▁attributes
▁cognitive
▁world
▁physics
▁shed
▁depicts
▁maximums
▁dissipated
▁strand
▁images
▁inaccurate
▁affixing
▁crossings
▁sophisticated
▁revise
▁correspondence
▁budget
▁improving
▁poorly
▁coordinates
▁variance
▁285
▁ensembles
work
▁march
▁preserved
▁commissioned
▁altitude
▁stabilized
▁signaled
▁ohmic
▁vendor
▁702
▁1915
▁1947
▁fluxes
▁lintel
▁;
▁threadless
▁bells
▁clapper
npt
▁nailing
points
▁maps
▁eccentric
▁increment
ended
▁stringers
house
▁rivers
▁wedge
▁glycerine
▁dismantling
2½
▁conveniently
▁latitude
▁communicates
▁jump
538
▁accelerating
▁norwood
main
▁508
▁venturi
▁leveled
▁shorting
▁reactance
▁sae
▁throttle
▁stressed
private
▁tightening
▁rungs
▁disassembly
box
they
left
video
▁signatures
▁sticks
▁brown
▁complicated
▁eductors
▁electrocution
816
▁interfaced
▁qualitatively
conductive
▁trending
▁anodeless
▁vending
▁commissions
▁ada
▁burglar
▁shunting
▁wrenchtight
xw
▁376
▁prewired
▁insulator
▁threading
cord
▁replaceable
▁rectified
▁memory
▁impedances
▁455
▁2225
605
▁chairlifts
▁chairlift
▁60950
▁bipolar
fhit
▁nonconcealed
728
▁nplfr
▁nplf
▁intercept
▁niu
▁swell
▁stabs
▁programmable
▁bottle
▁regreasing
▁army
▁chiller
▁boom
▁864
▁reverberation
▁rassr
▁listener
ref
▁topsoil
pdf
▁guideway
▁74
changes
▁bullet
▁circumstance
▁duly
▁regarded
▁legislation
▁modifying
▁rejected
▁deliberately
▁permittee
▁122
▁288
▁801
ashrae
retaining
▁635
▁2898
▁lube
▁1537
▁pivoted
▁johnston
▁1055
5390
1200
▁rub
▁sponsored
ion
oxide
▁carbonate
▁carriers
▁adopting
▁satellite
276
▁liberated
▁methane
▁decompose
▁corrosives
▁molding
▁mainly
▁bark
stel
▁believed
181
▁assembling
▁blood
183
▁moderately
209
▁salvage
236
ventilated
▁conducts
▁laced
▁thoroughfare
▁pedestrians
os
▁scales
▁3500
▁conservatism
▁destroy
▁cc
▁holiday
▁nonstandard
▁sequences
▁structurally
▁subdivide
▁paneling
▁actuates
▁nightclubs
▁lease
set
hmis
excluding
▁complement
▁scopes
▁carriage
▁initials
▁attempted
▁condemned
▁expired
▁encroachment
▁forcefully
▁unlocks
releasing
▁staffed
bhma
▁retracted
▁cones
gauge
▁needles
▁lanes
weather
▁lasers
▁strictest
▁212
lock
▁toasters
▁reflecting
▁flour
▁placarded
loading
▁helicopter
▁bag
▁stadiums
activity
▁restrain
▁overpressurization
cng
▁ideal
▁copolymer
▁acrylic
▁silicone
weight
▁fibcs
▁sends
▁lives
▁try
▁tidal
▁subsurface
▁tractor
▁couplers
▁arrow
▁concourse
▁garaging
▁silver
▁infrequent
▁manifolding
▁thermoset
▁workstations
tenant
▁propagate
▁diffusers
▁neutralization
▁lfl
▁directing
▁distributors
aunlimited
bstorage
681
cfuel
▁medicinal
▁formulary
▁overpack
▁twelve
396
▁corrode
▁molecular
▁unaffected
▁encroach
▁modernization
▁178
▁wrapper
▁captured
▁104
▁nonrelieving
▁uppercase
▁unsaturated
construction
▁disperse
▁distort
▁dependence
▁380
▁discs
▁agree
▁ug
▁adherence
▁overhang
▁735
333
▁jarring
▁fastenings
▁loosening
▁cooler
bodied
▁educator
▁likewise
▁algorithm
▁gr
▁dentists
▁doctors
▁fprf
▁submission
▁refinement
subsection
▁deals
▁quantify
▁predicts
▁degraded
▁reflection
▁renting
▁interact
▁commentary
▁write
▁conceivable
▁unfamiliar
▁washroom
aa
▁discontinuities
▁stays
fr
▁1630
▁carpets
▁1978
▁ventilators
▁accounts
▁novice
▁evolution
▁levers
operating
indicating
▁substituting
▁intends
▁undivided
call
▁compass
▁statutes
▁uncommon
▁shaped
▁deleterious
▁viable
▁procedural
▁studied
without
▁severely
▁formerly
▁78
▁invisible
▁topic
▁clock
▁thicker
▁trimmed
▁watchers
▁procurement
▁climate
▁approves
▁1620
▁views
▁pei
▁arrives
most
carbon
▁certainly
therefore
▁explode
▁sinks
▁sustaining
▁adopt
▁credible
american
603
▁erroneous
▁became
▁ending
▁sulfuric
▁dichloro
▁peroxydicarbonate
rat
▁adds
▁fr
connection
▁306
▁1962
▁publishing
▁20814
2015
▁interested
▁seminars
▁851
▁bounded
▁gridiron
▁architecture
233
277
▁tangent
leaf
▁curved
▁triangular
arm
▁stepping
▁presentations
▁hostile
▁lavatory
client
▁lounge
▁deactivates
▁astragals
▁1135
▁tributary
pedestrian
temporary
▁sub
▁achievement
▁behavioral
▁simpler
centered
▁firesafety
▁deaths
▁intensive
▁needing
▁talking
▁gradually
▁perhaps
▁institution
▁magnets
▁civilian
▁developers
▁graphs
▁organize
knowledge
▁accountability
▁variances
making
▁1188
1983
▁subscription
ats
▁pick
▁shaving
▁hertz
▁decay
▁reconnect
▁termed
▁911
5997
sepss
▁flywheel
▁outgoing
▁1926
▁epoxy
▁manned
▁grooves
▁132
▁freezer
▁galvanizing
cp
▁basins
center
▁preventers
pn
▁nine
▁spares
▁chest
▁saltwater
▁die
▁alkali
corrosion
known
1¼
areas
▁motions
▁jars
foam
▁abbreviated
▁unfortunately
▁symposium
▁abrasives
▁83
375
▁elastic
▁parsippany
vortex
▁121
▁bowls
▁bowl
direct
▁reversed
▁acquire
pump
▁primed
magnetic
▁blows
▁insert
▁defect
▁thermostats
close
▁connectivity
▁routable
▁modbus
connector
mil
▁nonadjustable
▁kilowatt
▁thermostat
▁continual
occurring
▁deteriorated
▁overheat
thermal
▁traced
▁fax
selective
▁apex
retrieval
danger
▁retesting
1910
return
▁retrofitting
▁logistics
▁custom
▁quantitatively
▁robustness
▁summation
std
▁ended
▁odorant
▁noninterchangeable
▁austenitic
neca
▁762
6½
armored
▁hexafluoride
overcurrent
delta
restoring
conductors
▁emerges
▁clamping
effect
328
▁398
▁399
▁spe
▁braids
▁shunted
▁restarting
▁reclosing
▁contributions
▁depended
associated
511
515
▁prewiring
audio
dielectric
▁subarray
electrode
▁nacelle
702
▁dcoa
▁cmuc
▁1666
▁scada
▁interfacial
isr
▁maintainability
▁waveforms
▁polar
▁extinction
▁badly
▁discolored
▁reversing
▁tornado
▁learn
▁pants
▁shirt
ads
▁profound
▁interfacing
▁deactivating
▁hrtf
▁pulse
▁desktop
▁sounders
▁dissemination
▁marrion
▁geiman
▁sideflashes
▁coursed
km
▁restructured
▁western
▁citation
▁telecommunication
▁county
•
▁equivalencies
▁powers
▁credentials
▁liable
▁appointed
▁contracting
▁ruling
▁grant
▁revocation
▁criminal
▁predicated
▁drafting
▁expiration
▁endorsement
▁granted
▁campgrounds
▁bull
▁atlanta
▁ga
▁bituminous
▁cleveland
▁1929
▁1354
▁2174
▁2393
▁ri
▁scott
▁154
▁197
▁294
▁296
▁alcohols
▁1746
▁ontario
508
▁1141
▁aprons
▁alleyway
▁woven
▁alkaline
flooded
▁expulsion
▁ticket
▁baggage
▁mini
▁conveys
▁restricts
▁cathode
▁collections
▁mathematically
▁paints
123
▁theatrical
▁intermittently
▁231
▁ignitable
▁vigorously
▁detonable
▁tactics
▁violently
▁twelfth
260
▁vegetable
▁predefined
rdp
235
255
256
▁occurrences
▁exerted
274
▁unplanned
▁impinge
▁progressive
▁accomplishing
▁responder
▁discovering
▁intention
▁barbecues
▁carnivals
▁fairs
▁pertains
▁concession
plan
▁experiments
car
▁duplicated
▁thermostatic
tested
▁axes
▁inactive
▁gasketing
quarters
▁compromising
▁reels
▁ineffectiveness
▁finely
▁reveals
1892
pre
vapor
▁recesses
▁surrounds
▁flakes
▁shavings
▁kinks
▁dew
▁displaying
▁logging
▁precludes
▁waffle
▁airtight
▁airstream
▁recalibrated
▁prone
▁stile
▁topmost
▁evaluator
▁emphasized
▁scaffolding
▁barrels
▁vegetative
▁circumference
▁substantiating
▁topography
types
▁candle
▁clubs
▁spotlight
▁ward
▁showers
▁admitted
▁participating
▁complexes
▁backrests
▁condominiums
▁tons
▁substructures
▁berthing
▁navigation
▁aboard
▁determinations
▁mooring
▁wipe
▁supersede
399
▁hereinafter
▁lighters
▁sawdust
▁untreated
surface
▁filming
▁overhaul
▁shrink
butadiene
styrene
rubber
▁polyurethane
▁dislodge
▁exhibitions
▁spatial
hose
▁commences
▁wiped
▁interiors
▁ct
▁brakes
▁stowed
▁malfunctioning
▁equalize
▁dpf
▁regenerative
▁weakness
▁undamaged
▁domes
▁buffers
▁atomization
▁alternately
▁conducive
drying
▁guns
▁effluent
▁1219
▁seismically
▁57
▁gradual
planning
▁ml
coverage
▁waiver
nr
▁excludes
▁nonremovable
▁monel
▁flotation
▁8000
▁repeating
▁cessation
▁classifying
▁simulates
▁trespassing
▁qr
▁ref
▁racking
▁nested
▁fourteen
seven
▁foregoing
nodular
▁contracts
aluminum
▁multicontainer
▁nonpressure
▁retaining
protecting
▁parapets
▁stones
▁sleet
▁illuminating
mawp
▁athletic
▁129
▁deciding
▁predictable
▁exerts
▁fear
niosh
▁categorization
▁bowling
▁chapels
assembly
▁disease
▁exchanges
▁bench
▁medication
▁crucial
▁targets
▁hotter
▁theoretically
▁accounting
event
▁phased
▁prioritization
▁warrants
▁correlates
▁inhabited
▁misinterpreted
▁moreover
▁performer
▁arches
▁gears
full
▁ff
▁peaks
▁burden
▁vanes
▁replenishment
▁began
both
efficiency
▁deformed
▁want
▁prescribing
devices
▁facu
▁unconfined
▁emits
▁reader
▁empirically
▁proportionally
▁beverage
▁photosensitive
▁shifts
▁firewise
▁birds
▁tempered
▁troughs
▁gather
▁attending
▁mulch
▁encircling
▁planting
▁photo
▁291
▁patrols
▁believes
▁awake
▁fundamentally
▁milling
▁louver
▁radios
▁definitive
▁965
▁garments
additionally
▁resonant
▁advantageous
▁thunder
▁icing
▁asphyxiation
but
wet
▁jets
▁packs
▁diluent
▁methyl
deficient
make
▁cautioned
▁vaporized
▁arises
enriched
▁particleboard
▁fiberboard
▁overheated
assuming
▁dropping
▁anticipation
▁dimethyl
white
▁pulling
▁maltese
▁ignitibility
▁301
▁merchant
▁circulated
▁enforceable
▁americans
4400
▁1577
▁22209
bsf
▁electroluminescent
▁tiered
301
291
▁vendors
distributed
▁proportioned
▁named
▁keying
▁crosses
travel
▁traversing
apartment
▁threatened
▁threatening
impervious
▁briefly
▁perceive
utility
generated
1989
pulse
▁caregivers
▁clarifies
owned
▁things
▁1700
▁nistir
professional
jprs
▁examiners
▁resolved
▁blueprints
▁theory
▁instructors
▁freedom
▁triggered
▁coordinating
▁obtainable
▁speak
▁architects
scba
▁alexandria
damaged
▁formats
▁sketch
▁interviews
▁rendering
▁epsss
updates
▁docinfo
▁alternator
▁mufflers
▁engagement
▁voltmeter
▁inhibited
mass
unit
▁conductance
▁493
▁thunderstorms
▁noises
▁micro
ohm
▁harnesses
▁sensed
▁1106
▁131
▁1920
▁1950
▁1965
302
▁appreciably
sided
▁heel
▁damping
▁silicate
▁stockpiles
▁uniquely
▁batt
▁pond
non
▁clevis
▁plank
▁offsets
▁ksi
▁hooks
▁turnbuckles
▁eh
▁nodes
pt
746
▁let
▁casting
▁thousands
▁electroplating
▁premature
consideration
▁customized
▁buckling
▁aspect
wound
▁multiply
▁encompasses
▁explains
answer
copies
▁exhausting
▁melted
board
▁expelled
▁unequal
double
▁tolerant
▁multiplier
▁zebra
horizontal
▁witnessed
▁hoisting
square
▁rotates
controller
▁restarted
▁resonance
▁answer
▁consolidated
mechanical
▁dampness
▁pop
▁passwords
eia
▁derangement
▁password
▁cyclic
▁paving
cubic
▁bedrock
▁ellipsoidal
▁reamed
▁consulting
▁semiautomatic
▁flowed
acceptance
▁weakened
▁savings
many
repair
▁waves
▁executed
▁benchmarks
▁firms
1999
▁simplification
permit
▁respirator
▁molecules
▁prioritize
tagged
▁organs
▁fish
▁lungs
▁rfi
▁solve
noise
▁retrained
educated
▁securement
▁cardiac
▁template
▁metrics
▁weighting
▁biases
▁odorization
copper
nonmetallic
▁illustrative
▁transformation
condition
▁imprinted
▁baseboard
emt
▁weatherhead
▁multisection
energization
▁multiphase
spd
grounded
ix
▁handlamps
▁378
▁xhhw
▁366
▁ta
▁integrally
338
flexible
▁transversely
▁382
▁522
insulation
coil
497
mesg
revised
tr
▁emergence
▁iia
▁hook
demand
▁footlights
▁quarters
▁rv
▁605
▁vw
abandoned
▁647
▁mdcs
▁workspace
647
669
▁diverting
▁monopole
photovoltaic
▁692
▁undercarpet
▁728
▁nplfp
catv
▁multipoint
▁neutrals
▁wiping
▁premium
▁mva
▁misoperation
▁unscheduled
ungrounded
▁layering
▁60479
▁rk
▁flag
acu
dact
▁noncontiguous
▁dialing
layout
stroke
▁awakening
▁hpsas
▁deoat
▁itd
▁intensities
▁nbs
▁beamed
ts
▁radiating
▁qs
▁60268
▁5560
▁faraday
▁µs
▁turf
▁hull
™
▁emphasize
▁bringing
▁prescribe
▁intermingled
▁invalid
▁failing
▁alley
▁waive
▁avenues
▁penalties
▁newspaper
▁472
weapons
▁1123
▁1142
▁2350
▁purity
▁648
▁2307
▁chantilly
▁20151
▁atwood
▁02919
▁south
▁924
▁2080
▁headquarters
▁1507
▁irrespective
226
cfrs
▁concentrator
residual
▁banded
▁bale
▁distractions
▁granting
▁refinery
▁confines
▁diaphragms
▁pouring
▁capturing
▁fats
▁pumpers
▁cpsc
▁172
lfl
▁irritant
▁reversible
▁condense
▁helicopters
idlh
▁ordering
▁lengthwise
ld
▁urgent
▁inpatient
▁decorating
▁boarding
▁peroxy
▁convalescent
▁superstructure
216
▁dismantled
238
scf
246
268
▁shoreline
urban
▁veneers
▁incapacitation
materials
▁surfacing
▁physiological
▁misleading
▁lanterns
▁attraction
▁minimums
▁playground
▁multiplug
▁drapes
▁refueled
▁opportunities
▁limbs
▁plumb
hooks
▁tin
hdpe
▁posters
▁permanency
▁composites
▁transitions
▁unshielded
▁gaining
▁activations
▁skating
▁rinks
▁concourses
▁substantiates
▁borders
003
▁ruptured
▁silent
multiple
▁obsolete
1976
soluble
▁recovered
▁hmis
▁89
▁doubt
▁1211
▁alphanumeric
▁restorable
fixed
▁rebound
▁instantly
▁computing
▁converge
▁accommodates
▁conceal
▁pictograms
▁decline
▁crowns
▁gathered
▁rockets
▁defensible
▁unsupervised
▁terrain
▁carports
▁cuts
▁defueling
▁nonpublic
▁unsecured
▁interns
▁discovers
▁drapery
▁paintings
▁bedding
▁ash
permits
▁confirmatory
929
▁sleepers
825
▁moored
▁boatyard
▁auxiliaries
▁exhausts
arresting
▁compaction
▁perimeters
▁productions
▁intruder
▁unpackaged
3716
▁butyl
polyvinyl
▁texture
▁slippage
▁oxidant
▁filament
▁governs
▁trapping
▁siphon
▁linkage
▁businesses
▁tide
▁alongside
▁clip
▁jacks
▁overwing
▁sharply
▁kinking
manufacturer
▁propel
▁bumper
▁pollution
▁accumulatively
6000
▁handheld
▁catalyst
▁sanding
▁vats
special
▁immobilized
hmmp
▁hmmp
▁leaders
▁heats
english
cut
▁halfway
▁compactors
▁mountings
▁absorbing
▁304
▁formally
specified
bulk
▁musical
▁exempts
▁abuts
▁viscous
▁subclassified
▁terrorist
▁attacks
▁uncontaminated
▁spirits
▁190
▁interrelationship
▁unrelated
▁centrifuges
▁exposes
▁disturbed
▁gauged
▁pending
▁reuse
evaluated
▁pontoon
▁pontoons
vacuum
▁chafing
▁addenda
▁bulging
▁tare
overall
▁od
▁garaged
afor
▁lineal
▁245
▁unpartitioned
▁nonapplication
▁semitrailers
▁noncompliance
▁inject
▁791
▁bleeder
▁mat
loc
▁hair
▁largely
▁virtually
▁assistive
▁snack
▁lunch
▁parlors
▁noninstructional
▁camps
▁independence
office
▁bromine
▁aug
▁experiencing
▁plating
▁don
▁1110
▁faced
proper
reviewed
▁journals
▁differentiating
▁aforementioned
▁impacting
▁executing
▁contingency
▁populations
▁notably
similarly
phosphorescent
▁emotional
▁violence
▁contractual
▁telescoping
▁rush
▁redundancies
rr
▁ems
▁motivations
▁catches
▁john
▁rugs
corner
light
▁diffuser
▁prohibitions
▁1953
▁bled
▁friendly
▁bicarbonate
▁dents
▁weigh
▁subparagraph
annual
▁appeared
▁seeking
▁optimize
▁attributed
▁1960
▁demographic
▁358
▁anthropometric
▁discouraged
▁misuse
▁dollars
▁tours
▁suggestions
▁islands
spaced
▁groupings
▁drought
▁traits
within
▁fir
▁inexpedient
▁barred
▁occasion
▁excite
drills
upon
▁uncoded
▁surreptitious
▁unquestionably
curtains
▁donation
▁transitory
▁crib
internal
▁reclaimed
▁upwind
▁nonessential
▁focused
▁confusing
▁bright
▁stationed
▁withdraw
▁frayed
▁bursts
▁happens
▁bucket
rp
▁unlike
▁lapse
▁blanketed
▁enhances
▁nontoxic
▁ketone
▁titled
▁expanding
▁diluents
▁paste
▁diluted
▁negatively
▁rigorous
chemical
▁segregate
▁unchanged
early
▁reviewers
▁plunger
marked
▁omitting
▁outlining
▁freeing
▁ottawa
▁impeding
▁phosphine
▁dichromate
▁chlorite
▁chromium
▁strontium
▁persulfate
▁perborate
di
▁phosphorus
▁researched
components
▁odorless
▁keeper
▁imprisonment
▁unconstitutional
keeping
▁miami
▁804
▁1946
▁boston
▁1951
▁1956
▁dated
▁repositioned
▁hills
aci
▁1629
▁rosslyn
▁structured
▁sally
surrounded
▁subparts
1420
▁collapsed
990
▁narrower
▁perforations
▁flights
▁superimposed
▁deflect
sight
▁nonfixed
▁nonuniformity
▁vomitories
room
▁flags
▁possession
▁inhabitants
occupied
▁4500
▁41½
1055
3960
collecting
▁stud
▁detained
▁breakfast
▁buggies
▁upgrade
depending
▁275
btu
▁milke
▁fatal
input
▁auditory
▁responsiveness
▁server
▁spent
▁descriptive
exposure
black
▁grasped
▁oversized
▁feasibility
▁misaligned
▁readable
▁groner
▁levin
▁exam
▁recently
▁spectator
▁tickets
▁gradients
▁pediatric
▁mural
▁chocks
▁charting
▁nourishment
▁excellent
▁deployed
nist
gcr
▁observable
▁demeanor
▁sketches
▁mirror
▁guarantee
availability
hvac
first
next
assists
▁subordinates
education
experience
▁1925
▁1931
pass
▁mechanics
▁interview
▁interpreting
▁governors
▁muffler
▁sequenced
▁reconnection
▁wan
▁microbiological
bolts
▁ohmmeter
la
batteries
▁today
▁emerging
▁rue
▁1968
1996
pr
mortar
602
▁sprigs
▁sprig
▁spectral
▁noticeable
piece
▁throat
gasketed
▁burrs
▁paddle
▁chances
▁fur
▁precast
▁coach
▁slenderness
▁glands
▁accounted
▁186
▁interpolated
329
▁wax
▁mine
▁worksheets
▁darcy
weisbach
▁moody
▁tenth
▁biocides
▁recycled
▁recordkeeping
▁senses
▁tapered
▁domed
▁internationally
▁varnish
▁logo
▁usa
▁purely
▁reopened
tank
▁uncoated
▁obstructive
recommended
▁slabs
container
solas
▁dipped
▁naval
▁presently
yao
▁our
▁butterfly
▁injected
▁mussel
▁vortex
lower
▁readout
rounded
▁multibuilding
▁impervious
▁derated
optional
closed
▁thermostatically
▁transducers
▁altering
▁trying
▁feeler
▁shims
▁tripod
▁322
▁141
▁linkages
▁reconditioning
connecting
user
▁encryption
▁suppressors
▁sspc
▁fireproofed
▁flattened
▁cedar
▁mpa
▁swelling
▁chime
▁winch
▁deducted
▁portland
▁retains
insulating
circulating
▁admitting
▁junctions
▁catcher
monitor
▁abnormalities
▁lenses
▁milliseconds
▁unexplained
▁nonroutine
engines
▁tubercles
▁instituted
auxiliary
▁multiples
▁clams
▁fatigue
re
▁interactions
▁expedite
▁validate
▁calibrate
ptd
2003
▁respirable
▁colorimetric
▁practicing
lockout
▁purposely
▁resume
▁brain
▁uncertain
▁sophistication
▁likelihoods
▁indexing
▁momentum
▁ahrens
leak
▁mounding
bonding
arms
▁mils
flash
circuited
▁8¾
fmc
lfnc
▁685
drawn
secondary
▁411
▁unspliced
▁nonmagnetic
▁grommets
▁ribbon
▁388
▁545
burial
▁thw
▁thwn
053
▁knockout
▁fc
▁spacer
▁radii
▁adobe
ent
▁eo
▁etp
▁ett
▁ev
colored
bushing
411
▁watt
▁synchronous
▁commutators
▁112½
▁askarel
rev
▁isa
rooms
▁thermionic
pit
1995
▁selectivity
▁525
604
machinery
▁evse
max
▁ite
685
inverter
▁2196
rcm
▁emitting
▁emerald
▁3007
698
▁deenergize
qualified
▁megohmmeter
▁printers
▁microprocessor
▁noisy
▁stator
▁elaborate
▁gfcis
▁gie
▁%
clothing
▁garment
▁coverall
safeguards
ibf
▁spotter
▁acknowledge
▁modulated
▁modulation
switched
axis
317
0375
▁rarsrs
▁associates
micron
▁leq
▁hear
complying
▁isolator
▁bruck
▁thomas
qcr
nbsir
▁20889
▁modelling
▁nam
stipa
▁played
▁acoustics
▁ai
onset
▁prvs
ng
▁renamed
▁117
▁conveyances
▁claims
her
▁delegate
▁knows
▁contrary
▁incurred
▁lessen
▁owning
▁entitled
▁vice
▁incorrectly
▁sought
▁linked
▁rejection
▁evidenced
▁sweep
▁offense
▁271
▁pesticides
▁484
▁fumigation
▁655
▁1125
▁1127
▁607
2923
▁voie
creuse
▁postale
uniform
▁710
566
▁156
▁87
▁burlap
▁gelled
▁hydroxide
▁oxidized
▁ranked
▁fibrous
▁incineration
▁grill
▁optics
▁titanium
129
▁constituents
▁krypton
▁deliberate
▁nondetonable
ppm
158
162
▁machining
177
▁nesting
▁deliberation
▁guardians
▁obstetrical
▁marriage
▁vigorous
195
▁patch
201
▁pesticide
▁pest
202
212
214
▁spout
224
237
▁unconnected
▁reserves
258
▁calming
263
developing
▁unreliable
▁margins
▁relevance
▁delaying
▁numerals
▁terminus
▁suffice
▁playgrounds
▁exhibiting
▁poultry
343
▁barometric
▁rot
▁crash
▁decoration
pp
▁nonsymmetrical
▁blowoff
▁discotheques
▁participant
▁retractable
1400
▁nonfreezing
authorized
▁reassembly
▁cope
▁soda
▁aqueous
0929
▁explanations
▁magnitudes
▁shovel
▁expellant
▁retester
▁rewinding
▁rewound
viewing
▁reconfirmation
▁differentiated
▁nonrestorable
▁roofline
▁sash
bfor
cfor
saving
▁chevron
▁proportionately
candles
▁developments
▁funding
▁visits
▁declares
▁downspouts
▁native
3785
▁dumped
▁dumpsters
▁moss
▁dropout
▁rehearsed
▁smoker
▁teachers
▁preschools
nurses
▁grains
▁airports
welding
▁stakes
▁omissions
▁weathered
▁backdraft
▁inadequacies
▁bilges
▁salamanders
▁drainings
▁props
▁runoff
▁graded
▁pike
▁segregation
ethylene
propylene
▁ledges
▁sweeping
▁manway
▁resumed
▁filtered
▁329
▁riveting
▁weaker
bolt
▁booster
detecting
enter
▁notches
▁operationally
▁trailing
▁saturation
▁scrubbers
▁fluidized
▁thinner
▁robotic
▁confining
▁airflows
▁impregnated
▁deposited
▁overnight
▁distilleries
▁undercoating
▁nonsparking
commonly
▁ultimately
equipped
▁bulletins
limit
▁runaway
▁excursions
gthe
kconversion
lthe
325
▁liaison
▁lip
▁padded
plastic
▁traceable
▁country
▁achievable
cfm
▁identity
▁stoppage
▁belowground
▁renovated
▁occupies
▁puncture
element
▁soften
▁languages
▁rainwater
▁principally
▁gels
▁sr
▁ht
primed
345
▁flashpoint
▁unlined
▁pinhole
▁backfilled
▁trauma
athe
▁shocks
▁recover
▁disengagement
until
▁splash
▁thermometers
▁navigable
▁commence
▁installs
▁denting
earthquake
▁equalizing
▁nonintegral
▁declared
removable
▁pointing
▁disconnections
▁adjoin
327
▁1035
▁endorsed
▁absorptive
▁unburned
▁finer
▁oakum
▁spanish
▁171
▁collective
▁toy
▁wick
▁oxides
▁482
▁say
▁walker
▁crutches
▁courtrooms
▁mortuary
▁nursery
resident
▁await
fprf
available
▁dealers
▁evaporate
▁refined
▁arbitrarily
▁devastating
▁manageable
▁whatever
▁big
▁unreliability
▁surroundings
585
▁societal
▁widespread
▁rent
mercantile
industrial
▁loses
▁titles
▁bomb
▁eventual
▁permanence
guidance
▁2030
▁problematic
▁relaxed
▁soundness
▁summarizes
▁illuminate
▁weed
442
▁deficient
▁atypical
▁behalf
▁byproducts
▁casework
▁remedial
▁pumper
▁credibility
recharge
▁flashlight
▁unusable
▁precedes
▁advising
facu
▁illustrating
▁dusty
▁surveying
▁seasons
▁swaying
▁pronounced
▁incursion
▁correspondingly
▁toaster
▁aesthetic
▁lawns
▁avoids
▁legibility
▁rounds
guide
▁gazebos
▁lands
▁pine
▁planted
natural
▁slash
spacing
▁golf
▁aa
▁douglas
▁uk
▁appreciation
▁shredding
▁shipyard
▁weighs
▁lumberyard
walls
▁shades
▁realize
▁cantilever
▁anticipate
▁prewetting
▁minimization
▁attesting
▁catch
▁clamped
charge
▁relax
▁recurrence
▁blankets
▁unsuitable
▁centralized
▁counting
velocity
61241
▁infiltration
▁disrupt
▁turbulent
▁waterproofing
▁suited
▁fluctuating
▁regions
▁idea
▁bleaching
▁dibutyl
▁catalytic
▁ester
▁bathtubs
▁µm
▁deposition
▁sector
▁nondestructive
▁adhesives
▁courtyard
▁fractions
▁altitudes
▁energies
▁robust
▁ds
distance
▁overlooked
▁qt
▁rectangles
▁clockwise
0169
▁discontinuity
▁enriched
cone
<
▁bollards
chemically
▁manganese
▁hydroperoxide
▁diethyl
▁carbide
heavy
▁81
▁oms
governing
▁clauses
▁versions
▁easements
▁ffsbms
▁6666
▁80235
▁albert
▁79
▁850
▁7315
▁wisconsin
#
▁integrate
▁1959
▁repositioning
width
▁rewritten
▁731
▁farmington
▁216
1264
rising
2005
▁sky
emitting
▁infeasible
286
287
▁vomitory
▁beveled
assisted
▁turnstile
▁graspability
▁angled
▁openness
▁mullions
▁piercing
▁depressed
▁quantification
▁choke
▁overrides
heater
▁rewind
▁intervene
▁hopper
▁skilled
sprinklered
▁adjunct
▁pharmacy
▁guaranteed
015
▁fronts
sections
▁possesses
▁inward
▁gantry
▁acknowledges
▁delineated
▁alzheimer
▁guiding
▁taylor
▁uplift
▁casualties
documentation
method
▁sciences
▁lethality
▁alertness
▁culture
▁questionable
▁burnout
▁missteps
▁simplest
▁lifetime
▁specifics
▁instruct
▁threaten
then
independent
▁217
▁quicker
▁generalized
▁facets
▁reject
▁concerts
▁continental
▁presume
▁assistants
▁forgets
separation
▁clerical
▁advent
▁forcing
acceptable
exhaust
solid
▁deploy
▁transactions
▁uniformed
correlating
▁retrieved
▁coveralls
▁compartmentalization
▁counsel
▁calculator
▁allocation
▁hamper
▁handbooks
▁hiring
task
oriented
▁subtle
skills
licenses
certificates
▁implements
▁hire
▁hydroelectric
▁recurring
▁1006
▁1561
▁1911
▁wiley
▁mcgraw
▁1979
▁evidentiary
▁compile
▁accepts
▁hypotheses
significant
▁paralleling
epsss
▁otto
▁ether
above
▁destination
▁nonelectric
▁downwind
▁economy
▁somewhere
switching
▁attenuated
▁attenuate
▁slack
▁thermographic
peak
▁knockouts
▁urgency
ece
▁acceptably
▁intercell
▁meaningful
▁distinguishes
▁varembé
▁446
alloy
▁437
▁subchapter
▁translucent
▁shank
▁cavities
▁steering
▁circumferential
▁kraft
▁hardened
▁expressly
orifice
plated
▁orientations
▁antiflooding
interlock
▁precharge
▁rundown
▁191
▁nearer
ssu
ssp
▁nonaccessible
▁pantries
▁toggle
▁fy
▁inaccessibility
▁bury
▁lies
▁compounded
▁3900
▁align
▁aimed
1500
▁reactivate
▁sx
▁2300
▁regulates
▁replenishing
▁plunge
▁realized
▁canneries
▁extruding
character
strength
▁213
▁gongs
▁hammer
small
antifreeze
▁warmer
▁worse
▁geological
▁denote
▁presses
▁bit
▁ignoring
▁242
▁extrapolated
further
▁fight
ir
▁rectangle
▁alpert
1979
▁beyler
▁simplify
revisions
▁updating
▁agma
▁hi
npsh
▁nonventilated
suction
▁encloses
▁depression
▁slot
▁grouted
▁grouting
coupled
shaft
drive
▁momentarily
horsepower
individual
▁reassembled
▁impulses
deluge
ecm
hearth
▁unadjusted
▁countries
▁stocked
▁revolves
▁happen
▁dowel
▁ics
▁attaining
▁simplicity
▁silt
▁inversely
▁vac
▁uncover
▁rusting
▁download
▁usb
▁standalone
▁processors
▁environmentally
rate
federal
▁scratches
▁lap
▁heart
▁331
▁alkyd
▁preservative
▁facilitates
▁efficiencies
▁burred
▁grillage
▁deviate
▁bosses
▁ascertained
▁disposing
▁certifies
itm
▁cocks
568
pcbs
▁lightly
appropriate
▁sedimentation
inspect
▁pulses
depth
green
opr
bod
cx
retro
1031
interconnections
▁headings
▁upgrades
▁summer
▁correctness
▁oversee
▁spreadsheet
▁2201
▁tech
lel
▁preplan
sar
▁entanglement
▁oel
personal
▁vacuuming
▁breach
combustion
▁dissipating
▁circuiting
▁unnecessarily
▁stranding
!
▁ad
▁hoc
▁confronted
▁misses
▁niosh
▁issuer
▁gets
simple
▁expands
▁refurbishment
▁stimuli
▁computations
▁computerized
▁profiles
▁experiences
▁economics
engineering
▁651
315
▁litmus
▁stiffener
▁approached
▁contour
truck
▁rearward
▁pipeaway
▁tf
▁suits
autogas
▁mercaptan
digit
▁weaknesses
▁averaging
▁permissive
▁braided
▁mogul
▁dishwasher
▁dishwashers
feeder
▁peninsular
▁347
lfmc
▁gooseneck
tap
▁magnet
▁xi
▁suddenly
▁interchangeability
▁nonseparately
▁nongrounding
spds
▁millimeters
▁390
▁342
▁344
▁353
▁2043
▁rhw
▁circulars
▁triplen
▁bundled
020
▁adhered
▁fifteen
▁336
▁brittle
▁surround
bthe
backfeed
cords
▁sow
▁junior
▁prongs
▁unswitched
▁resettable
wave
▁overcurrents
▁pigtail
▁510
nonincendive
▁offshore
▁rayon
▁coke
▁multifiber
locknut
▁iiic
▁pb
▁jack
518
▁dimming
stand
▁540
▁circuses
▁solderless
▁attaches
▁divider
▁print
recreational
▁submersion
▁1686
rms
▁corded
▁playback
▁670
670
▁potting
gec
fpts
scada
imax
▁interbuilding
▁optic
▁amateur
▁citizen
▁bmu
▁blu
▁monetary
▁counterfeit
▁1331
▁ar
▁1584
▁ab
▁polychlorinated
▁biphenyls
▁tm
▁productivity
▁investment
▁specialize
▁seldom
▁man
watt
▁pcbs
wye
mode
▁oscilloscope
quality
months
cd
▁oscillograph
▁decals
▁chipped
▁relubricated
▁pitted
▁hv
▁roughness
▁attitude
▁piscataway
ai
▁epact
ar
tags
▁chin
▁ventricular
▁fibrillation
higher
voice
▁mcculloh
▁campuses
▁imsa
▁telcordia
▁transponders
1221
dacr
drmns
centric
scattering
▁overriding
▁specificity
narrow
dba
▁recipients
▁overridden
▁hpsa
▁dacts
▁loudness
▁decibels
▁quiet
4037
▁slcs
▁idcs
▁nacs
▁ncas
nbs
▁polytechnic
▁absorbance
pb
▁articulation
▁nonpowered
▁joe
▁twitter
13480
▁dv
▁frangible
▁helipads
▁davits
framed
▁dormers
▁radials
▁helipad
stabilized
▁vpr
ae
ct
files
▁marshals
▁technological
▁rewrite
▁scenes
▁diminish
▁consent
▁abate
▁malice
▁parent
▁obligations
▁officers
▁vote
▁absent
▁usefulness
▁knowingly
▁sell
▁licenses
▁revoked
▁occupation
▁punishable
▁256
▁498
▁664
▁1194
▁1529
▁1791
▁tullie
▁ne
▁30329
lift
covering
▁1591
▁2652
▁stabilizer
▁4221
▁walney
▁567
▁1037
▁1313
▁2129
▁2368
▁toronto
▁rev
transport
▁perfect
▁microorganisms
▁eliminator
▁seed
accepted
▁densely
ca
▁quiescent
▁deplaning
▁conveyance
▁pulp
▁ignites
▁noncommercial
▁tissues
▁aspiration
▁incidence
▁compensating
▁greases
▁zirconium
vegetable
▁rabbits
▁hydrocarbons
▁isobutane
157
174
▁relatives
▁retardation
▁dependency
▁overhauls
▁tune
192
▁preheating
▁spontaneously
219
▁decomposes
243
252
▁judge
▁accomplishment
259
267
270
▁topographical
▁submitting
▁neutralize
▁ultrafast
▁confirming
▁databases
dagger
▁interferes
▁retardance
▁rides
▁motorcycles
▁cube
▁developmental
▁font
▁townhouses
▁setback
▁subarrays
▁finds
▁builders
▁pinched
▁fireblocking
▁backdrop
▁sprinklering
▁pbx
076
▁designee
▁rodents
▁critically
▁stocking
▁rotors
▁accredited
▁msds
▁1955
afff
▁obstacle
▁delicate
▁fulfilling
▁scattered
media
▁dealer
▁punch
▁nonpressurized
▁pressurize
▁extenders
▁reconfirmed
▁colonnades
▁dens
▁intersecting
▁erratic
means
▁mistaken
▁unlatching
▁convergence
▁integer
▁obviously
▁continuation
▁impairs
▁grates
development
▁familiarization
▁workshop
▁nh
▁decontamination
▁pruning
▁crown
▁hereafter
▁departure
▁thoroughfares
▁scattering
▁cloths
▁caves
▁caverns
▁dishes
▁mannequins
▁exhibited
▁floodlight
▁bimonthly
▁wastebaskets
▁dwarf
▁smash
tlof
▁fato
deck
▁theft
▁railed
▁deems
▁fairgrounds
inflation
▁diagnosis
▁swept
filling
serve
▁seepage
▁faucets
treating
▁reclaiming
▁turnover
▁crews
▁tramp
▁dynamite
464
▁videotaping
▁randomly
▁diagonally
thickness
layered
▁elastomers
acrylonitrile
▁elastomer
▁plasticizer
▁san
▁acrylonitrile
▁fluoroplastics
▁formaldehyde
polyvinylidene
▁crepe
▁blending
▁cartridges
▁recycle
▁him
▁sandwich
▁windshield
▁chase
▁coin
▁spilling
▁deliveries
▁lpg
▁unpainted
▁seizure
▁semitrailer
locked
▁funnel
▁inclement
▁carcass
▁twisting
▁weakening
▁diamond
▁inboard
▁repeatedly
skin
▁intermixed
▁persist
▁vestibules
▁cascading
▁cups
link
▁depleting
▁noncomplying
▁interchanged
linked
▁degreasing
active
▁sisal
013
1067
▁collects
▁neutralizing
walled
▁beverages
▁tabular
▁maq
hcontainers
0283
jgas
ha
▁authoritative
consuming
▁segregating
▁pack
▁strapping
▁companion
nondetonable
▁overturning
▁consuming
nace
▁serviceable
▁shutoffs
▁diluting
▁handwheel
▁equilibrium
▁collapsing
▁bellows
▁removes
▁designates
▁performers
▁1122
▁vans
▁touched
▁drugs
▁dusk
1100
▁centistokes
▁enamels
▁purification
signal
▁196
▁375
fourth
circuiting
▁reinsulated
▁caulked
▁caulking
▁correcting
▁diverted
▁affording
freeing
▁polymerization
▁deducting
▁spherical
▁insect
▁nests
▁bypasses
▁grooving
▁articulated
▁gouging
▁skirts
▁rt
▁breached
▁overturn
offs
▁disposable
▁uncongested
▁fertilizer
▁firesetter
▁diffused
▁judging
▁amusements
▁anticipates
▁duplicating
capable
▁glowing
▁trimmings
▁melts
▁igniters
▁firearms
▁concert
▁crystalline
▁calorimetry
▁exchanging
▁irritants
▁poisonous
▁friable
▁unconscious
restaurants
atcts
doctors
birth
▁newsstands
▁barber
▁beauty
city
▁academies
▁infirmity
▁convalescents
▁sawmills
▁foster
▁auction
▁drugstores
▁supermarkets
▁elderly
▁alcoholism
▁thirty
231
453
606
▁contexts
▁promotes
▁timeliness
▁regimes
▁arriving
▁tolerated
▁underwriter
space
▁couch
▁experiment
▁1085
▁585
art
▁depict
▁race
▁untenability
▁feels
▁1472
▁sublease
▁subleased
ambulatory
▁diligence
zoned
▁defer
know
backed
regarding
▁geometries
▁glare
▁induces
▁perceptions
▁firing
▁lean
▁differentials
▁firefighting
▁delamination
▁ferguson
▁homogeneous
▁notations
1890
▁kn
▁gymnasium
▁weave
▁disregarded
computer
▁grocery
writing
▁complications
▁abc
nuisance
▁came
▁anesthetics
wheeled
▁reignition
▁counterclockwise
▁depressurized
▁lubricate
▁mandates
▁scoreboards
content
▁identifications
leds
▁crt
▁printer
▁irregularly
▁constrained
▁entrainment
▁discrimination
▁drywall
▁blockages
▁pushing
▁swiping
▁arrived
▁decades
▁males
▁females
exterior
red
▁glossy
▁candela
▁fallen
▁planking
▁nonexistent
1893
▁finite
▁undertake
▁rankings
▁firebrand
▁clay
▁bird
▁landscape
▁mature
▁similarities
▁needle
▁outbuildings
▁grazing
tolerant
▁waxes
large
hirschler
▁babrauskas
▁altar
▁robes
▁broadly
▁wards
▁aggressive
▁refining
4000
pneumatic
likewise
▁undetected
▁proceeds
▁predictability
ceilings
▁559
306
▁linerboard
▁correlated
▁averaged
fork
▁categorize
consequently
▁outsourcing
hot
▁trousers
▁tungsten
▁admit
▁towards
▁induce
▁powerful
▁told
▁miles
▁displaces
personnel
▁controllable
▁fouled
▁beings
spray
▁1800
▁monomer
▁creosote
▁rinse
1218
▁suppressant
▁advice
▁encroaching
▁conclusive
▁marble
seal
▁fouling
▁breather
▁setpoints
▁leaky
▁oxygenated
▁dehydration
▁owing
0285
dock
engine
▁acme
▁dichloroisocyanurate
dimethylhydantoin
▁monohydrate
▁percarbonate
▁acetyl
▁bromide
corrosive
▁binary
▁293
▁2200
▁ask
▁dmp
▁affirmed
▁insertions
▁sentences
▁phrases
▁1750
existing
▁wish
▁lejeune
▁33126
rings
@
international
cotton
▁269
▁las
▁drafts
▁1934
▁1936
▁1952
▁1957
▁1958
▁1973
▁standardize
▁9094
▁48333
concrete
▁0216
▁asse
▁1847
det
earth
▁nonspecific
▁foaming
▁rafter
mcm
manufactured
▁pliable
generation
▁estimations
2135
fold
▁rebuilt
▁rounding
▁versa
▁complementary
▁luminescent
▁alcove
stairs
4570
▁caught
▁sticking
4180
▁draftstops
▁draftstopping
silencing
▁ascent
din
exits
▁furnishes
▁hindrance
▁initiative
▁converging
▁dinner
▁fasciae
strategies
▁depicting
▁loft
▁neighborhood
▁nose
▁disguise
1625
▁nurseries
▁rabbet
▁nonambulatory
▁stretchers
▁multitiered
▁belongings
▁sidelight
▁checkout
nl
▁basket
▁contributing
resna
▁inclusive
▁happening
1994
▁descends
▁crowding
human
▁manifested
▁geometric
units
▁timeline
friction
▁crouch
▁stick
▁averages
▁grip
▁grips
▁incremental
▁viewer
▁impairing
▁intersects
▁wafer
▁horse
▁arena
▁raises
▁sitting
▁forensic
▁nonpatient
▁reheating
▁grilling
▁lasts
▁keyed
▁jointly
▁funds
▁violated
▁framed
▁bookshelves
▁alleviate
▁ever
▁improves
▁comparatively
▁lowers
▁ages
▁interrelated
aac
▁hat
▁discover
▁dialogue
▁accompanies
▁verbally
▁revenue
▁testimony
▁listening
▁1021
▁sessions
▁prerequisite
▁associations
▁overseeing
▁sectors
▁supposed
▁psychomotor
▁asked
▁succession
▁citizens
▁prepares
▁infection
▁sons
▁forecast
st
▁disciplines
resolution
▁questioning
▁expenditures
▁motive
setting
▁formulate
▁hypothesis
▁seize
▁seized
▁ax
ignited
▁balloted
committee
▁backpressure
▁ra
▁repetitive
▁cooldown
▁ascending
▁2498
▁stabilization
▁sewage
▁975
tracing
▁1835
▁reestablishment
▁hurricanes
▁deflections
▁negate
selected
▁replenished
fema
▁tentatively
▁underwent
033
▁ion
▁nimh
▁reproducible
▁1905
▁1913
▁1930
▁rework
references
▁636
▁braze
▁inclination
▁regrowth
▁inducing
▁weapons
▁plated
qr
▁slowing
▁slave
▁survival
▁anticipating
▁serviceability
▁cornice
▁cemented
beams
toothed
▁nonstorage
▁purlins
▁backed
▁increaser
fy
retarding
▁undisturbed
fused
▁tamped
▁slat
▁carriages
locks
▁drift
▁handline
settler
▁crud
1043
▁formations
▁distinguishing
▁undergoes
▁deletions
▁loosen
▁stiffeners
▁noninsulated
interlocked
away
▁contemplates
▁backbone
▁longevity
kennel
▁shrinkage
▁degrades
hangers
sounding
▁expectancy
▁definitely
▁skip
▁imposes
▁egg
▁padlock
sample
standpipe
relocation
▁simplifying
▁longitude
aisc
▁embedment
▁galvanically
thrust
▁sooner
▁repeatability
▁nfprf
▁marginal
nk
29106
4004
north
▁insulate
▁solved
▁fog
▁depleted
dead
▁cistern
▁siamese
declining
▁pittsburgh
▁rc
▁jumped
▁unsuccessful
▁145
▁146
▁107
▁constructing
▁3600
elo
different
▁tabulation
▁dramatic
▁seem
▁consisted
▁ninth
▁lumped
▁solving
butterfly
▁393
hi
▁shorted
hv
driver
▁piston
▁shafting
▁nonflowing
diesel
▁ratchet
▁bleed
▁npsh
conduit
▁inrush
▁losing
▁barriered
▁stub
▁df
▁rebuild
imsa
▁aquatic
▁wasted
handed
▁stairwells
▁bicycle
cops
▁impersonal
▁drifts
▁vsd
gravity
▁soluble
▁outstanding
▁scored
▁dash
lan
range
internet
▁hits
▁tablets
▁infected
▁despite
▁hosted
▁masking
finished
992
▁philadelphia
sspc
0001
▁overflows
▁manipulation
▁planed
▁croze
▁abraded
▁granular
▁shearing
▁gusset
▁clevises
▁forked
▁flashed
▁adhesion
▁felt
kilowatts
▁smoothing
alternate
▁roughly
▁settle
indicates
▁picked
▁racked
underground
▁breathers
▁anodes
▁weep
visual
▁baskets
fifth
▁farms
▁marks
▁clappers
▁anomalies
▁insight
frequencies
▁statistically
nc
▁outboard
▁maintainers
supervisory
positioning
▁metered
detector
▁prv
▁conclude
examine
remove
follow
obstructions
▁precipitate
deposit
▁enrichment
▁slimes
▁dm
ita
▁milestones
owner
▁noting
▁preparer
▁administer
▁cx
en
▁highlighted
▁2027
▁2217
phmsa
hazmat
▁propeller
axial
1670
moc
oel
acgih
▁portals
▁engulfment
evaluate
electromagnetic
sensors
are
▁nonapproved
▁electron
2268
▁belay
▁accountable
▁sops
▁victim
▁nonauthorized
▁delegated
toxic
▁renewal
▁administrator
▁redesigning
▁hygienists
▁2219
▁uneven
▁responded
▁disadvantages
▁degrade
addressable
fra
▁expression
▁heritage
▁interests
▁precedents
▁bracketed
▁extrapolation
▁expressions
rt
▁money
▁respondent
▁1660
▁gpa
pascals
permanent
▁indefinite
vbp
function
▁uncoupled
▁esv
▁pf
▁plots
▁shorts
▁bonds
▁underlying
▁rin
025
▁diversity
▁railways
▁laterals
▁unsealed
▁bil
▁amendatory
▁rooftops
▁nonorderly
▁adaptable
▁ballrooms
operable
▁neta
nucc
long
▁hid
washing
▁disposers
▁370
030
▁balancer
▁primaries
arrester
▁nail
▁384
▁mtw
▁extruded
▁extender
▁transposing
carpet
sf
se
▁reaming
▁354
identification
▁afterward
040
▁wallpaper
raceways
▁394
▁nispt
▁nispe
elevator
▁tinned
▁encompassing
▁noninterchangeability
attachment
▁remanufactured
▁nonmotor
foot
split
overload
▁unfused
▁condensers
largest
▁conditioned
▁167
phasing
surge
▁1578
▁asymmetrical
composite
▁interstices
▁canned
▁pascals
▁whistle
▁unplugging
▁carbonization
▁leds
aex
▁epl
flying
▁rostrums
▁electrostatically
▁anesthetic
▁discomfort
lag
▁sidelights
▁attractions
▁nonprofessional
▁enduring
chassis
▁concealment
▁diodes
▁inductance
▁wellways
▁tff
▁multicar
▁bi
eff
▁disk
▁diffraction
▁669
▁sinusoidal
▁diving
▁hydrotherapeutic
diversion
rating
stranded
▁87½
▁exporting
accessible
▁730
▁meteorological
vmax
▁imax
▁rfhh
▁hourly
▁2024
▁innerduct
bicsi
▁568
rod
▁nonpermitted
▁emerged
intersystem
▁467
▁intangible
496
easa
vlf
▁519
▁1657
html
▁breakdowns
discipline
▁motivation
▁thermography
▁ammeters
▁batch
▁reenergization
▁reenergizing
▁trichloroethane
▁recloser
▁distorted
▁thd
▁notching
▁seventh
▁oscilloscopes
▁undervoltages
▁imaging
▁vector
ratio
▁changer
▁milliampere
▁meaningless
▁bounce
▁absorbers
▁dashpots
radiation
▁nonserviceable
▁oiling
▁belleville
▁thousand
▁earliest
▁eroded
▁flaking
▁practically
▁splitter
▁gis
aconsult
btable
cthis
rk
watts
▁goggles
▁nonsaline
▁sequentially
going
▁learned
▁electricians
▁hoes
▁08855
1331
▁315
db
▁combat
redundant
$
kwh
unqualified
▁diagrammatic
garments
▁shirts
▁underwear
fuse
rf
select
▁dig
▁persists
▁1638
eccu
mfvn
ncas
▁permissions
visd
▁equivalently
compensated
▁handset
▁scrolling
voluntary
▁suppressed
▁virtual
▁handsets
▁retransmit
fcc
▁forwarding
▁repeaters
▁listeners
fighter
▁brightness
▁evolved
users
▁wolf
▁photodiode
▁zeta
▁binaural
hrtf
▁ild
aip
▁ballroom
▁÷
▁spoken
▁hidden
▁sept
▁proulx
▁targeting
▁oasis
▁1455
▁8201
▁gcr
lw
▁cellulosic
▁geometrically
▁tg
qdo
▁rams
▁buoyant
▁zm
▁planckian
▁lawson
▁walton
▁twilley
▁nov
▁forney
▁bukowski
▁wpi
▁keski
rahkonen
▁tno
▁netherlands
▁mapp
alcons
▁kuligowski
▁omori
floors
▁en
▁combatant
▁799
▁heptane
▁cabins
9175
▁ait
vpr
▁annealed
064
lbm
mp
▁kilometer
▁bf
lv
ks
▁pz
▁61643
▁chiefs
six
▁haunted
▁severability
▁justice
▁refused
▁delegation
▁liability
▁personally
▁accrue
▁ex
▁officio
▁professions
▁sit
▁arbitrary
▁modifies
▁refusal
▁inquiries
▁transferable
▁seeks
▁suspensions
▁promulgate
▁necessitated
▁submitter
▁432
▁havens
▁sterilization
july
2305
▁323
reid
▁3278
▁2074
▁852
▁trucking
▁222
▁1896
rvia
▁162
▁1316
gasoline
▁2208
▁ulc
dioxide
554
▁10017
▁cosmetics
apa
▁805
▁scrubber
▁linters
▁enplaning
▁officially
▁blended
hc
▁abstracts
▁distillery
▁glow
▁scaled
▁culturally
▁obeys
▁lacquers
1141
cpsc
▁novelties
▁dimensionless
▁deduction
▁deductions
▁forecasting
▁imperial
▁rental
▁nonreactive
▁helium
▁score
▁ethane
propagating
ic
▁suffering
▁reid
▁chipping
▁cryogen
▁reacts
developmental
▁incapacity
▁overcrowded
196
197
198
▁destroying
▁scientifically
▁ingredients
217
261
▁impinging
▁sited
compliance
8141
▁migrating
▁garden
▁shaftways
▁shaftway
▁prematurely
▁slides
7620
▁engraved
▁nonserif
▁parapet
2438
▁beads
▁extremity
▁2573
▁2599
xxx
▁accompanying
▁hindered
▁adopts
▁stamping
never
▁ornamentation
▁grants
▁windstorm
certified
aportable
▁onsite
▁fluoroprotein
▁esters
▁ketones
▁wand
expelling
▁perforation
▁coiled
▁advises
9300
▁requesting
▁archiving
▁cancellation
▁trades
corridors
▁confuse
1015
aall
dfor
▁delineation
▁detract
▁developer
▁oily
▁possessed
▁balloons
▁leasing
▁pruned
▁skirt
▁grasses
▁firebreaks
▁gated
▁trails
▁tanker
▁reflector
▁pictures
zoning
▁mazes
▁confound
▁sword
▁flamed
▁cherries
▁jubilee
▁crêpes
▁suzette
▁exhibitors
▁honeycombed
▁bamboo
▁retardancy
warming
▁notifies
▁spotlights
▁principals
▁semiambulatory
▁baths
▁habilitation
▁egressing
▁meaningfully
▁closable
▁oilseed
▁nonporous
▁oscillating
▁jeopardize
evident
footrests
▁scf
commercial
land
▁linens
stored
▁unimpeded
▁authorize
odorized
▁locomotives
▁compost
▁veneer
▁collateral
▁suspending
▁broadcasting
▁rims
measures
▁pyroxylin
▁frp
fiberglass
▁pet
▁sbr
▁fep
▁urea
especially
▁tarpaulins
▁repackaging
▁vacuumed
explosive
▁cyclones
▁deflagrations
▁irons
pai
▁spatter
▁viewers
▁knocked
joint
▁reconciliation
▁unapproved
▁dissipater
▁procured
▁exitways
▁funnels
▁tail
▁flare
intake
▁blistering
▁recoupled
▁dispersal
▁carburetion
borne
0359
▁sealant
▁pulley
▁freshly
▁workpieces
▁agitators
▁elevate
▁plural
▁promoters
▁workpiece
▁catalyzed
▁rollers
▁griddles
▁nonrecombinant
▁boost
▁pound
▁overflowing
twa
▁liquor
premise
▁1375
ithe
▁primers
pin
gcontainers
▁msdss
▁ditch
▁padding
950
▁backward
detonable
▁artificially
stamped
057
compacted
▁pel
▁administering
▁healthcare
▁sporting
557
aisle
aisles
providing
▁hardboard
▁asphalts
▁varnishes
▁assets
▁spotted
nmfc
▁325
message
uprs
4160
▁mixes
▁ot
▁assists
deflagration
▁donut
▁dam
▁knock
▁1320
▁triggering
▁certifying
▁preferential
▁earthen
▁2380
▁freed
▁pierces
venting
▁cargoes
▁downspout
▁accumulator
▁ol
▁hd
▁radiography
▁populated
measurement
▁waters
▁snowfall
▁psf
296
▁nonengine
▁exchangeable
▁soapy
emission
▁refillable
▁busy
▁tipping
▁absences
▁nitrous
▁expenditure
▁diligent
▁agriculture
agm
▁gelling
gel
value
▁sieve
mec
▁1226
▁jute
▁hemp
▁cocoa
▁kapok
▁irreversibly
▁elongation
▁inhibits
▁inhibiting
▁tobacco
salute
certain
▁fluorides
▁exotherm
▁inhalable
▁armories
▁fraternity
▁sorority
▁barracks
future
▁rubbing
▁refinishing
assist
▁wildlands
property
▁aim
▁desires
▁concurrence
▁unrealistically
▁fair
▁everything
▁nonoperative
sometimes
▁1185
ideally
▁1112
▁tens
▁societies
▁accustomed
▁ensue
evacuate
▁upwards
▁informing
▁multitude
▁grasp
▁crushes
▁planners
proulx
▁intra
▁ticketing
practices
▁competitiveness
▁homogeneity
▁cohesiveness
▁socioeconomic
▁minority
▁rapport
▁dress
attendees
▁flowline
▁waywinding
▁merging
branching
bb
cc
dd
ee
gg
jj
kk
ll
▁perceptual
nn
oo
waiting
qq
ss
tt
uu
▁provoke
▁aftershock
▁discourages
▁provokes
▁prompts
▁congest
▁countermeasures
▁flashlights
▁contingent
▁boca
▁000
▁david
007
▁lend
▁chooses
▁pill
tu
▁archaic
689
▁church
▁supplant
▁intermediary
▁remedies
noncritical
▁nonfunctioning
▁encounter
▁thoroughness
▁indexes
▁mica
marking
▁pictographic
▁aggravate
▁traces
▁dripping
▁279
▁french
▁traveled
▁contributed
certification
▁mischief
▁reinstall
▁lump
▁bureaus
▁consultants
▁sterile
▁cards
▁elect
▁studying
▁multiplicity
▁declining
▁essence
▁denominator
▁thinking
▁retrace
▁harmonize
▁encourage
▁lg
▁uv
▁windy
▁arson
▁homeowners
▁looks
▁fascia
▁boxed
▁firewood
▁spatially
▁irrigated
▁progressing
sized
▁thinning
▁similarity
▁awnings
▁habitation
▁roots
often
▁habit
▁decided
▁newsprint
▁elsevier
trained
▁cocktail
written
▁marketplace
▁obligated
▁arisen
▁cereal
▁lab
▁swampy
▁preservatives
▁coping
▁adsorption
▁brands
▁preview
▁pedestals
▁retardants
▁foil
635
▁3300
▁soaking
▁illustrations
▁undersides
▁jumping
▁propagating
▁2019
▁aiche
▁dislodged
management
▁understands
▁presumes
▁wearer
▁watches
dwelling
▁892
pei
▁1621
▁crc
▁583
1972
▁concluded
aircraft
▁soaked
jet
separator
▁earthing
▁triple
▁canvas
▁alters
▁colorless
hydrogen
▁ingestion
division
▁careless
▁…
▁hoppers
▁doubles
preaction
▁plumes
▁curl
▁yielded
shift
▁soap
▁shrapnel
▁beforehand
chain
polyester
▁workday
▁formulated
▁mold
▁hulls
clearances
▁skillets
▁casters
▁2436
▁purview
▁spec
epa
▁transports
▁hydrides
▁vaporize
▁wraparound
▁laminate
▁gs
▁ibcs
historically
▁municipalities
▁preassembled
eye
▁reprinted
▁uprs
▁fillers
connections
▁2218
▁refractory
▁singly
▁asphaltic
▁oilheat
▁alliance
▁1709
▁formulae
pressurized
▁porous
▁1615
▁ingenuity
▁substitutes
▁scba
▁ceased
▁redirection
▁476
▁arsine
▁cyanogen
▁cyanide
▁diborane
▁nitrates
▁tetranitromethane
sodium
chloro
▁trioxide
chromic
▁dihydrate
carbonate
butylperoxy
▁hexane
▁boron
▁acrolein
▁acetic
▁trifluoride
▁arsenic
▁pentachlorophenol
▁hydrochloric
▁mouse
▁dog
▁185
▁ao
▁bbp
▁benzyl
▁dop
▁dioctyl
buoh
▁tertiary
▁butanol
▁fought
▁severally
▁guilty
▁misdemeanor
▁imposition
▁excuse
list
▁constitutionality
▁hereof
▁abstract
guidelines
boiler
▁sw
▁affairs
▁grove
marine
▁atria
▁potency
▁412
▁901
▁1201
▁1964
▁vegas
▁nv
regs
▁1942
▁numbering
▁reformatted
▁adoptable
▁liter
▁nondecorated
▁facings
▁2768
▁fold
▁centerlines
▁virtue
▁immersing
▁phosphor
▁stepped
hrr
▁pinrail
▁went
▁patching
▁resides
security
▁witnesses
▁lacking
▁retrieve
289
290
▁sustainable
▁sensibility
▁mutually
2285
▁abrupt
▁hinge
▁widest
580
▁admission
▁9½
nosing
▁swings
8370
▁informal
oeo
▁draftstopped
▁underway
▁bleacher
▁lofts
seat
▁pinrails
▁upgraded
cwhere
▁warping
▁winches
basements
2110
▁bevel
▁astragal
▁buildingwide
▁gift
▁cashier
▁undercuts
▁ganged
▁nr
▁nonlockable
▁synonymous
aminimum
▁tenantless
▁gages
pendent
▁silo
▁grand
▁staircases
▁analgesia
▁bookcases
▁centimeter
▁resisted
▁boxing
▁valance
▁overcrowding
▁klote
following
code
kaplan
1984
▁vast
▁dominates
▁exhaustive
▁affiliation
▁judgments
squared
▁validating
cfd
probabilistic
▁scrutiny
movement
▁unrealistic
▁sort
▁authors
▁discourage
steady
qs
▁1637
▁argument
▁internosing
890
▁violating
de
▁recalls
landing
▁baseboards
▁reproduced
▁accreditation
▁sensitivities
▁emanate
gray
▁areal
1013
▁carpenter
▁venues
▁truly
▁cardiopulmonary
▁marginally
▁discriminate
▁infant
▁narrowing
unattended
▁toileting
▁medications
1070
▁trains
▁1870
▁shackles
▁saving
▁disrupted
▁complacency
▁backgrounds
traffic
furthermore
klote
▁australia
▁centre
▁england
▁hydraulics
▁relations
▁mathematics
▁interprets
▁deter
▁rationale
▁opinions
▁exercises
▁propose
▁interrelationships
▁hats
▁advancement
▁compiled
▁flamberg
▁leverenz
▁unclear
▁publishers
▁critiquing
tools
▁attainment
▁completes
▁associate
▁divisional
receives
▁423
▁1901
▁403
▁405
▁1451
▁retirement
▁hill
▁clarifications
▁observational
▁photos
cause
▁affix
▁reasoning
▁678
▁climb
▁formatted
▁systematically
▁noteworthy
▁rotate
▁droop
▁harnessed
▁flexibly
▁safeties
▁exciters
adjusting
priority
▁sagging
▁notation
essential
▁hurricane
▁contingencies
▁optimization
throughout
nicd
▁li
identified
▁multicell
▁abnormality
▁topology
▁1008
vla
▁chemistries
▁equipments
▁1899
▁1922
▁1928
▁encompassed
▁formatting
▁folders
▁234
▁813
▁438
▁439
▁442
sdr
▁1121
▁centrifugally
tar
▁pretensioned
401
▁overboard
▁fabricator
▁resembling
▁captive
▁leaning
▁isolates
▁derivatives
▁brine
▁tabs
▁fillet
▁nonindicating
▁siren
▁gong
▁admits
▁worded
upright
4831
▁skipping
▁incline
concealed
▁457
▁multifloor
▁arch
▁revamped
▁revamping
▁tying
waterflow
provided
▁differentially
▁longitudinally
asd
▁wp
▁gyration
▁lie
▁armovers
▁locality
▁retainer
▁symmetrically
379
1524
▁radially
expanded
▁shelved
▁148
▁345
▁crack
sx
▁coalescers
dimension
▁peaking
dm
0689
schedule
▁furthest
elbow
▁biocide
▁penstocks
▁voyages
▁inception
▁cisterns
mill
▁folded
▁unaware
▁insurers
▁philosophy
▁flagged
▁resemble
▁dairy
▁ec
▁tanneries
▁forge
steel
▁sirens
▁influencing
panel
▁shadowed
▁shadows
▁slatting
obstruction
valentine
▁isman
▁exert
▁vigilance
seals
▁nonaxial
▁snug
▁lessened
▁verifiable
▁tabulated
▁shaking
▁keeps
▁flared
▁uni
bell
▁126
▁harden
▁entrapped
▁94
mixing
▁epri
▁settler
uv
▁organisms
▁trims
▁favor
designed
▁yao
▁seventeenth
▁instrumented
▁124
fmrc
abs
▁elo
▁dramatically
▁spanning
▁aisc
▁tx
research
▁1020
▁kingdom
▁ave
▁jersey
▁07054
hydraulic
▁15540
▁aquifer
▁lobe
▁lineshaft
▁manometer
▁figured
▁infestation
▁restabilize
▁overpressuring
▁cavitation
▁oiler
▁nonreverse
▁derate
▁pushbutton
▁stepdown
rush
▁exciting
▁ecms
▁thimbles
▁disassembling
▁boosted
cw
ccw
allowance
▁wedges
▁readjusted
▁chlorides
▁jan
feb
▁multichannel
clean
▁soaps
▁risking
▁noticed
975
▁logged
732
average
va
▁disassemble
▁mechanic
▁downloading
electronic
▁processor
bit
▁bacnet
▁corrupting
▁802
assigned
▁viruses
▁firewalls
▁corruption
▁laptops
▁firewall
▁menu
provide
frp
tensile
extension
▁preservers
▁19120
sealing
▁jul
▁steelwork
compliant
▁weathertight
▁illegible
▁knots
▁redwood
▁southern
▁stave
▁smoothed
▁notched
▁woodwork
▁periphery
▁compressive
▁berms
▁eccentricity
▁spheres
▁fits
▁nonburning
▁dangerously
▁depreciation
heated
▁condensing
▁evaporative
▁erect
▁necessitating
▁rotting
▁cleats
▁colder
▁recordings
extracted
requests
nonmandatory
▁reinstallation
legally
precautions
▁hydrometer
▁embankments
▁compromises
▁tubercules
▁slime
pipeline
▁maloperation
▁repeatable
▁formalized
harsh
▁settled
▁unacceptably
▁epa
increased
▁reconnecting
▁relubrication
periodic
actuation
establish
ball
drip
thereafter
field
rotten
×
▁photograph
loosen
does
verify
▁uncontrollable
▁acidity
▁crevice
▁electrons
▁fungi
▁bio
films
▁nodules
▁carbuncles
▁nutrients
▁mussels
▁kill
ahjs
yellow
orange
▁resolutions
▁unbiased
passive
▁closeout
codes
lead
▁lesson
▁warranties
▁elected
▁witnessing
communication
standards
▁discussing
▁1855
▁aiha
▁2202
▁leaded
isgott
eductors
▁degassing
▁pulleys
▁barricaded
▁trainer
▁tripods
sds
▁online
▁probes
▁lifeline
▁grab
rfi
▁toxics
nrtl
calibration
▁calibrating
▁surrogate
▁chemist
▁ditches
▁blanked
▁pagers
body
retracting
▁drag
▁redundantly
supplying
▁rescuing
▁audited
▁apprise
▁renewed
covers
finally
▁projectiles
▁caustic
▁fatality
employers
▁divergence
▁blvd
complex
whether
alternatively
informed
▁practitioners
▁undertaking
▁collaborative
▁derivation
▁consequential
▁efficacy
▁scoring
▁assigns
▁improbable
▁analysts
▁bounds
mean
▁clustering
▁reinforce
882
usfa
nfirs
fido
▁wake
▁epistemic
▁electrofusion
▁1733
nb
▁20036
▁tender
▁scfm
▁gouges
cg
mpag
▁hdt
▁dials
▁pigtails
▁bridged
855
▁sidings
▁slipped
psig
▁axle
▁luggage
▁tractors
▁bumpers
▁odorants
▁stain
perc
enhancing
▁gable
▁publish
▁195
▁promulgation
1650
rin
▁grew
▁gravities
▁shading
awg
▁draglines
▁excavators
▁injure
▁encircle
receptacles
▁boathouses
▁transforming
▁1699
interrupters
feeders
▁guys
▁cultivated
▁orchard
▁sealants
▁tinsel
tenth
▁etched
▁metallically
▁mile
▁furring
corrugated
inches
▁hysteresis
▁reciprocal
▁thhn
▁thhw
▁tw
electrically
▁td
8000
0625
▁gang
screws
▁enameled
cap
▁flexed
▁noncinder
▁unthreaded
▁604
liquidtight
▁553
▁multilayer
▁discontinuous
▁quadruplexed
▁quadruplex
▁noninductive
▁evj
▁evt
▁evjt
▁subheading
▁sjo
▁flashers
switch
▁seated
filament
alr
receptacle
▁fastener
usage
▁xii
▁parabolic
xiv
sink
▁spreaders
▁665
▁padlocked
▁excited
▁standstill
▁std
▁attains
▁nonautomatically
generators
▁reclose
▁evaporator
conditioner
transformer
▁zigzag
▁subtractive
energizes
transformers
rotary
terminal
▁expel
499
▁carbonaceous
▁tamb
▁constructional
▁nonexplosionproof
ventilating
▁carbonized
intrinsically
▁cladding
▁id
▁portables
▁energizers
▁depressions
▁peripheral
spraying
hospital
▁coronary
▁drenching
▁physiology
▁reflectors
lighting
▁backstage
▁waterfalls
junior
alternating
location
fuses
equipotential
▁resistances
▁1080
panelboard
▁derive
is
▁van
▁tt
▁unitized
length
floating
▁monorails
hid
led
▁tfn
▁tffn
rechargeable
electrified
▁tru
1686
▁legacy
▁amplified
▁62368
ite
▁dp
▁liners
channel
module
▁overcharging
relay
shock
readily
dcoa
▁floodplain
nplfa
569
570
▁metropolitan
transmitter
ins
▁creepage
▁nius
ont
▁answering
▁something
▁titration
923
▁buff
▁1159
▁iti
evaluating
489
▁firefighter
union
services
esd
▁ambiguous
enclosures
▁conscious
▁resuscitation
▁catalogs
▁approximated
▁suffer
▁crafts
▁remind
▁remanufacturing
▁paramount
▁odd
▁increasingly
clearing
▁shortens
▁tuned
▁interharmonic
▁flickermeter
▁annoyance
▁perceptible
pdu
▁ltc
ni
▁switchblade
milliwatt
▁blowout
▁inexpensive
instruction
▁precede
▁flaws
▁trace
▁flaw
pd
▁compares
▁milliwatts
▁telling
▁tefc
▁greasing
mist
megohm
▁overemphasized
week
▁looseness
▁streamers
▁ceramics
▁deionized
▁newer
▁dehydrating
▁conservator
▁onan
▁saved
▁shroud
▁rewiring
▁ambients
▁mar
pm
▁optimizing
▁tracked
▁nines
▁explaining
▁remembered
▁hundreds
▁asking
▁wants
▁1151
▁turnpike
hill
nsc
339
▁tactical
includes
▁fmeca
▁nondirected
▁suffered
▁aligning
refresher
▁rainwear
▁spandex
▁balaclava
around
▁forehead
alike
▁pacemakers
▁ionizing
▁waveshape
av
▁av
name
▁touches
▁cradled
▁caller
boundary
switchgear
▁noncoded
▁827
▁2572
▁municipality
digital
hpsa
rarsr
▁dispatching
vifd
▁nonrewritable
wireless
▁amp
▁noninterfering
▁synthesized
▁iid
atf
visible
▁braille
▁fonts
nacs
▁routers
evacs
▁asleep
▁predischarge
▁acus
▁prioritized
▁drmns
▁selectable
▁redisplay
▁dacrs
independently
notification
listing
▁jacob
▁mfvns
▁packet
▁micron
backup
▁intelligent
▁daisy
▁printouts
▁agglomeration
▁photon
▁emissivity
▁exponential
▁ionized
designers
aba
ag
▁banner
▁speaking
▁sentries
▁roving
▁radiate
▁meteorology
▁packets
▁michael
▁karter
▁unreported
▁deadly
▁secretariat
▁victoria
▁lt
▁6055
▁kemano
▁brian
tg
▁qdo
▁qcr
▁websites
▁dominant
948
▁approximation
dt
▁linearly
▁morton
▁turner
▁gottuk
▁pucci
▁quantum
▁proportionality
▁fpetool
▁lavent
▁maryland
▁phonetically
▁rhyme
mrt
sii
asa
log
▁feb
▁analogous
▁lw
▁cry
kuligowski
▁believing
▁negotiate
technologies
▁sturdy
524
529
nvic
▁premix
▁dies
▁preburn
▁fssa
droplet
▁hc
▁baltimore
▁headwall
lemp
▁airplanes
mcov
1940
▁coursing
compression
▁crimp
▁subpanels
▁splicers
▁bimini
▁outriggers
▁flybridges
▁dinghy
ccr
▁cu
▁ccr
▁electrogeometric
▁bcdef
uw
▁lf
▁lo
lt
assets
codesstandards
tiaerratafi
tiaregs
▁directive
▁directors
▁prerogatives
▁appendices
▁extracting
▁partnership
▁prima
▁facie
▁lessee
▁equaled
▁summarily
▁secret
▁secrets
▁faith
▁appoint
▁hearings
▁quorum
▁answers
▁revoke
▁misrepresentations
▁constituted
▁bold
▁mailed
▁appealable
▁invalidate
▁434
▁pensky
martens
▁2843
▁3699
▁3828
▁4359
▁5391
▁6448
▁6751
▁6823
▁681
vapors
▁976
▁arlington
▁categorizing
▁6051
▁6052
▁geneve
▁10298
▁10156
▁nbbpvi
▁crupper
▁columbus
▁43229
▁plaza
▁rvia
▁6141
▁easton
▁plumsteadville
▁18949
▁842
▁971
▁1314
▁1573
▁1640
▁1803
▁2245
507
512
united
▁importation
▁isopropanol
▁purchasing
▁wares
pollution
▁ginning
packed
explosives
▁mound
▁ions
▁imbedded
▁graphite
▁ionic
▁lithiated
▁expendable
▁confounded
burn
soil
▁cleanroom
▁shredded
▁salvageable
▁cordwood
▁customarily
▁pulpwood
▁multiunit
▁unreacted
▁thermoelectric
▁driveway
▁bursting
▁mitigates
▁apa
833
▁cutoffs
▁inflammatory
▁butylenes
▁asphyxiant
▁polymerize
producer
▁fills
reactivity
assemble
htf
472
▁political
▁felled
▁berths
▁fender
▁unperforated
▁cushioning
▁felted
▁parcel
▁deeded
▁appropriated
▁hg
▁multirow
annulus
psia
805
▁grows
▁attest
▁plausible
▁crowded
▁validly
▁modeler
approval
▁traverses
▁subclassifications
▁leadership
▁dismissal
▁apparently
▁willfully
▁windowless
ims
▁depositing
▁hibachi
▁flares
▁fronting
▁arabic
▁alphabet
▁stenciled
▁dryness
▁uncut
▁balls
060
▁nonstandardized
9140
▁overturned
tree
▁bordering
▁skirting
▁wedged
▁kinked
▁biparting
▁counterbalanced
▁wedging
▁3660
▁mocked
dsee
esee
▁1296
tin
▁defrosting
▁ambulance
▁driers
returned
▁interwiring
▁plungers
ein
▁stencil
▁mailing
▁tetrachloride
fffp
▁acetone
suppressing
animal
▁heatless
▁expelling
▁pails
▁scoop
▁unregulated
▁overpressurized
▁impartial
▁repository
▁surrender
compensation
▁administers
▁unmeasured
▁unlawful
▁market
▁relocking
wn
▁dissuade
▁brightly
▁funded
▁demolished
▁shoring
▁tipover
bbl
▁reinforcements
075
▁carcinogen
▁wildfire
▁canyons
▁crevices
▁bullets
▁thinned
ingress
▁scooters
▁privately
▁congestion
▁tampered
443
soaked
0600
▁sugar
▁starch
▁meal
▁archives
fato
nozzles
▁transitional
24385
▁wrecking
▁stadium
▁skillfully
▁yacht
docking
▁launching
▁yachts
▁superstructures
lpg
lay
shore
▁recirculate
▁improvised
▁lumberyards
▁alleyways
▁greens
▁predesignated
▁steeply
▁rake
outdoor
▁chunks
▁nonwood
▁fashioned
▁abs
▁acetal
polyformaldehyde
polymethyl
▁methacrylate
▁epdm
▁nitrile
thermoplastic
▁polybutadiene
▁polycarbonate
▁plasticized
rarely
▁cellulosics
cellulose
▁butyrate
▁chloroprene
ectfe
chlorotrifluoro
▁etfe
tetrafluoroethylene
▁fluorinated
nylon
pctfe
▁polychlorotrifluoroethylene
▁ptfe
▁polytetrafluoroethylene
▁melamine
melamine
▁phenolic
▁pvcs
▁pvdc
▁pvdf
▁pvf
urea
▁gauzy
▁wadding
▁facial
▁napkins
▁toweling
▁blowdown
mie
stream
▁distract
▁uplifting
908
▁snubbing
▁swivels
▁nondispensing
▁currency
retrieving
▁nighttime
▁flasher
flange
▁forbidden
▁galley
▁legends
▁semiconductive
mapping
▁weatherproofed
▁alternators
▁ingested
▁taxiways
▁photographic
▁blowtorches
▁abrasions
▁pressing
▁flattening
gh
lh
▁4¾
▁3¼
▁polishers
▁propelled
▁airless
reducible
▁intersect
▁caulk
7625
▁unmanned
▁airstreams
▁disallow
▁nitrocellulose
lubricating
▁1585
1135
▁applicators
thin
solvent
▁distill
▁teflon
▁chopper
▁overchop
trucks
▁concerted
▁saponify
▁nonoperational
▁initialed
▁fryer
grease
stationary
▁recombinant
▁nonconforming
position
▁mainstream
▁wastes
044
▁smokeless
amaximum
bmaximum
percentages
▁ton
permitted
▁retrievable
▁canal
▁sidewalk
381
pallet
▁8600
3800
wrapping
1450
▁backrest
▁turnaround
dissipating
▁producers
▁usc
▁cosmetic
compressed
097
▁subambient
▁technologist
▁slings
▁adsorbing
▁handwheels
outer
cylinders
cargo
lm
▁nonoperating
ice
▁movie
▁rehearsal
▁competition
▁propelling
▁recoverable
▁aero
▁seasonally
▁unseal
▁ejected
▁brooms
▁selling
▁assortments
▁fluidity
▁exploration
▁drillings
▁windstorms
▁vulnerabilities
▁sva
consequences
▁foodstuffs
▁overlay
▁reagent
▁rabbetted
▁bungs
vocs
dthis
gfor
upr
▁condenses
▁compensated
▁floodwaters
▁unfit
475
▁2385
▁570
▁spillway
▁spheroid
▁floodwater
grated
▁ductility
▁equivalents
▁liquidtightness
▁hauled
▁substructure
▁recessing
▁endurance
dnot
enot
fnfpa
▁straining
▁2450
1111
▁980
▁convected
049
▁grommet
▁reseller
4540
▁wagons
▁liquified
rolled
▁hughs
▁8115
▁boils
▁emulsion
▁superheated
▁explosively
▁slop
▁froth
▁coaster
▁submarine
▁attract
▁agglomerates
▁behave
▁inferred
▁explosible
normalized
▁henequen
▁tow
▁excelsior
▁turnings
▁merge
item
eutectic
▁softens
▁tending
▁compensates
▁detonators
▁igniter
▁fragments
▁insensitive
display
▁4207
▁4206
▁nitrides
▁scarcity
▁932
▁preparers
▁reactives
▁sensitizers
scene
▁inextricably
▁nonfriable
button
▁accelerator
▁grams
▁trichlor
▁whereabouts
▁reminding
▁appointments
▁crisis
▁nutrition
▁stacker
▁collide
▁downdraft
▁penthouses
▁bumps
▁circles
▁pushes
▁volatility
▁impinges
▁justifiable
▁conceptual
▁dollar
▁carboxyhemoglobin
▁agreeable
▁pursuing
possibly
▁nontypical
▁cursory
▁accelerant
manufacturing
▁adornments
▁shingle
sensitivity
reasonableness
▁intuition
▁preconceived
given
▁1184
▁unheard
▁tacitly
escaping
▁dispute
poor
▁forensically
▁strengthened
▁newsstand
▁giftshop
business
▁nonthreatening
▁schooled
▁excused
▁grave
man
role
▁critique
▁unmanaged
aset
rset
▁minds
▁postings
▁disembarking
▁airliner
analysis
▁outreach
▁campsites
▁scuffing
▁ushering
▁969
ht
▁scoping
inspections
▁bubbling
ffi
▁specifiers
055
070
▁federally
▁doc
▁king
mon
▁sanford
▁smolders
▁planters
▁shortage
▁remedied
▁statute
▁importer
▁wholesaler
▁retailer
impairments
▁prisons
▁transpired
sins
▁unnoticed
cutting
rain
▁embody
▁forklifts
▁reputation
contents
▁phosphate
▁brings
▁understandable
▁bc
▁inconsequential
▁peculiar
▁combating
▁1093
▁overexposure
▁prompted
▁thermodynamic
▁robotics
▁tinted
▁confirms
planned
clamps
▁twists
▁pinned
▁substandard
▁cake
▁retrospective
suites
duct
▁clerk
▁ignore
▁physicians
indication
▁certificated
▁brokers
though
▁strongest
upslope
▁spillover
▁abruptly
▁unmarked
▁doorknobs
▁grasping
▁pinching
▁wrist
▁padlocks
▁hasps
▁credentialed
suggested
▁influential
1422
bother
▁reachability
2240
subtracting
noted
combining
▁brewpot
▁detracting
▁casual
▁semipermanent
▁inconvenience
▁inconspicuous
▁advertising
▁voted
▁enactment
▁matte
▁footlamberts
▁le
▁halogen
supplementary
▁millions
topped
▁talks
▁cities
▁evening
firewise
▁numeric
▁urged
noaa
▁shingles
untreated
▁shakes
blown
▁leeward
▁stucco
hanging
▁fracture
▁junipers
▁plantings
growing
▁mulching
▁nfdrs
▁trellises
▁playhouses
placement
consider
▁aesthetics
▁expanse
▁hunting
▁ecosystems
▁preheated
▁aromatic
▁researchers
▁branching
▁butler
classification
999
▁hirschler
▁eds
joist
▁bakeries
▁planing
dried
▁lengthy
▁manpower
▁digging
hydrants
▁strategically
spreading
▁gallonage
▁invaluable
▁sugars
▁behaves
432
648
▁775
▁2700
▁bristol
572
▁889
▁2734
▁subdividing
▁saws
▁masks
whichever
▁resorting
banded
▁unbanded
▁splintered
▁universally
▁shears
drilling
sparks
▁cuffs
▁overalls
▁shoe
▁shoes
▁plumber
▁fueler
▁fuselage
ammonium
▁tankage
▁harmlessly
▁impurities
▁supportable
▁essentials
▁tasteless
482
▁vaporizes
▁liquefaction
▁thinners
piping
▁packings
▁blenders
▁bagging
bag
▁sticky
▁incendive
▁chilled
▁inefficient
▁inhaled
▁smacna
draft
▁nonelectrostatic
eliminator
▁disruptive
▁intrude
cracked
▁platelets
▁reflash
▁compelling
properly
▁perchlorates
▁helping
▁curtained
▁catalysts
mekp
▁classifies
▁markedly
▁quietly
mold
▁warmed
▁contaminate
▁broilers
▁clipboard
▁reminder
002
▁comb
▁scraped
▁compressing
▁scrubbing
▁rinsed
transportation
684
packs
▁2686
▁2632
▁fringes
wildland
▁1740
▁prolong
▁leaked
▁elevating
sales
010
▁retarded
▁ejection
un
ply
▁extraordinary
▁lps
holding
▁denotes
grate
▁@
▁detonations
features
applies
▁contemplate
▁tooling
6900
▁sealer
▁wipedown
instrumentation
▁repacking
▁protections
▁marketing
▁accelerates
▁corrosiveness
▁931
▁ast
▁1501
▁6469
▁summed
▁forrest
▁freeboard
▁scrape
894
011
previous
▁envisioned
▁cathodically
▁rich
ellipsoidal
▁pocketing
▁canteen
▁pol
pol
socket
▁slurry
▁germane
▁selenide
▁stibene
▁tetrafluoride
▁phosgene
▁unreactive
▁butadiene
▁decaborane
▁amide
▁phosphorous
▁cesium
reaction
▁chromic
▁iodine
particle
▁guanidine
▁chloric
▁mono
trichloro
tetra
monopotassium
penta
▁fuming
potassium
bromo
▁halane
dichloro
▁mercurous
▁superoxide
▁thallium
▁trichloro
trichloroisocyanuric
▁nitrites
anhydrous
▁tetrahydrate
▁cyclohexane
▁diisopropyl
propyl
▁peroxydi
▁peroxyacetic
trimethylcyclohexane
dimethyl
▁glycols
▁beryllium
▁thriethyl
▁trimethyl
▁plutonium
▁thorium
phenyl
▁mercuric
mercuric
▁allyl
allyl
▁tetroxide
▁selenium
▁disulfide
▁hydrofluoric
▁hydroxides
▁multicomponent
▁cat
▁spelling
operational
▁undiluted
▁dbp
▁dtbp
tertiary
▁rupturing
▁repealing
be
▁ordained
▁herewith
▁repealed
▁7000
ffsbms
▁preplans
▁tulsa
▁ok
▁3485
▁highlands
▁95660
5595
▁01
gc
▁732
▁capitol
▁20401
blue
smacna
specifications
community
▁subterranean
▁1452
▁5060
▁mississauga
▁pamphlets
▁groundwork
▁1921
▁1927
▁1939
▁appendixes
▁lettered
▁adaptive
▁canterbury
▁westlake
▁44145
1480
▁2072
▁min
fmglobal
▁1784
gpo
living
▁entailed
▁women
▁exhibitor
▁handhold
▁skins
▁plays
228
▁taut
275
284
292
▁enhancing
rpm
▁freewheel
▁16½
▁retract
▁lips
▁foremost
▁balusters
▁2¼
▁graspable
▁newel
▁windowsill
▁rung
fsee
▁infiltrating
jointed
▁unrestrained
▁retraction
▁:
aprotected
▁9000
▁1065
arrival
activities
participants
instructions
▁nonevent
setup
limitations
formal
▁aeds
▁nonbreakable
▁visuals
▁nonsecured
warranted
▁orchestra
▁neglect
▁intervenes
1370
▁cafeterias
▁banners
▁vocational
▁awning
bsprinklered
▁caretaker
▁infirmaries
▁subclass
▁surgery
1160
▁dutch
▁rabbets
▁bevels
▁hearth
tempered
▁0600
1161
▁nondetention
▁noncorrectional
▁walled
▁relock
7010
▁roomwide
▁effecting
cany
4875
▁disengaged
▁proprietor
▁inn
▁motel
▁nonlooped
bwhere
▁tenement
▁partitioning
abuilding
dany
score
▁suboccupancy
▁nonsales
▁markets
▁roadside
impregnated
▁kiosk
▁nonhistoric
▁transom
▁rigor
scope
goals
▁noxious
▁healthy
▁families
▁ambulation
▁illnesses
▁custodial
▁hide
▁disorders
▁situational
endsley
▁bolte
▁jones
▁francis
▁raton
▁webbing
▁breakable
▁rebuilding
endangered
▁assuring
▁ensuing
▁reassessed
▁kaplan
▁hartzell
▁narcotic
▁attributable
▁poisoning
much
gann
▁2280
▁descend
▁conservatively
▁arching
▁commitment
▁focal
experimental
▁depiction
▁cfd
parameter
▁staircase
▁cambridge
▁mit
▁aside
▁textures
▁constriction
▁retracting
▁outfitted
▁prefer
▁comfortably
▁fingers
▁directionality
▁calculational
▁logistical
refuge
▁unassisted
calculations
316
▁intercom
psee
estimated
▁gsa
▁2238
▁circumvent
▁consumers
▁nuisances
detectors
▁happened
▁blackout
yd
▁representations
▁propensity
▁infinite
▁cctv
indirectly
▁enforcer
▁ineligible
▁really
▁generous
▁restatement
▁reclining
▁comparably
▁exacerbate
▁plush
▁workable
▁maternity
▁abduction
▁disguising
▁makeshift
▁gurneys
▁sturdiness
▁1830
▁pharmaceutical
7500
▁butter
backs
▁stubs
flashover
▁tenancy
▁immigration
▁naturalization
▁customs
▁prisoner
▁intolerable
▁stiffened
▁handcuffs
▁experimentally
▁prison
▁interpolate
▁interpolating
▁turnout
▁vaulted
cathedral
▁corral
▁lunchrooms
▁voluntary
▁showering
▁2484
▁20899
▁5445
▁moore
▁1225
▁us
▁sydney
▁ltd
british
▁193
▁1969
jcnfso
npqb
▁jcnfso
▁npqb
pqu
▁mastered
▁origins
▁helmet
▁cutsheets
▁courtroom
▁listen
▁judicial
▁algebraic
▁coursework
▁verbs
▁outdated
retail
▁graduates
▁rose
record
▁misunderstood
obtain
▁proficient
▁cite
▁requisites
▁resemblance
learning
employee
establishing
identifies
issues
▁citations
provides
▁instructs
▁bachelor
serves
master
responds
reviews
attends
bachelor
▁matrices
▁1001
▁1041
▁1071
▁1145
▁foams
▁1906
▁1932
▁ideas
▁tn
mclagan
▁hrd
nadler
▁dissertation
▁houston
▁02
▁savannah
▁thermodynamics
▁engaging
▁spoliation
▁synthesize
inflicted
▁defeat
order
▁diagramming
▁strengths
reduction
▁furthers
▁neighbors
▁suspects
▁nonverbal
▁interviewing
▁corroborative
▁incendiary
▁allotted
▁litigation
▁learner
▁renumbering
▁nonconformity
▁subbase
▁demonstrable
scr
▁drawdown
▁limiter
outs
▁exciter
▁stipulate
▁dips
▁cogeneration
▁remediate
▁stale
▁electrolysis
▁thimble
positive
rest
▁rotated
▁shortages
▁antimony
network
dial
▁prohibitively
▁inrushes
▁tornadoes
▁overland
slosh
▁543
▁577
▁humid
▁dampening
▁subsupport
history
major
▁suspect
dlro
▁alien
shed
▁inventories
▁convertors
adjusted
▁exclusions
nimh
absorbing
▁nicd
▁ultracapacitor
▁exceptional
electrolyte
▁ultracapacitors
▁reformer
▁62040
vfd
environmental
shown
▁485
▁auspices
▁1907
▁1912
▁1917
▁1919
▁1923
▁1935
▁1940
▁substantive
▁consolidation
▁consolidate
▁watermist
liter
▁accord
▁buttwelding
▁forged
▁153
galvanized
chromium
molybdenum
unsn
▁828
▁capillary
906
mixed
cross
▁platings
decorative
conventional
qres
▁materially
▁spanners
▁footpiece
shipping
cells
▁facia
▁pyramid
▁cores
926
▁shoreside
▁nonsprinkler
▁glue
sin
grooved
stopping
▁porosity
▁fabricators
▁disks
2839
567
▁breezeways
▁trophy
609
▁lintels
measurements
▁noncircular
▁elastomeric
▁multitier
▁bookstacks
▁alternated
drilled
▁screwdriver
▁flexure
▁collectively
▁flats
▁tab
▁prequalified
tapping
▁torquing
lateral
▁backfilling
▁ashes
▁signing
makeup
hvls
groups
▁modifiers
▁2600
456
3½
425
gondola
▁gondola
▁succeeding
▁768
▁cmda
▁compactor
▁affiliated
bilge
▁postulated
▁invariably
▁inhibitor
▁launders
mcc
▁remodeled
qm
▁modifier
▁penstock
▁flumes
▁stabilizes
▁elastometric
▁slamming
▁gangway
▁firemain
▁nonelectrically
▁selections
▁6182
web
▁kemper
▁wrappings
▁rainfall
▁capping
▁wrappers
▁norm
▁veterinary
▁kennels
▁prosceniums
▁confectionery
▁racetrack
▁copied
▁precisely
▁22½
▁foundries
▁pickle
▁vinegar
▁kilns
▁locomotive
▁perfomance
▁fabricating
▁insecticides
▁fungicides
▁arrows
gm
whenever
▁progressed
▁deepest
▁tooth
▁tyco
▁exponentially
1985
developed
▁incur
furnace
▁dye
▁branchline
fv
▁580
▁incompatibility
▁prestretching
▁elasticity
▁shipments
▁ap
▁fp
thread
308
▁sectionalized
▁patios
▁excavations
▁ebaa
▁cupola
▁meanwhile
▁emphasizes
pirg
433
▁363
▁tried
▁atomize
▁23½
▁13½
473
▁cautiously
intermediate
▁glocester
▁138
▁attacking
▁thirteen
south
historical
▁flake
gaseous
▁handler
▁1843
▁outweighs
▁pitching
▁interferences
▁adit
▁interagency
▁msha
▁suppressing
particularly
infrared
▁declaration
drawings
▁subtract
▁recalculated
▁mastic
▁118
▁explored
▁reevaluated
▁accelerations
▁ocean
▁ashore
▁bundles
▁heels
▁bow
▁stern
▁aligns
elements
▁deteriorates
▁kalelkar
1970
alpert
▁181
1975
beyler
heskestad
▁22485
tp
▁tri
▁liner
racks
temperatures
versus
▁southwest
1270
▁idealized
deformability
▁mcap
▁mmax
assume
▁787
▁60601
▁birmingham
▁1120
▁1140
▁1635
▁203
▁creek
handbook
▁22314
▁wormgearing
▁8669
▁33166
4406
▁gapped
carbide
hsv
hd
kilogram
▁kinetic
1451
hs
925
millimeters
▁clog
▁preshipment
aactual
bapplies
csuction
▁flexing
▁vortices
▁unconsolidated
1703
interval
reverse
▁twist
piercing
tefc
junction
tripping
running
calibrated
▁snubber
▁deriving
▁cautionary
▁commanded
▁adaptor
▁spikes
▁cleanout
▁tachometer
▁tachometers
4996
▁readability
▁overfilled
valve
variable
nicet
▁feelers
angular
▁recheck
▁eddy
▁guided
▁consultant
▁derrick
▁imbalance
▁mistakenly
withstand
▁drifted
▁upwardly
▁downwardly
▁stripped
jacketed
▁motored
▁gums
organisms
▁destabilization
▁implied
▁contaminating
▁throttling
ammeter
▁tips
plus
▁plotting
ignoring
▁switchback
protect
▁rearrange
0075
▁tighten
▁416
▁commands
▁microcontrollers
should
▁mac
ipv
routable
▁translating
tcp
▁fpcs
wan
read
fpcs
▁modem
default
program
▁smart
▁thumb
virus
▁laptop
▁infections
loggers
▁intents
▁attacker
▁smartphones
▁corporate
▁disrupting
▁https
▁encoded
selectable
▁1909
▁1918
▁1933
tanks
578
1751
▁2755
▁pickling
▁pinholes
▁flagpoles
▁metallurgical
curved
▁oiled
▁pain
▁unprimed
cleaned
▁1900
punched
▁petcock
▁ascertaining
spring
▁worm
below
▁sapwood
▁shaping
dismal
▁swamp
coast
megapascals
533
▁chimes
▁dowels
▁3785
▁pea
▁impermeable
▁ringwall
▁limestone
▁settlements
▁subtracted
▁star
▁overstressing
▁batter
▁insecure
▁frustum
▁neatly
▁impart
▁frostproofing
▁offsetting
basin
▁waterproofed
▁lapped
▁localities
▁graduated
▁drainpipe
▁circulates
▁maker
▁specialties
▁makers
kilowatt
▁disclosed
▁influent
tolerances
fireproofing
▁spirally
▁erecting
▁aggregates
▁spalling
▁hastens
▁rusty
▁escaped
▁settles
▁hardwood
recommendations
▁inversion
2017
▁helped
definitions
3359
6751
7462
accelerated
frostproof
methods
restricting
▁ultra
manufacturers
▁coverplate
▁unattached
▁refastened
▁harsh
▁mildew
could
removal
▁coupons
▁escf
aimed
basket
▁salvaged
▁bonnet
▁lifted
▁gummy
▁solidified
▁upside
▁jamming
▁los
▁angeles
▁agrees
▁bang
▁bubble
changing
▁questionnaire
subsequent
▁routines
original
▁equaling
edward
budnick
william
▁ineffectual
severely
▁nonpermanent
▁discard
spaces
old
bags
▁aren
▁else
controllers
▁reside
▁baseplates
shafts
▁snubbers
▁flowmeters
▁manways
▁forcibly
broken
▁curbing
▁sandbagging
▁integrating
▁apt
backflow
dca
dcda
nrs
rpa
rpda
strainers
gridded
removing
▁elapsed
▁burst
extreme
forms
▁zip
▁locator
uncover
same
adjust
disassemble
disconnect
▁algae
▁ohio
▁columbia
▁caco
▁alkalinity
▁noble
thus
▁mississippi
▁leaching
microbiologically
pitting
erosion
colonies
microbes
plugging
oxygen
initial
▁safest
attach
▁clears
▁reopen
its
▁entails
▁noncoated
▁asian
▁molluscicides
▁deny
yard
flush
▁scouring
▁adheres
▁scour
▁consecutively
▁expedites
▁recap
▁transformed
▁gps
▁pitfalls
repairs
placed
▁restructuring
cxa
fcxa
▁tasked
scaled
focused
▁deliverables
▁took
project
▁abbreviation
▁conversational
commentary
▁partner
▁salesman
▁agenda
▁devote
▁organizing
methodology
clarification
▁adaptation
▁cen
best
▁strives
▁manages
▁think
▁1521
staticfiles
downloadablefiles
erg
▁scroll
▁ejectors
1006
▁attribute
jha
ra
tlv
▁inwardly
external
▁prescribes
▁zeroing
▁contort
▁deviates
▁qualifier
▁lifelines
▁entrap
▁posed
present
▁poisons
▁nervous
▁displacing
▁parasites
▁toxins
▁trichloroethylene
cl
▁definitively
altitude
▁vibrating
bump
▁vacuums
▁facepiece
inert
insufficient
▁sar
▁scraping
maritime
▁recommissioning
▁discusses
▁arresting
▁entanglements
▁knee
▁vests
▁eductor
dilution
▁bead
▁collapsible
▁configure
▁accomplishes
▁spinal
hazards
▁singular
▁compositions
basic
▁halt
▁reissue
▁authorizations
facility
▁debrief
▁debriefing
▁trainers
▁educators
she
referencing
reference
▁reissued
▁summons
▁anytime
▁triggers
chemicals
misses
▁bleeding
▁blinding
▁everest
▁hexavalent
▁auger
▁cautious
maintained
▁assistant
▁spite
▁acgih
atmospheric
▁consciousness
plant
▁abated
▁blanking
fast
▁misunderstanding
reclassification
▁summarize
designated
switches
▁hired
▁facilitation
▁prerequisites
▁fpt
▁remodel
▁bios
affected
▁mid
1990
▁actuary
▁ibnr
▁actuarial
▁focusing
understood
▁multisystem
▁approximations
▁import
initiated
perhaps
▁envisaged
▁unstructured
▁progressively
▁examines
▁fds
▁thermophysical
▁bias
▁numerically
friendly
▁temperate
▁discrepancy
▁biased
reporting
discrete
▁weightings
▁obsolescence
▁discoveries
▁viewpoint
transition
▁garrick
▁dispersoids
▁smokes
▁stochastic
quantitative
▁scaling
firemodelsurvey
currently
hall
▁jr
▁transporters
▁536
za
▁foundry
▁2683
▁3261
▁crosslinked
pex
▁14501
▁george
▁carter
▁eb
▁1769
▁2227
▁kilo
▁mega
opd
indirect
▁wrenching
glycol
▁odorized
▁sniff
▁railcar
▁nonpassenger
▁volumetrically
▁bonnets
ºf
ºc
▁dt
▁boss
▁569
▁pilots
▁dehydrators
▁entrain
freezing
shielded
090
062
▁unload
▁vbp
▁mate
▁uncoupling
▁bulges
▁permeability
028
▁repiping
▁withstands
▁carburetor
zero
▁protrude
▁clutch
▁subimpoundment
▁sealable
scfm
▁waterfront
▁sunset
secured
▁2510
▁reactant
▁escalation
reserve
gates
▁berc
ri
▁2188
cgsb
esv
▁638
reflecting
▁reliquefaction
▁quiz
20689590
▁spotting
butane
▁perfectly
▁2140
2070
now
▁bad
▁requalify
1720
▁1943
▁4055
9815
▁179
▁205
▁torching
▁qc
▁1440
sp
cathodic
▁1897
▁1903
▁1904
▁1937
regulation
▁identifiers
▁60364
brackets
screw
terminals
leg
▁raintight
▁rainproof
rx
▁barbed
▁shovels
▁dredges
▁varnished
▁reidentified
▁amend
▁nonlighting
▁pos
▁neg
▁sunrooms
▁cupboards
permanently
▁rangetops
347
window
linear
▁noncoincident
▁nonbuilding
▁nonbridge
▁exteriors
▁goosenecks
supervised
busway
▁overfusing
▁nontamperable
▁rotationally
▁conductively
▁oblique
▁interposed
▁shoulders
▁dish
▁aquarium
▁hedge
▁clippers
▁mowers
▁coloring
▁rivet
▁yokes
1300
▁12½
▁unigrounded
▁boring
▁armors
▁372
▁374
▁overlapped
▁rho
▁rhh
▁zw
▁sleeving
▁2400
rdc
yc
rca
▁constants
td
▁stiffen
column
▁suffixes
boxes
▁hickeys
▁judges
shot
▁benders
▁studding
shield
▁fungus
▁threadable
▁concretetight
rigid
ferrous
nonferrous
▁convolutions
▁dairies
nonplasticized
▁prefinished
fmt
▁163
1987
header
continuous
concealable
▁joiners
▁linoleum
▁coincides
▁triplexed
corrected
triplexed
busbar
rail
▁486
▁plastered
▁wetness
▁absolutely
▁cleat
▁hpn
▁tpt
▁nisp
▁concentricity
▁eve
▁evje
▁nonpower
▁sc
▁sce
▁sct
▁seo
▁seoo
▁sj
▁sje
▁sjeo
▁sjeoo
▁sjt
▁sjto
▁sjtoo
▁soo
▁sto
▁stoo
▁sew
▁seow
▁seoow
▁sjew
▁sjeow
▁sjeoow
▁sjow
▁sjtw
▁sjtow
▁sjtoow
▁soow
▁stw
▁stow
▁stoow
▁ejector
slot
▁backfed
▁abrade
▁aiming
xi
xii
▁darkness
xiii
▁xiii
▁disposer
▁nonpolarized
▁noninsulating
▁stapling
▁pierce
motors
▁shortened
▁202
induction
vam
torque
armature
dual
▁torques
combination
▁deleteriously
▁braking
▁nontime
lcdi
capacitor
afci
▁lcdi
▁subtransient
▁kilovar
1992
▁jar
▁intertier
▁scatter
▁uncharged
▁explosibility
dust
▁1203
unclassified
1988
▁dyeing
▁stoppered
▁nos
▁glycidyl
▁uranium
▁ignitionproof
▁div
▁dehydrate
▁carbonize
factory
1493
▁1349
021
breaking
simulating
▁intercommunications
▁inductors
▁um
▁zener
▁mod
▁vapours
▁epls
▁gb
▁te
▁iad
▁unpierced
▁unfueled
mobile
▁delineating
▁wharfs
▁7620
▁6100
▁manipulated
▁robot
▁robots
▁handgun
anesthetizing
▁anodizing
▁couples
▁dispatched
▁electromedical
▁catheterization
▁sedation
▁97½
▁ncrp
capacitors
controls
pulling
patch
032
▁disappearing
▁stayed
bare
interlocking
recessed
▁scaffold
fers
▁animated
▁matting
▁noncarbon
▁subassembly
▁cleansing
asabe
▁ep
▁waterers
36½
coupler
▁towing
▁camper
▁vacation
▁embossed
▁anodized
▁alclad
subject
▁disposals
▁punched
▁cabinetry
▁sees
▁gxl
▁sgt
▁sgr
▁sxl
▁unbonded
▁606
sign
▁floodlights
1¾
016
▁gto
▁stiff
▁stalled
machine
▁wellway
▁overhauling
phev
evse
directional
overhead
▁hardiness
▁trus
▁burglary
▁synthesizers
momentary
▁radiographic
▁fluoroscopic
▁irradiation
▁detachable
▁inconvenient
▁overly
electrolytic
▁assemble
▁overlaid
▁wading
▁unpaved
▁subgrade
▁towel
▁sanitizer
▁682
▁aeration
▁tracker
multimode
▁combiners
▁multicrystalline
▁strings
▁capitalized
▁overcharged
▁buck
boost
▁61400
wind
▁nacelles
accidental
▁max
▁noncapacitive
▁kf
▁kff
▁paf
▁paff
▁pff
▁pgf
▁pgff
▁ptf
▁ptff
▁rfh
▁sff
▁zf
▁zff
▁aerially
plfa
foa
optical
nonconductive
▁1724
▁pacific
▁fuseless
strung
▁weaken
▁unpowered
fttp
▁logically
▁superseding
▁pays
▁dividends
▁deenergizing
▁contributor
administered
664
877
924
971
974
1298
1533
1816
2472
3284
3612
▁chromatography
2300
kv
▁gold
▁637
▁reclamation
accredited
▁1250
iti
cbema
▁687
▁morrison
▁80465
shib
943
1436
penn
literature
▁pat
▁beisert
schneider
us
enclosure
▁builds
gfp
▁subharmonics
▁unidirectional
▁amplitudes
▁inevitable
▁morale
▁diminishes
▁misapplication
▁forgotten
▁highlight
▁electro
▁superintendent
▁catastrophe
▁diminishing
▁fulfills
▁price
▁ferrules
▁serrated
▁jaws
rm
ohms
▁jumpered
▁strung
▁disruptions
▁economically
▁pcb
▁tetrachlorethylene
▁datasheet
▁escalate
▁blackouts
latch
fmea
▁wildlife
partial
thd
▁commutation
▁fifteenth
▁hum
▁opposition
▁erratically
▁rerouted
▁pts
modifications
▁localize
▁halved
▁intensifies
▁eutectic
▁avr
▁electromagnetically
▁manifests
▁notch
▁flickering
▁fourier
▁transform
fft
how
▁modulating
▁pq
▁megohms
index
▁crest
▁?
collar
▁laminations
▁acidic
▁atomic
▁filings
▁creep
block
▁string
▁baselines
▁kelvin
ohmmeter
▁askarels
aged
disk
▁dynes
▁darken
petroleum
comparison
▁hipot
tan
asds
▁antifriction
▁looked
▁sensation
▁nonoperation
▁coastal
▁interphase
▁crazing
▁soot
▁keepers
▁padlocking
▁absorbs
quenching
▁greenhouse
▁rotten
egg
pumping
▁boric
▁ni
cad
antimony
▁ripple
▁refinished
▁workbench
▁immense
▁fuseclips
▁nonlead
▁nonsegregated
fa
▁onaf
▁ofwf
▁deenergization
▁noticing
▁calibrations
▁preserving
▁relamp
▁254
▁misapplied
▁luminaries
▁shrinking
▁staggering
▁detergent
plane
▁aberrations
▁multimodule
▁logbook
▁ruin
▁prong
fmeca
▁awarded
▁inflict
▁mobilization
▁offsite
▁navigational
▁sizzling
▁louder
▁3001
▁3002
▁3003
trial
error
▁inefficiency
▁overlook
preliminary
▁purposeful
▁learners
try
▁encouragement
▁commenced
▁bibliography
▁entail
▁reprints
hinds
providence
▁njatc
1933
▁60076
preferably
▁tarpaulin
▁bung
▁fixing
▁maintainable
▁rac
rpn
sub
▁indenture
what
epact
898
applying
million
▁revealed
▁preventable
▁excerpted
▁unimportant
short
audits
retraining
▁syllabus
▁61010
▁interacts
▁escort
▁escorted
▁jewelry
▁metalized
▁survivable
▁nets
▁layered
▁socks
▁undergarments
▁acuity
aramid
▁zipper
1506
1959
▁laundering
▁handlines
physical
barricades
▁blasts
▁implanted
rays
▁pulsed
laser
▁diathermy
▁radiological
contact
▁778
▁lee
▁isc
▁4160
upstream
▁crawled
symmetrical
▁healing
▁bruises
▁pr
procedures
▁nonexhaustive
▁unanticipated
▁disciplinary
▁underlayer
▁pruners
utilities
▁cpr
▁whatsoever
structure
touch
▁friendliness
▁streamlined
▁deaf
▁straightforward
▁revises
▁985
▁1730
motel
▁tr
▁7731
gr
▁lata
909
▁multiplexing
▁retransmitting
▁bits
▁preselected
darr
▁subcomponents
▁annunciates
dart
▁acknowledgement
erf
faci
▁warden
▁gateway
▁transceivers
recording
rassr
▁nonalarm
▁obtains
▁refraction
▁supervises
▁emanating
▁wardens
▁conversation
▁transponder
298
▁uplink
▁prioritizing
▁wats
wats
311
nm
builts
▁nonerasable
▁archived
▁trickle
▁amplifying
interconnection
▁endpoints
▁keyboard
▁substantiation
peaked
▁equivalence
door
itd
ild
▁anatomical
▁doubling
▁sans
▁serif
circuits
idcs
▁disables
▁transceiver
▁nonlisted
tone
▁relinquishes
▁consoles
▁interoperability
▁dialers
▁restoral
▁nonrestored
aided
▁prearranged
▁grace
▁delinquencies
▁reestablish
▁colocated
alerting
▁shares
▁parity
▁certainty
receiver
receivers
ntia
▁unlicensed
▁interrogation
▁revert
▁polling
▁repetitions
▁crossarm
nonrechargeable
burglar
▁nonsupervised
▁keypad
joisted
▁listee
▁homeowner
▁expanses
eq
▁unwarranted
▁eccu
▁decibel
▁fn
▁707
▁mhz
▁visd
converted
▁overwhelming
▁intermediates
▁subpanel
▁nac
▁rooted
pair
▁hierarchical
stratification
▁energetic
▁agglomerate
filters
▁photocell
leq
▁bandwidths
▁tonal
interaural
▁ambiguities
nov
locsound
reflected
ms
▁observer
▁candelas
▁amber
▁epilepsy
▁lessens
▁super
▁squared
▁sleep
environments
▁login
▁attacked
▁mouth
satellite
▁carver
▁warfare
defense
asisonline
americanchemistry
▁resilience
▁vamcap
▁asset
▁wilmington
▁safeplace
safeplace
▁albuquerque
▁sandia
sandia
▁searches
▁multilingual
speaker
acoustically
▁attainable
talk
messages
▁congress
▁ramachandran
▁bryan
▁reconvened
▁intelligibly
▁cpg
▁sms
▁dod
pc
▁instinct
▁dialer
▁gprs
▁cdma
listen
located
▁immunity
hud
▁marty
smoldering
▁tel
▁shakers
▁waking
▁nih
▁householder
▁andres
▁fabian
▁htx
▁hrx
inside
indoor
lf
▁architecturally
5374
▁geometrical
tv
▁rejecting
▁quantifying
▁3210
▁grown
▁flatten
▁lags
▁cools
▁ascend
▁unconditioned
qc
431
vc
▁planar
▁molecule
▁joule
▁transmittance
▁iteratively
▁subscripts
▁stefan
boltzmann
▁ts
compartment
2604
dec
▁dinenno
▁evans
▁stroup
3167
▁rheinish
westfalischen
▁technischen
▁hochschule
▁aachen
mar
ntis
▁22151
2787
aug
▁sir
▁geoffrey
▁gravitational
▁proc
▁royal
▁bloomfield
▁brozovski
▁cote
▁tewarson
▁hollman
▁839
1630
▁21017
▁corp
▁kokkala
▁yamauchi
▁cleary
▁iafss
▁revisiting
▁aube
▁bjoerkman
▁5486
▁mowrer
▁244
▁newman
▁advances
▁drysdale
▁dougal
▁isbn
▁471
▁90613
▁donovan
▁kim
▁trc
▁interflam
▁883
892
▁gottuck
▁su
▁nrcc
▁6324
▁nfac
profile
▁nonprimary
▁switz
▁7240
▁tyson
▁supdet
▁scores
▁4870
▁barnett
▁knight
▁60849
▁sander
▁wijngaarden
▁verhave
▁6271
▁fran
▁oct
▁peter
▁vrms
▁consonants
▁ld
wa
▁spl
alert
▁syndrome
▁tandem
▁erica
audible
▁pictorials
▁comprehending
▁personalizing
▁comprehension
▁bilingual
am
▁broadcasts
rapid
smart
▁chronological
▁shooter
▁shots
ada
▁1779
oasis
▁02062
▁351
▁774
▁789
▁pumprooms
▁2100
▁20593
▁dvf
activation
▁benches
pw
▁538
▁4831
▁misting
▁demineralized
▁bill
▁927
1700
3300
dupper
▁‘
▁dk
nozzle
▁diom
model
tubing
▁legionella
▁augmentation
▁europe
▁polyether
▁luxury
▁couches
▁1165
2825
▁volatilities
▁aits
▁canola
▁·
vds
▁sils
▁markov
▁austrian
▁streamer
engineer
look
▁jib
▁1496
▁receptor
▁magnetically
▁taxiway
▁hovercraft
▁immune
▁taller
▁imaginary
▁placements
▁sandy
▁nonreflective
▁concave
▁analytically
catenary
faraday
▁resuming
▁maximized
cfc
▁crewed
▁unheeled
052
▁seacocks
hull
▁prism
pavement
combiner
▁mcov
virtual
5345
▁interception
masts
▁dormer
inhibiting
▁computes
▁holle
▁lcu
▁taxiing
5340
▁intercepted
▁rsm
centimeters
▁rm
▁picnic
▁herds
▁pastures
▁atmospherics
▁nd
▁rx
al
ce
▁pw
pz
▁lv
▁hilltops
▁5801
▁tabor
▁drxam
▁signalling
▁undertook
▁ufc
▁assemblage
▁bylaws
▁impersonation
▁badge
▁impersonate
▁disobey
▁defended
▁stead
▁rulings
▁precedent
▁claimed
▁appellant
▁aggrieved
▁equity
▁petition
▁reverses
▁disallowance
▁memorialized
▁plat
▁misrepresentation
▁misrepresent
▁falsify
▁engages
▁reinstated
hood
▁revocations
▁nonacceptance
▁mutilation
▁violates
▁560
▁ata
▁950
▁glebe
▁22203
4181
▁6083
▁nrfc
▁riverside
▁60606
5945
▁preston
▁2999
▁20195
0999
▁antitheft
iampo
▁001
print
aerodrome
▁hardstands
▁ethanol
distillation
lint
▁cottonseed
▁motes
▁1400
▁naked
▁unwrapped
▁revetted
▁nonaqueous
▁polymerized
▁electrolytes
nicad
▁adjudicating
▁citizenry
▁subway
kj
318
▁worthless
▁reprocessing
793
▁encapsulating
▁fermentation
▁counteracts
▁splinters
▁tars
▁scavenged
▁reactants
▁milligrams
impairing
▁subordinate
▁irritation
▁narcosis
▁unbaled
▁sawing
▁crosscutting
▁waterborne
▁contrivance
hpm
▁explodes
▁evolves
▁partitioned
▁detonate
sustained
▁repelling
▁defoliant
▁desiccant
▁competitive
rdps
▁rdps
▁sublimes
stp
▁carnival
▁nonmotorized
▁strandboard
▁endangerment
▁realistically
▁inoperability
▁negligence
occupant
▁maliciously
▁fraudulent
▁unfounded
▁misrepresents
▁stipulations
▁kindled
employing
▁discontinuance
▁discernible
▁vacancy
▁vines
▁acre
▁parade
▁mopeds
acm
▁netting
9150
▁patent
▁multifueled
▁smokestacks
▁innovations
windows
1829
6096
▁secures
▁endlocks
▁jambs
▁inflexible
▁kalamein
▁stretching
ons
▁xxx
gfire
hfor
▁deterred
fdc
comply
434
▁permittted
silenced
bportable
caccess
dportable
▁implementational
whmis
▁cautions
▁hydrotest
polar
▁earn
▁fullness
▁hefting
teardown
▁uncoiled
destructive
▁undergone
destruct
▁topping
overfill
▁repressurized
▁condemning
▁obliterate
▁365
▁advertise
▁doorknob
▁workrooms
▁releasable
▁toolhouse
▁shanty
▁commencing
▁incompleteness
▁intermix
▁announce
▁gliders
▁apiaries
▁bees
▁downed
▁deadwood
▁obstructs
▁firebreak
▁aerials
▁nonnegotiable
▁trespassed
▁vandalized
▁shuttles
▁setbacks
▁conflagrations
2270
▁compacting
▁yd
▁dumpster
▁5456
▁9¼
▁oilseeds
▁seeds
▁legumes
▁spices
▁museum
▁enlargement
▁aeronautical
departure
▁touchdown
▁liftoff
▁turrets
automobile
▁crankcases
▁fodders
▁contests
▁hauling
▁remover
▁raked
▁policed
▁hibachis
▁nonsmoking
▁imperiled
▁sinking
▁braziers
▁forested
▁transshipment
▁blacktop
▁barked
▁creeping
▁amply
▁dozers
pile
▁reclaim
2549
▁backings
377
▁pyrolitic
▁wetlands
▁plains
▁ravines
3540
7080
▁crumbs
reinforcement
absorbent
▁undermining
▁waxed
▁exhauster
▁sweepings
ibcs
ribc
▁ribc
fibc
▁ribcs
▁batches
▁diverter
▁detonator
▁thawing
▁reassessment
▁nonpermissible
▁uncleaned
▁nondesignated
▁clippings
▁unrolled
▁rag
▁proprietors
▁oxy
▁gatherings
▁demonstrators
▁pail
cincluding
▁hr
blended
submersible
▁reconciled
▁receipts
ullage
specify
4164
lighted
▁coaming
flight
▁amphibious
semiconductive
engaging
▁underwing
▁disengaging
▁dragged
▁reunite
▁servicer
treatment
regenerated
▁cigars
diversions
▁armed
arff
▁linger
▁defeats
▁nicks
▁ballooning
pull
▁defueled
▁precheck
▁shortly
apus
licensed
▁deboarded
▁deboard
oems
▁integrator
fsvim
fmvsss
▁gh
▁fmvss
0478
▁hammered
▁frontal
paint
▁deteriorations
▁strippable
▁dissipative
▁scrapings
▁recyclers
▁cobalt
▁accelerators
▁cured
▁quench
▁desolventized
00018
▁pavilions
027
▁batts
▁quarry
▁noncompliant
▁preprinted
▁charbroilers
thermostat
▁475
resealing
▁incinerate
▁tlv
vented
▁plum
▁pumpdown
ozone
▁abandon
bmeasured
cinside
dflammable
5204
gquantities
hmaximum
ja
kunless
lpermitted
mmaximum
nin
oadditional
qin
rcontaining
sallowed
tnone
uwith
jthe
lgas
mconversion
nthe
hthe
jstorage
0092
kgas
mthe
igas
jconversion
kthe
976
cquantities
cmaximum
dtoxic
544
832
▁pollutant
▁reportable
▁borne
▁er
▁neutralized
rcra
diagnose
diagnosis
▁tightfitting
consumer
▁shrouds
▁eighteen
323
▁balers
▁exceedences
▁semiconductors
▁incompatibles
▁corralling
▁unwelded
▁transfilling
▁inflatable
02832
mw
unprotected
▁ancilliary
▁trycock
▁noncryogenic
▁iapmo
lox
▁arts
▁audiotaping
▁reloading
net
fireworks
813
hinge
overheat
▁dustpans
743
▁pyrotechnical
abhr
▁viscosities
▁stokes
sva
attractiveness
▁revalidation
▁wines
▁casks
▁scuffboards
▁kerosine
▁258
ufc
▁delaminate
maqs
abetween
bfire
cfire
efor
ffor
▁preconnected
hereinafter
asite
bdistances
cwhen
dwhen
▁thickens
▁solidifies
▁emulsifying
ot
▁nonsolid
gallon
quart
mesh
1360
2725
▁antisiphoning
▁faucet
▁dams
▁reusable
▁producer
▁deformations
erected
▁appointing
checking
▁lineup
▁excavated
▁landfill
▁reconstructed
▁jacked
▁cribbing
▁lifter
▁repose
▁3750
▁spillways
▁undermine
▁blowback
assumes
▁ells
▁nonexposing
▁nonductile
▁resiliency
▁pipeways
accumulating
▁cutback
▁tides
trailer
disposal
trailers
▁hotplates
▁crystals
▁prills
▁enforcers
▁timeframe
▁guild
pgi
▁serveral
▁gel
▁aerated
jcibpc
▁baling
wakelyn
densely
▁harmonization
▁137
▁regression
▁frothing
▁retainable
▁platelet
▁kst
▁ixtle
▁wastepaper
▁feathers
▁cuttings
▁buffings
▁destroys
▁inanimate
ignitable
▁unopened
▁pellet
▁squibs
▁detonating
batf
▁instantaneously
▁pistols
▁canes
▁trick
▁noisemakers
▁0336
▁whistling
0335
▁salutes
▁firecrackers
▁expend
▁atomized
▁subcategories
▁etiological
▁hygienist
▁toxicologist
▁stel
704
▁initiator
▁ge
▁nichrome
▁bromated
▁trichloroisocyanuric
trichlor
▁encapsulates
▁breadth
▁attrition
▁updraft
▁humps
▁beakers
▁dictates
▁unto
▁selects
▁fork
▁suboccupancies
hotels
▁tangible
cohb
▁agreeing
▁misunderstandings
▁revisit
▁reconciles
▁limb
▁depart
detention
▁forbid
▁compliment
isd
▁addie
profit
▁apprenticeship
help
▁disclosures
epcra
caer
▁clery
▁nonregulatory
preheating
tos
nbc
ibc
▁nonrequirement
sbc
ubc
unp
▁verbatim
fis
▁crumble
▁waksman
▁continguous
1860
▁fund
▁sin
▁feedlines
▁endeavor
▁enacted
▁whmis
▁muscovite
▁monoammonium
▁squeezing
▁pictogram
▁impetus
▁evaporates
▁montreal
▁158
▁endeavoring
▁shortening
▁758
▁cad
▁cam
▁surveyed
▁earned
executed
▁rechargers
▁puncturing
2068
▁debatable
▁mistaking
▁artery
tailgate
▁volunteer
▁patrolled
watch
▁nonworking
▁noncombustibility
▁tarps
▁spanner
mitigated
mitigation
▁mapping
nonrated
▁rank
crown
flammables
decks
embers
▁mountainous
▁oceanic
garages
▁absentee
▁landowners
composition
impregnation
spanish
▁convex
▁multilayered
gutters
▁windward
paned
▁welcome
▁cushions
▁succulents
flammability
▁shrubs
▁conifers
▁undeveloped
▁furthermost
▁composting
mulch
landscaping
▁fbo
▁shade
▁frazier
children
▁hiking
▁mowing
vegetation
▁noninvasive
▁thriving
▁fertilizing
▁firedependent
▁adaptations
▁intensely
▁smolder
▁fireresistant
▁evergreen
▁twiggy
▁papery
▁landscapers
oily
▁nonresinous
▁leathery
▁foliage
▁ecosystem
cohen
▁understory
▁palapas
▁ramadas
▁snowstorm
▁obscuring
▁penalize
▁stenciling
5680
1499
5675
3780
▁6400
▁1268
994
▁grayson
▁assures
1870
▁corn
▁rice
▁milk
▁soybean
▁tortilla
▁chocolate
interior
▁propellers
▁claim
▁toilets
▁protein
▁bunsen
▁nonradioactive
▁donor
▁unfamiliarity
▁adzing
unsprinklered
▁herbicide
▁sterilizer
▁grubbed
▁haulage
▁stickered
▁preparations
extinguishment
vehicles
veneer
spread
▁aliphatic
sugar
▁debarked
▁cambium
▁bacterial
▁declare
▁uninvolved
▁curtail
▁incrementally
results
▁rekindling
▁reopening
▁rekindles
prefire
▁britton
▁mie
▁mies
▁ebadat
▁mulligan
▁inasmuch
▁squads
▁interdepartmental
▁interplant
▁cooperating
rust
▁worsens
▁cutter
▁ignorant
▁donned
▁woolen
▁lodge
▁buttoned
frayed
▁trajectory
▁pen
figurea
▁sweating
▁realizes
▁refuelers
▁multihole
▁bachman
▁dukek
▁coalescer
▁jp
airport
airborne
▁radomes
▁atop
▁avgas
▁mogas
▁overlying
▁halted
▁backfire
▁unintentionally
▁flap
▁sacks
▁decontaminated
falling
primarily
▁refueler
▁chamois
fleet
▁3610
▁midway
▁indoctrination
▁acquainted
▁diffuses
▁anoxia
asphyxiation
▁halogens
▁asphyxia
cryogenic
▁freezes
▁embrittle
▁ngv
nvg
ngv
▁copious
▁counterdraft
locations
▁electrification
▁dehumidified
▁recalculation
▁equipping
▁preheat
▁changers
regardless
▁concentrators
▁nonfreeze
▁flashback
▁unextinguished
▁fragile
▁softened
▁sintered
flickering
involved
▁autumn
▁disappointing
airflow
▁predetermining
▁peeled
▁rubbed
▁unclean
▁hypochlorites
▁stains
▁stricter
trichloroethane
▁methylene
▁photochemically
documented
▁unpredictable
▁fireball
▁unpredictability
condensation
▁assuredly
▁pressurizable
▁flowrate
▁initiators
▁monomers
▁catalyze
harden
tiered
▁amines
▁cure
▁dyes
▁admixtures
▁chopped
▁gelcoat
▁habits
▁cooked
▁lunches
▁woks
▁tilting
▁braising
078
3175
▁investigates
▁reacting
▁conformed
▁classifiers
▁virgin
▁rinsing
▁558
▁aerosolized
421
▁gasify
▁massive
▁oxidants
▁dimensioned
▁multimodal
flatcar
▁5803
▁repackagers
▁nasa
nss
▁implausible
▁courtyards
▁cryogens
▁cautioning
▁willful
▁po
▁30438
▁20824
▁corrosivity
▁anecdotes
▁2214
▁thermite
▁quartzitic
bleed
▁spool
▁feedwater
▁cns
▁es
cns
lps
▁dy
▁ee
▁ibc
diverting
▁diligently
growth
bin
cthe
bungs
threading
▁voiding
▁polymers
▁stalls
▁cultured
▁1866
▁photoresist
▁softbaking
▁commonplace
fda
▁gmp
▁isopropyl
ipa
mentioned
▁hypergolic
826
▁supersonic
detonation
▁crystallization
▁encourages
▁hampers
▁2610
▁fisher
▁houser
▁plgs
▁unpiloted
lying
▁fostering
moderated
▁nevertheless
▁manipulate
▁maneuver
rich
▁nonignitible
▁potent
downspouts
bcan
▁onshore
eunder
funder
▁detonated
▁tnt
▁nitroglycerine
▁deflagrated
▁dichloroborane
unstabilized
▁camphor
▁naphthalene
▁heptasulfide
▁sesquisulfide
▁chlorates
▁chromates
▁sulfonyl
▁fulfonyl
▁peroxyacetate
▁peroxyisopropylcarbonate
▁peroxybenzoate
ethylhex
anoate
▁peroxyisobutyrate
▁peroxyisopropyl
▁peroxypivalate
▁dybenz
oyl
trimethyecyclohexane
ethythexyl
dymethyl
benzoylperoxy
▁sulfonal
▁butylbenzylphthalate
▁cumene
butylcyclohexyl
ethytehexanoate
▁peroxyneodecanoate
▁decanoyl
dichlorobenzoyl
ethylhexanolyperoxy
hexane
▁butylphthalate
ethylhexanoate
▁decumyl
ethylhexal
▁laurel
methane
pentanedione
▁triethyl
▁etherate
▁bismuthine
▁gallium
▁hafnium
▁rubidium
▁dinitrobenzene
▁picric
▁trinitrobenzene
▁hydroxylamine
▁nitromethane
▁paranitroaniline
▁tetrafluoroethylene
▁hydrazine
▁methacrylic
▁paraldehyde
▁tetrahydrofuran
▁alkyls
▁triethylaluminum
▁isobutylaluminum
▁trimethylaluminum
▁pentafluoride
▁chlorodiethylaluminium
▁diethylzinc
▁methyldichlorosilane
▁trichlorosilane
▁anhydride
▁monochloride
▁cryogenics
▁deuterium
chloroethanol
▁chlorohydrin
▁hydazine
▁hydrocyanic
methylaziridine
propylenimine
methyllactonitrile
acetone
▁cyanohydrin
▁isocyanic
methyl
▁isocyanate
▁nicotine
▁tetraethylstannane
tetraethyl
acetato
▁phenylmercury
aminopyridine
▁pentoxide
choloroacetophenone
▁aflatoxin
▁parathion
▁azide
▁trichloride
▁alpha
chlorotoluene
▁aniline
epoxypropane
▁chloroformic
chloropropene
cresol
▁crotonaldehyde
▁dibromomethane
▁diisopropylamine
furaldehyde
furfural
▁furfuryl
▁phosphoryl
phosphorus
▁oxychloride
▁thionyl
▁acrylamide
▁benzidine
benzoquinone
▁chloroacetic
▁chlorophenylmercury
dinitrotoluene
▁hydroquinone
calomel
▁osmium
▁oxalic
▁phenol
phenylenediamine
▁phenylhydrazine
phenylmorpholine
▁formic
muriatic
alkalis
▁carbonates
▁carcinogens
reactions
▁antiseptic
▁bleach
▁incidentally
▁mammalian
▁rabbit
▁guinea
▁pig
▁monkey
▁nth
▁755
▁contentions
▁heptahydrate
▁dicholorisocyanurate
tcca
bcdmh
▁alphabetical
▁hoac
▁liberation
▁bp
ao
▁powdered
cas
▁sic
▁dunn
▁bradstreet
▁countersignature
▁arterial
▁frontage
▁ord
▁enact
▁mailings
5991
cma
▁61241
▁csfm
▁1131
▁sacramento
▁95811
▁20591
▁icao
▁999
▁montréal
▁quebec
▁icaohq
icao
im
▁74101
2380
▁tb
▁oakwood
▁zurich
▁60047
▁webfeedback
853
bachman
▁dudek
▁superjets
▁exxon
▁brochure
▁linden
britton
boca
crc
fisher
houser
nasa
▁nss
oilheat
▁wakelyn
▁183
▁ginners
▁anthony
▁mayfield
▁editors
▁287
fpa
▁853
farm
▁meister
▁willoughby
introduction
▁6206
sc
▁notable
▁pamphlet
1916
1918
▁deliberations
▁1938
▁cocoanut
▁492
▁stimulated
lasalle
▁canfield
▁dubuque
▁winecoff
▁drafted
edit
editing
▁1948
▁factions
▁subcommittees
▁splitting
adaag
▁interspersed
▁reformated
▁hyphen
▁renumbered
▁reformatting
▁sacrificing
▁delete
▁homelike
essentially
▁telescope
▁births
▁uncomplicated
▁pregnancies
▁midwifery
▁pregnancy
▁postpartum
▁heterogeneous
▁flameout
▁excites
▁atoms
921
emittance
▁weatherometer
▁devoid
▁belaying
▁withstood
spectator
spectators
▁observes
▁pretesting
▁crawling
heath
▁tackable
constructed
infill
▁stretched
▁impassable
▁unavailability
▁reapproval
▁bhma
2745
▁fares
pad
▁prorated
▁10½
▁beveling
▁adjoins
▁patterned
▁6¼
▁luminescence
▁millicandelas
▁dim
▁dampered
platform
7320
▁curving
▁suport
▁firefighters
▁hra
aastm
00064516
lowest
▁pierced
▁1532
▁thickwood
▁stockrooms
▁pictograph
▁carpetlike
▁1315
▁moor
▁mainland
separated
▁immobile
▁streetcars
▁barge
ewhere
▁unrated
events
constrained
▁deeme
▁counterforce
▁waterspray
dpermitted
▁223
▁newborn
1390
▁quipped
1090
▁cellar
▁gurney
▁unfeasible
1394
▁rubish
▁lessshall
aentire
ns
amight
bmight
ctravel
dtotal
▁reachable
▁nonresident
eany
▁permited
▁daycare
▁sorting
▁ordinaryhazard
▁hardship
▁strengthening
945
conformity
▁coauthored
▁rehabilitated
3600
▁crowdsafety
▁endeavors
▁hardships
▁implicit
proposed
▁unnamed
▁postures
▁visited
▁uncompartmented
integrity
▁childbearing
▁mothers
▁babies
▁unfoamed
▁monomeric
▁precursors
prepolymer
▁plasticizers
▁colorants
▁stabilizers
▁surfactants
▁pigments
timed
translation
persons
▁adjective
luminescent
▁lecturers
▁wrestling
grand
▁dances
▁conventions
▁bona
▁fide
▁tritium
ergonomics
▁endsley
▁unfortunate
restrained
▁disproportionate
▁literally
▁baluster
▁australian
▁rodent
▁hcn
▁toxicants
▁gann
▁proceeded
▁nonlethal
▁nonincapacitating
▁numerator
concentration
convected
▁incapacitating
▁recruitment
▁discernment
▁olfactory
▁emanations
▁instinctive
▁wayfinding
▁metabolism
▁lung
▁pulmonary
▁allergies
asleep
react
▁gender
▁interrelations
assessment
objectives
▁querying
modeling
▁computationally
behavioral
tenability
▁automate
verification
▁math
▁peers
models
▁novices
▁versed
▁nuances
pooled
▁overabundance
▁nonhermetically
▁pyrolysis
unitless
▁belief
▁inaccuracies
▁translates
▁templer
thereby
escalators
▁bottleneck
940
▁procure
▁constraining
consistency
▁underfoot
▁underlayment
▁uncompressed
▁heightens
▁overstepping
▁misstep
▁crouches
described
▁unavoidably
▁heighten
▁monumental
▁1015
735
▁1170
▁940
▁comfortable
▁slid
▁encountering
fixing
according
handrails
▁excesses
perimeter
▁wraps
▁climbability
▁1166
1170
▁widening
▁swung
▁pace
815
▁subdivides
▁onerous
▁trading
bdead
gsee
hthis
isee
jsee
ksee
lsee
msee
nsee
osee
path
photoluminescent
▁deplete
▁regain
confirm
usable
▁guesswork
▁seventy
▁breath
▁engulfed
▁oeo
▁obviating
shunt
▁quantifiably
▁leapfrog
▁wafers
▁maintence
live
venue
▁reliant
▁conceptually
▁unlabeled
▁corresponded
▁nfsir
srm
▁1196
▁monument
having
▁evacuee
▁choreography
▁spotters
▁tradeshows
▁chaining
▁radiology
labeled
▁tobe
▁invented
▁exerting
▁burnouts
characteristic
fan
dashed
▁tax
cooking
▁cyclical
▁geriatric
▁degenerative
▁diseases
▁hospitalization
▁noncorridor
▁nonpassageway
▁subsets
▁pictographs
waksman
withdrawn
nistir
▁resna
▁1540
▁arlingtron
lee
▁pineda
australian
▁dd
▁peacock
▁toxicological
olenick
templer
freeman
▁1889
▁xxi
groner
615
▁5443
levin
seigel
▁nbsir
provincial
▁resolves
boots
▁perpetrated
▁comprehend
▁empowering
▁compose
▁legislative
▁promulgating
▁decimals
▁evaluators
▁evolving
▁rulers
▁photography
he
▁verb
▁riverfront
▁mountainside
▁oversight
▁professionally
▁supposition
▁frustrating
▁unambiguous
▁periodicals
▁catalogued
▁cooperatively
▁alleged
▁violator
▁fiscal
▁mentor
▁versatile
▁crafting
▁ethical
booster
▁calculators
requisite
employment
▁colleges
succession
▁pathing
conducts
inspects
▁integrates
recommends
establishes
▁obtainment
▁finance
▁tactfully
▁authenticates
▁ignitability
▁1002
▁1003
▁1051
▁1061
▁1143
▁1150
▁1402
▁414
▁473
▁1401
▁1403
▁evolutions
▁1404
▁1405
▁1410
▁1582
▁1583
▁uniforms
rose
boyatzis
castle
▁exemplar
cetron
toole
▁encounters
▁century
elkin
furnham
gilley
▁eggland
▁addison
wesley
hooton
▁unpublished
▁manuscript
▁vanderbilt
▁peabody
▁nashville
▁suhadolnik
▁spaceship
interscience
naisbitt
▁megatrends
▁nightingale
conant
spellman
doctoral
springer
▁astd
▁invitational
▁seminar
november
▁madison
▁wi
tracey
▁amacom
school
▁diploma
▁thermometry
▁kinetics
layering
gathering
▁reconstruct
▁defeated
▁photographing
▁photographically
taking
contamination
exclusionary
▁supportive
▁interviewed
▁pros
▁cons
▁elicited
▁deductive
▁transcripts
▁conflictive
▁authentic
▁admissible
▁deeds
▁videos
▁cpa
▁polygraph
▁networking
▁motives
▁matrixing
▁assimilation
▁expresses
▁allotment
▁testify
▁attire
▁etiquette
▁elementary
document
▁canine
▁microscopes
▁broom
stated
▁arrests
▁trespass
▁invasion
▁libel
▁slander
▁punitive
▁attorney
▁privilege
▁iaai
▁propped
▁860
remember
regional
▁proposing
▁cranks
▁restructure
▁introductory
▁rephrased
▁parallels
▁consolidates
shall
spark
withdrawal
nonelectric
▁antishock
▁flip
▁antivibration
▁mounts
▁itemized
cv
▁cv
▁exerciser
▁reactivates
▁silences
▁recycles
aeration
▁silencer
▁amortisseur
hunt
▁harmless
damaging
▁bibs
▁reenter
▁turbocharger
draining
▁ell
negative
▁picks
▁overcrank
▁mortality
authority
▁certifier
▁arctic
flywheel
▁oversizing
ultra
ulsd
cranking
▁parasitic
▁underfrequency
▁sabotage
semicritical
▁ullage
▁oxidative
▁mercaptide
appendages
▁approximating
rmot
▁standoff
dirt
▁grime
▁resupply
quarterly
add
▁conshocken
▁nhc
▁11691
▁33165
2149
sea
▁subcommittee
formally
▁absolve
▁oxyhydroxide
▁transformations
central
li
tool
▁eces
▁noncondensing
▁resupplying
shedding
▁unity
▁regreased
▁deviance
calcium
pure
cathode
▁vfd
vfi
▁vfi
halide
▁vanadium
▁redox
▁polysulphide
▁anticondensation
ocpds
▁immeasurable
▁gassing
▁uninterruptable
▁944
tentative
▁1902
▁1908
▁1916
▁1924
▁refinements
▁centennial
▁reorganize
▁editorially
▁reworded
▁reorganizing
aut
▁abbreviations
▁institue
▁795
columbium
▁06625
silicon
▁06219
▁th
575
▁bathing
▁irregularities
▁lumps
▁indentations
▁rotational
nonflowing
▁multicycle
overs
▁sheeting
foamed
▁smothering
▁pellets
▁razor
▁windshields
▁driveline
▁donnage
▁oppose
▁nonreinforcement
copolymer
▁alphabetic
painted
▁ripples
▁distortions
internally
▁buttwelded
groove
fillet
▁dimensionally
▁bores
wrench
priming
▁reseat
rupture
▁outflow
▁circulatory
▁cornices
dryer
▁extractors
▁counterpart
▁nongalvanized
▁skylight
stopped
numbered
occupancies
▁locatd
sprig
nonfire
▁accessibly
crr
▁autospkr
▁spkr
▁articulating
341
▁predrilled
▁punching
▁sidefeed
▁weakest
fpw
▁cpwp
wp
bolted
▁polybutylene
footers
▁sleeved
▁skidded
▁quicksand
▁downhill
▁uphill
▁leaner
▁setscrew
▁canted
▁puddled
gph
▁csma
unstable
slave
unexpanded
bwater
dinstall
eface
fin
nonexpanded
2835
bsprinkler
csystem
dmaximum
▁veneered
plywood
▁slanted
▁totes
1372
▁backstops
cmda
▁sprinker
▁recyclables
pressures
▁trainways
▁lends
▁bents
▁stringer
▁embracing
2325
▁tuberculation
▁lagging
skirt
▁postindicator
reactor
approaching
▁foamwater
altitudes
▁crusher
takeup
▁takeup
▁weirs
multi
907
▁equidistant
▁semiexponential
liters
▁reynold
▁washrooms
▁subtracting
▁nondirectional
▁flume
▁appended
▁heaving
turned
▁expended
▁backflowing
▁nonreturn
▁shorewater
▁dockside
▁fireboat
raw
▁aquifers
▁plunging
▁laminar
legs
▁unfilled
▁hyperbolic
▁paraboloids
▁stationery
▁newspapers
sponsored
▁tote
▁banding
▁nonplastic
▁tended
▁deform
laminated
▁untiered
▁tiering
▁inks
▁compounding
▁vulcanizing
▁picking
▁garnetting
▁carding
▁synthetics
▁shoddy
▁upholstering
▁saturating
▁quenching
▁alphabetized
▁unmodified
▁25½
▁30½
▁ssu
▁ssp
sprinklerworld
▁invite
▁marketed
▁cello
▁contemplating
▁jeopardy
affecting
▁contoured
od
0315
▁nest
hads
▁noninterlocking
▁tenting
sv
dl
dh
vec
▁precharged
▁overpower
▁notwithstanding
▁indented
2323
▁finalizing
▁parcels
▁planter
▁headway
▁nullify
▁browsing
▁minerals
▁crate
▁honeycomb
▁sideways
soldered
continual
▁spindle
▁functioned
post
▁bleacheries
▁pens
▁nonpotable
▁shrubbery
▁moduli
▁axially
along
▁craftsmanship
displacement
▁usgs
drains
▁displacements
▁midspan
nonstructural
bracing
▁steadies
braces
▁coned
▁pacing
examination
▁nonprestressed
id
▁footers
unrestrained
▁wyes
cemented
973
▁proctor
ab
▁balances
polybutylene
▁protrusion
▁extrusion
098
▁rtis
oh
▁2535
▁1365
vs
▁658
just
▁bigger
▁sheer
▁updrafts
▁highlights
conclusions
▁softwood
▁chep
▁greeting
satisfied
▁moot
nine
▁meat
▁underprotecting
▁extrapolations
srr
▁srr
drr
mrr
▁mrr
▁seventeen
▁143
▁341
▁coalition
preparation
▁outbreak
▁drippings
▁denser
▁tiny
▁creeps
▁transload
▁crisscross
ties
▁overtaxing
▁sheltered
▁hepa
▁ulpa
▁ferric
▁pitches
▁workings
msha
▁concludes
▁favors
▁domain
▁suppressability
▁filmforming
▁butts
cos
▁biofilm
▁fluctuate
▁arranging
referring
pi
pf
▁189
cprimarily
ddepends
▁outfit
▁stateroom
▁overrun
▁takedown
▁tahoe
▁seaway
▁avert
voyage
▁voyage
▁staterooms
▁unsheathed
prudent
expect
▁adversity
piped
conservatism
assess
▁1732
challenging
▁1113
1123
▁22476
proceedings
▁hasemi
ed
▁hallmark
▁conceivably
▁rhode
1814
▁approximates
▁929
▁109
▁113
▁112
▁slated
069
▁spacesaver
▁classic
containers
▁ster
zoi
▁moments
sd
▁hardening
elastic
permissible
▁populate
▁2860
mmax
pl
▁seismicity
▁1634
▁acpa
▁collinas
▁boulevard
▁641
▁irving
▁75039
▁wacker
1802
▁603
gasket
▁shouldered
▁dipra
▁riverchase
▁parkway
▁35244
▁3412
▁hillview
▁palo
▁alto
▁94304
▁1011
1012
accelerators
▁exhausters
▁1042
vane
▁1045
▁1130
▁nrs
▁1210
▁1362
▁1610
▁1613
▁1631
▁anechoic
▁1636
▁2311
▁nfsa
▁patterson
▁12563
▁sname
▁pavonia
▁07306
commodity
fact
▁1091
▁1285
▁1468
▁1474
▁1626
▁1739
▁1767
suppression
▁1821
▁2443
▁2655
▁villa
▁dallas
▁75234
▁governments
▁fairfax
1560
agma
▁doral
▁emulsifiers
▁permeable
▁strata
aquifer
▁imparted
▁interfered
▁teeth
▁packager
▁revolution
steam
▁graduations
▁situ
lifting
▁nonhydraulically
▁replenish
peripheral
7570
sands
▁gravels
▁stratum
sleeve
enclosing
strong
grained
▁prints
▁millimeter
▁hang
▁reassembling
▁cleanable
▁pinions
▁excepting
▁gen
373
tenv
▁nonthermal
individually
nonelectrical
▁retransferred
▁annunciating
▁ramping
▁accumulators
▁recranking
▁liters
▁unreadable
▁turbochargers
▁brickwork
nonautomatic
▁nonsilenced
every
▁superheat
▁warmup
amp
▁ouput
nameplate
▁retests
pounds
kilograms
807
▁upsets
campus
▁suctions
▁antifouling
▁boosts
hammer
holes
differentiation
▁staying
showing
▁realignment
▁rechecked
▁leveling
▁dowelled
▁seasoning
▁springing
▁distorting
▁swamps
▁hydrology
▁geology
cored
▁smoothness
excessive
▁xyz
987
▁viscose
▁foamy
▁undertakings
▁infallible
▁deem
cps
▁rbd
▁withstandability
operate
vsds
▁overshooting
1349
▁tugged
▁aftercoolers
contributing
prevailing
▁pint
634
▁nonmechanical
▁pour
▁waterfree
supervising
▁setpoint
▁leaktight
▁deranged
▁condenser
▁brackish
▁uncalibrated
▁inaccurately
overspeed
▁rotodynamic
centrifugal
1348
▁underperforming
▁magnetizing
▁fla
437
usb
standardization
▁commonality
▁interrogate
▁encode
▁encrypt
▁hexadecimal
▁digit
▁00
software
gms
▁extant
▁billion
▁nonroutable
pan
▁bluetooth
▁zigbee
▁rfid
▁router
▁lonworks
computers
▁fpc
corporation
inadvertent
willful
▁usp
▁wifi
microprocessors
usp
laptop
memory
▁infect
remotely
mainly
lans
corporate
▁scanned
laptops
▁trojan
▁horses
▁masquerade
spoofing
▁negates
firmware
▁faux
▁attackers
▁curiosity
hackers
▁commit
▁blackmail
▁reprisal
disgruntled
▁enemies
▁terrorists
▁competitor
needs
ssl
▁gms
▁tcp
identify
bfour
dtwo
ethree
▁associationr
2018
▁1914
▁1941
friendliness
▁38800
▁48331
3439
▁randolph
▁cra
fusion
nps
wrought
751
1183
▁preformed
nonextruding
2261
▁tearing
▁tongue
▁rip
constant
▁awpa
▁361784
▁35236
1784
6672
▁addendum
▁tendon
prestressed
▁nwti
▁5500
nwti
▁15222
4656
dtl
6396
bladder
▁trestle
▁spirit
roundness
▁unsightly
7849
2307
▁sloshing
▁finial
▁occlude
757
▁lime
▁faying
▁ted
pedestal
▁preprimed
▁distributes
▁stamps
▁obliterating
▁stam
▁ped
▁bears
▁knuckle
disc
seasoned
▁sap
▁unsound
▁cypress
▁timbers
▁pocketed
planed
▁sawed
▁finger
▁ply
▁shiplap
▁laps
050
▁spiked
607
▁crosswise
▁crossbeams
▁polygonal
▁gradation
▁juncture
▁underlaid
▁telltale
fabric
▁1892
▁topped
▁surcharge
▁chamfered
▁borings
▁subsidence
▁underrun
▁1018
▁1025
▁rougher
▁torus
▁backer
▁starred
▁headed
▁constituent
▁concentrically
▁battered
▁frustums
▁sheared
▁straightening
▁grillages
▁stiffness
▁buckles
▁609
▁noncracking
▁noncorrodable
flanged
▁unavoidable
▁elevates
▁wicking
▁rapeseed
▁saucer
548
▁admittance
▁scrapers
▁liberal
▁litharge
▁lapping
blocated
cimmersed
▁poorer
▁waterlines
▁siphoning
▁conserve
recirculating
recirculation
▁triplicate
▁holidays
▁suds
▁linseed
▁rewelding
▁watertightness
▁factored
fifths
▁instal
dimensions
▁fore
▁tamping
▁calcareous
▁granite
▁sandstone
▁trowelled
ordinarily
▁unobserved
diagonal
wooden
▁lengthened
noncombustible
▁strengthen
▁forfeits
▁amalgamated
drain
▁waterpipe
▁upkeep
▁stronger
▁sewing
▁polystyr
▁ene
repellent
▁injector
heaters
dland
▁stipulates
requirements
▁refine
1911
dcva
folded
reaching
rpba
restore
▁fix
▁drowning
▁rubberized
▁coverplates
▁semicontinuous
annually
▁refractometer
▁diethylene
▁2022
▁pharmacopeia
▁oscillated
▁greased
▁silencers
▁turbos
jacket
▁weeping
hatch
sponge
escf
uhswss
samples
▁refractometric
records
pivs
▁torsion
repaired
quick
nitrogen
▁rationing
▁restores
diligence
▁pictured
temporarily
good
▁coarser
balancing
▁proportioners
▁flushout
remedies
needed
classifications
sharp
substandard
▁subnormal
▁instrumental
fundamental
▁transitioning
fsfr
failures
nf
concurrence
koffel
msdss
lightly
nonroutine
functionality
▁isothermal
christmas
▁hrr
▁multizone
▁wouldn
▁isn
▁won
across
reduced
▁imparts
improperly
modern
subsequently
foundation
decisions
excessively
repositioning
naturally
scheduled
▁baseplate
realignment
▁reinspected
adjustment
instruments
▁bourdon
ammeters
plotted
couplings
▁relubricating
too
▁churning
plates
▁arid
steps
allow
otherwise
▁particulars
▁misdirected
▁miss
▁desensitized
▁dislocated
▁clutches
damage
routine
▁siphonage
right
▁henry
▁pratt
nonrising
curb
▁stuck
▁deterrent
▁indiscriminately
▁superiors
being
▁jammed
concurrent
▁stopwatches
▁steadily
readings
adjustable
nonadjustable
▁pinpointing
ready
▁undiscovered
reports
▁translate
authorities
▁legitimately
nfsa
firesprinkler
▁timelines
placing
consult
shut
▁binds
align
tighten
lubricate
instances
wrong
▁propensities
▁buckets
▁sucked
coarse
biological
▁asiatic
▁clam
▁larval
originally
▁asia
river
▁infested
▁tennessee
▁carolina
▁altamaha
georgia
washington
mendota
california
▁freshwaters
▁hardness
▁texas
▁colorado
ph
parting
▁intergranular
▁exacerbates
pits
▁anodic
▁stagnant
crevice
▁dezincification
▁unstabilized
▁gullies
▁valleys
▁embrittlement
▁integranular
▁alloying
▁growths
▁colonies
▁formers
depositing
blacker
confirmation
▁morphology
▁striations
▁repainting
investigate
burlap
flood
slowly
perform
▁dredging
▁larvae
▁chlorines
▁jetting
▁pigging
▁sonic
▁backwashing
▁spawning
▁veligers
▁chlorination
▁nonselective
▁poison
▁pretreated
▁rodding
successful
hydrostatic
painting
equip
▁hammering
repeat
▁snapped
outlets
▁flushings
▁circled
▁southeast
▁quadrant
▁northeast
▁northwest
▁northward
▁eastward
flushing
▁colorfast
thought
▁succeed
▁unanswered
▁sylvan
society
▁genesis
nibs
▁conglomeration
commissioned
▁useable
▁oversees
fcx
▁reverifying
reproducible
stakeholders
roles
▁interactively
▁researching
▁812
accept
participate
inform
▁deliverable
▁delegating
delegation
▁prebid
▁emphasizing
certify
▁timeframes
warranty
▁expansions
remodels
editions
learned
completed
additions
▁recommission
modify
assumed
members
▁disputes
governmental
individuals
discussions
laws
▁finalizes
build
develops
▁interpretative
▁prefunctional
verbal
european
cenelec
▁marnix
▁brussels
▁12845
▁corrigendum
▁nibs
▁1090
▁vermont
4905
▁gpo
sydney
▁nsw
▁2665
▁4528
▁chemists
▁incorporation
▁earnest
background
csb
▁misjudging
▁myriad
change
dedication
▁tragedies
▁3141
▁fairview
▁777
▁22042
prevention
government
affairs
positionstatements
conf
▁oakton
▁des
▁plaines
▁60018
▁cdc
▁clifton
▁30333
▁mary
▁axe
bh
▁guidebook
▁1026
1521
▁vocs
1561
rel
illness
▁engulfing
▁asphyxiated
▁tapers
1026
sop
voc
▁sublimate
▁nonfacility
▁uneventful
preplan
▁reassessing
▁nonrelated
sparking
▁purifying
▁apparatuses
freed
▁abating
▁consume
▁enrich
▁projectile
▁airlines
was
▁stab
slick
▁strangulation
▁funneling
▁uel
upper
▁mucous
▁dissolve
▁drink
▁systemic
▁kidneys
▁liver
▁seaweed
▁muriatic
▁lye
▁evaporating
oxidation
▁molasses
acute
chronic
▁bites
▁stings
▁snakes
▁pathogens
▁molds
▁sampled
▁claustrophobic
▁hyperventilate
▁uncomfortable
▁reiterative
▁hampered
tag
▁forecasted
▁sdss
▁sds
▁nongaseous
▁zeroed
▁unidentified
nh
▁benzene
▁pid
▁isobutylene
mdl
▁mdl
▁mdls
past
▁bellow
contaminant
▁impingers
▁canisters
▁aspirated
▁identically
▁calibrates
▁pentane
▁gone
logging
▁downloaded
▁lpm
▁nonetheless
downwind
▁652
▁scbas
▁sourced
▁helmets
▁chisels
▁cutters
▁decommissioning
▁antiknock
▁2207
▁inspects
▁arrestors
▁mechanized
earthing
▁staked
▁agitating
explosionproof
▁nonbonded
nongrounded
belay
▁lanyard
▁nonslip
▁slippery
▁duck
▁cyalume
▁lit
▁extermination
▁dilutes
localized
▁mec
▁pels
▁rels
▁tlvs
▁stratified
diffusing
progress
wristlets
▁anklets
▁configuring
entrant
▁versatility
▁entangle
▁forgo
▁yes
▁rig
▁spine
▁paralysis
▁evoking
▁incapacitate
▁downgrade
sops
▁auditor
▁dummies
command
▁sop
adjacent
medical
▁carabiners
▁tackle
▁davit
▁hardwire
bls
als
▁backboards
▁litters
▁halting
▁nonatmospheric
▁expires
▁initialing
▁cordoned
▁obligation
▁apprised
▁deviating
▁qualifiers
uncontaminated
▁bottled
▁debriefed
miss
referenced
▁claustrophobia
▁mitgated
▁crossroads
gps
▁changeable
▁asphyxiating
▁roster
intensive
▁collaborate
▁coinciding
▁ehs
▁enlarging
slippery
▁jha
▁outsource
035
hg
▁caissons
▁shortcoming
nonflammable
▁potash
▁chlordane
▁aldrin
▁hideouts
▁skunks
▁raccoons
▁breathe
▁nonexplosive
▁expunge
▁dispersement
reach
ach
▁continuance
▁sulphide
▁complaining
▁numbness
talking
▁coherently
▁disoriented
▁nonresponsive
immediately
▁worsened
▁orchestrated
▁disregard
▁fellow
▁whoever
▁watching
duties
▁barricading
explosion
earthed
▁infraction
▁arranges
▁disbursed
▁misaligning
▁manning
▁reclassifications
▁young
corbett
▁1330
▁meadow
▁cincinnati
▁45240
1634
threshold
▁rexdale
cdc
▁spells
▁comissioning
plans
published
▁documentations
▁8½
▁disagree
▁controversial
▁opr
▁multidisciplinary
▁cxa
▁fcxa
entities
rather
▁orchestrating
executive
▁incompatibilities
▁enhancements
▁intangibles
▁acreage
bornhuetter
▁casualty
▁characterizes
▁trials
▁undesired
▁investors
▁exemplified
structures
▁monuments
heritage
radiant
obscuration
overpressure
subjective
▁implicitly
▁captures
▁elaboration
yet
▁inputted
▁defaults
▁brainstorming
▁doesn
▁implication
▁enumeration
▁intuitively
▁heuristic
▁arithmetic
▁determinant
▁bornhuetter
▁hypothetical
▁cubes
▁cfast
▁jasmine
▁solver
▁judicious
fi
▁locale
▁missed
▁nonconservative
gui
evaluations
▁author
▁publisher
letter
▁nonproprietary
▁cataloging
▁traceability
▁reproducibility
maps
practiced
▁attentive
▁disparities
▁outlaying
▁understate
▁uncompensated
▁manipulations
▁censored
▁deductibles
▁subtly
▁insureds
▁discretely
▁cancers
▁scalar
▁authored
▁affirmative
deliverables
▁clustered
▁tabulations
▁simplifications
administrative
▁rigorousness
▁accuracies
unpacking
▁internationalization
▁realign
▁outfitting
▁unknowingly
▁constraint
▁formalize
▁postinstallation
▁unaccounted
▁asks
▁delegates
▁replication
▁fogs
▁smogs
▁generalizations
▁willing
dollars
erl
▁subscribe
▁nonquantitative
success
▁wakes
▁aleatory
▁randomness
aleatory
▁modelers
cost
▁laypeople
▁16825
▁seton
▁emmitsburg
▁21727
▁8940
▁annapolis
▁21045
bukowski
▁hurley
snyder
hasofer
▁beck
▁bennetts
▁butterworth
heinemann
▁oxford
ramachandran
▁charters
▁spon
▁unionville
yung
▁chichester
liquefied
▁petrochemicals
▁stocks
rules
▁8501
▁pleasant
▁44131
5575
reaffirmed
▁bldg
▁assns
interstate
▁affirm
▁nonmetered
▁npga
plow
vaporizing
▁digs
aasme
▁unodorized
▁cg
▁vdt
propane
▁multicylinder
▁miter
▁toughness
895
▁prepurge
▁entrained
▁woodframe
fireproofed
▁unmounded
▁443
▁revaporizing
causing
073
875
▁imperfection
▁kcl
▁calomel
silver
metered
▁calorimeters
▁pullaway
▁nonventing
▁pressuretight
▁nonstationary
▁semipermanently
▁intrastate
▁397
▁remounted
▁repiped
▁placarding
▁axles
▁subframe
▁steels
▁heave
▁trycocks
▁downcomers
▁impounded
▁autorefrigeration
▁impoundments
▁subcooled
repressuring
▁latent
hn
tf
▁904
▁dislodgment
▁compressibility
▁sunrise
▁illuminates
▁liquefy
feedstock
unloading
▁impurity
▁nonhighway
▁semirefrigerated
▁thiophane
tetrahydrothiophene
propanecouncil
▁tweezers
alkaline
▁saliva
▁perspiration
▁esvs
▁polyethelene
▁waiving
wc
▁vermiculite
▁perlite
csst
▁csst
▁microturbines
▁uncapped
▁reintroducing
▁snowfalls
psf
▁viability
▁cultivators
▁chock
trunk
▁invited
▁butylene
▁tariff
▁boe
▁predecessor
▁metallurgy
▁connotation
▁requalifications
▁depressurization
▁corroding
▁requalifier
vrin
▁vrin
108231
▁scrapped
▁454
▁perfected
▁predominates
▁offshoot
1378
▁176
1210
1515
1756
860
1725
601
1380
862
▁rerating
bpermitted
ccargo
drequires
▁sweet
983
980
▁3980
▁vt
▁tabulate
obtained
▁acr
▁precondition
▁hit
▁playpipe
taper
bore
776
csgb
▁du
▁portage
▁laurier
▁gatineau
▁6526
▁74145
▁77084
4906
▁perc
▁1075
▁connecticut
▁rd
▁1261
▁sponsor
▁expo
▁printings
▁1954
▁underwriting
▁untrained
▁reservations
▁indian
▁varyingly
▁editing
▁gage
connectors
binding
▁upturned
8½
▁forbidding
▁pullout
mechanism
▁driptight
▁60529
insulators
▁protrusions
cloth
▁origination
▁interupters
▁afcis
▁admedium
▁parlor
▁den
▁sunroom
▁pantry
▁backsplashes
▁entryway
▁unwired
▁multicircuit
measure
▁injecting
▁plaques
▁slant
▁icea
bridging
▁belongs
▁swd
▁regrounded
▁lacquer
▁tempering
athis
▁jointed
▁fhit
▁sheaves
raised
derived
▁objection
deflection
▁shallowest
▁heaves
▁meatpacking
▁seashore
▁deicers
▁cellars
▁hides
0000117
0000065
0000234
000013
▁deflecting
plenum
▁multiplexed
▁saturant
▁semiconducting
acover
bunderground
clisted
▁fepb
▁pfa
▁sa
▁xhh
2400
acs
▁determinants
▁dissipates
articles
▁bridle
▁adders
▁microohms
▁835
ipcea
▁pub
▁rubbers
2133
3173
▁joins
093
partially
▁fs
▁fd
radius
2¼
shoe
▁excavating
▁noncohesive
▁granulated
scte
▁nondeliberate
cast
▁enameling
▁scuttle
flat
▁324
▁terminators
edge
▁feathered
▁coilable
▁nineteen
▁4750
▁328
medium
▁576
▁clad
▁alkalis
mineral
▁stapled
▁interconnector
▁338
▁helically
▁xw
▁fnmc
▁thinwall
finish
▁screenings
▁nonventilating
unventilated
▁semifixed
1991
cablebus
cellular
▁miswire
▁concealing
inner
▁hash
strut
fit
taps
▁imprinting
underfloor
ve
▁neca
fg
▁4200
▁507
atotal
bsteel
▁totals
▁spade
051
▁envelops
messenger
▁lashing
▁triplex
▁tenpenny
▁srd
▁srde
▁srdt
▁cambric
insulations
▁eveje
▁tst
ctinsel
delevator
▁knotting
▁sjoo
▁sjoow
▁untinned
▁vulcanized
pivoting
▁hookstick
caps
child
cover
inlets
▁marquees
▁beating
headed
▁resistively
closet
▁cove
▁coves
▁1160
▁crowfeet
▁candelabra
▁showcase
par
389
xv
vending
▁dispenses
▁token
▁payment
▁60335
▁humidifier
▁drawer
▁shaver
▁flatirons
▁541
▁751
2¾
▁straddle
▁nonshrinking
16½
reset
▁nonrigid
▁nailed
▁envelopes
▁844
▁vams
vams
▁neglected
rectifier
bay
synchronous
mcps
▁nonfused
▁amends
leakage
nameplates
▁unbalancing
▁equalizer
leads
▁curbed
▁470
▁1187
intercell
intertier
▁pillar
▁antioxidant
▁multicompartment
▁megavolt
mva
fusing
▁unfavorable
shovels
▁stressing
▁sieves
▁6184
▁dustignitionproof
dusttight
hermetically
purged
extraction
▁prudence
▁altogether
▁gins
seed
▁flax
▁istle
▁abrasiveness
▁volatiles
▁3175
▁sensitized
▁blanketing
▁127
▁2075
▁nonarcing
▁varistor
mov
▁nonvariable
totally
▁potted
▁putty
▁nonabrasive
▁howlers
▁photocells
po
rth
tamb
encapsulation
▁mb
flameproof
intrinsic
ib
immersion
powder
▁quartz
pressurization
mod
fz
▁firedamp
▁mesg
1978
▁acetaldehyde
▁steelworks
▁pupose
▁nonflameproof
te
dusts
▁ibd
minor
dipping
tables
▁lubritoriums
▁salesrooms
▁drainboard
▁1525
▁whereon
▁detearing
▁substrates
▁manipulator
▁reciprocators
▁multifunction
▁doctor
▁fluroxene
▁cyclopropane
▁divinyl
isolated
▁inductively
nursing
▁angiography
▁invasive
▁treadmill
psychiatric
relative
conscious
▁externalized
▁muscle
▁electrocuted
▁catheter
7½
▁playrooms
▁centrically
▁headwalls
omit
▁bone
▁angiographic
▁hemodialysis
▁postoperative
▁autoclaving
▁nondelayed
nonlocking
▁infectious
▁branc
▁disinfecting
autotransformers
▁30175
▁20014
▁biplane
tension
▁intensifiers
▁striped
feet
consisting
contribution
border
breakout
bundled
footlight
grouped
proscenium
strip
fer
dimmer
ampacity
mated
▁festoons
▁mates
▁breakouts
entertainment
▁portability
ride
bull
shooting
▁filmed
deuce
motion
lot
spider
▁simulators
scenery
▁costumes
television
▁spiders
▁carbons
▁shooting
▁keyless
nonprofessional
▁miniature
▁excrement
▁sanitizing
▁meterpole
▁3280
▁bared
hertz
countertop
blade
▁vanities
▁vanity
▁lattice
▁stowage
penetrating
▁starwashers
inserted
camping
▁unfold
▁campsite
converter
▁electromotive
▁towed
▁laminates
005
▁backside
male
▁1280
▁1530
▁9600
loads
▁amenities
park
1128
1127
▁lockwasher
▁lockwashers
▁unanodized
sae
cartridge
1284
shower
▁moorage
▁submeters
▁unstepping
▁booted
▁nonbooted
brass
cased
neon
skeleton
▁accumulative
▁562
▁carrels
▁derricks
festoon
▁tram
▁trolleys
traveling
▁looping
▁tightens
unsupported
driving
parts
▁balustrade
▁treadway
▁regenerate
▁2594
▁airline
vehicle
▁flywheels
▁idling
▁plazas
▁shipper
▁consignee
▁depot
separable
tru
▁usda
usda
trus
▁plasma
▁festivals
amplifier
▁headphones
amplifiers
▁midi
musical
▁equalizers
▁turntables
▁players
▁multimedia
utilizing
▁totality
▁fabricate
loudspeaker
mixer
▁tuner
▁1711
▁1419
▁1492
▁6500
upss
modular
mdc
▁containerized
▁workspaces
▁keyboards
analog
sampled
▁nonmedical
▁nondental
nothing
▁7910
▁woodmont
▁1016
carried
transportable
applicator
converting
▁multipliers
▁oscillator
▁lockouts
▁cages
▁inter
▁eruption
▁463
▁crucibles
servicing
▁vat
▁electropolishing
▁electrostripping
▁lamination
▁multimotored
collector
irrigation
▁nonhygroscopic
▁nonwicking
▁jacketing
underwater
gfcis
voltages
▁unencapsulated
▁5800
▁1563
hydrotherapeutic
channels
artificially
shoreline
array
bipolar
blocking
▁photovoltaics
pcu
pcs
monopole
installable
solar
subarray
automatically
expected
abnormal
▁multiplication
▁multimode
interruption
▁1741
▁gec
▁irradiance
▁consumes
▁reformers
turbine
guy
instantaneous
nacelle
tower
▁pullouts
▁tails
▁dimmed
▁energizes
picture
establishment
excited
stop
geological
shaving
selectivity
pltc
▁ffh
▁metallized
riser
▁frr
▁reclassify
cmp
▁1459
▁1863
communications
xul
▁eliminators
▁avoidance
▁dipole
▁airgap
▁pane
coaxial
niu
▁rft
▁vamax
vamax
▁nesc
▁raft
opsu
bbu
▁telegraph
▁unplugged
▁broke
▁compiling
▁texts
▁recertification
upgrades
780
791
▁unlabled
continuity
▁operationsprograms
▁kinematic
▁potentiometric
▁permittivity
▁coulometric
▁karl
▁fischer
▁vde
2129
platinum
cobalt
▁easa
▁baur
▁louis
▁mo
▁63132
nesc
737
8880
itic
constitution
▁20210
9328
331
335
1926
761
agriculture
lsca
abb
▁wecosol
powertest
▁schneider
▁pdf
docs
oib
▁noncorroded
▁retainers
▁noncurrent
▁ufer
▁regrounding
band
▁waveshapes
▁oscillations
▁microsecond
▁unchecked
▁saves
▁absenteeism
▁premiums
replacement
▁profit
▁worthwhile
▁solicit
▁bills
▁misconception
routing
▁undocumented
▁watchman
filtering
▁carpenters
▁fitters
▁machinists
▁assorted
▁hammers
▁screwdrivers
▁pliers
▁statiscope
ohmmeters
▁multiscale
▁locators
▁foreman
▁geologist
▁overpressurize
▁nullifying
▁annealing
▁firebox
lube
▁signify
▁foul
▁jogging
▁inching
▁geared
conditioned
▁overlooking
▁rectifying
▁curtailing
shifts
▁overage
▁overtired
▁briefed
▁averting
▁translation
▁pricing
bid
negotiation
epnsr
▁decides
▁grammatical
▁bulkiness
▁cupped
rj
▁rg
▁utmost
▁mistake
▁harder
▁oftentimes
▁opportune
▁disintegrating
▁facet
rework
▁refurbishing
▁refurbished
▁barely
▁moistened
▁shot
▁mopping
▁abandoning
▁leach
depleting
▁banned
▁abreast
bus
▁prelubricated
▁burndowns
▁whipping
▁grim
▁vitally
▁reclosers
cycles
▁budgetary
▁numerics
▁fmea
▁redone
hrc
▁casually
nonlinear
▁diagnosing
vh
vf
tdd
▁diagnose
▁clocks
▁vectorially
▁dominated
kvar
xc
xsc
kvasc
kvarcap
▁kvar
▁eleventh
▁thirteenth
▁magnified
pitched
sequence
▁pulsating
crossing
plcs
distorted
▁polluting
tif
▁ferromagnetics
chopping
▁thyristors
▁transistors
▁reproducing
▁clues
▁refute
pts
▁kilohms
surges
▁joules
bandwidth
▁suppressor
tvss
▁varistors
▁avalanche
▁tvss
▁garbled
▁restriking
miles
▁reclosures
▁unfaulted
▁oscillatory
▁ferroresonant
▁459
459
▁unequally
avr
▁avrs
▁unsymmetrical
▁interwinding
▁manifest
▁capacitively
▁vibrate
▁decoupler
▁offending
▁attenuating
▁cycloconverters
▁subsynchronous
▁cascades
▁dranetz
▁distraction
▁nausea
▁headaches
incandescent
brain
▁modulations
dips
▁sidebands
▁mri
▁pst
▁plt
▁flickermeters
▁proactively
locating
▁pretest
corona
▁deteriorative
▁cosine
▁sg
▁validates
▁interconnectivity
▁nonactive
shorting
ratiotests
▁voltmeters
ltc
ch
dissipation
legged
▁colloidal
▁fuller
▁chromatographic
▁diagnosed
▁spectroscopy
▁demanded
▁excursion
▁burnishing
hold
▁unpredictably
circulated
▁brighter
▁tedious
▁expedient
▁readjustment
▁outright
▁misread
▁shiny
▁appearing
▁disadvantage
aansi
bieee
cansi
eansi
▁lfh
▁hmwh
▁wecosoltm
▁abb
▁kilovolts
vde
ift
▁ift
ring
▁persistent
mts
harmonics
▁complicates
▁vlf
▁pothead
pdiv
pdev
▁acronyms
vfds
afds
milliwatts
▁inferior
▁reinspection
▁piecemeal
▁adept
▁shattered
▁mention
▁plantwide
gun
dissolving
fourths
▁spinning
▁yarn
▁races
analyzing
▁handy
▁recorders
▁vibrograph
▁pileup
conveyor
▁rpms
▁wipers
microampere
▁microamperes
megohms
▁megohmmeters
▁checkpoints
▁overstressed
milliammeter
▁autotransfer
▁onstream
▁manipulating
faults
▁miswiring
▁transposed
transients
▁wheatstone
fixtures
▁whips
▁contaminations
night
▁discolor
▁cubicles
▁withdrawable
▁smog
▁pooling
▁craters
▁powdery
eaten
▁sputter
▁darkening
▁encrusted
▁theme
▁consequent
▁throats
▁emery
▁embedding
▁expansive
▁whitish
▁boiled
puffer
▁puffer
▁sooty
▁electromagnets
▁cotter
wearing
▁dashpot
▁realizing
wear
▁milky
▁lifters
▁puffers
gis
gie
▁giss
▁industrials
▁breathable
▁desiccants
▁adsorbents
▁sof
▁hf
▁talcum
▁tan
▁adsorbed
alf
carts
▁counteract
▁chilling
fine
hepa
cart
▁injuring
▁mucus
▁rash
▁crystal
▁hydration
▁mossing
baking
selenium
▁deionizer
▁deionizing
▁tolerate
▁armatures
▁overtravel
▁brilliance
▁searching
▁buzzers
▁crocus
▁rollout
▁sluggish
▁anderson
3910
3930
▁penn
▁varieties
▁dummy
▁slug
▁deeply
▁granules
▁brushing
▁sandpapered
▁bimetal
▁defeater
starter
breakers
▁jeopardizes
▁checkups
▁nonrejection
▁loadbreak
tracking
▁disengages
▁potheads
▁protuberances
▁offering
▁lineups
▁overtorqued
▁temper
plugs
▁761
oa
forced
▁ofaf
fow
▁ofwa
spot
▁fow
▁postponed
breakdown
▁bubbles
▁perfluoropropane
▁resealing
▁keen
▁painful
▁feeling
▁replugging
▁booklets
▁relampings
▁depreciate
▁expectancies
▁lumen
wattage
▁blinking
▁inline
▁shrouded
▁shattering
lamped
▁polarizations
▁varnishing
▁powdering
▁renew
▁chatter
▁toes
▁thousandths
▁stoned
▁lathe
▁hydrodynamic
▁baked
▁vibrates
mils
▁vibrational
▁unfiltered
▁noncontacting
▁spectrums
▁fft
▁statically
▁dynamically
▁rebalanced
▁skewed
▁reintroduced
▁pry
▁dent
▁scratch
▁nick
tolerance
machined
▁bristle
▁sizable
▁rectifies
▁inverts
▁sss
stc
▁insides
▁retightened
▁havoc
▁reapplied
▁mechanization
▁underpowered
holder
▁tangling
▁dragging
▁towline
▁rejoin
▁precepts
▁conditional
▁sustainability
tune
▁twofold
kick
might
sow
▁sods
▁somms
▁reanalyzed
▁expeditious
▁sandbag
▁biggest
▁remediation
▁outsourced
contract
msas
debris
▁backfeeding
▁walkthrough
▁powertest
▁shim
▁methodically
▁forego
▁secureness
▁yaw
▁popping
▁spitting
▁crackling
▁nears
▁ionizes
▁3004
▁3005
▁3006
▁leiter
▁reshaped
▁shortcomings
▁unlearning
▁relearning
▁dominate
▁feel
learns
▁spoilage
▁clearer
▁inexperienced
▁learns
▁himself
▁mislearning
▁frustrations
▁mindset
▁mindsets
▁receptive
▁tensions
▁letting
▁outlook
▁receptivity
▁psychologically
▁tries
▁underlie
▁machinelike
▁unmotivated
▁participative
▁mobiles
▁chalks
▁pausing
▁showmanship
▁dramatize
▁checkpoint
performing
telling
[...]
