<blank>
<s>
</s>
.
▁de
,
▁la
▁en
)
▁los
▁y
▁el
2
▁que
▁para
3
▁a
1
▁del
▁las
▁o
(
▁con
▁un
▁se
4
▁(
▁no
▁una
▁debe
▁deben
5
▁por
6
�
7
:
▁ser
a
▁sistema
▁como
▁al
8
▁lo
▁estar
▁sistemas
▁cuando
▁protección
▁acuerdo
10
▁contra
▁incendio
]
9
n
▁sección
▁más
▁[
▁rociadores
▁requisitos
▁equipos
▁es
▁tierra
/
▁m
▁permitirse
b
▁sobre
▁incendios
11
▁pies
▁donde
▁nfpa
▁uso
▁agua
-
▁menos
▁conductores
▁si
13
▁prueba
▁sea
▁edificio
12
▁mm
▁su
▁establecido
▁cumplir
▁cada
▁entre
▁tipo
▁clase
c
▁instalaciones
▁manera
▁área
▁dentro
▁siguientes
▁presión
▁control
▁1
▁todos
▁desde
▁almacenamiento
▁norma
▁alarma
▁equipo
▁instalación
▁materiales
▁parte
▁cables
▁seguridad
▁salida
▁pulg
▁nivel
▁este
▁puesta
▁según
▁otros
▁dispositivos
14
▁código
▁sin
▁humo
▁pruebas
▁áreas
▁estén
▁edificios
▁mediante
▁medios
▁debería
▁diseño
▁condiciones
▁conductor
▁tener
▁carga
▁hasta
▁aire
▁son
▁circuito
▁deberían
▁mantenimiento
▁espacio
▁puede
▁emergencia
▁sean
▁tuberías
▁corriente
▁2
▁está
▁7
▁tubería
16
;
15
▁cualquier
▁todas
▁egreso
▁están
▁esté
▁energía
▁3
▁circuitos
▁autoridad
▁nominal
▁dispositivo
▁ver
▁tabla
▁espacios
▁capítulo
s
▁e
▁medio
▁pueden
▁capacidad
▁competente
▁u
▁punto
▁combustible
▁otras
▁mayor
▁fuego
▁puertas
▁durante
17
▁gas
▁ocupaciones
▁descarga
▁piso
▁instalados
▁tales
▁servicio
▁personal
▁esta
▁funcionamiento
▁10
▁deber
▁dos
▁construcción
▁distancia
▁riesgo
d
▁modo
▁6
▁acceso
20
▁8
▁combustibles
▁suministro
▁motor
▁uno
▁válvula
▁fuente
▁flujo
▁resistencia
▁disposiciones
▁conexión
▁temperatura
▁alimentación
▁figura
▁ni
▁altura
▁líquidos
22
▁lugar
▁4
▁cabo
▁siguiente
101
▁bomba
▁13
▁ocupación
▁tanques
▁valor
▁hacia
▁sus
▁trabajo
▁ocupantes
▁9
▁aplicarse
▁riesgos
▁ventilación
21
▁secciones
▁otro
▁interruptor
▁información
▁lugares
18
*
los
▁requerirse
▁automáticos
▁menor
66
▁también
▁listados
▁falla
▁debajo
▁12
nota
▁ciento
▁alarmas
▁fin
▁cable
▁cableado
▁métodos
▁válvulas
▁edición
▁fabricante
▁requerido
▁comunicaciones
▁tanque
▁estructura
24
▁otra
▁ubicación
▁accesorios
▁aprobado
30
ver
▁siempre
▁partes
▁informativa
▁tal
▁interior
▁presente
▁personas
▁través
▁detección
▁cantidad
▁desempeño
▁pisos
▁cumplan
▁normas
23
nfpa
▁mínimo
▁incluir
▁calor
▁motores
▁operaciones
▁i
▁encima
▁listado
▁inferior
▁distribución
▁eléctricos
▁salidas
▁material
▁iluminación
▁excepto
▁aislamiento
▁5
▁notificación
▁conexiones
▁pero
▁bajo
▁tiempo
▁c
▁método
la
▁montaje
▁características
▁20
▁detectores
▁máxima
▁estos
▁instalar
▁aplicación
▁gases
▁superior
▁componentes
figura
▁escaleras
▁respuesta
▁inflamables
0
▁exterior
▁entrada
▁superficie
excepción
19
▁inspección
▁artículo
▁ejemplo
▁eléctrica
▁bombas
▁criterios
▁podría
▁tipos
▁ubicados
▁fuera
▁desconexión
▁eléctrico
▁unidad
▁aberturas
▁determinar
f
▁antes
▁tensión
25
▁volts
▁l
an
▁conduit
el
▁potencia
▁30
▁estanterías
▁generalidades
▁contenedores
▁todo
▁datos
▁muros
▁sido
▁forma
▁certificación
▁procedimientos
▁supervisión
▁unidades
▁evitar
▁0
▁incluyen
▁necesario
▁línea
▁for
▁utilicen
▁protegidos
▁ha
▁utilizados
▁interruptores
▁sobrecorriente
▁evaluación
▁existentes
▁señal
▁aplicables
33
▁ancho
▁techo
▁permitido
▁total
▁detector
▁11
▁b
▁ingreso
▁bomberos
▁productos
42
▁mínima
▁requiere
▁operación
▁podrían
▁puerta
26
▁estructuras
▁zona
▁instalarse
▁cargas
▁caso
▁señalización
▁cumplen
e
▁tamaño
▁libre
▁servicios
▁recorrido
▁clasificación
▁metálico
▁acero
▁líquido
▁múltiples
▁manual
▁principal
63
▁humana
▁rociador
▁incluye
▁250
▁estación
▁protegidas
▁daños
▁señales
▁canalizaciones
▁101
▁solamente
▁requeridos
▁of
▁escape
▁fuentes
▁debido
▁tanto
o
▁general
▁15
▁haya
▁ramal
▁vertical
▁acometida
▁especificado
▁portátiles
▁máximo
▁permitir
▁alta
▁permite
▁vehículos
▁similares
▁puesto
▁exceder
▁18
▁ya
▁utilizar
▁unión
▁50
▁limitada
▁and
▁instrucciones
▁condición
▁requerida
▁diferentes
▁evacuación
▁base
▁salud
▁ansi
▁recipientes
▁cuerpo
▁aprobados
▁cuidado
▁lado
▁=
▁proveerse
▁aparatos
▁ii
▁requisito
27
32
▁pueda
▁cortafuego
▁cajas
▁han
▁especiales
▁cilindros
▁contacto
▁automático
▁ignición
▁instalado
▁puestos
▁transferencia
▁puedan
▁terminales
▁baja
▁persona
▁25
▁verticales
▁utilizan
▁normal
▁100
▁14
▁peligrosos
28
▁exteriores
▁emergencias
▁fines
▁puntos
▁vapor
▁fallas
▁velocidad
▁—
▁mismo
▁cumpla
▁referencia
▁fire
▁proceso
▁frecuencia
▁terreno
▁envolvente
las
▁tiene
▁análisis
▁ascensores
▁cielorrasos
▁longitud
▁extintores
▁combustión
▁disposición
▁alivio
▁salas
▁amperes
▁niveles
▁pulverización
▁directamente
▁aplicar
▁cierre
▁elementos
▁receptáculos
▁electrodo
▁conectados
▁300
▁códigos
▁propósito
▁soporte
▁madera
▁alcance
▁corredores
▁calefacción
▁baterías
▁hacer
▁controlador
29
°
▁programa
▁pulgadas
▁generalmente
▁momento
31
▁habitaciones
▁adicionales
▁metálicas
▁vapores
▁pacientes
▁conjuntos
▁plan
▁llevar
▁metálicos
▁tengan
▁corrosión
▁posible
▁cerramiento
▁únicamente
▁dichos
▁liberación
▁generales
▁vivienda
▁requerir
▁planos
▁cualquiera
▁propietario
▁recipiente
▁ubicado
▁escalera
▁valores
▁tienen
▁est
▁d
▁interiores
▁intención
▁caja
▁nominales
▁envolventes
▁metal
▁conjunto
▁estas
▁ramales
▁garantizar
▁horas
▁rayos
▁grupo
▁hay
▁llama
▁adecuado
▁haber
▁habitación
▁posición
▁pared
▁exceda
▁barreras
▁individuales
▁nacional
▁24
▁arco
▁horizontal
▁establecidos
▁totalmente
▁respecto
▁equivalente
▁proteger
▁ambos
▁división
▁separados
▁activación
▁cordón
▁acabado
▁mantener
▁16
▁solo
▁gal
▁espaciamiento
▁aquellos
ul
▁protegido
▁sólo
▁requeridas
▁obstrucciones
▁además
▁boquillas
▁aunque
▁confinados
▁mangueras
es
▁anexo
▁paneles
▁ningún
▁factores
▁verificar
▁separación
▁documento
▁suficiente
▁°
▁red
▁centro
▁ampacidad
▁canalización
▁adicional
43
▁proveer
▁tres
▁flexible
▁cambios
▁soportes
▁toda
▁exposición
▁conductos
▁totalidad
▁campo
▁excedan
▁capítulos
▁barrera
▁continua
▁considerar
▁sala
▁así
▁sitio
▁diseñados
▁cubierta
▁adyacentes
▁fuerza
▁única
▁placa
▁identificación
▁documentación
▁transformadores
▁cobre
40
▁f
▁vez
en
▁muestra
▁17
▁disponible
▁adecuada
▁usar
▁cual
▁22
▁66
▁visible
▁normalmente
▁cortahumo
▁utiliza
50
▁muro
▁mantenerse
▁número
▁especificaciones
▁abertura
▁después
▁potencial
▁cielo
▁conectado
▁corredor
▁casos
▁permanente
▁manguera
▁vías
▁fusibles
▁automática
▁metálica
▁contenidos
▁raso
▁acción
▁resultados
▁superficies
▁especificados
▁misma
▁indica
▁hora
▁dirección
▁ejemplos
▁60
▁drenaje
▁estaciones
m
▁segura
69
lp
60
▁requieren
▁tensi
▁dichas
▁público
▁líneas
▁industriales
▁factor
▁usarse
▁iii
▁abierta
▁calibre
▁describe
▁obtener
▁fase
▁luminarias
▁reducir
▁70
▁provistos
para
▁supervisado
▁cuatro
▁cielorraso
▁dicho
▁gran
▁nebulizada
36
▁fácilmente
▁aceptable
▁procesos
▁dormir
▁densidad
▁tenga
▁empleados
▁astm
▁utilizarse
▁publicaciones
▁común
▁único
▁ubicaciones
▁extinción
▁centros
▁flexibles
▁reserva
▁disponibles
▁embargo
▁conectar
▁identificados
▁permiso
▁pasillos
▁cubiertas
▁limpieza
por
▁adecuados
▁awg
▁largo
▁incluidos
▁ambiente
▁suministrar
▁mientras
▁40
▁demanda
▁ingeniería
▁succión
▁cambio
▁incluyendo
▁1000
▁cerca
▁medida
▁bien
▁escenario
▁marcado
▁utilice
▁23
▁considerarse
▁definiciones
▁protegida
▁algunos
▁principales
▁rescate
▁aquellas
▁efectos
▁cantidades
▁transformador
▁vehículo
▁ninguna
▁lb
▁estado
▁confinado
▁función
▁2010
▁nuevos
▁resistentes
▁interrupción
▁públicas
▁diámetro
▁concreto
▁43
▁kg
▁individual
▁panel
▁presencia
▁ubicadas
▁diseñado
▁ante
▁temperaturas
▁desarrollo
▁documentos
▁propagación
▁llenado
▁propiedad
▁abiertas
▁separado
▁combinación
▁polvo
▁monitoreo
▁inspecciones
min
▁t
▁minutos
▁19
▁mercancías
▁prevención
▁aplicable
▁cumple
▁reparación
▁accesibles
▁accesible
▁aplicaciones
▁identificar
▁corte
▁mayores
▁techos
▁psi
▁arranque
▁utilizado
▁2012
▁transporte
▁manuales
▁comunicación
▁requiera
▁asme
▁planta
▁alto
37
▁eléctricas
▁conforme
▁aceite
▁cuenta
▁alguna
▁430
▁espesor
▁cumplimiento
g
▁paredes
▁funciones
▁va
▁dicha
▁llevarse
▁tasa
▁supresión
▁carteles
▁unidos
▁propiedades
▁separadas
▁van
▁medidas
▁cerramientos
34
▁intervalos
▁ascensor
▁�
▁volumen
▁terminal
▁registro
▁interconexión
▁indicar
▁pasillo
▁ese
▁asegurar
▁situados
▁miembros
▁ensamble
▁hacerse
▁aprobación
▁relacionados
▁procedimiento
▁automáticamente
[
▁asociados
cuando
▁caliente
▁batería
▁expuestos
▁controles
▁receptáculo
▁manejo
▁–
▁producto
▁residuos
▁escenarios
▁33
▁conectores
▁rápida
▁paso
▁pérdida
▁poder
▁extremo
▁contengan
▁transmisión
▁central
▁medición
▁específicamente
▁permitidos
sig
▁sí
▁grandes
▁apropiado
▁viviendas
▁físicos
▁especifica
▁reuniones
▁ubicada
▁110
i
▁nuevas
▁residenciales
▁registros
▁entrenamiento
▁cordones
▁importante
▁fibra
▁luz
▁portacables
▁32
▁específicos
▁audible
▁resistente
▁generadores
100
▁movimiento
▁comisionamiento
▁hace
▁barras
▁150
▁ensambles
▁horizontales
▁pública
▁acciones
▁igual
▁ellos
▁responsable
▁profundidad
▁tareas
▁gpm
▁limitaciones
▁corrientes
▁artefactos
▁alimentador
▁ajuste
▁modificaciones
capítulo
▁plano
▁abastecimiento
▁plástico
▁rango
65
▁calentadores
▁equipados
▁realizar
▁administración
▁provisto
▁21
▁huéspedes
▁tramos
▁comerciales
h
▁claramente
▁bandejas
▁período
▁ensayo
▁práctica
▁encuentran
▁equipamiento
▁peligro
▁mecánica
▁siglas
▁acabados
▁propósitos
▁libres
▁contar
▁celdas
▁peso
▁72
▁provistas
▁clavija
▁similar
▁cocina
▁utilizando
▁fue
▁dimensiones
▁óptica
▁impacto
▁vía
▁alrededor
▁instaladas
▁químicos
▁fijos
▁artículos
▁confiabilidad
▁h
▁llamas
▁recomendada
▁funcionar
▁reemplazo
▁integridad
▁especial
▁contenedor
▁eléctricamente
▁elemento
▁continuo
▁revisión
▁soldadura
▁establecer
▁permitida
▁departamento
▁manipulación
▁completamente
▁conocimientos
▁serie
▁prácticas
▁apropiada
▁cálculos
▁seca
▁abierto
▁define
▁standard
▁estados
ansi
▁directa
_
▁local
▁previsto
si
▁real
▁asientos
no
▁cuarto
▁informe
▁tomar
▁abiertos
▁cuales
▁definición
▁cobertura
▁permita
▁aislados
▁contiene
se
▁n
▁actividades
▁voz
▁descargas
▁autom
▁necesarios
▁guía
▁p
▁vida
▁expuestas
▁distancias
▁necesidad
▁modelo
▁relación
▁aplica
▁grado
▁acondicionado
▁electrodos
▁aprobadas
▁aceptables
▁doble
▁controladores
▁secundario
▁alimentados
▁apertura
▁cortocircuito
▁luego
▁final
▁organización
▁visual
▁inmediatamente
▁interna
▁aceptación
▁plantas
▁adyacente
▁radio
▁sólidos
▁k
▁determinado
▁colocarse
▁limitar
▁previa
38
▁tubos
▁esto
▁voltaje
▁aplican
▁42
▁primario
▁instalen
▁segundos
▁separada
▁400
▁v
▁herramientas
▁lineamientos
▁jurisdicción
▁310
debe
▁extensión
▁existente
▁estándar
▁encuentra
▁consideración
▁tubo
▁provista
▁objetivos
▁especificadas
▁color
▁protection
▁comercial
▁usen
▁pie
▁energizados
donde
000
▁usados
▁utilizadas
▁gabinetes
▁completa
▁vigas
▁veces
▁inglés
▁adecuadamente
▁generador
▁detectar
▁hayan
▁aprobada
▁600
▁banda
▁posibilidad
61
▁completo
▁cálculo
▁proporcionar
52
▁reservado
▁piezas
▁construcciones
▁evaluar
▁suelo
▁papel
▁seguro
▁placas
un
▁necesaria
▁provee
▁límite
▁procesamiento
▁elevado
▁mecánicos
72
▁diferente
▁fumar
▁requieran
▁inspeccionados
▁proyecto
▁barra
▁colocados
▁configuración
▁neutro
▁energ
▁permisos
▁peligros
▁s
▁×
▁límites
▁identificado
▁establece
▁selección
▁cuartos
▁electricidad
▁recomendaciones
▁indicado
▁contenido
▁específico
▁advertencia
▁partir
▁reglamentaciones
▁texto
▁oxígeno
▁masiva
▁contactos
▁normales
▁permitidas
▁componente
▁plásticos
▁estacionamiento
▁almacenados
400
▁estructurales
▁auxiliares
▁duración
▁investigación
▁escrito
▁obstrucción
▁fugas
▁probabilidad
▁listadas
▁brindar
▁sujetos
▁móviles
▁derivación
▁lados
▁efecto
▁verificación
▁calificado
▁contratista
▁aumento
▁inspecci
▁125
▁juntas
▁incluidas
▁da
astm
▁especificación
▁tabiques
▁26
▁iv
▁ductos
▁tensiones
saf
▁usan
▁problemas
▁peligrosas
51
▁inflamable
▁bloqueo
▁construidos
▁2011
▁excede
▁columna
▁algunas
▁superiores
▁estuviera
▁especificada
▁remoto
▁disparo
ctricos
▁incidente
▁vidrio
▁cuidados
▁detención
▁compartimento
▁calidad
▁situado
▁retención
▁operativas
▁reducción
▁humedad
▁suministros
▁120
▁terminado
▁ello
▁fabricación
▁fondo
▁2013
▁36
▁aparato
▁200
▁menores
▁específicas
▁independiente
▁industrial
▁simulacros
▁puente
▁protecci
▁petróleo
▁atmósfera
▁kw
▁boquilla
▁ventanas
▁refugio
▁laterales
▁bar
▁colgantes
▁normalizado
▁aluminio
▁montados
▁minimizar
▁presiones
▁system
▁capaz
▁asegurarse
▁national
▁carbono
▁tomarse
ctrica
▁tablas
▁sometidos
▁29
▁etc
▁esa
▁probados
▁años
▁basado
▁mínimos
▁directo
▁competencias
44
▁basándose
▁2015
▁junto
▁90
▁espuma
41
▁adecuadas
▁mensajes
▁fuegos
▁llave
▁tan
▁daño
▁normalizada
▁modelos
▁transversal
▁clasificados
▁usos
▁listada
▁alimentadores
▁continuación
▁lista
▁apropiadas
▁existe
▁500
▁electrodomésticos
▁determinación
de
▁diversos
▁63
ticos
▁continuidad
▁contienen
▁½
▁frente
▁etiqueta
▁aproximadamente
▁remota
ctrico
▁visibles
▁independientemente
l
▁extremos
▁cargo
▁publicación
▁media
▁estantes
▁extintor
▁alternativa
▁seguros
▁específica
▁80
▁combate
▁hidráulicos
▁mecánicas
▁secuencia
▁dado
▁escala
▁gabinete
▁the
▁ambiental
▁resultado
▁incluido
▁plena
▁artificiales
▁revestimiento
▁utilizada
▁usa
▁primaria
▁indicador
▁sobrecarga
▁fecha
▁apropiados
▁dispuesto
▁provocar
▁día
▁pérdidas
▁comprimido
▁grupos
▁nuevo
▁encuentren
▁integral
▁rampas
▁capacidades
▁aeronaves
▁concentración
▁particular
▁operativa
▁índice
▁apropiadamente
▁test
▁sellos
▁poner
▁conectada
▁utilización
▁normalizados
▁acogida
▁viguetas
▁limitarse
▁borde
▁cuerpos
▁producción
▁capacitación
▁términos
▁expansión
▁promedio
▁recomienda
▁experiencia
▁granel
▁pendiente
▁conectadas
▁transversales
▁informaci
▁relacionadas
▁hubiera
▁hoja
▁vista
▁cámaras
▁marcados
▁reglas
▁necesarias
53
▁portátil
▁excepción
▁térmica
▁certificado
▁secos
▁subterráneos
▁máquinas
▁acceder
▁cerraduras
▁comité
▁cocción
▁reguladores
os
▁fijo
▁calcular
▁mantenidos
▁descripción
▁situadas
▁zonas
▁empalmes
▁corresponda
▁recubrimiento
▁nueva
▁controlar
▁operador
▁lateral
▁determinada
▁rígido
as
▁sello
▁guardería
▁ensayos
▁considerados
▁intermedios
▁cilindro
▁empleado
▁sola
▁alterna
▁impedancia
▁enrutamiento
▁association
▁potenciales
▁mayoría
▁siendo
▁800
▁systems
▁indique
▁diseñadas
clasificados
▁distribuci
▁encuentre
▁programas
▁conducto
▁use
▁muy
▁tecnología
▁cuyo
▁afuera
▁funcionan
▁supervisor
▁hermético
▁tratamiento
▁conformidad
▁luminaria
▁representante
▁considera
▁cerrada
▁suite
▁existen
▁pequeños
▁iniciadores
▁múltiple
▁fabricantes
▁comunes
▁determinarse
▁alimentan
▁31
▁alambre
▁cartel
▁canales
▁acumulación
▁diluvio
▁explosión
▁revestimientos
▁equipado
▁basarse
▁aquí
▁nombre
▁responsabilidad
▁estructural
▁soportar
▁cerradas
▁primer
▁muebles
▁trata
▁aún
▁calentador
▁ambientales
▁ancha
▁situaciones
▁58
▁-
▁filtros
▁retorno
▁conector
▁fueron
▁explosiones
▁pilas
▁pasamanos
▁congelamiento
▁desplazamiento
▁fábrica
▁término
▁terminación
▁grande
▁tableros
▁calificadas
▁inicial
▁cerrado
▁iniciar
▁accesorio
▁cl
▁2008
▁consumo
pies
39
▁ambas
▁residentes
▁pulgada
▁licuado
▁federales
▁anuncios
▁podr
▁75
▁probable
▁paralelo
▁mano
▁x
▁operaci
▁públicos
▁partículas
▁mezcla
▁decir
▁interfaz
▁sólido
45
▁allá
▁sectores
▁indicadores
▁calentamiento
una
▁2016
®
▁regulaciones
▁sensores
96
▁incluya
▁bandeja
▁aislado
▁afectar
▁posibles
▁calificaciones
▁mismos
▁agentes
▁designado
▁seco
▁lámparas
▁manualmente
▁ubicar
▁sentada
▁polvos
▁evidencia
▁correspondientes
r
▁externa
55
▁acomodación
▁usuario
▁agente
▁auxiliar
▁in
▁operativos
▁varios
▁instalada
ii
▁algún
▁contener
▁solución
▁suma
▁tablero
▁objetivo
▁alternativos
▁identificadas
▁radiante
▁elevación
▁residencial
▁columnas
▁calle
▁eje
▁hojas
▁28
▁uniones
▁modificado
▁arreglo
▁regulador
▁plataforma
▁escalones
▁planes
▁ocultos
▁apagado
▁tramo
▁reunión
▁física
▁dimensión
▁venta
▁mitad
▁diversas
▁causar
▁generación
▁suites
▁curvas
ieee
▁tarea
▁reubicación
▁compartimiento
▁foso
▁contención
▁chispas
▁sensibilidad
▁anualmente
407
▁turbina
▁descritos
▁modificación
▁exhibición
▁presentes
▁hierro
▁grados
▁opción
▁instalan
▁alimentar
artículo
▁2009
▁naturaleza
▁laboratorios
▁69
▁refrigeración
▁pintura
▁provea
este
▁negocios
▁luces
▁240
▁clavijas
▁aspectos
▁fluidos
▁altas
▁ul
▁alambres
▁compañía
▁ubicarse
▁indicación
▁fra
▁equivalentes
▁ítems
▁eliminar
▁leve
▁mercantiles
▁cartón
▁pr
▁trabajos
standard
▁correspondiente
▁sirven
▁instale
▁eps
▁establecidas
▁circulación
▁ropa
▁exige
▁marca
▁combustibilidad
▁objetos
▁estantería
▁acoples
▁establecimientos
▁edificación
▁130
▁superficial
▁presentan
▁temporal
▁permanentemente
▁será
▁locales
▁reparaciones
▁protectores
▁limitado
▁etiquetado
reservado
▁realizarse
▁referencias
▁describen
▁exista
▁causa
▁proveen
▁intermedio
▁sensor
▁activar
▁supervisores
▁abrir
▁mensaje
▁mojados
▁relámpago
▁neumáticos
▁colocar
▁crecimiento
46
▁ordinario
▁muestran
▁accionamiento
▁220
▁simultáneamente
▁independientes
▁montante
▁compartimentos
▁ruido
▁derivaciones
▁muchos
▁obra
▁entradas
▁extenderse
▁vertederos
▁equipamientos
▁membrana
▁fija
▁ambulatorios
▁protector
▁etiquetas
▁450
▁cortinas
▁máximas
▁blindaje
▁ingresantes
▁año
▁2000
▁sujeto
▁api
▁safety
▁incluirse
▁depósitos
▁derivado
▁dispuestos
▁secundaria
▁provean
▁confiable
▁gravedad
▁inferiores
▁forro
▁bater
tico
▁certificados
▁g
▁27
▁limitación
▁vigilancia
▁distintos
▁responsabilidades
▁ventiladores
▁constante
▁instrumentos
▁dispensadores
▁pasacables
▁técnico
▁le
▁inflamación
▁agregada
▁asilos
▁funcionen
▁previamente
▁hidrantes
▁pequeñas
insertar
▁lograr
▁definido
▁intensidad
▁expuesto
▁psig
▁canal
▁conexi
▁leyes
▁hogares
▁prevista
▁recuperación
▁mediciones
▁propietarios
▁correctamente
▁exceso
▁ieee
▁alternativo
▁natural
▁lavado
80
▁instala
▁firmemente
▁original
▁eventos
▁almacenada
▁501
▁interconectados
▁consiste
▁alimenta
▁trayectoria
▁funcionando
▁abajo
▁comportamiento
▁positivo
▁demostrado
como
▁equipadas
▁atención
▁extracción
▁resto
▁autorizado
▁preparación
▁industria
▁building
▁integrada
▁demás
▁enfriamiento
▁letras
▁variable
▁capaces
▁dise
nicos
▁tóxicos
▁precauciones
▁generar
▁momentánea
▁contenga
▁produce
110
▁trasiego
▁comando
▁diésel
▁montantes
▁técnica
▁asistencia
▁210
▁diseñada
▁aquella
▁incluida
▁controlado
▁estilo
▁conocer
▁configuraciones
▁software
▁aéreos
▁inspector
▁tambi
▁técnicas
▁diagramas
▁suficientemente
35
▁metas
▁frecuencias
▁lectura
▁arriba
▁descrito
▁ventilaciones
▁especialmente
▁dar
▁móvil
▁armarios
▁artefacto
▁parámetros
▁primera
▁medidor
▁consideraciones
▁explosivos
▁profesional
▁accidental
▁aplique
▁estática
▁cimientos
▁decoraciones
▁párrafo
▁considerado
▁orden
▁notificar
250
▁necesidades
▁prevenir
▁protegerse
▁mejor
305
▁torres
▁razonable
▁ocupadas
▁consultar
▁basados
▁curva
▁estacionarios
▁baño
▁correccional
▁vestíbulo
▁mecanismo
▁sujetas
▁sonido
▁físico
▁previstos
▁asistentes
▁evento
▁2014
▁indican
▁subterráneas
▁audibles
▁barandas
▁permiten
▁aislante
▁monóxido
▁carcasa
▁plomo
▁ellas
▁laboratorio
▁integrado
▁problema
▁contratistas
▁bordes
▁continuas
▁sirve
▁deficiencias
▁pasadizos
▁informativos
%
▁pozo
▁disponibilidad
tulo
▁mínimas
▁bifamiliares
▁fusible
▁herrajes
▁ocupado
pie
▁entonces
▁políticas
▁situación
▁compuesto
▁fibras
▁diseñarse
▁seguras
▁colocación
▁retardo
▁sería
▁inteligibilidad
▁caudal
▁permanentes
▁cinco
▁asociado
▁espera
▁fluido
▁alarm
▁cumplirse
▁manómetro
▁sostenidos
▁efectiva
▁fila
▁monitor
▁peligroso
▁inicio
▁fuga
▁r
▁seis
▁incidentes
▁emplean
▁lleva
▁consideran
140
▁almacenen
▁vestíbulos
▁separadamente
▁unifamiliares
▁informes
▁revisar
▁horizontalmente
▁hidrógeno
70
76
▁limitados
▁llevan
▁orificio
▁externo
▁alimentado
▁encerrados
▁eficaz
▁caballos
▁característica
▁les
▁mezclas
▁audio
▁segundo
▁mantengan
▁deflector
▁parada
▁proyección
iii
▁725
▁altamente
▁objeto
▁criterio
▁oficina
▁positiva
▁retiro
▁aguas
▁medirse
▁capa
▁esos
▁fotovoltaicos
▁inmediata
▁2007
▁integrados
▁extra
▁operativo
▁fosos
152
▁cincuenta
▁hilera
▁incluyan
▁48
▁depende
▁230
▁prohibido
▁importantes
▁exposiciones
▁ma
▁pequeña
▁manos
▁prevé
▁recepción
▁calibración
▁condensadores
▁detalles
▁alternativas
▁materials
▁pernos
▁vivas
fun
▁anteriores
▁junta
▁fijas
▁interrumpir
▁determina
▁diferencia
▁documentar
▁tornillos
▁tamaños
▁informativo
▁cómo
▁marcada
▁alimentaci
▁hecho
▁húmedos
▁cisterna
▁propano
▁permitan
▁suministrarse
▁viento
▁requerimientos
▁amplia
▁rotor
▁colectora
▁aislantes
▁iniciación
▁rel
▁debidamente
▁origen
▁comprimidos
v
▁tapa
▁toma
▁exceden
241
▁mantenga
▁diseñador
▁inversor
▁cerrar
▁evite
▁drenajes
▁muchas
▁ilustra
▁ingresante
▁consideradas
▁falsas
▁diseños
▁calderas
▁apartado
▁plataformas
▁paletas
▁excesiva
▁760
▁impedir
▁factible
sin
▁apartamentos
▁medir
▁enterrados
▁interceptación
▁penetraciones
▁lesiones
▁aplicando
▁situada
▁sujeción
▁casa
240
▁verticalmente
▁accionados
▁hidráulico
▁superar
▁onda
2012
▁probar
▁mc
▁arm
▁ediciones
▁estacionarias
▁clapetas
654
▁sellado
todos
▁meses
anexo
▁instalaci
▁entorno
▁cerrados
120
▁trabajadores
▁clientes
k
▁reemplazados
▁atmósferas
▁calificada
▁cámara
▁chaqueta
▁spd
▁implementar
▁protecciones
▁minorista
▁clasificadas
▁distintas
▁rutina
▁cubiertos
▁usado
▁prioridad
▁formato
▁estudios
▁peligrosa
▁fases
▁operar
▁ventilador
▁alcanzar
▁efectuar
▁facilitar
▁automáticas
▁contraflujo
▁esencial
▁primero
▁electrónicos
▁cabina
▁dispuestas
▁ocupados
▁fabricados
▁puestas
▁bloqueado
p
▁cabezal
▁portalámparas
▁clasificaciones
▁externos
▁implementación
▁intermedia
▁bóvedas
▁transmitir
▁producir
▁ej
▁mecánico
▁compartimientos
▁chorros
▁grasa
▁mobiliarios
▁alguno
▁embarcaciones
▁existan
fire
▁ocupada
▁code
–
▁perímetro
▁supere
▁autoridades
▁colocado
▁clases
▁internacional
▁actividad
▁505
▁nota
▁húmeda
150
▁usando
▁cercano
▁suministra
▁camas
▁marcar
▁haga
▁profesionales
▁circunstancias
▁sector
▁quienes
▁inmersión
▁recorridos
▁kpa
▁cap
▁llevadas
▁frase
▁nuevamente
▁espaciados
▁internos
▁abrazaderas
▁consiguiente
▁responsables
▁alcohol
▁compuestos
▁impulsor
▁empleador
▁sobretensiones
▁marcas
▁título
▁eliminación
▁encerrado
▁filtro
▁consistir
▁medidores
610
▁resistir
▁iniciador
esta
▁orgánicos
▁colchones
▁etiquetados
▁malla
▁corrosivos
▁hogar
▁ocurrir
▁tapas
▁parcial
▁cuya
▁inspeccionadas
▁derivados
asme
1144
▁montado
▁enfoque
▁apliquen
▁basa
▁consecuencias
▁maquinarias
▁hacen
▁garajes
▁controlados
▁38
▁anual
▁determine
5000
▁obtenerse
▁solventes
▁químico
▁concentraciones
▁asignación
▁físicas
▁arreglos
▁oficinas
▁térmico
▁corrección
▁anillo
▁mismas
▁alerta
▁desconectar
▁patrón
▁tests
▁energizadas
▁secci
▁formar
▁acerca
▁emisión
▁recibir
espuma
▁camiones
▁diferencias
▁involucrados
▁máquina
▁aumentar
▁establecida
▁caída
▁riesgosas
▁rejillas
▁hidráulicamente
▁aerosol
▁acomodaciones
▁reconoce
▁multiconductores
▁tránsito
▁considerada
▁agencias
▁inspeccionar
▁ingresar
▁multitudes
▁mencionados
▁55
▁intrínsecamente
▁rampa
▁eficiencia
j
▁yeso
▁arrendar
▁porcentaje
▁kv
▁éstos
▁polo
▁900
▁probado
▁climáticas
▁construido
y
▁planificación
deben
▁conectarse
▁proyecciones
▁pasadizo
▁sino
▁accionadas
▁ángulo
▁ecuación
▁terminar
▁deflectores
▁seguir
▁sfpe
▁casas
▁presenta
▁criogénicos
▁tapizados
▁muelles
▁glp
▁polietileno
▁bajas
▁combinados
102
▁fuerzas
▁precisión
▁atmosféricas
▁aisladas
▁suficientes
▁soluciones
▁torre
▁alturas
▁sobrecalentamiento
▁calculada
▁epss
▁ducto
▁exigido
▁emplea
▁días
▁hornos
▁basada
▁encendido
▁forman
54
▁funciona
▁determinadas
▁asociadas
▁vanos
▁altos
▁bóveda
▁usuarios
▁esenciales
▁37
▁permanecer
▁45
▁inflamabilidad
▁simple
▁funcione
▁alimentadas
▁314
▁vacío
▁provocados
▁diseñar
▁textiles
▁asiento
▁aéreo
▁principios
93
430
▁choque
▁power
▁respaldo
▁fijación
▁correcto
▁formulario
▁cercana
▁pasar
▁aproximación
▁reconocer
▁lecturas
▁ciclo
▁lleven
▁cocinas
▁metales
▁relativamente
▁rápidamente
▁puntual
▁contaminantes
▁educacionales
230
▁exigidos
▁crear
▁suspendidos
▁necesita
▁publicadas
▁qué
▁mi
▁sentadas
▁2006
▁visuales
▁rápido
▁mercancía
▁brinda
▁clasificado
▁listones
▁exclusivamente
▁compatibles
▁visión
▁piloto
▁remotos
▁estudio
▁tendido
▁sigue
▁varillas
▁desarrollado
▁demostrar
▁finalización
▁principalmente
▁muestreo
▁fusión
▁method
▁módulos
▁capas
▁desactivación
▁pesado
▁terminaciones
▁ca
▁ensayados
▁armadura
▁517
ctica
▁plazo
▁tratada
▁divisiones
▁corto
▁monitorear
▁basan
▁útil
▁cerradura
▁diagrama
▁puentes
▁bastidores
▁an
▁820
▁ads
▁agregado
▁provenientes
▁formularios
▁privado
▁quemadores
▁crítico
▁institute
90
▁individualmente
▁posterior
▁externas
▁subterránea
▁opciones
▁constantemente
▁1½
▁peatonal
▁necesariamente
▁verde
▁lavandería
▁ups
▁electrodoméstico
▁oxidantes
▁enumerados
▁decisiones
▁evaluaciones
▁aplicados
75
91
▁categorías
▁operadores
▁mantiene
▁indicada
▁redes
▁cabinas
▁recomendado
▁derrames
▁conecta
▁incluso
▁sti
▁frontera
▁aisladores
▁párrafos
▁expuesta
▁colocadas
▁presentar
▁hidrante
▁ruedas
sistema
▁hoteles
▁cabeza
▁herméticos
▁roscas
▁vestimenta
▁definen
▁roscado
administrador
▁publicados
▁efectivo
▁estuvieran
▁previstas
▁aplicado
▁interno
▁to
▁apoyo
▁conversión
▁rutas
▁¾
▁pestillo
▁comparación
▁quitar
▁resultante
▁hielo
▁comprender
▁internas
awwa
▁devanado
administradores
▁espec
▁restricciones
▁emplear
▁recursos
▁seleccionar
▁ac
▁asimismo
▁34
56
58
48
▁pequeño
▁proveniente
122
▁orificios
▁establecerse
▁ventana
▁pulverizadores
▁nro
2011
▁éste
▁770
▁despu
▁j
▁llevada
▁revisados
▁determinados
▁habitualmente
▁representa
▁aviso
todo
▁gestión
▁prohibirse
▁identificada
▁electrónico
▁observar
▁etapa
▁registrar
▁colectoras
▁desarrollar
▁reconocidas
▁reemplazar
▁taller
▁intemperie
▁pico
▁autocerrantes
▁direcciones
▁accionado
▁esfr
▁piscina
▁relacionada
▁especifican
▁sujeta
▁incineradores
▁retardador
▁anticongelante
▁llegar
▁orientación
▁fotovoltaico
▁correcta
▁cinta
▁ingeniero
▁altoparlantes
▁seg
nea
▁tribunas
▁periódicas
▁celda
▁cfr
▁pallets
▁construirse
▁descanso
▁rellamado
▁enclavamiento
▁suministrada
▁nieve
▁varias
▁maquinaria
▁cuanto
▁sprinkler
▁deficiencia
▁audiencia
▁portadores
▁amenaza
▁describir
▁postes
▁ausencia
▁bases
▁construidas
▁películas
▁mecanismos
▁primeros
▁.
▁sirvan
▁pvc
▁energizado
▁hz
▁letra
▁presentados
▁agencia
▁potencialmente
▁tasas
▁periódicamente
▁abastecer
▁permisible
▁ajustes
▁longitudes
▁balcón
300
▁riostras
entre
▁condici
▁reporte
▁54
▁lleve
▁mitigación
▁miembro
▁35
▁alimentos
▁expandido
182
▁dot
▁restricción
▁relleno
▁almacenadas
▁descendente
▁servir
▁retirar
▁sostener
▁conductoras
▁monitores
▁canalizadas
▁unir
▁dependiendo
▁mec
▁desconectadores
▁caracter
▁actual
▁ley
▁ninguno
▁inmediato
▁rehabilitación
▁blanca
▁definidos
▁reales
▁albergan
▁aumenta
▁accesos
▁conectan
190
▁existir
▁competentes
▁transportadores
▁guarda
▁rejilla
▁bajantes
▁contribuir
▁alrededores
▁emplearse
▁coaxiales
▁críticas
▁research
▁porque
▁reclusión
▁2003
▁vegetación
▁organizaciones
▁registrado
▁ingenieros
▁aeronave
▁sometido
▁categoría
▁resorte
▁variables
▁somete
▁efectuarse
▁marcha
▁formas
▁clasificarse
▁extienda
▁hospitales
▁,
▁sobretensión
▁habla
▁supervivencia
lisis
▁peri
▁uniforme
▁costos
▁aplicada
▁mencionadas
▁derivar
▁american
▁tiendas
▁patios
▁superen
▁continuamente
▁dueño
▁cargador
▁pantallas
▁operan
303
▁serán
▁sonora
▁subterráneo
▁elevadores
x
▁superficiales
▁porción
▁entran
▁portadoras
▁evaluaci
▁sitios
▁standards
▁segunda
▁medido
57
▁ocurre
▁reacción
▁pieza
▁marco
▁compatible
▁sólida
▁cableados
▁fijados
cables
▁chorro
▁pasos
▁alimentada
▁par
▁fricción
▁acople
▁especialista
▁saber
▁descritas
▁alimenten
▁involucradas
▁quien
▁or
▁dejar
▁transportar
113
▁flotante
▁hagan
▁dormitorios
▁áticos
▁w
▁mal
▁entrenados
▁conceptos
▁descargar
▁minuto
▁equipment
▁engineering
▁trav
▁efectividad
▁embarcación
▁turbinas
▁society
▁perforaciones
▁cero
▁storage
▁habituales
▁extiende
▁disponerse
▁repuesto
▁hidráulica
▁manómetros
▁patio
▁asegurados
▁arcos
▁preventivo
▁encontrarse
▁resultar
▁puntas
▁acometidas
tica
▁completos
▁verse
▁métrico
▁2001
▁inerte
49
130
▁ruptura
▁intervalo
▁indiquen
▁dimensionado
etiqueta
▁detrás
▁esfuerzos
▁antenas
▁deterioro
▁arriostramiento
▁filas
▁proporciona
▁proporcionarse
▁relés
▁bronce
▁ka
▁quincy
▁descriptos
▁primarios
▁descripto
▁parcialmente
▁elevadas
▁importancia
▁osha
▁talleres
▁certificadas
▁elevada
▁certificaciones
▁interconectadas
▁vano
▁definir
▁roscadas
▁elaboración
▁menudo
▁realiza
▁gotas
▁www
▁propuesto
▁secundarios
▁incremento
▁extensiones
▁pila
▁contrahuellas
▁construida
▁típico
▁conducción
▁blanco
▁extendida
▁anuncio
▁receptor
▁empuje
▁recolección
▁moldeada
▁video
▁demasiado
pico
▁apartarrayos
mparas
▁cr
▁interferir
▁pudiera
▁motivo
▁razones
▁ocupante
▁international
▁84
▁recreativos
▁típicos
▁concentrado
▁debida
▁atmosférico
▁llevado
▁umbral
▁contrario
▁entrenado
▁asistente
▁autorizados
▁legalmente
▁corta
▁frío
▁inoxidable
▁atendida
▁ventilados
▁cm
▁riesgosa
▁recaudos
▁kpag
▁rayo
▁methods
▁desconectador
▁rasos
▁motocompresor
org
▁asociación
▁costo
▁atmosféricos
american
▁designadas
▁posee
▁involucrado
▁bruta
▁design
▁vaporizadores
▁tráfico
▁velocidades
▁impactos
▁reducirse
▁mampostería
▁inclusive
▁lazo
▁devanados
▁apantallamiento
▁peróxidos
▁estatales
▁campanas
▁pozos
▁físicamente
▁cubierto
▁combinado
▁razonablemente
▁peróxido
▁autopreservación
▁protegen
▁críticos
▁pasen
▁conducir
▁períodos
▁poco
▁bloques
▁densidades
▁hvac
▁830
▁epp
▁tratados
▁encontrar
▁virtud
▁5000
▁z
▁fm
▁limitadas
▁diques
▁cfrs
▁neta
▁médicos
▁ocurra
▁evaluados
▁necesitan
▁comunicar
▁extiendan
▁subsección
▁simultánea
▁exigida
▁frecuentemente
▁lámpara
▁elevados
▁accesibilidad
760
▁causas
▁consulte
▁transmisor
ctricas
▁recarga
▁falta
▁prefabricadas
▁2004
▁49
▁activa
▁hileras
▁probablemente
104
92
▁vaporizador
154
▁entrar
▁smoke
▁incertidumbre
▁presunciones
▁mantenido
▁correctivas
▁inscripción
▁abrirse
▁excesivo
▁cara
▁responder
▁poste
▁revisada
▁purga
▁esas
▁met
▁llaves
▁pasajeros
▁prohibir
▁computadora
▁designación
▁sólidas
▁2005
▁unidas
64
▁lineal
▁proyectado
▁ruta
▁genera
▁llevados
▁65
▁relacionado
sistemas
▁montadas
▁técnicos
▁veinte
▁sirva
▁recomendados
▁concepto
▁desviación
▁reconocimiento
▁práctico
▁armazón
▁típica
▁alternados
▁gfci
▁desarrollados
▁calificados
▁actuar
▁último
▁plegables
▁símbolos
▁750
▁montacargas
▁produzca
▁equipada
▁señalizaciones
▁rojo
▁significativa
▁ocho
salida
▁instrumento
▁formen
▁quede
▁temprana
▁resina
▁vigentes
▁tiempos
▁narrativa
tamaño
▁mercurio
▁mep
▁obligatorias
▁alteración
▁designada
▁provoca
▁designados
▁haberse
▁park
▁alojamiento
api
▁dúctil
▁1500
▁almacenan
▁catódica
▁almacenar
▁patrones
▁caídas
▁seleccionados
▁operados
▁cubrir
▁restringir
▁usadas
▁previsiones
▁esfuerzo
▁aditivos
área
▁significativamente
▁690
▁sonoro
▁resistencias
con
▁televisión
▁balcones
▁conocimiento
▁limita
▁autorizadas
▁efectúe
▁afectada
▁proximidades
▁especificar
▁examen
▁volver
▁aerosoles
▁99
▁box
▁establecimiento
▁detener
▁ºc
418
▁identifica
▁queden
▁iluminados
▁resulta
▁visualmente
▁reemplazado
▁probadas
▁indicados
▁44
▁recomendadas
▁fijar
▁aislar
▁rosca
▁arrancar
▁formación
▁sujetar
▁anclaje
▁varilla
▁re
▁392
sticas
▁copia
▁formulaciones
▁inc
▁aceites
▁investigaciones
▁1910
▁consta
▁oculto
▁restringido
▁muelle
▁vehicular
▁compresores
▁documentadas
▁suministrado
▁documentados
▁simulacro
▁implementarse
▁proximidad
▁probarse
▁carros
▁comprobar
▁protectoras
▁futuro
▁comúnmente
▁flexibilidad
▁ciclos
▁guide
▁véanse
nico
▁reparaci
▁anexos
▁algodón
▁informativas
▁interpretar
▁involucrada
▁hechos
▁aeropuertos
▁penetración
▁desgaste
▁circular
▁definirse
▁efectivamente
▁atmosférica
▁pasarelas
▁químicas
▁comidas
▁sodio
▁basadas
▁seleccionado
▁variaciones
▁colocada
▁funcional
▁supervisadas
▁eviten
▁integrales
iv
▁anchos
▁interconexiones
▁viga
▁instituto
▁mpag
▁coordinación
▁water
▁mástiles
▁dimensionamiento
▁contorno
▁gu
▁habitual
▁emitir
▁fácil
▁tema
▁dióxido
▁pressure
▁mercantil
▁actualmente
▁producen
▁desechos
3050
▁afectan
▁tratar
457
csa
▁tecnologías
▁mostrar
▁cloruro
▁radiación
▁corresponde
▁complejo
▁severidad
▁clasificar
▁medidos
▁reconocidos
▁soldadas
▁diámetros
▁sostenido
▁calefactores
▁aceptaci
▁recept
rdida
▁adopción
▁almacenamientos
▁caucho
▁reduzca
▁concordancia
▁certificada
▁paquetes
▁312
▁federal
▁iniciales
▁contaminación
▁protege
▁alertar
▁reducida
▁legible
▁fijado
1220
▁sometidas
915
▁colgante
▁interrupciones
▁ácido
▁indicadas
▁remoción
▁suciedad
▁enclavamientos
▁recubierto
▁comprensión
▁realizadas
▁dispensador
▁cortocircuitos
▁225
▁as
▁680
410
▁existencia
▁quedar
▁inspectores
▁estadounidense
▁símbolo
▁practice
▁inversores
▁dispersión
▁regular
▁construction
▁conduce
▁árboles
▁controlada
▁suministran
&
▁dejarse
▁obras
▁supervisados
▁continuos
▁esfera
▁supone
▁huellas
▁cédula
▁funci
▁suministre
▁considere
▁revisado
▁modificada
▁empleo
▁retardadores
▁sobrellenado
▁doméstico
▁btu
▁química
▁ciertos
138
▁ºf
▁sótanos
▁cumpliendo
▁activado
▁descansos
▁franja
▁pestillos
▁básico
▁¼
▁mesas
▁bombeo
▁gris
▁calcula
▁variar
▁ayuda
▁solar
▁longitudinales
▁obstante
▁especialistas
▁cuidadosamente
lo
▁alimente
▁relé
▁codos
▁desactivaciones
▁cielos
▁extraído
▁separar
▁motivos
▁demora
▁publicada
▁2002
▁tapones
▁residual
▁723
▁reforzado
▁bandas
47
▁3000
▁alcanza
103
▁brindan
▁iiia
▁satisfacer
▁clasificada
▁reparados
▁2½
▁adyacencias
▁fotovoltaica
▁cortinados
▁introducción
▁diferencial
▁detallada
▁corrosivas
▁básicos
▁mecánicamente
▁deslizamiento
▁etapas
▁crítica
▁refuerzo
▁alineación
▁brida
▁carro
▁largos
▁particularmente
▁consecuencia
▁mucho
810
▁surface
▁huella
▁vibraci
▁com
▁presi
▁consejo
▁decisión
▁resulte
▁suspendido
▁confirmar
▁estufas
▁puertos
▁compuesta
253
▁occupancy
▁rollos
▁cocinar
179
▁correccionales
▁próximo
▁ascendente
▁characteristics
▁campana
▁dispone
▁protocolo
▁armado
▁combinada
t
▁aislada
▁limitan
▁paciente
▁telefónica
▁abra
▁capacitado
▁bajos
▁continuar
rociadores
▁551
▁tenerse
▁aplicaci
nica
ids
▁inestables
▁teléfono
▁traslado
▁testing
▁contexto
▁longitudinal
▁constituyen
▁inspeccionado
▁magnitud
▁inclinación
▁combinadas
▁ordinaria
▁consultarse
▁evaluador
▁debidos
▁fórmula
al
▁habilidad
▁burning
▁asilo
▁watts
▁emitida
▁rieles
▁51
▁96
▁desafío
▁recirculación
▁española
▁prohibición
62
▁masa
ej
▁reciben
▁protejan
▁explosivas
▁operado
▁contarse
▁restantes
01
▁manguito
▁calcularse
▁lisos
▁sostenida
▁mida
▁población
▁generan
▁limpiar
454
▁regla
▁sellados
ase
▁voltios
▁empleadores
▁pasa
▁jpr
▁acoplamiento
▁440
▁portafusibles
culos
quido
culo
▁revisiones
▁previas
▁equivalencia
▁cuándo
▁washington
▁periódica
▁supera
▁detecta
▁presenten
▁producirse
▁marcos
▁habilidades
▁anormales
▁buen
▁tomen
▁adultos
▁701
▁empalme
▁señalizados
▁tabique
▁cerrarse
capacidad
▁incorporar
▁mantienen
▁ingrese
▁502
▁reduce
▁rp
▁elevators
▁supuestos
▁ats
▁cmsa
2013
sss
▁afectado
▁modificados
▁privada
▁forestales
▁dc
▁soldados
▁620
▁carácter
▁abre
▁producidos
▁estacionario
200
▁edad
▁ella
▁combinaciones
▁libras
▁niños
▁rígidos
▁continúen
▁temporales
▁signos
▁sujetadores
▁muestras
▁espumado
▁vibraciones
▁generen
▁anticongelantes
▁reconocido
▁latón
▁carcasas
▁retirados
▁intersección
▁derrame
▁adelante
▁gubernamentales
▁representan
▁estará
▁localizado
▁permitirá
▁dimensionar
▁temas
▁alumnos
▁sepss
▁monofásicos
rdidas
▁funcionario
▁marítimas
▁ventas
▁hangares
—
▁seguimiento
▁sensibles
▁dormitorio
▁bocas
▁embalaje
▁árbol
▁incapaces
▁hospital
▁brinde
▁excepciones
▁anclajes
▁empotrados
▁cuenten
▁configurado
▁originales
tales
notas
▁anillos
▁discapacidades
500
▁salir
1830
▁sostenidas
▁trabajar
▁lograrse
▁colector
▁produzcan
▁anormal
▁reforzada
▁última
▁sociedad
▁tolerancia
▁elaborar
▁pasan
▁leer
▁calculado
▁extrapesado
▁bañera
▁introducci
▁tono
▁tomado
▁constituye
▁interés
▁pulverizada
▁limpios
▁area
▁envoltura
ácido
▁selladas
68
▁extinguir
▁volátiles
▁sustancias
▁indicadora
▁radiador
▁definida
▁lejos
▁39
▁evaluado
▁intencional
▁aplicadas
▁efectivos
▁contemplados
▁piscinas
▁clima
▁calificación
▁posteriormente
▁mencionado
▁avisos
▁huecos
▁adicionalmente
▁recintos
▁tendidos
▁amplio
▁516
▁proveedor
▁vibración
▁compresión
▁respectivamente
▁escalonados
▁costura
▁grúas
▁significa
▁interesadas
▁awwa
▁trabajador
▁ésta
▁anafe
▁montar
▁estandarizada
▁designador
424
sce
▁clave
▁posteriores
▁agrícolas
700
▁departamentos
▁núcleo
121
▁modos
▁tapón
272
▁evacuar
▁compuertas
▁gerencia
▁construir
▁garanticen
▁acorde
▁sillas
▁reemplazadas
▁nunca
▁compresor
▁chasis
▁restauración
▁encerradas
▁futuras
▁proporcionan
▁technology
▁trenzado
▁atrios
▁protocolos
▁digital
▁inmueble
▁pltc
mero
neta
▁herramienta
▁119
▁actuales
▁conservarse
▁próxima
▁bloque
▁engineers
▁obtenidos
▁entornos
▁tela
▁completar
▁aprueba
▁vallas
▁abordar
▁secado
cm
▁clara
▁satisfactoria
▁internamente
▁afectadas
▁herraje
▁asignadas
▁manométrica
▁frontales
también
▁sellar
▁on
▁eficacia
▁nema
▁escalón
▁acumuladores
▁ip
690
▁trifásico
busway
▁vigor
▁médico
▁presentación
▁cuáles
▁implica
▁hechas
▁esquema
▁película
▁carbón
▁cga
▁regularmente
▁ampliamente
▁maestra
▁emergency
▁lp
▁movibles
▁nitrógeno
▁subdivisión
▁sueltas
▁toman
▁documentada
▁atomización
▁transición
▁aquél
▁refrigerados
▁comenzar
▁presurización
▁accionada
▁controladas
▁inundaciones
▁sísmica
▁db
▁figuras
▁ingresos
▁pavimento
▁enfoques
▁escalonado
▁convertidor
▁hilos
▁termofija
▁adem
▁prop
▁anterior
▁aprobar
▁exentas
▁dirigir
▁rescates
▁previo
▁61
▁contribución
▁aterrizaje
▁asignada
▁electrolito
▁finales
▁haz
114
▁obtiene
ci
▁circuit
▁detection
▁diseñadores
▁documentado
▁deseado
▁terremotos
▁dañados
▁extraños
▁módulo
▁completado
05
▁bridas
▁flujos
▁enlace
▁ángulos
▁cambiar
▁350
▁roscados
▁escalators
▁heridas
▁voltamperes
▁producci
nicas
▁parrillas
▁afectados
▁autorizada
▁naturales
▁410
▁floor
▁avenue
▁apartados
▁palabra
▁básica
▁activo
▁circundante
▁service
225
gas
▁chimenea
83
▁evalúa
99
▁escapes
▁armario
▁estable
▁baranda
▁apilamientos
▁dieciséis
▁embarcadero
▁correas
▁involucra
▁almacenado
▁muestren
▁transmisores
▁quemador
▁preparar
▁cien
▁tampoco
▁mejorar
▁apagar
▁vigueta
▁temporizado
▁remotas
▁listas
▁boca
▁mil
▁establecen
▁conveniente
▁cuentan
▁mide
▁programado
▁enterramiento
▁entren
▁paralelos
lpg
▁fundamental
▁pase
▁unido
▁verifique
▁riostra
▁polaridad
▁ingl
til
▁referirse
▁aplicabilidad
▁satisfactorio
▁52
▁embarcaderos
▁batientes
▁envases
▁aceptados
▁apéndice
▁aeropuerto
▁depósito
▁controla
▁oxidante
67
▁principio
▁reactivos
▁entrepiso
▁lubricación
▁esencialmente
▁espalda
▁rígida
▁specification
▁rol
▁ponerse
▁modelización
▁escritos
▁exhibidores
▁someter
▁removibles
▁sensible
▁exigidas
▁giratorias
▁liberar
▁recibe
▁cuadrado
▁estaban
▁extraer
▁basar
▁aéreas
▁tratan
▁+
▁matriz
▁desnudo
▁dimensionados
▁aérea
▁transitorias
▁sobrecargas
▁cerchas
▁desnudos
▁explicativo
▁adoptados
▁facultad
▁legales
▁intercambio
▁street
▁global
título
▁aconsejable
▁sótano
71
▁brasas
106
▁emisiones
▁station
▁provocadas
▁salones
▁corrugado
▁debidas
requisitos
▁buenas
▁limpiados
alarma
▁disponer
▁eslabones
▁súbita
▁encender
▁ventiladas
▁adecuación
▁verificarse
▁selectiva
▁salvo
▁telefónicas
▁proyectados
▁ajustados
▁privados
▁desempeñar
▁conducen
▁agregar
▁difícil
▁interactivos
▁alertas
▁localizar
nema
▁electrical
▁diez
▁tornillo
▁realizan
▁610
▁instructor
▁rodamientos
▁detecci
▁diel
▁desempe
▁funcionalidad
▁regulatorios
▁registrada
▁especifique
▁interferencia
▁impida
▁informar
▁fueran
▁set
▁envío
▁recubrimientos
▁carpas
▁buques
▁embarque
▁1999
▁pasantes
▁gasolina
▁1975
▁publicado
450
914
▁considerable
▁entrega
203
▁dedicado
▁compuerta
▁búsqueda
▁cercanías
▁telefónico
▁verificados
▁cojinetes
▁generalizada
▁monitoreados
▁activarse
▁ventilado
▁pensiones
▁lenta
▁inundación
▁logra
▁movimientos
▁sensora
▁llamada
▁tribuna
▁anaqueles
▁polivinilo
▁activos
▁inspeccionarse
▁oz
▁complementarios
▁ajustable
▁enterrado
▁aulas
▁razón
▁antena
▁máximos
metros
▁cubre
▁tablones
▁domésticos
▁incombustibles
▁proporcione
▁bastidor
▁mensajero
▁ventilaci
reas
▁interrupci
▁posici
▁02169
▁asignado
▁copias
▁desastres
▁creación
▁empresa
▁vinilo
▁índices
▁york
▁petroleum
▁ó
▁decorativos
1000
▁adición
▁±
▁convertidores
▁identifique
▁grupales
▁unit
▁composición
▁transferir
▁ocupacional
▁inicia
▁socorristas
▁descriptas
▁distintiva
▁eliminados
▁usada
▁instalador
▁cemento
▁fundido
▁regulares
1120
▁cuál
▁llenos
▁fabricado
▁pronta
▁iguales
▁lbf
460
▁hermética
▁cavidades
▁integradas
▁sísmicas
600
que
▁refiere
▁típicas
▁banco
▁550
▁520
national
▁realizado
▁transientes
▁polos
▁iec
▁soportados
º
comisionamiento
clasificado
cticas
▁estroboscópicas
▁aeródromo
▁proyectos
asociación
▁notificaciones
▁inminente
▁reconocida
▁representar
▁tomando
▁óxido
▁ny
▁pa
▁horno
fm
▁luminosos
▁empaque
82
118
▁compactos
▁hotel
280
▁adiciones
▁propuesta
▁comienzo
▁incidentales
▁retirado
▁frontal
▁informadas
▁vacíos
▁bolsas
▁camisa
▁77
▁relativa
▁eficiente
▁caracteres
▁estacionados
▁imagen
▁escuelas
▁suministrados
▁cabezas
▁surtidores
▁herméticas
▁conductora
▁inverso
▁506
▁ingresa
▁impulsores
▁destinados
▁480
▁redundantes
▁extremadamente
▁errores
▁ciertas
▁larga
▁influencia
▁correlación
▁buildings
▁régimen
▁él
▁ionización
▁recinto
▁pump
▁nec
▁208
▁406
▁rescatistas
amperes
corriente
das
▁ve
▁solicitud
▁gobierno
▁designar
▁chimeneas
▁individuo
▁distribuidos
▁usualmente
▁coloca
▁sueltos
74
▁convencionales
85
▁poseen
▁licuados
160
▁refrigerantes
▁aquel
▁observaciones
▁plana
▁estabilidad
▁reducido
▁confiables
▁separaciones
▁suministren
▁leyenda
▁excesivas
▁destrabar
▁celular
▁conecten
▁omitir
▁limpio
▁pronto
▁alejado
▁oscurecimiento
▁claro
▁hueco
▁susceptibles
▁administradores
▁arena
▁únicos
▁lleno
▁interconectado
▁depender
▁53
▁extienden
▁localizados
680
▁varían
▁algo
▁requerirá
w
estos
517
▁inclinados
▁rociado
▁bajada
▁curvatura
▁blindados
ndar
ados
▁registradas
▁compatibilidad
▁asistir
▁omisión
▁evidencias
▁autorización
▁demolición
da
▁1998
▁iso
manual
▁espumados
▁canadá
415
▁dispuesta
material
▁posiblemente
▁automóviles
▁rotación
▁explosiva
220
▁variedad
▁inmediatas
generalidades
▁afecta
▁abran
▁acumulaciones
▁calientes
▁corregir
▁contrato
▁seleccionarse
▁llenados
▁115
además
▁instantáneo
▁deban
▁privadas
▁caldera
▁iiib
▁dada
▁anteriormente
▁deflectoras
▁arrendatarios
▁simultáneo
▁térmicas
▁_
▁doce
▁md
▁mástil
▁ocurren
▁jefe
▁ofrecen
▁descenso
▁localización
▁solares
▁manija
▁tuercas
▁juego
▁éstas
▁realizados
▁descrita
▁realice
▁examinador
▁700
▁contactor
▁aspersión
▁mesón
▁balastos
▁receptores
ficos
▁electr
tia
▁regulación
▁afecten
▁cumplido
▁intervención
▁estatal
▁prestar
▁afecte
▁halón
▁289
▁deportivos
▁transportan
▁producido
▁varía
▁curso
▁involucran
▁recreativo
cfr
▁expresada
▁device
▁agujeros
▁representantes
▁ecuaciones
▁meta
▁fundamentales
▁mantenidas
▁significativo
cada
▁supervisada
▁cargados
▁visibilidad
▁electrónica
▁inherentes
▁sentido
▁dedicada
▁protectora
▁ambientes
▁confinamiento
▁crea
▁significativos
▁constar
▁bordo
▁punta
▁casi
▁seleccionada
▁operadas
▁4000
▁primarias
▁considerando
ejemplo
isa
▁autónomo
▁consistente
▁rf
▁casquillo
▁delta
subcontratistas
▁trenzados
▁multiconductor
▁rtrc
▁mdc
pro
▁micrófono
▁permanezcan
▁cuerdas
▁provocado
▁suspensión
▁animales
▁286
▁conductividad
cga
▁generados
▁distinta
▁detectors
▁terminan
▁familia
111
146
▁entra
▁contiguas
▁termina
▁cuadrada
▁lámina
▁analysis
▁comunidad
▁origina
▁inaccesibles
▁manipulen
▁números
▁entrepisos
▁perpendicular
▁paralela
▁presentarse
▁transcurso
520
▁propio
▁húmedo
▁ronda
▁puerto
▁descargan
▁descarguen
6100
▁controlan
▁trimestralmente
▁abastecidos
▁quemaduras
▁compensar
▁conocidos
▁complementario
debería
▁analizar
▁destacar
▁poseer
▁performance
▁causadas
▁maintenance
▁amperios
▁calibres
▁estrella
▁volt
▁kcmil
▁mesones
▁kva
rmc
▁fcc
▁relaci
sito
▁qu
quidos
▁dact
▁junio
▁tomadas
▁apelaciones
▁normalizadas
▁telecomunicaciones
▁interpretación
▁alteraciones
▁cuestión
▁pudieran
▁enumeradas
u
▁hubieran
▁declaración
▁previos
▁encendidos
th
1124
▁encenderse
▁infrarroja
▁care
▁tóxico
▁personales
▁autocerrante
▁viva
▁accidentes
▁bloqueadas
▁delantero
▁adversas
tipo
▁cuente
▁ecm
▁dañar
▁pantalla
▁teatros
▁inmediaciones
▁terminados
▁antipánico
▁teléfonos
▁balanceo
▁telescópicos
▁umbrales
▁surtidor
▁solenoide
▁sísmico
▁indicadoras
▁expandidos
▁encapsulado
▁fuertes
▁mar
▁realicen
▁csa
▁computadoras
▁dba
422
▁deberá
▁energizar
▁incrementar
▁hp
▁limitadores
▁condensador
▁cheque
▁subestaciones
▁trifilar
partículas
▁tama
▁disipaci
▁medici
▁duraci
▁incluyeron
▁fragmentos
▁deba
▁seguido
▁exigir
▁buena
▁legal
▁emite
▁batterymarch
▁montajes
▁704
▁reconstrucción
▁drive
▁medicamentos
84
105
173
▁segmentos
▁llenar
▁margen
▁involucren
▁proteja
▁provocada
▁efectúen
▁reflejar
▁notas
▁adaptadores
▁conecte
▁montada
▁conservar
▁conservados
▁frecuentes
▁actualización
▁accionar
▁espaciadas
▁condensación
▁programación
▁quitados
▁cruzada
▁resguardo
▁fluir
▁camión
▁llegue
dot
▁palabras
490
▁paradas
▁laboral
▁humano
puede
vi
▁mojado
▁fluye
?
▁marcadas
▁2017
620
nimo
▁vidas
▁mejora
▁ozono
▁jurisdicciones
▁métricas
▁iniciado
▁llevando
▁pirotecnia
▁92
▁manipulan
▁rodantes
▁viii
▁barril
▁heat
86
▁aleación
▁unifamiliar
▁educacional
▁costa
▁structure
▁tienda
espacio
▁propuestos
▁instrucción
excepto
▁temporarios
▁desconecte
▁restringida
▁precisa
▁evitarse
▁rellenado
▁terminen
▁tratadas
▁reparar
▁caseta
▁repetición
▁presurizado
▁inicialmente
▁vivo
▁suscriptor
▁reingreso
▁difieren
grupo
▁soldadores
▁haciendo
▁corregida
▁dónde
▁degradación
▁codo
▁asegurado
▁era
▁prohíbe
▁localizada
▁cono
▁/
mea
▁operable
▁secadoras
▁by
▁inducción
▁cortacircuitos
▁monofásico
▁tc
sicos
▁temporarias
▁agregados
▁vigente
▁emitido
▁generado
▁coloquen
▁resumen
▁detectado
7471
▁vidrios
▁cigarrillos
▁1994
▁restaurantes
▁adoptado
maq
360
▁vagones
▁dique
115
89
▁estrechamente
▁abarca
133
135
186
205
210
▁guías
▁escrita
▁predominante
▁inusuales
▁tomas
▁evaluarse
▁cavidad
▁2500
▁registrarse
▁mantenida
▁hidrostática
▁externamente
▁disponga
▁abarcar
▁proscenio
▁paquete
▁telas
▁prohibidos
▁juntos
▁lluvia
▁desvío
▁extender
▁rígidas
▁posean
▁sobrepresión
427
▁aparecen
▁revisadas
▁observa
▁tomada
▁ítem
▁unos
▁entidades
▁determinan
▁servida
▁guantes
▁trabajando
▁steel
▁ordenanza
▁facilities
▁treinta
▁blindajes
▁bobinas
▁riel
▁torque
▁response
▁desequilibrio
▁grapas
▁motocompresores
▁incendiario
▁reemplaza
▁comités
▁aptitud
▁68
▁extractos
▁remodelación
▁aceptar
▁conocido
▁constituir
▁investigar
▁defectos
▁uni
▁celulosa
▁neblinas
▁160
117
▁road
▁laboratories
▁almacenarse
▁níquel
▁ebullición
▁chispa
▁rodea
▁incidental
clase
▁hecha
▁contemplar
▁reabastecimiento
▁limite
▁funcionales
▁intermedias
▁adosados
▁posiciones
▁reemplace
▁reparado
▁presurizados
▁hidrostáticas
▁efectúa
▁minuciosamente
▁asociada
tabla
▁dinámica
▁enviar
▁inicie
▁reposición
▁ajustado
▁ajustarse
▁observación
▁ocurrido
▁redundante
▁dividido
▁deseada
▁goma
▁precaución
▁opuesta
▁presume
▁enfermería
▁variación
▁auto
▁ajustar
▁cabe
▁mejores
▁424
▁780
▁abren
▁fotoeléctrica
▁intercambiador
▁coeficiente
▁mic
▁proporcionador
▁exija
▁equipar
551
▁jacuzzi
▁edici
ticas
▁significativas
▁1997
▁modificar
▁mitigar
▁obligaciones
▁oficiales
▁informado
00
▁gaseosos
▁motorizados
▁1996
▁56
▁underwriters
▁butano
▁infraestructura
▁manipulados
▁litio
▁potasio
▁ordinarios
▁compensación
▁explosivo
▁retraso
▁alojar
▁fuerte
▁agrupados
▁minimice
▁garantice
▁evidente
▁)
▁exactitud
▁entidad
1525
▁recta
▁uniformes
▁opcionales
▁estipulado
▁opuestos
▁someterse
232
▁municipal
▁mentales
▁propia
▁ofrecer
▁atrio
▁terminada
▁aleros
▁colores
▁indicando
▁estufa
▁municipales
▁estáticas
▁muerto
▁sólidamente
▁gráficos
▁corresponden
▁vean
▁metodología
▁gráfica
▁ejecución
▁ofrece
▁sencillo
▁reservorio
▁opcional
▁504
▁tanks
▁503
2014
▁new
▁with
▁cualesquiera
▁conveniencia
▁handbook
▁695
▁fría
▁ocurrencia
▁npt
▁coaxial
▁poliamida
▁tetrafilar
▁668
▁ubicaci
nicamente
▁sobrepotencial
▁inteligible
▁presentado
▁nitrato
▁balas
▁naves
▁calles
▁deje
▁domicilio
▁aceptado
▁estacionamientos
▁105
▁bibliotecas
▁obligatorio
▁pleno
▁rectificadores
▁temporario
81
95
emergency
112
136
▁galones
▁provoque
▁gubernamental
▁unitario
▁bloquear
▁ininterrumpida
▁designaciones
▁adaptador
▁cintas
▁muestre
▁durable
▁ejes
▁elaborarse
▁históricos
▁cortina
▁legibles
▁perforación
▁refrigerante
▁detalladas
▁empleen
▁mes
protección
▁formado
▁tercio
▁instruidos
▁informados
▁descargue
▁1200
▁albergue
▁túneles
▁absorción
▁ranuras
▁ic
▁miscibles
▁totales
▁hermeticidad
▁facilidad
▁audición
▁predecir
▁deja
▁pocos
▁dan
▁dependen
▁coordinar
▁bucle
▁causado
2007
norma
▁eficaces
▁casco
▁internet
▁retardante
▁ordenamiento
▁campus
▁autotransformador
▁electrificado
▁lubricaci
▁podrá
▁extraídos
▁presentada
▁inspeccionada
▁compañías
▁destrucción
▁particulados
instituto
▁west
▁recomendación
control
almacenamiento
▁transportados
▁humos
125
▁neón
▁graves
▁garantiza
254
▁gaseoso
▁subsiguientes
▁direccionales
▁ingresen
▁probada
▁180
▁abastece
▁asignados
†
▁aspecto
▁prolongado
▁prestaciones
▁netos
455
▁conduzcan
▁pendientes
▁mejoras
▁secas
▁finalizar
▁colectores
▁abastecen
▁aspas
▁preferentemente
▁maneras
▁audibilidad
▁letrero
prueba
▁opera
▁acumulada
▁investigadores
deberían
▁particulares
▁compartimentación
▁rangos
▁aceptabilidad
▁deseable
▁expresión
▁ayudar
▁soldador
▁niple
▁ensayado
800
▁beneficio
▁comparar
▁diesel
”
▁aros
▁vac
▁numerales
▁retransmisión
▁caballo
▁intersistemas
ado
neas
▁derivaci
▁iluminaci
▁ibf
▁tentativa
▁cine
▁140
▁aseguramiento
edición
▁examinar
▁cercanas
▁oficial
▁atravesar
based
▁láminas
aire
211
165
▁responde
▁clasifican
▁configurados
▁ensamblados
▁humanos
▁actualizados
▁arrendatario
▁juegos
▁dañadas
▁mueble
▁transmitidas
▁diariamente
▁emplee
▁camino
▁turno
▁angular
▁recubiertos
560
660
▁seda
▁centrado
▁dedicados
▁porcentajes
▁activados
▁ruptores
▁refrigerado
▁clínicas
▁engranajes
▁poca
▁rectos
▁típicamente
▁recomiendan
’
▁destinado
▁renovación
▁lineales
▁franjas
▁incrementada
▁dondequiera
▁ir
▁web
▁705
▁422
▁paletizado
▁impulso
▁part
▁unitarios
¼
▁aislamientos
▁trayectorias
▁electrolíticas
▁arrancadores
▁cmp
▁construcci
▁sobretensi
quinas
cap
▁instrucci
▁agosto
▁enmienda
▁originalmente
▁forestal
▁ordenanzas
▁obstruir
▁aprobaciones
▁resolución
▁transformaciones
ac
▁signal
▁sustituto
▁cuadrados
▁bienes
▁cargadores
▁pasarela
▁ocasionalmente
▁corrosivo
▁distinto
▁mg
▁calentar
▁health
▁residente
▁neumático
▁segmento
▁restaurar
▁icc
▁generadas
▁relativo
▁estands
todas
▁salgan
▁firme
▁circundantes
▁quemado
▁encontradas
▁página
▁active
▁cadena
dos
▁mencionan
▁calcio
▁verificada
▁sonar
▁anunciador
▁mover
▁contraste
227
▁interrumpido
▁demandas
▁restos
▁exhibidos
▁libros
▁flotantes
▁gnl
▁inherente
▁sellada
▁macizos
▁probabilidades
▁electrostáticos
▁tendencia
▁familiarizados
▁iniciarse
▁suspendidas
▁abrazadera
▁concientización
▁amoníaco
▁planillas
presión
▁obstruida
▁subsiguiente
▁lubricante
▁diciembre
▁hardware
▁básicas
▁pasivos
q
▁estimación
▁contribuye
▁característicos
▁considerablemente
▁beneficios
▁anterioridad
▁tercera
▁losa
▁devices
axm
▁recto
▁expresa
▁simples
▁llamadas
▁evaluadores
▁interactivo
▁pipe
hr
▁625
426
▁trifásicos
▁alumbrado
imc
▁ampacidades
▁itc
▁nm
▁rcm
▁tonos
quina
▁msc
▁incluía
▁observancia
▁actualizado
▁introducidos
▁corchetes
▁sustancialmente
▁estarán
▁marítima
▁guardia
▁deflagraciones
▁helipuertos
▁culto
▁41
▁frecuente
▁negativo
▁ordenada
88
▁predeterminado
▁actúa
▁muerte
▁recibida
▁diario
▁opuesto
▁misceláneo
▁exponer
▁satisfactoriamente
▁velas
▁coloque
▁médicas
▁sucia
▁contrastante
▁dañado
▁roturas
▁bisagras
▁revestidos
▁obtenida
▁atraviesan
▁rellenados
▁advertencias
▁complejos
▁activadas
▁profundidades
▁espaciarse
▁batiente
▁separan
▁dirigida
▁jaula
▁buque
▁46
generalmente
▁automotores
▁interconectar
▁negro
▁resinas
▁evita
▁conmutación
▁sostienen
▁centrífugas
▁fórmulas
▁instrumentación
▁maleable
▁bajante
▁abrasión
▁810
▁permitiendo
▁foundation
▁>
▁expertos
▁completas
▁simplemente
según
▁tormenta
▁plásticas
▁detallado
▁vital
▁requirements
▁roles
▁cabida
▁radial
▁celulares
▁rodamiento
▁compartida
▁art
▁cops
▁inalámbrica
▁remolque
▁monopolares
▁led
▁ofnp
▁ofcp
▁equipotencial
▁cmr
▁catv
dicas
dicamente
▁stipa
circ
▁derechos
▁interina
▁q
▁incorpora
▁pertinentes
▁vea
▁educación
▁implementadas
▁asumir
▁siete
▁campos
▁participar
▁tercios
▁solicitar
▁correcciones
▁periódico
▁genere
▁88
▁703
▁resistividad
▁lubricantes
▁destilación
▁tambores
▁contenidas
▁tank
▁diversión
▁estrategia
▁criogénico
78
▁responden
▁atraviesa
▁ceiling
▁wall
▁pinturas
▁antesalas
▁intermitente
▁autoignición
172
▁cercanos
▁severa
▁demuestre
▁comprende
▁esquinas
▁proveedores
▁tome
▁interfieran
▁rotura
320
▁enseñanza
▁mercado
▁atraviesen
▁terremoto
▁aumentada
▁respectivos
▁collar
▁evacuados
▁desactivar
▁monitoreada
▁empotrado
▁liso
▁formados
▁pares
▁identifican
▁supervisar
▁tensores
▁alberga
▁empaquetaduras
▁goteo
incluidos
▁estacionado
▁inertes
▁tubulares
▁fracción
▁diafragma
▁intercambiables
▁manteniendo
▁soldaduras
▁quedan
▁fábricas
▁provisión
▁administrativos
▁evaluadas
▁salen
▁ingresan
▁prendas
▁eficazmente
▁pesar
▁deriva
▁supuesto
▁direccional
▁viable
▁actualidad
▁desplazar
▁bañeras
▁center
▁causada
▁<
▁volado
▁tiro
½
▁investigador
▁sale
▁compartidas
▁incrustaciones
▁flexión
▁514
▁desenergizar
circuito
cable
digo
▁calibraci
▁mts
▁peque
▁ingenier
▁deseadas
▁pirofóricos
▁eliminado
código
▁entregar
▁interrumpa
▁comandante
▁causados
▁organismo
▁mencionada
▁registrados
▁posterioridad
▁nacionales
▁emitirse
▁julio
▁1993
▁descomposición
▁existencias
▁1995
▁lengua
▁significados
▁limpia
▁espectro
134
▁accidentales
▁quitado
▁accidente
▁estante
▁anular
▁removible
▁predicciones
▁identificarse
▁misión
▁prescriptivos
▁instituciones
▁brinden
equipos
▁táctil
▁relaciones
▁cercas
▁altoparlante
▁galvanizado
▁alfombras
▁posicionados
▁colocan
▁bloqueados
▁macizo
▁auxilios
▁sol
▁pistas
ocupaciones
antes
▁1989
▁rodante
▁pasado
▁observado
▁anunciadores
▁remotamente
▁aseguradas
▁desconectado
▁láser
▁igualmente
▁prevenga
▁lindes
▁monitoreadas
▁liviano
▁tendrá
▁térmicamente
▁cliente
▁impidan
▁ia
03
▁cortar
▁tracción
cadmio
▁limiten
▁contracción
▁relevantes
▁imposible
▁%
▁seleccionadas
▁detalle
▁interfaces
▁renovaciones
▁cierto
▁desea
mm
▁&
▁ahora
▁empotradas
estas
▁calefactor
▁imo
▁roof
▁evacuation
▁requeriría
▁guidelines
▁suprimir
▁desenergizado
▁vi
▁rti
▁clavos
▁métricos
▁respirable
▁balasto
▁uf
▁portador
440
▁trif
pica
▁textual
▁explicación
▁inclusión
▁exhibiciones
▁impracticable
▁durabilidad
▁competencia
▁deberes
▁sometida
▁establezca
▁85
▁91
▁1600
clasificadas
▁academia
recommended
▁valve
▁revestido
59
type
94
▁finas
▁hazard
cnpt
▁pretende
▁anestesia
▁fabrican
▁trabajan
▁mercadería
▁embalados
▁adosado
▁participación
▁estrecha
▁propuestas
▁cadenas
▁obtenido
▁señalizado
▁verificado
▁reconfiguración
▁brazos
09
▁penetrar
▁representativas
▁impermeable
▁encierran
▁rejas
▁obtenga
▁brindarse
▁recibido
▁consenso
▁tormentas
▁supresores
▁entrenadas
▁adulteraciones
▁configurada
▁volverse
▁exclusión
▁calculadas
▁prohibidas
▁verificadas
▁comedores
▁satisfactorios
▁asentamiento
▁reguladas
▁difusión
▁contribuyen
▁transmite
▁hidruro
▁calentados
▁cloro
▁modifican
▁aliviar
▁drenar
▁regional
▁teniendo
▁ilustran
▁hormigón
▁hacerlo
▁archivo
▁seguirse
▁voltajes
▁complejidad
▁co
▁asce
▁aseguren
▁reemplazarse
▁nicho
▁desviaciones
▁comunicarse
▁spaces
▁descargada
▁escena
▁seccionadores
▁radiadores
▁remover
▁heskestad
▁transductor
▁intrínseca
▁elevador
▁communications
314
▁separable
▁sf
▁formaci
mo
neo
rea
▁instant
▁signaling
▁elaborados
▁consisten
▁regulados
▁exención
▁respuestas
▁exhibir
▁241
▁409
▁il
▁enero
▁diccionario
guide
▁95
▁apilamiento
▁mercaderías
▁libremente
▁ventilada
▁intencionalmente
▁facility
▁deficiente
▁desecho
139
142
▁inyección
▁compuestas
▁contiguos
▁albergar
▁riego
194
222
▁incompatibles
▁separadores
▁desempeñan
▁representen
▁movilidad
▁implementado
▁permisibles
▁transmitida
▁ocurran
▁involucre
▁desarrollarse
▁notificado
▁simular
▁allí
▁vuelva
prohibición
▁ceniceros
▁temporaria
▁dirigido
▁ruptor
▁acomodar
▁planificado
▁especializados
▁notificarse
▁iniciada
▁receptora
▁macizas
▁necesitar
▁diagonal
▁mensualmente
▁antecedentes
▁acumularse
▁calentado
▁respiratoria
▁capacitados
▁zanjas
▁pesada
▁sopladores
▁inherentemente
▁ubica
▁sumideros
▁textos
▁desconectados
▁operen
▁pulverizadoras
▁autónomos
▁recalificación
▁interacción
▁geometría
▁dilución
▁validación
▁reducen
▁sacar
▁cambia
debido
▁gato
▁realizaron
▁divertimento
▁impráctica
▁temporalmente
▁apartadas
▁fijada
▁incrementarse
▁exigen
▁application
▁venteo
▁suplementario
▁abastecimientos
▁incombustible
▁reductora
▁inducidas
▁redundancia
▁rectificador
▁per
▁calefactoras
▁slc
▁comunales
2010
▁trifilares
▁designadores
▁ofnr
▁ofcr
▁eólica
725
▁cmg
lico
lido
▁atenci
▁corrosi
▁notification
▁subsidiaria
▁1992
▁agregó
▁asuntos
▁modifica
▁negativa
▁prescritos
▁continúe
▁76
▁mineral
▁265
▁minoristas
▁650
▁perimetrales
▁263
▁aquello
▁conocida
▁tendrán
▁deflagración
▁energy
▁bifamiliar
▁fuel
▁anticipada
▁assembly
▁cuyas
▁piel
▁ojos
▁inestable
▁calderos
▁pensión
188
▁sujetados
▁convencional
▁incorporado
▁disminuir
▁vástago
▁laminada
▁difiere
▁defensa
instalación
▁inaceptable
▁comienza
▁multitud
▁momentos
▁participantes
▁temporada
▁sets
mantenimiento
▁examinados
▁continúa
▁colchón
▁encerrar
▁asignar
▁plenos
▁transformación
▁rótulo
▁insuficiente
▁estratificación
▁traba
▁arandelas
▁prestarse
▁gerente
▁inusual
▁acústicos
▁proyectada
▁vestimentas
▁adaptarse
▁silla
▁pirotécnicos
▁suponerse
▁fluya
▁filtrado
▁trabaja
▁resistan
▁severo
▁empaquetadura
▁coordinada
▁esquemas
▁post
otro
=
▁grifo
▁vaciado
▁215
▁proporcional
▁cal
▁centrales
▁permanezca
▁representativa
▁acústico
▁desenergizados
▁sonda
▁aun
▁directorio
▁neumáticamente
▁reducciones
▁vuelve
▁serían
▁used
▁comodidades
▁delante
▁servidos
▁travesaños
▁hallazgos
▁introducir
▁requerirán
▁esperar
▁coordinados
▁periodo
▁zinc
▁reflujo
▁proporcionen
▁candado
▁autotransformadores
▁inalámbricas
▁ponderación
▁mppt
▁emt
▁vii
▁porcelana
▁645
▁tamices
▁ofng
▁ofcg
▁ofn
▁ofc
▁amplificador
cido
fica
▁coordinaci
ctricamente
sico
▁categor
▁cu
sica
▁verificaci
▁correlaciones
▁mayo
▁enmiendas
▁contempladas
▁obligatoria
▁colaborar
▁editoriales
▁alterar
▁opinión
▁ejecutar
▁falsa
▁vigencia
sociedad
▁significado
▁absoluta
▁metros
▁provenga
▁residuales
▁ventilar
▁troncos
▁conjunta
▁astillas
▁ppm
▁emitan
▁política
▁sufrir
▁producida
▁ajustada
▁tratamientos
▁transitorios
safety
▁ocupable
266
▁realidad
▁obstruidas
▁césped
▁cortes
▁visualización
▁claraboyas
▁monitoreado
▁casilleros
▁1¾
▁clapeta
▁directos
▁refrigeradores
▁cubículos
▁cartucho
▁mensual
▁incorrecto
▁calibrado
hvac
▁zonificación
▁semanalmente
▁tratado
▁dificultad
▁cursos
▁conste
▁pánico
▁duchas
▁noche
▁azotea
▁espaldares
▁bordillos
▁alcantarillas
▁gnc
pulg
▁terrenos
▁denomina
fuego
▁electrostática
▁fresco
▁equilibrio
▁retire
▁atendido
▁elevar
▁emiten
er
construcción
▁deslizantes
▁zanja
▁versus
▁inclinado
694
73
▁consulta
▁interconectada
▁calculados
▁esperada
▁cargar
longitud
▁comisión
▁trayectos
▁computación
▁desarrolla
▁organismos
▁uniformidad
▁contempla
▁tradicionales
▁cpvc
▁reproducción
▁trampa
▁incandescentes
▁probables
▁fundamentos
▁resistance
▁port
▁asegure
▁volados
▁ducha
▁temporizador
▁telefonista
▁falle
▁integración
bypass
▁supply
▁contactores
bar
▁vayan
▁duelas
▁retro
▁tractores
▁mv
▁monofásica
▁sencillos
▁ópticas
▁seccionamiento
692
705
▁catvp
mites
xima
▁configuraci
cilmente
▁contaminaci
hou
▁octava
▁incluyó
▁insonorizados
sección
▁horario
▁anexas
▁barricadas
▁incorrecta
▁licencia
▁reglamentación
▁59
▁111
▁astilleros
▁490
▁examinadores
clasificación
▁7500
▁555
▁terceros
asce
automatic
vrla
▁distribuir
lb
▁hazards
electrical
smoke
79
▁fenómeno
▁predeterminada
▁index
▁hidrocarburos
▁asfalto
▁estrategias
265
▁dimensionada
▁reactividad
▁reaccionar
208
▁retener
▁expone
▁intersticial
▁volúmenes
▁liberaciones
▁efectivas
▁crean
▁documentarse
▁detecte
▁carreteras
▁reciente
▁actualizada
▁oportunidad
▁linde
▁coches
▁ensamblado
▁corredizas
▁persianas
▁faltantes
▁demostrarse
▁mj
▁penetren
▁marquesinas
sobre
▁conduzca
▁correctiva
unidades
▁activen
▁repetir
07
▁recargable
▁menciona
510
▁calibrados
▁aumentos
710
▁diagnóstico
▁iluminado
▁llamado
▁ardientes
▁trasladados
▁obligación
▁infantes
▁64
▁privacidad
▁granos
▁dura
▁representación
▁gama
▁intentar
▁distante
▁limpiado
▁cortos
▁cargado
equipo
▁reduzcan
▁inertizado
▁resultantes
▁inadecuada
▁bloquearse
▁certifica
▁reconocen
▁observan
▁enumeran
▁error
▁confusión
▁laborales
▁elegir
▁formal
▁tapetes
▁ventajas
▁estático
▁espaciamientos
▁siguiendo
flujo
▁perjudiciales
▁mutual
▁vaporización
▁industrias
▁resortes
▁suministradas
guía
▁descargos
▁coverings
▁histórico
▁empotrada
▁ferrosos
▁galerías
▁enfermeras
▁dimensionarse
▁nada
▁autónoma
▁claridad
▁discontinuas
▁indirecta
▁arrancador
▁prealarma
▁atenuación
▁superan
▁sofito
▁rotativas
▁mist
metro
▁it
▁corona
esto
▁radiofrecuencia
▁gr
▁energizada
▁sistemática
408
552
cámaras
▁conmutada
▁fplp
cil
▁selecci
▁reducci
▁desconexi
ximo
sicas
epp
stica
▁vol
▁speech
▁preparada
▁1971
▁tuviera
▁recientemente
▁mobiliario
▁exenciones
toda
▁justificar
▁solicitudes
▁nave
▁detallados
▁posea
▁recopilación
▁utilidad
▁infracción
▁dé
▁salvaguarda
▁326
▁914
▁despliegue
▁1990
▁108
▁tiras
ulc
▁entretenimiento
▁arder
▁entendimiento
▁estables
▁space
▁plomería
77
▁operation
▁detonación
97
▁inventario
▁pesados
180
▁mental
▁administration
on
▁incertidumbres
▁protegiendo
▁intencionales
▁creado
▁incorpore
▁eliminadas
▁incorporen
▁vuelvan
▁correspondan
▁cortados
▁exclusivo
3048
▁elaborado
▁coordinador
▁terminadas
▁arte
▁revestida
▁estadios
▁estudiantes
▁divididos
▁antiguo
▁dejado
▁cargadas
▁planilla
▁mostrado
▁marcación
completa
▁limpiarse
▁modifique
▁dividir
▁palanca
▁ajustadas
▁prioridades
▁grietas
▁contemplan
áreas
▁reservorios
▁emplazamiento
▁limpias
▁sostén
▁suplementaria
▁multifamiliares
▁recibidas
▁ocultas
etiquetado
▁resguardar
▁aptos
advertencia
▁botón
▁posicionamiento
▁marítimos
356
▁justifica
▁caer
▁resguardadas
▁peor
▁hidráulicas
▁electrónicas
▁establezcan
▁costera
▁transmitan
▁1¼
▁ornamental
▁cuantitativos
▁tercer
▁útiles
▁posibilidades
pueden
▁lapso
▁bancos
▁sugiere
▁sofitos
▁from
▁plastic
▁porciones
▁lentamente
▁factory
▁60079
▁estroboscópica
▁vástagos
▁llena
▁estaba
▁deberán
▁suplementarios
▁eliminarse
▁comentarios
▁multi
▁applications
▁units
▁termine
▁perfil
330
▁conmutador
▁expresado
▁165
▁térmicos
▁assessment
▁¿
▁ligeramente
▁dotados
▁soportado
▁influenciada
▁compacto
▁marina
▁rígidamente
▁tolerancias
▁transmiten
▁infrarrojas
502
675
820
▁enchufables
▁amarres
▁trifásica
▁bifilar
▁sufijo
▁511
▁catvr
▁veh
▁utilizaci
▁compa
mico
▁acu
▁intelligibility
▁talkbox
▁rigen
▁prestación
▁descripciones
▁podrán
▁creados
▁interpretaciones
▁temporariamente
▁desempeñen
▁correo
▁civiles
▁tercero
▁170
▁plantean
▁archivos
▁etileno
▁azufre
▁históricas
▁vaso
2001
2009
cielorrasos
▁toxicidad
'
▁commission
▁liquid
▁quema
high
▁demuestra
▁liberado
264
▁plantea
▁finish
▁magnesio
119
▁tiende
127
▁obstructor
▁guardados
▁solvente
170
▁ventaja
▁descargarse
▁vientos
▁garantía
▁elección
▁relevante
▁mixtas
▁prontamente
▁cortafuegos
▁laberinto
▁contactar
▁completarse
▁resista
▁dejando
▁reciban
cielo
▁receptoras
▁ático
▁arenas
▁notificados
▁identifiquen
▁periódicos
▁obstáculos
▁obstruidos
▁3½
▁anuales
▁incrementos
▁720
▁programadas
▁paralelas
▁ajustables
▁plenamente
▁comercialización
▁quitada
▁instantánea
▁manijas
▁paños
▁escritas
▁cama
▁climas
▁soplador
▁contemplado
▁adentro
▁sumidero
▁forzado
▁lleguen
▁enterradas
▁unas
▁enclavados
▁perno
▁familiarizado
▁hombre
▁rotativo
▁derramado
▁alcanzado
▁profundas
▁np
▁almacena
▁adversa
▁repetirse
▁fundición
▁habido
▁abandonados
▁entrante
▁cierra
▁duradera
▁asume
▁consultorios
▁1991
vii
▁cd
▁obtienen
▁acumulado
▁bloqueos
▁inversión
▁escuchar
▁ruidos
▁requerimiento
▁llevaron
iec
▁encapsuladas
▁clorato
▁330
libro
▁septiembre
▁seguidas
▁agregaron
▁at
▁through
▁sujetarse
▁caracol
▁contrahuella
▁veinticinco
▁auditivos
▁remolques
▁capacitadas
▁enlaces
▁agrupamiento
▁dual
▁forzada
▁restablecer
▁seccionador
▁influencias
▁originar
▁soldar
▁escudos
▁potable
▁cabezales
▁amplificación
▁tender
350
▁atrincherados
▁tetrafilares
▁bifilares
▁552
▁cablebus
530
▁econ
▁acumulaci
▁detenci
▁documentaci
▁acci
sitos
▁monof
▁dacr
▁inalámbricos
dónde
▁había
▁dificultades
▁declaraciones
▁policía
▁emitidos
▁derecho
▁desastre
▁opere
▁impresa
▁cultural
▁utilizables
▁10016
▁department
▁normalización
▁abril
▁sp
▁apto
▁exhiben
▁polipropileno
▁sustancia
▁reacciones
▁transportadas
▁suppression
▁subproductos
▁peldaños
class
▁cree
▁soporten
kg
▁data
▁semana
▁propias
▁severas
191
▁procesar
▁cuello
▁parámetro
▁arquitecto
▁estrecho
▁provoquen
▁siga
▁estrictos
▁590
▁pertinente
ubicación
▁ubiquen
▁pintados
▁revestidas
▁lubricados
▁cierren
▁cubran
▁exentos
▁mortero
▁escoria
▁formando
▁congeladores
▁festival
▁encargada
▁generada
▁restaurada
▁semanal
▁1984
▁aumentado
▁recargables
▁coincida
▁cierrapuertas
▁305
▁distintivo
▁próximos
▁fotoluminiscentes
▁demoras
▁aceptadas
▁trasladar
▁soldado
334
▁demuestren
▁limpiadas
▁consista
▁amperaje
▁amarre
▁efectuadas
▁divisores
▁bujes
▁infrarrojos
▁bobina
▁satisfactorias
▁internacionales
▁sucede
▁ib
378
▁neto
▁estadounidenses
▁vehiculares
▁soldada
▁safe
sr
▁cebado
▁anticipado
▁espaciado
▁ecualización
▁parciales
▁jóvenes
▁eran
▁aceleración
▁proporción
▁compleja
▁relacionan
▁subclasificación
▁antesala
640
▁recomendable
342
▁estricta
▁auditoría
tal
▁497
▁respiración
▁cuero
▁lc
▁tia
▁incorporados
▁assemblies
fir
ind
▁pasando
▁operables
▁opuestas
▁den
▁operando
▁silenciamiento
▁desigualdades
▁encargadas
incluyendo
▁conjuntamente
▁futura
▁nist
▁motogeneradores
▁impulsadas
▁soportadas
▁microbiológicamente
▁centrífuga
▁175
▁montarse
▁tuerca
▁km
▁directrices
▁apretadas
▁levemente
▁portal
▁delichatsios
▁lfnc
▁460
▁rebose
▁desactivado
▁telefónicos
▁escobillas
646
▁desequilibradas
840
▁comit
▁recuperaci
▁revisi
▁extensi
mpara
geno
▁alumno
▁reservados
▁incorporan
▁refleja
▁violación
▁incapacidad
▁preparados
▁espumas
▁minas
▁307
223
▁mechanical
2004
▁concentrados
▁626
▁asesoramiento
▁vigésima
▁parrilla
combustible
215
▁reactivo
▁encontrados
▁alquitrán
144
▁rapidez
▁escapar
water
▁brigada
▁recreación
239
▁operarse
▁confianza
▁modificadas
▁administrador
▁secadores
▁minimicen
▁resultan
▁manguitos
▁ancla
▁carpintería
▁reflejan
▁inconvenientes
▁aparece
▁posibilitar
▁forme
▁accionarse
▁encargado
▁fechas
▁membranas
▁obstruido
▁pasadores
▁cifras
▁consideren
▁lux
▁espontánea
▁preservación
▁resolver
▁exhibidor
▁auditorios
▁participen
▁correspondencia
▁atendidas
▁distintivas
▁grabación
▁absorbente
esfr
▁nube
▁impiden
▁106
▁dosificación
▁escotilla
▁resguardados
▁almacene
▁alejados
▁restablecimiento
▁ferroso
▁contenida
708
▁sedimentos
▁incipientes
▁pone
▁obstructores
▁amenazas
▁cubra
▁actúan
son
▁monitorea
▁cierta
▁indebida
▁desarrollan
▁distinguir
uu
nec
▁representativos
▁vidriados
▁encapsulados
▁ven
▁propios
▁irregulares
▁electromagnética
▁asegura
▁complementaria
▁magnético
▁olor
▁cascos
505
▁preocupación
densidad
▁severos
▁perclorato
más
▁preguntas
número
▁355
2002
después
▁accessible
▁purposes
▁operada
▁ground
285
▁abanico
▁esquina
▁aireadores
▁proporcionados
▁codificada
▁interferencias
▁conservador
▁retroalimentación
▁salientes
▁auditiva
▁planificar
off
▁picos
▁particiones
▁repuestos
▁operacional
▁programada
▁ánodo
▁mode
pressure
▁disco
▁vértice
▁fluorescentes
▁arriostramientos
▁estanque
▁estanques
▁vaya
▁unida
▁multietapas
▁reinicio
▁grúa
▁amplificadores
550
▁permitirsen
rtrc
▁off
▁362
▁nmc
368
▁grounding
▁cuchilla
▁cuchillas
▁plfa
▁fplr
830
rminos
picos
▁identificaci
ficas
▁refrigeraci
nas
▁nebulización
▁abarque
▁amplitud
▁preliminares
▁correctos
▁presentaciones
▁impresión
▁260
▁recreativas
▁408
▁495
▁1031
▁cohetes
▁nw
▁ashrae
503
▁halogenados
▁1632
approved
▁jurisdiction
▁materia
listed
materiales
▁subsistemas
building
▁ultravioleta
▁elimina
131
▁garaje
▁cargada
▁puro
▁level
▁grave
176
sei
▁lesión
▁avanzada
▁dividida
▁can
244
▁cartulina
▁maestras
▁muerta
vapor
uso
▁model
▁conservación
▁muertes
▁impedimento
▁explícitamente
▁lento
▁preparado
▁innecesaria
señalización
otros
▁grava
▁prohíban
▁ganchos
2440
▁mantenerlo
▁clubes
▁espectáculos
▁lavadoras
▁actúen
▁llenas
▁hizo
▁sumergidas
▁revisarse
▁detalla
▁quitarse
▁trampas
▁efectuados
▁indicarse
▁neumática
▁cifra
▁peatonales
▁coche
▁comience
▁canaletas
▁partida
332
▁proyectores
▁faa
▁hangar
in
▁tensada
▁formatos
▁reguladora
▁enclavado
▁fondos
▁poliestireno
psi
▁sufra
▁precisos
▁extractor
fuente
▁660
▁restaurado
▁contaminado
02
▁cuyos
▁inclinadas
▁intercambiadores
910
▁considerables
▁embalse
▁suponiendo
▁dulce
▁cortas
▁inspecciona
▁acordes
355
▁caracterizan
▁destinadas
▁expectativas
▁sociales
▁aprendizaje
▁preferible
kw
▁amplios
algunos
▁relativos
▁vestir
▁empresas
▁tienden
▁aumentan
▁hicieron
▁sustitución
▁estimaciones
▁asegurada
▁elaborada
▁ornamentales
▁bastante
▁manejar
▁fabricar
▁especializadas
▁micrones
▁esperado
▁rotatorios
▁dieléctrico
▁caminos
▁furniture
281
▁espectadores
▁necesite
▁realizada
▁soportada
▁servido
▁localizadas
▁frentes
▁apoyapiés
▁rectangular
▁banderolas
▁management
▁acústicas
▁modalidad
▁sumergidos
▁445
▁señala
▁ece
▁roscada
pulgadas
▁reductoras
▁insertos
▁enterrada
▁perfiles
▁multiplicar
▁multiplicado
▁reclasificación
▁fluctuaciones
▁prensaestopas
625
▁installation
▁industries
subcontratista
▁aislador
310
▁404
▁bipolares
501
▁fpl
770
▁blp
cnicas
mpago
tiles
▁eliminaci
ales
▁calefacci
▁correcci
brica
▁gradiente
transceptor
▁worcester
▁cis
www
reactivos
▁tomados
▁controle
▁procura
▁justificación
▁tenido
▁habrá
▁82
▁102
▁air
▁vehicle
▁northbrook
▁402
▁flow
ca
▁artificial
▁pasajes
▁cubren
▁disipación
87
▁distribuidor
▁relaciona
126
▁envase
145
▁molinos
▁maciza
▁ocupar
▁sostiene
▁pulverizaciones
249
251
system
▁presunción
▁modificarse
▁coherencia
▁continúan
▁conducidos
▁interfiera
▁cultivos
▁represente
▁cúbicos
instalaciones
▁mesa
▁únicas
▁operatividad
▁reemplazos
▁acústica
▁baile
▁representaciones
▁telón
▁guardar
▁excesos
▁acumulen
▁otorgar
▁adosadas
▁notifique
▁anunciada
▁impedimentos
865
▁obvio
▁interrumpe
▁expresan
▁arrendable
965
1065
▁liberados
▁portones
▁definidas
▁reducidos
▁codificado
▁papeles
▁sanitarios
▁marinas
▁descargados
▁ocupen
▁prohíben
▁poliéster
▁solenoides
▁transporten
▁miden
▁interrumpida
▁alternativamente
▁automatizados
▁restringidas
▁aleaciones
▁empleando
▁propelentes
▁realmente
diseño
▁atrapado
▁atrás
283
▁extremas
válvulas
▁experto
▁alejada
▁ilimitada
▁prepararse
▁perforados
▁empleadas
▁desocupadas
▁migración
▁hidrostáticamente
▁mallas
▁universal
▁bureau
▁exotérmica
▁transitoria
▁moteles
▁inician
▁640
▁restringirse
▁000
▁rincón
▁indicaciones
▁intenta
▁extendido
▁preferida
▁despertar
▁cambian
▁cimentación
▁separa
▁originó
▁provocan
▁introducen
▁desplaza
▁observarse
▁ee
▁interrogantes
▁1221
▁evaluation
▁aci
tms
▁joint
▁médica
▁tope
epss
▁carbonizada
▁trescientos
▁direccionamiento
▁ras
▁subsistema
▁fijarse
▁siguen
▁pormenorizada
▁human
▁víctimas
▁incrementa
▁alarms
▁trabaje
▁desconecten
▁gaithersburg
▁risk
▁noviembre
▁rendimiento
▁erratas
▁criticidad
▁costeras
▁axial
segundos
▁ajenos
▁mostrada
▁hazen
williams
total
jockey
hl
▁listar
▁708
▁inserción
▁ondas
▁agrupar
▁equipotenciales
▁mufa
conductor
352
▁entrantes
▁voltage
▁altavoces
▁sinusoidal
▁machinery
▁micrófonos
fico
▁subestaci
▁planificaci
▁atmosf
ltiples
ar
▁absorci
aislante
▁comunicador
▁schifiliti
▁funcionarios
▁directas
▁654
▁amonio
▁enviado
▁retroactiva
▁legislación
▁corregido
▁validez
▁familiaridad
gnl
▁inactividad
▁semiconductores
▁601
▁1144
emergencias
▁petroleras
▁obtención
▁octubre
▁790
▁generadoras
▁ligera
▁tierras
authority
▁having
▁prevén
▁captura
116
▁door
▁moderada
▁rating
▁helipuerto
▁identificable
msds
▁estrictamente
178
▁religiosos
▁dirige
242
▁paleta
248
dispositivo
▁variará
▁planificada
▁cercanía
▁coordinado
▁falso
▁carretera
edificios
▁malezas
evaluación
▁asignarse
▁vertedero
▁mayúsculas
▁azoteas
▁letreros
▁rotas
▁reconfigurado
▁acumule
▁obtenidas
▁propagarse
incluidas
▁observadas
▁toldos
▁constan
▁trasladarse
▁guarderías
▁queda
▁planificadas
▁vandalismo
dispositivos
▁electricista
▁subsecciones
▁apruebe
▁mensuales
▁vaciados
▁reaceptación
▁garantizan
▁prolongados
▁espejos
▁inadecuado
▁permanecen
▁encerrada
▁restante
▁bloqueada
▁temporizadores
▁excesivamente
▁excesivos
▁planas
▁giro
▁murales
▁jardines
▁ocultar
▁gradas
▁fabricadas
▁incapaz
▁intersecciones
▁piedra
▁encontrado
▁ferrosa
▁disminución
▁generarse
▁pólvora
▁familiarizadas
▁alcancen
▁doméstica
▁acoplador
▁1100
▁húmedas
▁relajación
▁unirse
▁lecho
▁cause
▁cubrimiento
▁agregarse
406
▁defectuosos
▁135
▁vitrinas
▁viscosidad
▁sumergido
▁dependan
▁experimental
▁convección
▁prevea
▁calificar
▁civil
▁evaluada
▁deflexión
▁empaques
▁flúor
▁surge
▁debate
▁desciende
▁sufrido
▁reloj
▁norte
▁perilla
▁1988
▁involucrar
▁ladrillo
▁eólicos
▁naranja
2000
▁breve
▁constantes
▁mezcladores
▁designa
▁introduce
▁táctiles
▁produjo
▁280
▁transparentes
▁describa
▁refrigeradas
▁usable
sfpe
▁wood
▁plastics
▁telares
▁tablón
▁retardantes
▁obstruye
▁comunicantes
▁apartamento
▁disminuye
▁diseña
▁desmontables
▁conclusiones
▁últimos
▁exigirá
▁retransferencia
▁impulsada
power
▁ix
▁esmalte
▁niples
▁piping
▁cp
▁raíz
▁os
figure
353
▁rpm
▁rms
▁dañen
▁ethernet
▁vejiga
▁atornilladas
▁dotado
▁discretos
▁513
▁enchufable
▁yugo
▁deshielo
▁canalizada
▁despeje
▁blindado
▁nms
340
404
▁acondicionador
▁cord
▁cmx
dica
picamente
licos
▁var
pida
▁magn
▁degradaci
▁direccionables
copyright
▁©
▁http
▁cláusulas
▁bienestar
▁actúe
▁presentadas
▁intento
▁otorga
▁tarjeta
▁finalmente
▁procesadores
▁86
▁producciones
▁patrimonio
▁1124
▁cierres
▁naciones
▁1967
2003
should
alarm
▁pasaje
▁ubican
▁especies
▁moderadas
▁estima
▁comercio
air
▁neumáticas
108
109
▁espesores
▁galón
785
▁clasifica
▁home
▁preverse
163
▁mixta
▁parking
recipiente
▁unitaria
▁vendedor
▁formadas
public
▁tire
269
▁desempeña
▁comportamientos
▁derive
▁dependa
▁advertir
▁eliminada
▁asunto
▁sepa
▁señalizadas
▁respectivas
▁infantiles
590
▁satisfaga
▁descripta
▁roca
▁comprometer
▁losas
notificación
inspección
▁llevó
▁rotativa
▁retirada
▁satisfagan
▁transmita
▁necesiten
▁llamar
▁grada
bujía
▁asbesto
▁propaguen
▁agujas
1900
▁escenografías
▁evidentes
▁básicamente
▁especializado
▁freno
▁transmisiones
▁corregidos
▁impuesta
312
▁tirantes
▁aumentarse
▁ohms
▁fibc
▁minuciosa
▁cfm
▁significar
▁vagabundas
▁jet
alcance
▁derecha
▁reemplazada
▁extractores
▁experimentales
▁bibliografía
gal
▁acatar
▁reborde
▁refieren
▁líquida
▁origine
▁interrumpan
▁flotabilidad
▁cumplidos
▁144
▁155
▁residencia
▁cuidadosa
▁excavación
▁flotación
▁dimensionadas
▁cónico
▁efectúan
▁vagón
▁saliente
precaución
▁actos
▁lavanderías
▁requería
▁perder
▁predice
▁carrera
▁desplazarse
366
▁claros
▁busca
▁visto
aunque
▁consecuentemente
▁descender
▁7½
▁incluían
▁visor
▁buscar
+
▁preservar
▁recientes
▁teatro
▁intermitentes
▁izquierda
▁puntales
▁herméticamente
▁suelos
cortesía
▁jacuzzis
▁libro
▁mangas
▁prolongar
▁eleva
▁bethesda
▁cuantitativo
gpm
▁manga
▁arrojar
▁contenía
▁silicio
int
▁páginas
▁agrega
▁jerarquía
▁molinetes
▁using
cielorraso
▁foamed
279
▁inspection
▁perpendicularmente
▁moverse
cualquier
▁servidas
▁interpolación
▁proporcionado
▁adverso
▁silencio
▁idoneidad
▁asumen
▁fijadas
▁amarillas
▁entender
▁forros
▁sub
▁procedures
▁candidato
▁hipótesis
▁posicionarse
▁switch
▁motogenerador
▁relativas
▁aislación
▁impulsados
ups
▁producidas
▁trapecio
international
▁balanceos
▁doblado
▁doblez
▁calculan
▁desagüe
▁multiplicada
tensión
▁utilizaron
▁conseguir
▁current
▁head
▁desalineación
▁causan
▁675
▁termómetro
▁subcontratistas
▁subcontratista
gfci
354
▁parqueo
ada
▁fregadero
382
▁368
▁retardada
▁334
344
358
362
▁lente
▁ganado
555
665
licas
ricas
▁exposici
▁soluci
▁rastro
▁cer
prs
▁rarsr
▁aeródromos
origen
▁ferroviario
disclaimers
▁lector
▁solicitante
▁recurso
▁entregarse
▁favor
▁justifique
▁recomendar
▁acetileno
▁252
▁407
▁refugios
▁comunidades
▁normativo
▁1963
▁three
▁barr
▁harbor
▁bisagra
▁organization
iso
▁333
▁pfingsten
diccionario
▁extensa
▁stock
▁electrolitos
▁reconocerse
▁ligero
▁carpa
▁evalúan
▁detectan
▁alojamientos
horizontal
▁comunican
▁access
▁fires
▁señalizada
▁letal
▁ratas
▁xenón
141
▁manométricas
▁limit
▁exposure
167
▁enfermedad
187
▁libera
▁crudo
▁patines
▁permanece
273
▁seres
▁certificar
▁reducidas
▁kj
▁manipular
▁programados
▁propague
08
▁sustitutos
▁defecto
▁actualizaciones
hdpe
▁abastecida
▁detecten
▁cambiado
▁multipropósito
▁configurar
▁impresiones
2090
co
▁comuniquen
▁versión
▁liberada
▁estando
na
▁callejones
▁prohibida
2030
▁enrejados
▁unen
▁conflicto
▁radiales
▁subdivisiones
▁posesión
▁constituyan
▁detectarse
▁desarrolladas
▁seriamente
agua
▁apagados
▁telones
▁cortadas
▁tropiezos
▁embalajes
▁aumentadas
▁salpicaduras
▁exponen
▁demostraciones
▁listos
304
▁abastecido
▁dirija
▁sumergibles
▁carrete
▁completada
▁confinar
▁procesa
▁corregidas
▁clorado
▁denominados
▁controlen
▁creada
▁lagos
▁lodo
▁uniformemente
distancia
▁romper
np
▁comenzando
▁destinada
▁desarrollada
▁armazones
▁llenarse
▁acrónimo
▁evaporación
▁combina
▁establos
▁mejorado
▁suelen
▁logro
▁confiar
▁futuros
▁introducido
▁razonables
podría
▁dígitos
▁perspectiva
▁generando
▁cuadrante
▁hará
▁profundo
▁voladizo
▁derivada
▁ocasional
▁conocen
▁sustancial
▁anticipados
▁exigencias
▁aconseja
conexión
▁inorgánicos
▁enumera
riesgo
▁nj
▁galvánica
▁realizó
▁apartamiento
▁concrete
▁barrier
▁be
▁commercial
▁decorative
▁manutención
▁auditorio
▁realización
▁pivote
▁proyectan
▁caiga
▁seccional
▁tina
▁cae
▁inquietudes
▁ft
▁pulsadores
▁quioscos
▁manipulaciones
▁exhaustiva
▁conferencia
▁journal
▁suponer
▁inviable
525
▁quién
▁116
▁prácticos
▁report
▁encerramiento
hora
▁inadvertida
▁neutros
▁rastreo
▁ordenamientos
▁pre
▁llenan
372
▁palet
²
▁elástico
▁rutinaria
▁perforado
▁configurarse
▁cercos
▁abrieron
▁cosa
▁automatizadas
▁realizando
conductores
▁señalizar
▁firmware
▁2018
anteriormente
▁abrasivo
▁cleaning
▁rigidez
▁field
▁frequency
▁based
▁pulsos
▁inteligencia
▁limitador
▁dieléctrica
▁acondicionadores
▁antorcha
▁$
▁630
▁monofásicas
▁mensajeros
fmc
lfmc
▁bipolar
▁320
▁352
324
348
392
▁distribution
▁wd
▁reactancias
▁incendiarios
rms
▁pararrayos
▁blr
▁ont
lica
▁transmisi
cleo
▁recambio
▁distorsi
lidos
▁nitr
▁difundir
▁aprobó
▁ejercicio
▁north
▁énfasis
▁escombros
▁parques
▁salvaguardias
▁equivalencias
▁ajusta
▁eximir
▁accesorias
▁órdenes
▁acto
▁conceder
▁audiencias
▁abandonado
▁211
▁257
▁303
▁415
▁neblina
icc
▁conshohocken
▁19428
2959
▁ch
▁vessel
▁60062
2096
▁142
2008
shall
▁trasera
▁sales
▁petrolera
▁sustrato
▁regulada
valve
storage
▁applied
▁chemical
▁cuerda
▁vivos
▁mecha
▁extinguishing
flame
▁tubing
▁conformado
brasas
▁incidencia
147
▁grasas
▁mezclado
▁demostración
▁inhalación
▁comercialmente
▁golpes
▁derivan
151
156
161
ceiling
166
307
▁frenos
▁reunir
open
▁carrocería
▁load
▁técnicamente
189
204
single
▁perimetral
▁rodadura
▁liberan
▁interface
▁predicción
▁colapso
▁inseguras
▁sigan
▁regir
▁dejen
▁ejercer
▁participan
▁emita
▁montaplatos
▁transmitido
▁mencionar
▁reflectante
▁fuelle
▁ponga
▁adaptados
▁estaño
ff
06
▁intersticiales
▁estaría
▁habitables
▁alterados
▁sustituir
▁faltante
▁sujetado
▁abriendo
▁auditivas
▁preliminar
▁perpendiculares
▁tendencias
▁adoptadas
▁trazo
▁encierren
▁viales
▁propulsor
▁muertos
▁obstruyan
caja
▁cobertizos
▁autopistas
▁codificados
▁apilados
▁gastronómicos
▁imponer
▁simulación
▁evacuarse
▁absorbentes
▁costuras
▁inflado
▁ofrezcan
▁dársenas
▁apagarse
▁separador
▁dirigidas
▁radiantes
▁eximidos
▁pulido
▁trasladado
▁inicien
540
▁zapata
▁contigua
▁marítimo
▁abastecidas
▁movido
▁ala
▁complete
▁posicionadas
▁entrenada
▁propulsión
▁examinarse
▁torsión
▁luminoso
▁fl
▁higiene
▁pulverizado
▁curado
▁defectuoso
▁intenso
3000
▁comparables
▁47
componentes
▁detenidos
▁bebidas
▁saneamiento
▁na
▁gradual
▁desplazamientos
▁transformarse
▁reactores
▁atrapados
▁conforman
▁restringidos
▁suspendida
▁cese
▁círculo
▁termoplásticos
▁picaduras
▁contrapresión
▁volumétrica
▁discos
▁brazo
▁hidrostático
▁presenciar
▁enfriados
▁iglesias
▁familiares
▁obligatorios
▁predeterminados
▁estimarse
▁tamiz
▁tradicional
▁abuso
▁ocupan
▁regulatorias
▁excluye
▁tendría
▁comprendan
▁cierran
▁ajenas
▁solidez
▁portantes
▁provienen
▁flame
▁escuela
▁estatutaria
▁numerosas
▁manufacturers
▁mostrados
▁monta
▁reduciendo
▁antiguos
▁explica
▁1985
▁97
▁fluorescente
▁rotativos
▁recordar
▁acaecimiento
▁geográfica
▁pocas
▁fundamentalmente
▁simulada
▁desafíos
▁demuestran
▁forjado
▁creadas
▁llega
▁extrema
▁corresponder
▁involuntaria
▁ftalato
▁terraplenes
▁lógica
▁verá
butilo
▁analizados
▁acepte
▁actualizar
▁aws
▁welding
imo
libra
▁surfaces
▁upholstered
▁insulation
▁1987
gov
▁compartidos
▁time
▁efectuada
▁aseguran
▁operacionales
▁bata
▁batan
▁activan
▁giratoria
▁proyectadas
▁atrapadas
▁almacenes
▁trazado
▁acoplamientos
del
▁imágenes
▁subdivididos
▁sumar
▁comunica
▁eso
▁public
▁suplementos
▁expresiones
▁recolectar
▁ataque
▁ciencia
beneficio
▁modernos
▁technical
cpvc
▁bridada
pvc
▁spray
mic
559
▁te
▁armaduras
seg
▁corporation
▁103
▁aparecer
▁grabador
local
▁atornillado
▁terraplén
▁espiral
▁determinista
▁cualitativos
▁rodete
393
consulte
▁entry
▁indirectamente
▁analista
▁actuación
▁uw
▁desnudas
▁rmc
▁literales
▁celsius
▁fmt
▁ent
▁sobretemperatura
▁727
▁analizadores
506
▁sonoros
626
668
▁nplfa
▁blx
ndice
ntomas
▁supervisi
▁realizaci
micas
▁transmission
▁dif
▁conmutaci
nima
▁comparaci
▁actualizaci
▁precisi
mbolos
▁terminaci
▁contin
▁comprobaci
▁decoloraci
▁observaci
adas
▁erosi
▁hule
▁visualizadores
▁supervising
▁oído
▁rat
▁pregrabados
▁meacham
▁62305
▁incorporación
▁actualizadas
▁perfeccionamiento
▁]
▁brigadas
▁equivale
▁semanas
▁firma
▁detectada
▁entregada
▁1301
▁204
▁251
▁calorímetro
aiha
▁1220
▁heating
tanques
▁board
comité
▁tráilers
▁giratorios
▁1977
▁abarcan
▁compactado
special
▁trayecto
▁nomenclatura
▁enciende
▁pertenecen
▁two
▁condition
▁originan
limited
lc
▁room
ground
▁listo
▁transfer
▁metro
▁contaminante
▁transportado
▁ramas
▁egress
care
▁discapacidad
▁internados
2800
▁reacondicionamiento
▁process
▁choques
213
▁caminar
▁tomacorrientes
247
general
▁enfermedades
▁deriven
▁tratarse
▁propaga
▁golpe
▁exacta
▁conocidas
▁equiparse
▁familiarizar
▁maliciosa
▁horarios
▁antorchas
▁pastos
▁exhiban
▁transportadoras
▁etiquetada
▁pelusas
▁evacuado
▁esquemáticos
▁cumbreras
▁ventanillas
▁tambor
▁estiramiento
▁tapizado
▁penetran
▁impermeables
▁exhibidas
762
▁nocturnos
▁estimado
▁efectuado
▁celofán
▁arrendamiento
▁silenciada
▁recalentamiento
▁1986
▁ms
▁1976
▁selecciona
altura
▁vulnerables
▁rotos
▁someta
▁conserven
▁transforma
nivel
▁finalizada
desde
▁ajardinada
▁encendidas
▁lotes
▁logrado
▁paisajismo
▁impuestas
363
▁durmiendo
▁reductor
▁captación
▁separe
▁concesiones
▁desagües
▁pesadas
▁cabriada
▁magnéticos
▁procesan
▁observados
▁marea
▁colgar
▁activada
▁abastezca
▁desconectadas
▁radares
▁regeneración
ocupación
▁lazos
▁domo
▁laminado
▁comparable
papel
▁refinerías
720
▁idioma
▁vrla
▁traspaso
▁modifiquen
▁armas
bse
cse
▁informada
▁antisísmico
▁dobles
persona
osha
▁implementados
▁vulnerabilidad
▁fósforo
▁seguida
▁drene
630
▁interrumpen
▁condensado
hasta
▁abolladuras
▁orientados
522
▁ocupa
445
▁proviene
▁purgado
▁departamental
▁comprenden
▁incandescente
▁coeficientes
▁estableciendo
388
▁masivo
▁conferencias
▁militares
▁automatizado
▁influir
▁compara
▁ascendentes
▁aceptada
▁distribuciones
▁empleada
▁impresos
z
▁dirigirse
▁eventualmente
▁desmontable
▁azul
▁equilibrada
aproximadamente
▁diseñan
▁mantendrá
▁edificaciones
▁alguien
▁divididas
▁preferido
▁ocasionar
▁primordial
▁reductores
▁exhibido
▁nítrico
▁di
▁multiplicando
▁flammability
▁dados
▁structural
▁nocivos
site
▁éxito
▁mejoramiento
▁resbalamiento
▁autotrabantes
▁revoluciones
▁referida
▁armados
▁preseñal
▁aditamentos
▁barco
▁eductores
▁cubrimientos
▁improbable
▁modernizaciones
▁exutorios
▁circulares
▁publican
▁proveerá
▁decidir
▁computer
▁detact
▁desenergización
▁aborda
fase
>
▁quemadura
▁monitorean
▁2513
▁pitot
▁inapropiada
▁darse
▁entrevistas
▁that
docinfo
▁aspiradora
▁conduits
▁pulverizador
▁heladas
▁entramado
▁ubique
techo
▁ofrezca
▁lindero
▁balanceocontra
▁perjudicial
▁dedicadas
▁febrero
▁avería
▁reforzar
▁recubrir
▁sd
electric
▁desmontaje
▁resistores
▁network
▁lengüetas
▁insertado
▁apriete
▁digitales
▁causando
▁salga
▁cuadros
grounding
▁biológicos
▁rescatista
ta
▁192
▁carrotanque
▁pc
1998
▁insulating
▁portafusible
▁separables
▁kelvin
▁atienden
390
60079
▁contratuerca
▁conductivos
645
▁dp
▁1685
▁694
▁eólico
▁poseedores
▁bl
cnico
▁tecnolog
nmente
▁ks
tm
▁organizaci
▁alg
odo
lares
▁atm
hmetro
▁rotaci
▁analizador
▁parpadeo
▁ning
▁circulaci
▁presentaci
▁ense
▁appliance
▁mfvn
números
▁copper
▁tentativas
▁asterisco
▁designe
▁pedido
▁remodelaciones
▁conoce
▁espectáculo
▁desempeñe
▁trate
▁licencias
▁barrido
▁reciba
▁proceder
▁válida
▁difieran
▁inflables
▁minería
▁261
▁318
▁radioactivos
▁1192
▁aviación
▁vuelta
método
▁queroseno
▁ferroviarios
▁340
▁913
can
504
▁152
175
▁despegue
▁rige
▁adopta
bulk
▁comida
▁combustion
▁waste
▁rollo
▁mezclados
▁fluid
▁cañerías
▁analizado
▁calienta
▁dwelling
▁excederse
motor
interior
▁vegetales
137
▁hydrant
▁retardar
▁progresión
▁acelerar
▁moderado
149
155
▁exponerse
164
171
health
▁impreso
▁divide
▁impedido
▁psiquiátricos
▁envoltorio
▁fina
199
▁diagonales
▁racks
▁peatones
▁calculation
▁predicho
▁adversos
▁simultáneas
▁representativo
▁computarizados
▁simuladas
▁extinguido
▁guardarse
▁obvia
▁visitantes
▁duplicar
▁adhesivo
▁escotillas
ventilación
▁alineados
▁defectuosas
▁instalando
▁agregadas
▁permanencia
▁penetra
▁transmitirse
▁gimnasios
▁introducidas
▁baños
▁fino
▁enumerar
▁descargado
▁blanda
riesgos
▁afff
▁virutas
▁rótulos
▁pesos
▁aditivo
▁anunciadas
▁entresuelos
▁sistemático
unidad
▁destrabadas
▁dividiendo
▁costado
▁galería
descarga
▁computarizado
▁almacén
▁encofrados
▁apoyados
▁finos
▁proyecten
▁proyector
▁pariente
▁reciclado
▁anticipación
▁adoptar
▁dirigidos
▁drenados
▁tensor
▁cruzar
▁programar
▁sopletes
▁autoservicio
▁transfieran
▁mayorista
▁termopares
▁materias
▁envuelto
▁termoplástico
▁estireno
▁transparente
▁rodillos
▁indirectos
ppe
▁limpiadores
▁posicionado
bver
▁6000
▁anclados
▁98
380
▁entubado
▁disipar
durante
▁tráiler
750
▁exactamente
▁lisas
▁pistola
▁793
▁reparadas
▁pistolas
▁desfavorable
apagado
▁agrícola
▁paréntesis
▁comprendidos
▁ríos
▁orejas
▁obstruyen
▁modulares
▁prefabricados
▁diferenciar
▁proporciones
▁catorce
▁funcionarán
ya
▁pongan
▁funcionalmente
▁acumular
▁serpentines
▁sugeridos
▁denominada
▁entenderse
▁notablemente
▁odontológicos
centro
▁hipoclorito
▁balanceada
▁denominan
384
▁impide
▁preciso
▁histórica
▁terrorismo
hay
▁facilitan
▁enfermos
▁aplicará
▁tradicionalmente
▁distinción
escenario
▁climática
▁demorar
▁1974
▁arde
▁133
▁guardarropas
▁combinar
▁remitirse
▁palancas
▁lenguaje
▁aperturas
espaciamiento
▁impactar
▁rondas
▁templado
▁colindantes
▁región
▁poniendo
▁restringen
▁costoso
▁serios
▁asignaciones
▁1300
▁extensos
▁minimiza
▁ignition
▁pantalones
▁calzado
▁aplicarán
▁escritorio
535
▁bucles
▁act
▁oración
▁entrehierro
▁drenado
▁sulfuro
▁bario
▁preferencia
▁consistentes
▁determining
▁low
▁apparatus
▁cooking
▁residential
mer
▁work
patient
▁ineficaz
¾
▁admisión
▁semestralmente
▁ensayadas
▁atraviese
▁ocupables
▁doscientos
▁rodean
▁quince
▁escritorios
▁británicas
▁izquierdo
▁studies
▁utilizó
▁effect
▁probabilísticos
occupational
▁approval
▁conozcan
▁perturbar
▁comprometida
▁regulations
▁verbalmente
▁complejas
▁sabe
▁1983
▁lineamiento
▁complementar
eps
▁referenciados
▁permitirán
▁anunciación
▁arranques
▁high
▁volante
▁híbridos
pe
▁ss
▁ranura
▁alma
▁ciudad
▁colgadores
545
▁enterrar
▁vs
▁consola
▁microbios
▁roto
▁fmrc
▁pp
▁convierte
▁flexura
fault
▁álabes
▁jockey
▁resonancia
▁reactancia
▁mitades
▁globo
▁356
▁rs
conector
▁largueros
▁espumoso
▁commissioning
326
▁tolerable
▁anfitrión
▁loc
▁semicuantitativos
▁acuáticas
▁exijan
▁escaparates
cablebus
▁igs
spd
▁accionamientos
tamaños
▁spds
▁directorios
conduit
370
374
▁ocultables
▁viajeros
▁sce
409
▁isa
▁periodos
▁cableada
▁547
▁646
682
▁capacitancia
▁840
▁bmr
▁pu
▁hab
tulos
▁manipulaci
▁corro
ticamente
▁interarm
▁determinaci
sfera
culas
▁misi
▁instrumentaci
▁regulaci
▁indicaci
▁esd
stos
▁sound
▁hearing
▁hpsa
▁lúmenes
▁custer
▁concurrencia
▁urbano
▁consultadas
▁transmitidos
▁formular
▁explicar
▁221
▁253
▁259
▁302
▁procesado
▁909
▁cohetería
rd
▁10036
▁1961
5990
▁fundiciones
▁396
2006
▁1590
▁1966
▁oxidación
▁alcoholes
▁20402
sti
tc
▁reactor
ahj
cfrs
▁densamente
▁530
▁ocurrida
▁deck
▁culturales
▁fenómenos
heat
▁reventa
98
▁discharge
hazardous
132
net
▁disueltos
▁argón
▁solos
143
▁fabricada
153
idlh
▁life
pel
▁orgánico
3660
▁transitorio
▁dársena
▁structures
administración
▁creando
▁operating
271
▁exitosa
▁simultáneos
▁retenidos
▁tóxica
▁analítico
▁conservadores
▁metodologías
1600
▁barbacoas
▁jardín
▁decks
▁cc
▁transcurrido
▁portante
▁contrapeso
hh
▁caracterizarse
▁2404
▁reducirá
▁ordinarias
▁licenciado
▁insectos
▁señalar
▁finalizado
▁comparados
▁correa
▁reemplacen
▁completados
▁grabada
▁accione
▁impresas
▁exhibida
▁dañe
▁distinguirse
▁4½
▁foyer
▁desviar
▁quitadas
▁designarse
▁complementarias
▁quemados
▁bbl
▁susceptibilidad
▁sesión
▁diferidos
▁postrados
▁fotografías
▁excluidos
▁impartido
▁tostadoras
▁museos
egreso
▁contiguo
▁apoyos
▁contracorriente
▁residencias
▁jornada
▁maestro
▁escorias
▁semanales
▁tapar
▁faciales
▁360
▁encienda
▁agujero
▁encienden
▁adherirse
▁lubricadas
▁compartan
▁levantamiento
▁bola
▁transferidos
▁eslabón
▁giratorio
▁próximas
▁mapas
▁iniciadas
▁aproximada
▁aplastamiento
▁provocará
▁planchas
tuberías
▁distribuidores
▁73
▁fueloil
▁polvorines
▁medicinales
respuesta
▁gota
▁173
▁distribuidas
▁rad
▁absorber
▁quemar
▁esquemático
▁conmutadores
▁inclinada
▁pintado
▁apaga
▁formales
carga
▁túnel
normalmente
▁1972
▁institucionales
▁arandela
▁cimiento
▁rotatorio
▁1033
▁ilustración
▁ejerce
▁ardiendo
▁grupal
▁percepción
▁galvanizados
▁amplias
▁diarias
▁acuerdos
▁desconocida
▁convertirse
▁estimar
▁pareja
▁nombres
▁evacuaciones
▁precedencia
▁adquieren
▁332
▁comparaciones
▁propagar
▁triangular
▁voluntariamente
▁introducida
▁anestésicos
▁calentada
▁encargados
▁ácidos
▁quita
▁prestan
dado
▁recorrer
▁percentil
▁numerosos
▁caigan
▁cuadro
▁sombra
▁pintadas
▁mw
▁resma
▁mueven
▁minimización
▁precisas
▁observada
▁provocando
▁originado
▁prudente
▁requerirían
▁ejecutivo
▁permanganato
▁asigna
▁cruz
▁mp
▁revisaron
asse
▁products
incluido
▁paper
▁light
com
▁calcule
res
▁secundarias
▁polimérico
▁seating
rated
▁compartido
‡
▁soportan
▁inapropiado
▁selectivo
▁costados
▁redondeados
▁moldeado
▁separarse
▁terraza
pa
▁reóstatos
▁gráfico
▁rodillo
▁extenso
▁aseguradoras
▁consciente
▁utilizará
▁sostenibilidad
▁carbon
▁conflictos
▁todavía
▁indeseables
▁confined
▁acústicamente
▁coherentes
▁institución
▁aleatoria
▁bombero
▁426
▁codes
▁organizar
▁regionales
▁respecta
▁1670
▁merriam
▁galvanizadas
▁lan
▁microhmios
▁inspeccione
▁cell
▁sei
▁inhibidores
900
▁termo
central
▁macho
▁igualar
▁calibrada
▁firmar
▁hvls
▁porta
▁nodos
▁envía
▁figure
▁niebla
▁rsp
▁multipuertos
▁phase
▁desmontar
▁estrés
▁conectarlos
▁energizarse
potencia
480
▁oil
▁chorreado
▁termostato
▁monitoras
▁prueban
▁log
▁lel
▁alambradas
▁lightning
▁unifilar
▁edition
▁recreo
▁nodrizas
▁shall
▁empalmados
▁afci
▁inductivas
kva
nucc
▁capacitiva
▁orilla
▁portadora
▁ásperos
▁precableado
ent
▁disruptivo
376
canalizaciones
386
398
▁trazador
▁eficientes
▁catvx
▁niu
▁bm
cnica
▁orientaci
▁asociaci
mep
▁disposici
rcm
▁preparaci
mica
▁investigaci
isr
▁command
cticos
lvulas
▁electromec
gicos
▁amper
▁situaci
rmico
▁explosi
micos
▁descomposici
▁dep
▁ccm
▁multiplex
▁conversación
▁plantillas
▁extrae
▁retroactividad
▁discrepancias
▁tuvieran
▁restrictivos
▁reclamos
▁administrado
▁notificada
▁enviarse
▁arquitectónico
▁apelación
▁vinculada
▁dispusiera
▁enmendado
▁adelantado
▁califica
▁abarquen
▁232
▁255
▁418
▁20005
▁ed
▁93
▁814
departamento
▁compressed
▁4880
▁147
▁1040
▁1479
▁government
comisión
▁repararse
▁polímero
servicio
▁acumulados
234
▁estímulo
line
▁vertido
one
107
glp
▁propileno
▁movible
▁millón
▁ponderada
169
▁administra
multiple
residential
▁queman
▁minerales
▁caldero
portable
218
221
▁recuperar
▁fijan
245
257
▁matemática
▁insegura
▁dadas
▁duda
▁destrezas
▁restrinjan
▁ferias
incluida
▁enchufes
▁indebido
▁secuencias
▁cumbrera
▁alero
puertas
▁enrollables
▁reparada
▁dañada
▁molduras
▁extremidades
▁adosada
▁lechada
▁lana
▁serpentín
1115
▁natación
▁porches
946
▁reanudar
▁administradora
▁retornar
▁operarios
▁council
hmis
▁bruto
▁electrónicamente
▁examinadas
▁pasador
▁desplace
▁remanente
▁antigüedad
▁desempeñarse
▁visualizador
▁acaten
▁albergadas
▁restaurable
▁intrusión
eno
▁porche
▁provenir
▁autoprueba
▁arquitectónicas
▁iluminada
▁fotoluminiscente
▁avance
▁innecesarios
▁voladizos
▁mapa
▁anunciar
▁aviones
▁copa
▁sucesivos
▁adherido
▁platos
▁movidos
▁durables
▁tutor
▁convocar
▁adoptarse
▁6921
▁refleje
▁terrestres
▁lateralmente
▁duplicados
▁condominios
▁imbornales
930
▁subdivididas
▁accidentalmente
▁infrarrojo
▁logre
▁débil
▁desarrolle
▁mojadas
▁electrostático
▁pintar
▁tractor
▁fontanería
▁relevador
▁fluyendo
▁marinos
▁frecuentados
▁instancias
▁institucional
▁facilite
▁limpiada
▁recirculado
▁series
▁ph
nombre
▁conozca
▁importados
▁preparaciones
▁extractoras
cantidad
▁cláusula
▁62
278
▁penacho
▁completadas
▁invertida
▁anticipadas
▁monitoree
▁drogas
▁trabajen
124
punto
▁104
▁exclusivos
disposición
▁constituya
▁confirmación
420
▁positivos
▁salada
▁provisiones
▁interestatal
▁anhidro
▁patas
▁114
▁estipuladas
▁piedras
▁bloquee
▁collares
batería
▁caen
▁lógico
▁óptima
▁tubular
▁bebés
▁década
▁bromato
▁caracteriza
▁publicó
▁expectativa
▁compararse
▁expresarse
▁presta
▁clarificar
▁instruir
▁organizada
▁deseo
▁reseña
▁actitudes
▁policiales
▁boletos
normas
▁discontinuidades
▁justo
▁extrañas
▁tenían
▁extraño
▁evitan
▁recargar
▁ocasiones
▁arrastre
▁equilibrado
▁comparado
▁agarre
▁1970
▁microondas
▁contratación
▁dependientes
▁ayudan
▁caudales
▁release
▁simulados
▁cuestiones
▁serias
▁aislarse
▁doblados
▁aumente
322
▁controlarse
▁diluyentes
▁intentos
▁registre
▁benzoilo
▁reentrenamiento
▁prohíba
▁reorganización
▁colocando
▁prefiere
▁optar
▁dividen
▁amarillo
jurisdicción
▁cruzadas
▁1981
▁publications
▁especializada
▁262
▁behavior
▁tube
▁radiant
▁mattresses
▁sb
metal
▁caras
▁correctas
▁revise
▁excluyendo
▁esperadas
▁batir
▁baten
▁subdividido
▁separen
▁mantenerlas
▁ci
▁alfombra
▁telefonía
▁omitan
▁graderías
▁cruce
▁reglamentos
▁didácticos
▁subir
▁fotoeléctricas
▁ponen
▁diferir
▁cualitativa
▁lucha
▁traslade
▁fatales
▁analizan
▁indicios
▁genéricos
▁elaboradas
▁marcadores
diferentes
▁cuñas
▁cerrando
▁universidad
▁envejecimiento
the
▁universitario
▁ilustrado
▁development
▁science
webster
▁perturbaciones
▁cambiador
▁amortiguadores
▁inercia
▁alimentando
▁suficiencia
▁exitoso
▁milivoltios
viii
▁determinó
▁bornes
▁simplificado
▁line
response
▁connection
▁dieléctricos
▁orientado
1½
▁góndola
▁basura
▁sonidos
▁operaron
▁influyen
▁semi
▁enrejado
▁rediseño
▁adversamente
▁mph
▁axiales
▁asd
553
▁crecen
▁declinante
▁camarotes
▁evitando
1997
▁abrasivos
▁alambrado
▁zoi
695
▁gira
▁ardilla
▁termal
▁secuencial
▁defectuosa
▁contraseñas
▁seamless
▁picadura
▁automatic
▁practices
cabe
▁bacterias
▁suele
▁hidroneumático
commissioning
guidelines
peligro
▁mitigados
▁andamios
▁órganos
▁petroleros
701
▁amoniaco
función
▁is
▁not
▁this
▁blancas
▁multifilares
▁roja
▁427
▁multipolares
▁edison
▁spt
▁autocontenidos
▁518
▁cople
▁prolongue
▁aletas
volts
▁ferromagnética
rev
▁manténgase
▁aex
▁iic
▁prolonga
▁prolongan
▁carrileras
▁khz
▁sustituciones
▁tendr
▁book
▁shermco
precauci
▁condensaci
ficamente
pidamente
▁inducci
▁electromagn
cortes
▁org
contacto
▁extracci
▁rk
▁aprender
▁impaired
▁enmascarado
▁rassr
▁2167
▁estaca
▁fierro
▁massachusetts
▁interinas
▁administrativas
▁cambió
▁informática
▁conservan
▁títulos
▁contribuyan
▁adoptada
▁moderno
▁aproximado
▁ordenar
▁quite
▁emitidas
▁prescriptas
▁custodia
▁continuada
▁aceras
▁enumerado
▁indirecto
▁enviadas
▁fundamente
▁implementan
▁enviada
▁revisor
▁1126
▁campamento
▁blando
▁199
▁deterministas
▁oh
▁chicago
▁rellenables
▁2079
▁office
▁imprenta
▁consumidor
▁rurales
labeled
▁encontró
402
▁container
▁battery
▁rebosamiento
▁zone
▁irregular
common
▁existing
flammable
of
exit
▁flotas
marine
128
▁prever
▁guardan
▁psia
282
▁pirofórico
hazard
▁detonables
▁volátil
168
▁dosis
▁cárter
▁parientes
enclosed
183
▁promover
personal
206
▁information
▁brindada
rdp
▁respectiva
solid
▁gavetas
▁apariencia
story
▁califique
▁instrumental
▁capturar
▁desplazados
▁wiring
▁decorativa
262
design
▁vuelven
▁continuado
▁normativa
▁humanas
▁interpretarse
▁conversiones
▁determinen
▁realista
▁analizarse
▁relevancia
▁aprueben
▁verbal
▁encendida
▁decorativas
▁propensos
▁pintada
▁vegetaciones
▁concesión
▁fotovoltaicas
cd
información
1219
▁maximizar
▁etiquetadas
▁identificador
▁escudete
▁escenografía
▁estampado
▁conservada
▁inconveniente
▁reemplazan
▁formadora
▁presurizada
▁deseados
▁fffp
▁completitud
▁últimas
▁prescriptos
▁distingan
▁centralmente
▁investigados
▁óptico
▁intrusiones
▁liberen
▁destrabe
▁entero
▁convergen
▁angosto
▁accederse
▁trazos
▁proporcionalmente
▁refuerzos
▁detenido
▁propensas
▁sobresalgan
▁erosión
▁reubicados
definiciones
▁coherente
▁religioso
▁palcos
▁foco
▁persiana
▁marquesina
ubicaciones
▁retiradas
465
▁amarradero
▁grifos
▁aserrín
▁muertas
▁desactivados
▁nailon
▁suave
▁catastrófica
▁sostengan
470
▁rebordes
▁soplado
▁detenerse
▁regula
▁eludir
▁distantes
▁justifican
▁flotador
▁suene
▁prestando
▁evitará
▁terrestre
▁515
▁investigado
▁pulverizadora
▁latas
▁accionen
▁operario
▁investigadas
▁transportador
▁ultravioletas
▁especifiquen
▁arrestallamas
▁abandonar
plan
▁elimine
▁negra
dno
▁farmacopea
▁municiones
▁síntomas
▁vacías
▁anormalidad
▁nace
▁incorporada
▁deportivas
▁mostradores
▁suelta
zona
▁saturado
▁literatura
▁compartimentado
▁rectangulares
▁efectuando
▁reposo
▁precedentes
▁indicará
▁adhesión
▁calendario
▁420
▁autoportante
▁deformación
▁escudo
volumen
▁reaccionan
ml
bajo
▁municipalidades
▁discapacitadas
▁comunitarias
capítulos
▁surgen
▁intervienen
▁presumen
▁resulten
▁cuantificar
▁surgir
▁inadecuados
▁pierde
▁cargos
▁fríos
▁denominado
▁promotor
▁utilizarán
▁aproxime
04
▁inadecuadamente
▁administrativa
▁correctivo
rti
▁works
▁necesitará
▁consultado
asimismo
▁funcionará
recuperación
▁confundirse
▁detalladamente
▁verificaciones
▁agrietados
▁comprenda
▁justificarse
▁candados
▁angosta
▁millones
▁creciente
▁predio
algunas
▁baldosas
▁elevaciones
▁inversa
▁compra
▁directivas
▁esperarse
▁radios
▁convenientes
▁prevean
▁plantear
▁prevention
▁escritura
mínimo
▁prefieren
▁silos
▁dando
aws
▁tocar
▁inductivo
▁radar
▁insertar
▁produciendo
▁bolsa
▁fluyen
▁fregaderos
▁jurisdiccionales
▁transportables
▁inducida
▁rellenos
phase
triazinatriona
▁cinc
menos
▁rata
ejemplos
▁aclarar
año
▁1982
▁denver
▁268
▁499
▁921
▁funcionó
fses
▁fixed
▁doors
reinforced
▁covering
▁critical
▁insulated
accessible
▁aeroportuaria
▁type
end
▁habitable
bcf
▁maternidad
hea
▁sanitarias
184
▁occupancies
▁salón
▁libertad
▁regresar
▁arquitectura
▁nominalmente
▁identificables
▁practicable
▁importar
▁sesenta
▁reflejen
▁diurna
▁inyectores
▁nueve
▁adaptar
▁restaurante
▁aprueban
▁reflectores
▁radiaciones
publicación
▁preferidas
▁incremente
▁aireador
▁conserje
▁corrediza
▁dividirse
▁gastos
▁numerado
▁verbales
▁peores
▁proporcionando
▁primeras
▁botella
▁desenergizadas
▁diagrams
▁desconecta
▁interrogante
▁retrasar
▁simplificar
▁corregirse
▁pautas
▁prescrita
▁incorporadas
▁creó
▁comunicados
▁reclamo
▁contemplen
▁decimales
▁aporte
▁demostradas
▁1581
▁marzo
▁peritos
▁provisional
wet
▁category
ats
condición
▁pruebe
▁comprador
▁desconectan
▁fema
▁introdujeron
▁hembra
pr
▁speed
▁sostenga
▁eleve
▁fpw
▁ranurados
▁refrigerada
▁galvanizada
▁alinearse
▁instalarlos
▁soportarse
▁funcionaron
▁duras
▁grueso
panel
▁duales
▁definitiva
▁concentrada
538
▁medioambiente
▁mezclador
▁norwood
▁sexto
▁circuits
▁508
▁1449
circuit
▁mueve
▁multietapa
▁multipuerto
▁corrosiva
±
▁tazones
▁estrato
▁venturi
▁dispare
interruptor
▁sae
▁#
▁condensados
▁agotamiento
▁remueva
circuitos
▁memoria
▁lengüeta
▁sacrificio
▁aro
▁núm
▁pilar
▁incombustibilidad
▁pin
▁afines
▁number
▁gráficamente
▁costosas
▁prv
reemplace
▁exigirán
▁petroquímica
▁focalizado
▁concurrente
▁variabilidad
▁numeral
▁ciega
▁ordinance
▁jurídico
▁trenzada
▁277
▁imc
▁lavamanos
ampere
▁atenderán
¹
▁386
▁348
▁1650
ensambles
▁sellante
336
▁tray
▁chaquetas
394
▁múltiplex
▁alambrar
▁involuntario
▁inductivos
▁hidromasajes
▁energice
▁acortar
▁momentáneo
▁iib
513
▁despacho
514
▁915
547
▁monorriel
▁carrilera
▁fronteras
▁subacuáticos
▁subacuáticas
727
▁accessories
▁inter
▁aqu
lculo
trica
quel
▁transformers
▁clasificaci
▁generaci
rmino
▁inversi
▁continuaci
rmula
▁flojas
bles
ndolos
ngulo
▁disparan
▁energizaci
mite
▁acorta
▁analiza
vil
▁carb
▁balance
▁profunda
▁traje
ibf
▁observador
dact
▁repetidor
▁voceo
▁thesis
▁lag
ref
▁america
▁incorporó
▁reglamentar
▁67
▁71
▁ámbito
▁concuerdan
▁asigne
▁repare
▁autorice
▁creer
▁mostrarse
▁interpretada
▁reguladoras
▁otorgado
▁suspender
$
▁prevalecer
▁lanchas
▁385
4070
▁653
▁395
▁ferrítico
▁cleveland
▁2859
▁biodiesel
▁136
▁1352
▁1353
▁silano
contenedores
▁standardization
organización
1211
▁reston
▁299
▁1715
▁2085
▁compilación
▁dedica
▁fireworks
▁height
▁compactación
159
▁polvorín
▁stationary
ion
▁cadmio
▁point
▁inactiva
rise
▁limitará
▁restringe
▁desperdicios
▁estand
▁tejidos
combination
consultar
family
▁exit
▁dispensing
▁componen
▁acelerada
148
▁helicópteros
stel
▁inestabilidad
▁temperature
▁incapacitados
day
▁tutores
▁correctional
▁décimo
industrial
▁repair
185
193
▁processing
207
▁rdp
▁ceremoniales
▁profesión
▁reglamentarios
▁estiba
▁transferido
análisis
▁interesada
▁informa
▁alternos
▁manipulado
▁analíticos
▁prescritas
entrenamiento
▁conciencia
▁mechas
▁tira
▁temporadas
▁reubicables
▁experimentos
▁lima
▁subdividir
▁sometiendo
▁perfectas
▁128
▁exento
flashover
temperatura
▁exceptuadas
▁acciona
▁duermen
▁alberguen
▁calefactora
▁enviados
▁restaurados
▁planificados
sólo
▁silenciador
señal
▁remaches
▁acuosa
▁invertido
▁complemento
▁solubles
▁juntamente
▁exámenes
medidas
▁cancelado
▁admisible
alarmas
▁diurnas
▁matrices
▁solicitada
▁puntuales
▁enrollado
▁exceptuados
▁demorado
▁irreversible
bhma
▁utilizable
▁justifiquen
▁enclavadas
▁tijera
▁restrinja
▁continuarse
▁soplete
calibre
▁removido
▁pluviales
dicho
▁historial
▁arbustos
▁brecha
▁heno
▁paja
▁desprendibles
▁pabellón
▁ensayada
▁extendidos
▁preescolar
▁administrativo
▁instruido
▁enmendada
▁alojan
▁ciegos
▁volantes
▁taponamiento
▁estacas
▁omitidos
▁estarían
▁espaldar
estructuras
▁guarden
▁rutinariamente
▁retirarse
▁fluyan
▁recolectados
▁creen
tipos
▁adquirir
▁nubes
▁aspiradoras
▁electromagnéticos
▁manipula
▁reubicar
▁derivadas
▁deslizante
▁diarios
▁diaria
▁calzadas
▁relámpagos
▁coincidan
▁domos
▁detenga
▁ohmios
▁ferrosas
▁alejadas
▁entubados
▁acumula
▁destilados
▁reforzados
2500
▁ilimitadas
▁espaciadores
229
▁reevaluación
▁contaminadas
▁respondan
suministro
líquido
fse
▁nl
▁reglamentadas
▁dosificadores
▁porcentual
tanque
▁dispongan
▁convertir
separación
▁vendidos
▁enfrentadas
▁cambien
▁igniciones
▁terroristas
▁rodeada
▁equilibradas
▁válidas
001
cver
▁encierre
▁subdividida
▁exponga
▁químicamente
▁responda
▁distorsión
▁congestionadas
▁nivelada
650
▁deslizable
▁multifamiliar
▁recopilar
▁boletín
▁california
▁partícula
▁cigarrillo
▁localmente
▁preparan
▁sucesivamente
▁tóxicas
▁transacción
444
▁demencia
ensayo
▁fprf
▁exclusivas
▁numéricos
▁inaceptables
▁implementa
▁adquisición
▁comparan
▁impuesto
▁organizado
▁demorada
▁innecesarias
▁pormenorizados
▁masas
▁resume
▁diferenciales
tecnología
▁elige
▁davis
▁buhardillas
▁auténtico
▁rastros
▁insignificante
▁impulsado
▁robo
▁aparte
▁terminología
▁convierten
▁desplazada
▁prácticamente
1980
uno
▁1949
▁luminancia
▁midiendo
▁numerados
▁semestral
▁zapatas
▁incluirían
▁impráctico
▁azar
▁participe
▁entregados
▁entrenar
▁excluir
▁implicar
▁difíciles
▁desarrolló
flow
▁contemple
▁comienzan
▁crecer
▁purgados
▁automatización
▁repetidos
▁lavados
▁toque
▁originen
▁minimizan
▁ocurrirá
▁avanzado
datos
▁electrotechnical
▁cambiadores
▁aparente
▁terapéuticas
▁retira
▁leves
▁sísmicos
▁energías
▁solas
▁496
▁omita
▁anulación
▁detiene
▁external
▁comedor
▁perclórico
superior
▁peroxidicarbonato
seguridad
▁st
▁214
▁estricto
▁referidos
▁alexander
▁bell
▁workplace
▁panels
▁preparation
▁prolongada
▁stair
288
flexible
▁plazoleta
▁lote
▁elaboran
▁freído
▁emisor
▁música
certificación
▁enfriar
▁tangente
▁batimiento
▁dimensionales
▁lea
▁adjunto
▁centralizados
▁leyendas
▁containers
otras
485
▁consistan
▁pregrabado
1675
▁involuntariamente
▁rellamada
▁camilla
▁destino
▁ra
▁arrenda
▁diodos
▁tribunales
▁conducta
▁tinta
▁atributos
▁estadísticos
▁ocurridos
▁normalidad
▁comprobación
▁experimentados
▁ideal
▁revistas
posteriormente
▁revisa
▁fotoeléctrico
▁contadores
▁gerentes
▁ocasionados
▁redactan
▁afectarán
▁capacitar
▁rescue
▁protective
qualified
▁instructores
documento
▁hablar
▁future
▁1980
▁enunciado
▁apuntes
▁flash
▁may
▁reporting
▁estándares
▁prototipo
▁ayudas
baja
▁coincidir
▁conectando
▁impactan
▁excitación
▁geográficas
▁escasa
▁frías
standby
▁verifica
▁1915
▁1947
▁experiencias
▁negocio
▁pretensado
▁electronics
▁installations
dry
▁subida
supervisory
▁bombear
▁channel
▁entrelazada
▁expresamente
▁paletizadas
▁seguidos
▁investigada
▁renovable
▁almas
▁recubiertas
▁relieve
siempre
▁doblar
▁clavados
▁tirafondos
▁ensambladas
▁rocas
▁sal
▁extendidas
▁apague
▁bandera
▁cuña
▁miles
▁colgado
▁electrolítica
▁sirenas
▁glicerina
▁sugieren
cemento
resultados
▁aparezca
▁apoyar
▁nc
▁inquietud
▁sospecha
▁localice
▁smith
▁size
▁produjeron
▁quinta
▁mariposa
service
▁supresor
▁impulsos
▁empujar
▁rutinarias
▁direccionar
▁desgastadas
▁communication
▁inteligentes
▁electric
▁engranadas
▁almohada
▁registra
▁itm
▁fundación
▁reacondicionado
▁revelar
▁tubérculos
▁intercambiable
▁acordado
▁surveillance
▁reconectar
verifique
▁fisuras
▁project
integrated
▁concerniente
▁regulatorio
▁petrochemical
▁respiradores
emi
816
▁taxativamente
▁division
▁volumétrico
▁verifican
▁piro
▁intercambiar
▁sobresalir
▁dilatación
▁medias
video
▁deteriorantes
▁trole
▁sobrecorrientes
▁botes
▁sobresalga
emt
▁multipolar
▁energización
lado
neutro
catv
▁376
▁contratuercas
▁cableadas
▁prolonguen
tr
▁trifásicas
▁energéticamente
▁impedancias
▁455
▁2225
▁camerinos
▁camping
605
remote
▁conductivo
▁60950
fhit
728
▁nplfr
▁nplf
▁interceptar
gica
cnicos
stico
▁din
▁interfacial
lvula
▁intelligence
▁simult
▁duty
▁capacitores
▁disminuci
ciles
alar
pido
▁garant
odos
▁anomal
dulo
dulos
▁alineaci
▁filtraciones
▁agrietadas
▁symbols
▁sincronización
▁864
▁reverberación
▁delincuencia
▁mass
▁troncal
▁inalámbrico
▁retransmitidas
▁recargada
▁ohm
▁nbs
▁aborto
▁faraday
pdf
▁redacción
▁dio
▁incorporaron
▁atracciones
▁retroactivas
▁difiera
▁circunstancia
▁admitir
▁garantizada
▁redactar
▁individuos
▁facultades
▁identidad
▁contraria
▁contratar
▁desarrollando
▁tuvo
▁financiero
▁infracciones
▁estadísticas
▁solicitado
▁ilustrar
▁violaciones
▁penalidad
▁122
▁cinematográficas
▁288
▁801
museos
▁635
▁2898
▁maquetas
▁1537
▁fletes
▁johnston
▁boiler
▁1055
▁197
▁296
▁comparada
▁711
▁ontario
faa
5390
▁consumer
▁product
1200
▁suburbanas
code
▁retail
▁bala
over
▁recibidos
▁mezclan
▁capacitada
▁particulado
▁fiber
▁path
▁compartment
▁irreversibles
276
fixed
▁anormalmente
multi
sensor
▁diafragmas
▁calibradas
▁liberará
safe
▁inhibir
▁spread
lfl
▁albinas
▁reversible
▁metano
▁agudos
▁numérica
▁moldeo
▁cúbico
▁autorrescate
▁oral
▁violentamente
maximum
181
use
▁decoración
▁alojadas
▁formulación
▁destruir
209
▁incinerador
236
protected
▁charco
▁conformar
▁orientada
▁procedure
▁elegido
▁criteria
▁3500
▁factibles
▁prevengan
medios
▁recomiende
▁deteriorados
▁reubicarse
▁ferroviarias
luego
▁doblen
▁cortarse
▁deposita
▁blancos
combustibles
▁mantenerlos
▁reabastecer
▁configuradas
▁intactos
▁desconoce
▁soleras
▁rellenar
▁exceptuado
▁escudetes
▁quedado
▁carretes
▁trasero
▁techados
▁marcaciones
▁bulbo
▁describan
ecm
▁tridimensionales
▁alcances
▁rodee
▁obvios
▁intente
▁examinado
▁propelente
▁inhabilitado
▁agrupadas
▁domésticas
documentación
▁casetones
▁acanalado
▁retraída
▁cómputo
▁redondeada
▁avanza
▁npfa
▁visitas
▁brindado
▁concluido
▁apagada
▁conos
▁barriles
▁asbestos
▁pronunciadas
▁evaluando
▁documenta
▁copas
▁techada
▁videos
acabados
▁adulto
▁turnos
▁212
rehabilitación
·
▁impartirse
▁respaldos
▁infladas
▁sopladoras
▁sobrepresurización
elevado
▁navegación
gnc
▁vegetal
▁determinaciones
▁sentinas
▁olores
▁alcantarilla
▁minimizarse
▁gerencial
▁utilería
▁redonda
▁dispersa
▁segregación
▁acrílico
cloruro
peso
▁ignífuga
▁bombilla
▁atascamiento
▁inertización
aver
▁libere
▁isla
válvula
▁alas
▁rompa
▁interrumpirse
▁muescas
▁expongan
▁presionando
▁sumergida
▁comenzado
▁desatendidos
▁atrapar
▁automatizada
▁techado
▁mantas
▁restauradas
▁difusores
▁freidoras
▁asciende
▁excedido
▁sombreadas
681
▁debiera
▁recibirse
productos
▁inglesas
▁calienten
▁transfiere
396
▁restrictivo
▁recalificados
▁eliminarlos
▁estimada
▁cuadradas
▁manipulando
▁dibujo
▁asistido
▁pedestal
▁178
▁exclusiva
▁duro
▁270
▁contribuya
▁reutilizables
▁cilíndricos
▁cortado
envoltura
▁dueños
▁380
▁desconectada
▁levantar
▁repentinos
▁ug
▁repetida
▁freático
▁735
333
▁parapetos
▁sujeciones
▁refrigerador
▁satisfacen
▁transferencias
▁elasticidad
▁hallan
▁algoritmo
▁comprendido
▁derivará
▁caracterizar
▁representada
▁temor
▁condominio
▁universidades
▁bares
▁rápidas
▁comprendidas
▁ayuntamientos
▁comunitarios
▁mujeres
▁trastornos
▁vasos
▁restrictiva
▁realistas
▁analizada
▁predicha
▁absoluto
▁subalquila
▁mostradas
▁magnéticas
▁resbalones
▁someten
▁john
▁adaptan
▁1978
▁instaladores
▁preparadas
▁incorporarse
▁coordinadas
▁casetas
▁idénticas
▁confirmada
▁master
▁sulfato
▁principiantes
▁combatir
▁evolución
▁cumplirán
▁intereses
▁genérico
▁optimizar
▁obtengan
▁perillas
▁aumentando
▁cuantitativas
▁cambiando
▁vulnerable
▁acumuladas
▁mantillo
▁preferibles
▁tolerantes
▁arden
▁extensas
▁asumirse
▁serio
▁bocina
▁reglamentada
▁centrarse
▁delgado
▁neutral
▁bombillas
▁1620
▁tenía
▁envueltos
▁operations
▁pei
▁conclusión
▁arrojarse
▁luminosa
▁asfixia
▁formarse
▁costosos
▁automotriz
▁fluctuación
▁adhesivos
▁ingresarse
▁continuará
▁aplicador
▁etil
▁mayormente
▁negativamente
▁minimizando
▁agrupación
▁141
▁pudo
▁revisores
▁anticipar
603
▁introduzca
▁fluoruro
▁sulfúrico
▁dicloro
▁plata
▁carbonato
▁viole
▁united
▁306
▁1962
▁20814
▁comenzó
▁limitando
▁seccionales
▁revisó
▁modificaron
▁aclaración
▁1801
▁20191
▁asse
▁textile
▁source
penetration
▁models
▁site
▁851
▁capability
▁oportuna
▁plane
▁cualitativamente
▁soporta
non
233
277
vertical
▁suponen
▁juicio
▁pasivo
▁cambie
▁plegable
▁estipula
▁adheridos
▁demarcación
▁omitida
▁exfiltración
▁monitorearse
▁subdividirse
▁expulsar
▁hiperbáricas
▁acatan
▁visiblemente
▁carteleras
▁ascenso
▁setenta
▁arquitectos
▁supuestas
▁rebobinado
▁banderas
▁lavabos
▁artístico
▁asisten
▁fallan
▁medicinal
▁desactiva
▁astrágalos
▁1135
▁camillas
▁resguardarse
▁introducirse
▁cuelguen
▁lograda
▁carretillas
▁empaquetado
▁prescrito
▁vatios
▁disabilities
▁llamados
▁cuantitativa
▁distingue
únicamente
▁incorrectos
▁firesafety
▁exhaustivo
▁percibir
▁psicológicos
▁rápidos
▁determinará
▁validar
▁discusión
▁disminuyen
▁prominentes
▁apretados
▁métrica
▁recommended
▁permitiría
▁preferiblemente
▁descargando
▁desviarse
▁installed
▁cruza
▁salto
▁components
▁manzana
▁cualidades
▁entiende
▁esperados
▁secadora
▁suceda
▁implicancias
▁impartir
▁impuestos
▁cosas
gcr
▁nistir
▁editado
▁detectadas
▁aproximarse
▁planteen
▁285
▁personnel
informe
▁special
▁1188
▁posicionar
▁abordado
▁enfriadores
▁silenciadores
▁rozamiento
▁fallo
▁mandos
▁voltímetro
▁darle
▁concordantes
▁estabilizado
▁americana
▁hertz
▁irrupción
▁experimentar
▁sedimento
▁energicen
▁entera
▁911
5997
sepss
▁electromecánico
▁detectados
▁corresponderse
típico
▁1926
▁progreso
▁dintel
hose
▁costero
▁marino
instalados
▁mediano
▁ranuradas
▁dobleces
▁soldarse
▁132
▁soldadoras
ix
▁altavoz
▁calefaccionado
▁propilenglicol
▁tes
▁partición
▁prefabricado
▁arriostrada
▁proporcionadas
▁adicionarse
▁centrados
▁bajadas
pv
pn
▁río
aplicado
▁entramados
▁prematura
▁originados
▁conformados
▁preventivas
▁bocinas
▁favorables
▁agregan
▁agrietamiento
ip
▁services
▁property
▁jarras
▁oeste
▁geométrico
▁nuclear
▁transversalmente
▁barcos
▁naval
▁viaje
▁resumidos
▁sensitivity
▁symposium
▁83
375
▁subsecuentes
▁loss
▁quinto
▁simplificación
▁hi
▁parsippany
voltage
▁less
▁suction
▁engranaje
▁empaquetadas
▁anti
vórtice
▁121
▁sumergible
▁adaptabilidad
▁alineamiento
▁reenergizado
▁observando
▁causen
aceite
▁termostatos
▁conectividad
▁modbus
▁dinámico
▁quality
▁specifications
current
▁decantación
▁darles
▁férreas
▁dobladas
▁compensador
▁planifica
▁bajar
▁abordados
▁vigesimotercera
▁faltan
▁acelere
▁subacuática
▁afilados
▁lentes
▁fax
▁disímiles
▁taponar
▁buje
▁insuflaciones
▁finalizadas
▁participa
▁“
▁predictivo
▁tercerizada
risk
▁explosividad
▁preplanificación
▁comparten
▁cambiantes
▁purgar
radio
▁rfi
▁auditorías
▁cancelar
▁cancelados
▁conference
▁unifilares
▁direccionable
▁proceedings
▁semicuantitativo
▁cualitativas
std
mppt
▁alojado
▁instaló
▁any
▁762
▁grises
▁rodear
▁distinguible
▁polarizados
▁armónicos
▁kilovolt
▁kilowatts
▁lavaplatos
lfnc
▁hexafluoruro
▁considerará
▁automáticoo
328
▁condit
▁metallic
▁522
▁398
▁399
▁spe
▁espigas
▁monopolar
1993
▁proporcionada
▁rotatorias
▁contribuciones
▁id
511
515
▁hospitalario
▁1686
▁esqueletos
▁output
▁electromagnético
702
▁dcoa
▁cmuc
▁1666
ont
▁correlaci
▁scada
digos
▁comprensi
mara
▁batteries
lculos
▁interconexi
ste
▁moment
ctico
▁cat
▁encontr
▁eval
meros
▁precauci
▁raz
▁programaci
▁consideraci
ndose
▁decisi
▁telef
▁antig
edad
▁electricistas
▁habr
▁combinaci
▁technologies
▁polarizaci
▁inyecci
▁aceleraci
▁fpt
▁tornado
▁tarifa
▁fundible
▁salvaguardia
▁imsa
▁subsidiarias
▁function
digital
▁ceilings
▁ncas
▁nac
▁repetidora
▁itd
▁hrtf
▁mns
acu
▁oídos
▁oyente
▁leq
▁marrion
▁geiman
▁approvals
▁5560
km
▁apéndices
▁jefes
▁eliminó
▁74
▁actualizaron
▁solicitadas
▁hiciera
▁acompañada
▁riesgosos
▁monten
▁impartidas
▁interpretado
▁conformada
▁debates
▁incluirá
▁deliberadamente
▁revocación
▁acreditación
▁otorgue
▁rechazo
▁televisivas
▁atlanta
▁ga
ashrae
▁1929
▁circulante
▁1354
▁2174
▁2393
▁categorización
▁ri
▁case
▁scott
desechables
▁294
▁1746
▁halocarbonados
▁cubrecolchones
▁87
▁1141
aisle
▁extraída
regulated
inundada
▁repentino
apartment
▁mini
▁union
elevados
low
▁representados
closed
paper
▁eliminan
construction
compressed
▁pasta
▁justificada
rate
spark
▁relief
▁presurizadas
▁existía
▁autobombas
123
▁carril
▁pirotécnica
▁cpsc
▁comparativa
▁fugitivas
▁231
325
▁violento
▁contents
▁desmenuzado
▁corteza
▁tácticas
jurisdiction
▁tronco
260
▁moderadamente
196
▁autorizar
▁convalecientes
proprietary
▁way
row
▁professional
▁tap
235
scf
▁sujetan
occupiable
▁reservas
255
256
▁predominantes
274
▁scenario
▁crece
fuel
performance
▁location
▁obvias
▁progresiva
▁respaldar
▁garantizando
▁neutralizar
▁inadecuadas
▁prohibiciones
▁bloquea
▁márgenes
▁válidos
▁deliberada
▁colaboración
▁inaccesible
planes
▁marcarse
▁comunique
▁navideños
▁disturbios
▁duplicación
▁sobrevivir
▁vertiente
▁hoya
▁firmes
vías
▁situarse
▁visita
▁anule
▁trabas
▁nivelados
▁moldura
▁zócalos
▁decorativo
▁retengan
▁aglomerada
▁destraba
▁activaciones
▁cumplidas
▁prensa
▁sustituyan
edificio
▁aseguradora
1892
▁diseñando
▁generará
▁destilada
▁selector
solamente
▁canada
▁cargan
▁retorcimientos
▁reutilización
▁introduzcan
▁presurizar
▁aptas
aviso
▁aula
▁proyectarse
▁admitan
▁reconocibles
▁pictogramas
▁disminuya
▁acudir
▁comiencen
▁susceptible
▁comprendida
▁dispararse
▁circunferencia
▁poda
▁defina
▁topografía
▁predios
▁partido
▁pabellones
▁láseres
▁conducido
▁escucha
dichos
▁retardadoras
▁calientaplatos
▁semillas
▁ampliación
▁cenizas
▁oscilantes
▁inflada
tierra
▁subestructuras
▁recolectores
▁ocupe
▁tripolar
▁derramados
▁filtración
399
▁encendedores
▁enchapados
▁bosques
▁pavimentadas
▁livianas
990
▁verdes
▁insonorizado
▁escurrimiento
▁reforzadas
▁acrilonitrilo
butadieno
estireno
▁poliuretano
▁acetato
▁copolímero
▁combinarse
▁interrumpidos
gases
▁adquieran
▁imposibilidad
▁sucios
▁manta
▁paño
▁denominadas
▁expansiones
▁descienda
▁abastezcan
▁vuelo
▁meteorológicos
▁acopladores
dpf
▁debilidad
▁pronunciado
▁respectivo
▁sellador
▁provocarán
▁acumulativa
▁reticuladas
▁predeterminadas
▁detenida
▁extraña
▁contemplada
▁efluentes
▁cooperación
▁1219
▁cambiados
▁vaciamiento
▁57
hmmp
contenidos
frecuencia
▁ml
▁elevarse
▁desconexiones
▁disipe
▁corroídos
▁formalmente
▁manivela
▁monel
▁entregado
▁musicales
▁modernización
▁longitudinalmente
▁8000
▁resisten
▁mutua
▁tapados
▁sustanciales
▁ventila
▁mayúscula
▁qr
siete
tres
cuatro
▁interrelación
▁transfieren
▁extraiga
▁elegidos
▁ventile
▁compensada
▁plástica
▁dominio
▁pontones
▁unan
nodular
▁alcanzados
▁commerce
▁tendida
▁catering
▁oculta
▁aguanieve
▁helada
▁inyectar
▁señalada
▁accionan
▁confirmarse
▁concederse
▁demostró
▁129
celdas
▁brasa
loc
▁predecible
▁expandirse
▁niosh
▁escaso
▁demostrada
▁teneduría
▁departamentales
▁social
▁alquilados
fundación
▁crucial
▁desplazan
▁ahí
▁complementan
▁garantizará
▁seleccionan
▁aceptarse
▁idealmente
▁incorrectas
▁teóricamente
▁informan
▁suposiciones
▁absolutos
▁colegas
▁firmeza
▁promulgación
▁quiere
▁manejado
▁poblaciones
▁evalúe
▁instructivo
▁habitadas
▁mente
▁precipitación
▁burbujas
▁delgados
nuevas
▁1630
▁desarrollaron
▁oposición
▁espumante
▁ff
▁incipiente
▁calefaccionadas
▁calefaccionada
▁pórticos
mediante
▁contratados
▁justificadas
▁abandonadas
▁alejar
▁ladrillos
▁reignición
▁trazados
▁solicite
facu
▁facu
▁colgados
▁insostenibles
▁tarjetas
▁resultaría
▁78
▁considerarían
▁sugerencias
▁firewise
▁aceptan
▁estuco
▁plantaciones
▁graneros
▁291
▁londres
▁patrullas
▁disciplina
▁botellas
▁donación
▁desbaste
▁compactas
▁pedestales
▁965
▁facilita
▁predicen
▁económico
▁overoles
rp
▁simulado
▁otorgan
▁inducir
▁flota
▁millas
▁trueno
▁confinada
▁activamente
▁rodeadas
▁electrotécnica
▁basculantes
secciones
▁idéntico
▁explotar
▁aumentará
▁incluiría
▁agency
▁contacte
▁enteramente
▁dependerá
▁permitía
▁effects
▁flux
▁mueva
▁errónea
▁exactos
▁ottawa
▁hemisférico
concentración
▁diluido
▁decimal
▁expresar
▁multa
▁frases
▁abreviado
▁malta
▁implementen
▁enriquecidas
▁301
▁interesados
▁1959
▁adaptación
▁detallan
▁disimuladas
▁seminarios
▁asistidas
▁walking
working
resistant
▁stops
▁calorimeter
▁perimeter
▁specimen
▁mounting
▁over
▁assess
2005
▁1577
▁detention
▁non
metallic
▁22209
▁positive
extinguishing
▁marking
bsf
▁arquitectónica
▁furnishings
critical
guardería
▁electroluminiscente
equipment
foam
▁células
membrane
▁urgencia
301
▁cabillas
private
▁observen
stage
291
▁ensaya
▁alcanzará
▁previsibles
▁reposicionado
▁reposicionadas
▁redondeadas
▁316
▁atrapada
▁sobrepasar
▁embutidos
▁selectivamente
iluminación
▁balsa
acomodación
▁positivamente
▁autónomas
▁correderas
▁disminuido
▁iniciados
▁notoria
▁oficios
▁habitantes
▁terapia
▁recién
▁tocadores
▁topes
▁recuento
rh
rf
apartamento
pero
▁implique
▁carritos
▁estrechos
▁sugerida
▁muevan
▁precedido
▁approach
▁dejan
▁fed
▁influye
▁mundo
▁manejan
▁incorrectamente
▁acepta
▁gradualmente
reprobación
▁mojada
▁fotoeléctricos
▁responderá
▁deberse
▁rechazar
▁carreras
▁comparativamente
▁aglomeración
▁dinámicas
▁funda
▁discapacitados
▁repuesta
▁study
▁associated
▁prisioneros
▁selection
funcionamiento
▁regido
▁complementa
▁thermal
▁indicó
competencias
▁estuvieron
▁botas
▁document
▁into
aplicando
▁esclarecer
▁formula
▁planeamiento
▁maniobras
▁falsos
▁etiquetar
▁pregunta
▁vueltas
▁salvaguardas
actualizaciones
▁suscripción
▁docinfo
▁springfield
▁acoplado
acid
▁person
▁despejada
▁mostrando
▁reconexión
▁arranca
▁cronograma
▁conductancia
▁493
▁wan
▁neutra
▁dependiente
prime
▁limpie
▁arneses
▁consideraron
▁fallado
▁702
▁1106
▁131
▁switzerland
▁1920
▁1965
1996
cmsa
▁mostró
▁señalados
for
▁circula
▁interconectan
▁activadores
▁array
to
▁rack
▁silicato
▁reacondicionados
▁rebabas
▁calefaccionados
▁191
npt
▁presten
▁articulación
▁crucen
▁ksi
▁anclado
▁ensamblaje
▁arroyos
▁alterado
▁leerse
▁usuales
▁lejana
▁eh
▁seleccione
▁sumersión
▁interino
cerrado
▁reportes
▁nodo
pt
746
▁impulsar
▁imponga
▁silletas
▁elevadoras
▁extrusión
▁medioambientales
resistencia
▁ariete
▁disminuyendo
▁sombras
conocidas
▁innecesariamente
▁estacionaria
▁dará
▁convenientemente
▁pandeo
▁inserta
▁broca
▁situ
ajuste
▁experimentado
▁densa
▁determinaron
▁reportados
▁discreta
▁altitud
▁rara
▁vitales
▁scale
▁termocuplas
▁112
▁coordina
▁east
▁señalan
hydraulic
▁pumps
▁metric
▁liquids
npsh
▁convertida
▁rated
▁bobinado
▁standby
impeler
conforme
controlador
▁indefinidamente
▁vuelto
▁planificarse
▁transductores
▁acondicionamiento
▁removida
▁concéntricos
▁comparando
pumps
▁dispara
▁dibujos
eia
▁bus
▁protocol
▁servidores
▁forzados
▁hot
▁sspc
mil
▁sur
▁lisa
▁riostradas
▁cuenca
▁recubierta
inspection
monitor
▁citada
▁corroídas
▁taponados
▁afecciones
▁guarniciones
componente
▁inspeccionan
▁insertados
falla
▁acumulativo
▁cuánto
▁codificadas
▁comisionados
aquellos
pre
▁calibrar
▁warning
1999
▁entering
bonding
▁moléculas
▁atrapamiento
▁pulmones
▁respirar
!
▁auditor
entrenado
capacitado
▁recalificado
▁cortantes
▁estímulos
▁cuantitativamente
▁modeling
nd
▁referenciadas
▁square
▁trasegar
▁odorante
▁automotor
▁parquear
▁discutir
ra
ente
section
▁ambulantes
▁subestación
▁comisiones
neca
▁baldosa
▁resguardos
▁multifilar
▁identificarlo
▁prestará
▁subject
▁quirófanos
▁fijen
▁automatico
▁hdpe
▁cisne
▁enchaquetados
▁manufactura
▁suplemento
▁portan
▁descargador
xw
▁378
▁xhhw
▁366
▁ta
▁fc
▁polarización
338
1983
▁desbastar
▁auxiliary
▁382
▁ev
▁pd
▁tinas
▁pines
▁sobreponer
▁sencilla
▁oscuro
▁rearranque
▁recierre
▁sinusoidales
497
mesg
▁previene
▁iia
▁desembarcadero
516
▁selectividad
▁candilejas
▁catenario
▁monorrieles
▁605
▁vw
▁cuadrática
abandoned
▁647
pisos
647
669
▁subarreglo
▁brillo
▁692
▁common
▁728
▁nplfp
▁optical
▁funden
▁recocido
▁car
cter
▁present
▁adici
▁restauraci
rrafo
▁petr
leo
▁contenci
▁acceptance
▁certificaci
▁fabricaci
▁computaci
▁reconnaissance
sicamente
xito
▁esquem
▁desenergizada
▁inhabilite
▁excepci
▁patr
▁indicio
rmica
▁modificaci
▁desv
lida
▁reenergizaci
▁meg
▁suspensi
▁mva
▁subtensi
▁elevaci
▁subtensiones
▁variaci
▁sujeci
ble
▁cub
▁prevenci
▁extinci
▁conversi
▁herm
mp
▁describirse
▁pm
▁fall
▁60479
▁teórica
▁av
▁retransmitir
▁initiating
▁modulación
communications
ads
▁plenums
▁ada
▁deoat
▁decibeles
▁intensidades
nbs
ts
▁60268
▁strategies
▁austenítico
▁austenitic
▁nozzles
▁ait
▁cerco
▁álabe
▁inició
▁excluidas
▁consistía
▁adoptó
▁ampliado
▁117
▁géneros
▁reubicado
▁incorporando
▁amparadas
▁halladas
▁viñeta
•
▁existían
▁discrepancia
▁entremezcladas
▁justicia
▁firmada
▁habilitante
▁procedente
▁judicial
▁especificarse
▁inminentes
▁fe
▁expertas
▁verdadera
▁irrazonable
▁actas
▁recopilados
▁plazos
▁consultas
▁aranceles
▁acredita
▁constituirse
▁distribuida
▁pesticidas
▁472
armas
▁1123
▁1142
▁2350
▁conditioning
▁reid
▁648
vapores
▁2307
▁chantilly
▁20151
▁atwood
▁02919
▁ginebra
▁suiza
▁154
▁924
▁2080
508
▁printing
▁1507
▁fomento
226
▁microorganismos
spray
▁caño
▁cotton
▁arpillera
▁tejido
▁sintéticas
▁barricada
▁iones
flooded
▁vuelos
▁satélite
existing
▁transporta
▁distracciones
▁inert
▁plant
▁cátodo
▁electroquímica
▁científica
leve
cold
▁incineración
▁travel
intermediate
core
▁colecciones
▁limitadora
detector
▁aspiración
▁matemáticamente
▁rate
▁bimetálicos
▁liberarse
▁classification
aceites
▁lane
▁172
▁completen
▁brechas
▁representadas
▁predominantemente
▁hazardous
ppm
short
▁house
ld
reactivo
▁ambulatorio
▁deliberación
▁transacciones
detention
▁vínculos
occupant
201
▁superestructura
double
216
self
▁descompone
238
▁pulverizando
▁entrelazados
▁superponen
▁entrelazado
246
▁cabriadas
temporary
268
stakeholder
▁encenderá
▁activas
▁satisfacción
▁inapropiados
▁explícita
▁pasiva
▁confirme
▁inseguro
▁luminosas
▁preceda
▁contrastantes
▁carnavales
▁ordenado
identificación
▁reflectantes
acceso
disposiciones
▁vallados
▁pósteres
▁penetrado
▁usándose
▁adaptado
▁patinaje
▁vestuarios
1400
▁foyers
▁revoque
▁adquirido
003
▁recibo
▁retroactivos
calificaciones
▁silencie
▁rotores
▁alojen
▁explicaciones
▁halogenado
▁implican
▁escamas
▁formuladas
▁emitirá
▁destruido
▁devuelto
▁89
▁recargados
▁transformado
▁reutilizado
▁recuperado
▁1211
▁reutilizados
▁romperse
▁inhabilitados
▁subdivide
▁avisar
▁posicionamientos
▁anexa
▁opacos
▁renovados
▁crónicas
▁observe
▁ahorro
▁iluminar
aplicación
▁existiera
▁voladuras
▁destrabados
3785
▁enumeración
▁confundir
▁enumeren
▁coordinadores
▁consigna
▁sentarse
▁maestros
▁asistan
dichas
▁pertenezcan
▁cestos
▁equipajes
planos
▁helicóptero
activación
▁erigidas
▁confirmatorias
prohibido
▁entablado
929
▁omisiones
▁durmientes
825
▁telescópicas
▁sopladora
desempeño
▁especímenes
▁toneladas
▁exceptuando
servicios
▁desconectarse
▁manifiesta
▁corrija
▁fósforos
▁pilotes
▁misceláneas
▁cúpula
▁perímetros
▁primas
▁trozos
▁fracciones
▁retráctil
▁cajones
caucho
▁silicona
▁textura
▁derrumbe
▁lona
▁dotación
▁hexagonal
▁asentamientos
▁contracciones
▁ancladas
▁iluminadas
▁sentina
▁apagadas
▁horquilla
▁ct
▁recibiendo
▁rodaje
▁preste
▁ampollas
▁aviation
▁parachoques
▁transformen
▁debilitamiento
▁contaminados
▁drenada
▁pasados
▁granjas
voltaje
▁lfl
▁repentina
▁ininterrumpido
▁admitidas
cierre
gse
ise
▁tm
▁entrenarse
▁embridadas
▁autodiagnóstico
▁remachadas
▁envueltas
▁trasladada
límite
▁puros
▁vuelcos
▁país
▁alteradas
▁asumiendo
▁304
▁resguardado
▁filmación
▁kits
▁voladura
▁infantil
▁motorizadas
▁autoportantes
▁cepillos
▁ofrecidos
▁ataques
▁superpuestos
▁pierda
▁misceláneos
▁gel
▁ref
qr
▁descendentes
▁desviado
▁certifique
▁preferencial
▁dependencia
▁llene
vacío
▁acumulador
▁turbulencias
sólidos
▁ferrocarriles
▁reinstalados
▁tren
▁tara
▁lt
▁sobresale
aa
▁245
calentador
ni
▁sostenerse
▁asegúrese
▁791
respecto
▁maritime
▁disponen
▁vistas
▁matemáticos
▁penetre
▁momentáneamente
▁capillas
▁juzgados
▁urbanos
▁expendio
▁aserraderos
▁unitarias
▁sufran
▁desplazadas
▁ensamblarse
▁gruesos
▁rigurosos
▁acordados
▁sugeridas
▁diversidad
▁instancia
▁1110
▁analizando
▁mala
▁hijos
▁vacía
▁descansar
▁correlaciona
▁desprenderse
▁kilovatios
▁págs
rr
▁induce
▁detienen
▁linternas
▁regulado
▁fomentar
tanto
▁ameritan
▁involved
▁garantizaría
▁vidriado
▁difusor
▁contratos
▁1953
▁imperativo
▁idénticos
▁admite
▁arrancado
▁numérico
manguera
▁amateurs
▁habían
▁inteligibles
▁debaten
▁bicarbonato
▁confirma
▁petroquímicas
▁carta
▁obstruya
▁enrollada
▁agrietado
▁deformados
▁coincide
▁apretado
▁suministrará
▁permitían
▁identificaciones
▁mantenimientos
▁sugerido
▁subpárrafo
humo
efecto
▁bidireccional
▁mantuvo
▁pasada
▁demográficos
▁antropométricos
▁hombres
▁contextura
▁destellos
▁brillantes
▁legibilidad
▁quitan
▁invisibles
▁solicitarse
▁sustituidos
▁climáticos
▁meteorología
▁aves
▁arcilla
▁pinos
▁invierno
▁afectará
▁sequía
▁rasgos
▁ramificación
dentro
▁interfieren
▁referido
▁abeto
▁delgadas
▁educativos
▁inoportuno
▁enrejadas
▁propagará
cortinas
▁comprometido
▁lógicos
▁lácteos
▁pesa
▁seria
▁hidrocarburo
▁transformará
▁alineadas
through
▁admita
▁exacto
▁limpiador
▁prominente
▁dañarse
▁turbulencia
▁redondos
▁familiarizada
▁naturalmente
▁fundida
▁destructivos
▁acompañan
▁híbrido
▁acelera
▁procurar
▁resuelto
▁combinan
▁apreciable
▁deteriorarse
▁aumenten
▁confirmado
▁duration
▁vessels
▁calentarse
▁discontinuidad
▁usaron
▁dicromato
▁clorito
▁cromo
▁estroncio
▁persulfato
▁perborato
di
butil
▁carburo
▁objetiva
▁adoptan
▁prisión
▁habría
▁califiquen
lineamientos
▁miami
▁hipobáricas
▁cónica
▁mercantes
▁804
▁integrar
▁1946
▁boston
▁amplió
▁1951
▁1956
▁cuarta
▁solicitándolos
aci
▁operated
4400
▁their
▁1629
▁determinísticos
resistive
▁intermediate
▁stretch
▁min
▁rosslyn
▁window
▁mattress
▁pads
▁means
▁pasante
▁asistida
▁above
life
up
mcm
▁fiestas
▁finalizando
▁íntimamente
▁pertenecientes
1420
▁vinculados
▁salvaguardar
▁señalizarse
▁gente
▁deslizadores
▁adjunta
▁ofrecidas
▁exhibirse
▁ensayarse
▁sometan
▁convierta
▁almacenaje
▁alfombrados
▁noventa
▁anuncie
▁tenidos
▁inyectoras
▁inyectora
▁inyector
salidas
▁escalonadas
▁valla
▁vomitorios
▁trescientas
▁narrativo
▁hostiles
▁auténticos
▁distribuido
otra
▁desiguales
puerta
▁notable
▁4500
1055
▁encuentro
3960
▁reconfigure
2100
▁subsuelo
▁monolíticos
▁destraban
▁cubrirse
▁gobernantes
▁275
btu
▁colegios
▁califican
▁ocurriendo
▁principles
▁milke
▁apenas
▁acompañar
▁review
▁rooms
▁organizativo
parte
▁consideraría
▁históricamente
▁reduciría
▁llegada
315
▁reversa
▁trimestral
▁groner
▁levin
▁potential
▁elevator
▁nacionalmente
▁requiriendo
▁claras
experiencia
▁ayudará
▁beneficioso
▁mural
▁aclara
▁cuántas
▁ocasión
▁regrese
▁forzar
▁impone
▁cruces
▁transcurre
▁involucrarse
▁alertados
▁minucioso
▁heridos
vía
▁arnés
▁1700
society
▁conditions
▁measurement
▁encuesta
▁survey
jpr
conocimientos
▁mejoran
▁ejercicios
▁presupuesto
▁sesiones
▁guidance
▁concepts
▁preservada
▁avalen
▁desglose
▁subordinados
capacitación
▁1925
▁1931
scba
▁wiley
▁training
▁1979
▁concisos
▁analíticas
▁verifiquen
▁devolver
▁razonamiento
▁are
▁saben
▁inadvertido
▁implicadas
certificado
▁alternador
▁restablezca
▁estabilice
▁disparos
▁empezando
▁fundaciones
▁excedidos
generador
▁desperfectos
▁escaneo
▁seguiría
▁célula
▁consolas
▁asuma
▁proporcionará
▁energizan
▁apretar
▁rue
▁1950
▁1968
▁claves
▁fundentes
302
602
▁ahj
▁volume
▁cruda
▁cédulas
▁humedecimiento
quick
▁group
fuera
▁escora
▁facial
▁garganta
▁ojal
▁sellarse
▁premezcladas
▁cornisas
▁formada
▁nozzle
▁removerse
▁plafones
▁reformas
▁obtendrá
▁circulantes
▁amortiguador
▁quitando
▁grabadas
▁compartir
▁expresados
▁taladrados
▁esbeltez
▁gancho
▁186
abierto
▁encapsular
▁palets
329
▁cera
▁nadie
▁formaciones
▁camisas
fecha
▁resumida
▁darcy
weisbach
▁moody
▁biocidas
▁lago
▁numeradas
▁supervisa
▁supervisarse
▁pintarse
▁largas
▁laminados
▁bodegas
▁logotipo
▁note
▁omitirse
▁extendiendo
▁plafón
▁óptimo
▁sedimentación
▁canasta
▁restablecerse
▁bombeada
▁une
▁latitud
▁epoxi
▁iron
▁corten
tubería
▁seguramente
yao
▁drop
▁saltó
▁documentan
▁ave
▁exoneratorias
▁agma
▁caracterización
▁turbine
hv
suction
▁caracterizada
▁drawing
▁multiplicador
▁removidos
▁mejillones
▁cebra
▁vórtice
▁disparado
▁sensoras
cabezal
▁tazón
▁cojinete
▁llevará
▁impedirá
medio
▁grabar
▁desaceleración
▁consecutivos
▁satisface
▁ojo
▁designan
▁insertando
▁consultor
▁verificando
▁perfectamente
▁322
▁ics
▁desvía
▁proliferación
▁desgastado
▁graduación
▁decoloración
stand
▁bits
▁maliciosas
▁inhabilitar
▁encriptado
▁solape
▁imprimante
▁atornillados
▁all
▁cedro
▁mpa
▁cepillados
▁cabrestante
▁horquillas
▁puntal
▁prolija
▁purgador
kilovatios
▁portales
▁añadir
▁recoger
▁dinero
▁monitora
▁standpipe
alta
▁llenadas
▁atendidos
▁aleta
▁pcb
▁respiraderos
▁milisegundos
▁desactivada
▁adosar
abrir
▁expulsado
▁mención
▁firmas
▁almejas
▁acidez
▁ciencias
ello
▁required
▁interacciones
funcional
▁encabezados
▁transcurridos
▁administrar
▁comentar
▁administrada
prevention
▁hydrocarbon
▁against
▁oel
▁respirador
▁sop
▁ponderado
time
▁lesionados
▁pescantes
▁desviando
▁engrase
▁dotar
▁plantilla
▁cientos
cops
fpt
▁estadística
▁capital
▁indexación
▁insignificantes
▁válido
▁computacional
frecuencias
▁ahrens
▁introduction
▁actuador
▁recalificar
▁diseñó
▁carretas
▁catálogo
▁previsible
▁piroresistencia
▁dispensadoras
auto
▁vce
▁hereby
▁purpose
▁than
▁its
▁permisivas
▁barandillas
▁ampere
▁685
busways
▁producirá
▁conductors
▁polifásicos
▁automáticode
▁xi
▁grabado
▁indeseable
▁411
▁extraíbles
▁cortacircuito
▁corrugada
▁388
▁545
▁plenum
▁thw
▁thwn
▁usarlos
▁marque
053
▁cúbicas
³
▁enclavada
▁connector
fcc
nonmetallic
▁adobe
▁escariar
▁lfmc
▁density
▁nonmetallic
▁halados
▁atados
▁trays
connector
▁dúplex
▁eo
▁etp
▁ett
▁semipesado
▁resistivas
▁resistiva
▁halogenuro
▁dotadas
▁energiza
411
▁expendedoras
▁empalmar
1989
▁askarel
▁alcalino
plano
▁automation
relación
▁interconecte
▁termoiónicos
▁desenergice
▁pelusa
▁electronic
ia
1995
▁epl
▁pb
▁megaohmio
▁cardíaco
▁desequilibrada
▁amarilla
tablero
▁porte
▁525
▁escobilla
▁botones
▁encaminar
▁expansibles
▁breakers
▁watt
▁subensambles
604
▁dumbwaiter
▁evse
▁iimax
▁ite
685
▁pv
scada
▁2196
▁cruceta
ndices
adieron
▁desenergizaci
▁agreg
▁emisi
▁administraci
▁hidr
▁replacement
▁esmeralda
▁3007
▁ba
▁inundaci
698
▁contraantena
▁aver
▁electrost
▁electrode
dico
▁preocupaci
nde
▁canalizaci
ndolo
xicos
▁localizaci
▁hist
▁limitaci
▁qui
▁entendido
▁obstrucci
ndares
▁efect
tricas
▁impresoras
▁perturbaci
▁distinguibles
▁estator
▁explicaci
▁im
▁percepci
medidor
▁termomagn
▁excitaci
▁oxidaci
▁fricci
▁sincronizaci
▁fotograf
▁gie
blica
▁confusiones
▁actitud
▁army
▁rise
▁mantenibilidad
▁epact
▁premium
▁analizadas
▁overol
▁capucha
▁reiniciados
▁análogo
1221
▁premises
signaling
317
▁address
▁telephone
principal
▁anunciarse
▁especificidad
▁enmascarados
▁interaural
▁destello
0375
▁repetidores
▁associates
▁micrón
▁security
brasa
▁interaurales
▁update
▁oasis
▁bruck
▁thomas
qcr
▁qs
nbsir
formerly
▁20889
▁measurements
▁modelling
▁second
▁factors
▁wpi
▁nam
▁objective
▁ai
▁stainless
▁graphic
▁rocosa
▁µs
▁grapa
▁trazadores
ng
▁emitió
▁redactado
▁reestructurado
▁enfatizar
▁eliminaron
▁historia
▁inválida
▁consentimiento
▁solicita
▁precedente
▁reputación
▁corridos
▁detectara
▁formulado
▁vencimiento
▁conserva
▁271
▁484
▁655
▁1125
▁1127
▁suburbano
▁rural
▁607
▁pureza
▁traffic
2923
▁voie
creuse
▁postale
▁committee
▁specialty
▁710
566
▁156
▁cosméticos
▁perfecto
airport
alternative
area
consumer
battery
▁alcalina
▁hidróxido
vented
▁rector
▁expulsión
▁equipaje
unión
▁pura
▁portable
▁envasado
moderados
▁secador
▁secar
▁arderá
conventional
▁leña
▁halla
▁envasados
▁resource
▁containment
temperature
▁compensan
ember
▁oscuros
dwelling
▁vent
▁insertada
▁titanio
129
▁pronóstico
▁irritante
▁puntaje
▁ardan
▁prefabricada
▁transportada
▁ensamblada
nursing
158
162
▁production
▁corporal
▁desnuda
means
177
normal
occupancy
▁contained
hospital
▁alcoholismo
▁cobijo
▁matrimonio
vessel
▁occupational
▁labor
192
▁generator
195
permit
202
▁proyecta
212
rack
214
▁pronunciada
recreational
registered
224
237
▁story
street
dedicated
tank
▁livianos
258
▁calzada
263
▁sucesos
purpose
analysis
modelo
▁empíricos
▁escalas
▁aprobarse
▁calorífico
▁quedarían
▁conservadurismo
▁reflejado
▁exceptuarse
▁abordarse
▁cancelación
▁adulteración
▁depositar
▁parachispas
▁marcador
▁lee
▁desocupados
▁atracción
343
▁tomacorriente
▁grabados
▁biodiésel
▁barométrica
pruebas
contenido
▁estructuralmente
dimensiones
▁rellenada
▁contactado
▁almohadillas
▁textil
pp
casilleros
▁especificara
▁anulares
▁transiciones
▁suelto
▁juntan
detectores
▁documente
▁solicitados
▁indebidamente
▁discotecas
▁techadas
▁revele
▁ceda
▁roedores
▁declive
▁cercados
▁silenciado
cableado
bombas
▁objetable
▁coating
afff
▁evitadas
0929
▁magnitudes
▁sumarse
▁cubos
▁pala
▁precautorias
▁inhabilitación
▁rebobinados
▁reconfigurados
▁atravesada
▁reconfirmación
▁imparcial
▁vencida
▁destrabada
▁convergencia
▁aloja
▁plazoletas
▁disuadir
▁transitar
autodiagnóstico
▁autoluminosos
▁iluminarse
▁quemarse
▁enfatizarse
▁encofrado
▁acompañado
▁tapadas
▁angostos
▁defendible
▁playas
▁atravesadas
▁aumentados
▁destruidos
▁admitido
▁reflector
▁reiterada
▁fumador
▁elenco
▁preescolares
mobiliarios
▁tacto
▁oleaginosas
▁molienda
▁instrumentales
▁atraque
▁recircular
▁salamandras
▁desmenuzados
▁locomotoras
▁grillas
▁nivelado
▁pavimentado
▁alcanzarse
▁motorizado
▁eximido
▁frp
acetato
▁absorbida
inmersión
▁rueda
▁sintético
▁bolas
▁cartuchos
▁climatización
▁329
▁envíe
▁monitoreen
▁remachado
▁utilizarlos
▁debatir
▁recortes
▁enciendan
▁tapping
▁espacial
▁parabrisas
▁colisiones
▁destructiva
▁definitivo
▁deslizar
▁cizalladura
instrucciones
▁delinear
▁ejerzan
▁halle
▁leídos
▁utilizaran
▁electrostáticas
▁estáticos
▁enganche
▁expandida
▁perforada
▁flecha
bloqueo
▁ecualizar
▁embudo
▁intrínsicamente
▁suspenderse
▁cortada
▁acoplarse
federal
▁agotado
▁insuficientes
▁confinadas
▁pulverizados
sala
▁atascamientos
▁contaminada
▁guardada
▁destilerías
▁catalizador
▁violenta
▁oscilen
▁transferida
corte
▁boletines
▁inundadas
▁recombinantes
▁alojados
▁neutralización
valor
salas
▁idlh
▁hmmp
jse
kconversión
lno
▁líquidas
▁admitida
transporte
acciones
▁redactados
▁productores
contenedor
fluido
▁tarimas
módulo
▁terapéutico
▁excedida
▁rupturas
operación
▁acercamiento
▁diluir
▁molecular
detección
▁dirijan
▁carretilla
▁teatrales
▁vendan
▁perforar
▁palas
▁manipule
▁atardecer
▁purificación
▁concuerde
▁idiomas
upr
▁duplicarse
▁demandante
▁equilibrarse
345
▁duplicadas
líquidos
▁estratégicos
▁emplazado
▁levante
▁surjan
▁nidos
▁llenando
▁termómetros
diámetro
hd
▁intactas
▁crisoles
▁pavimentación
▁calentadoras
▁apta
▁transfiera
▁veinticuatro
▁impracticables
327
▁1035
▁modificó
▁otorgamiento
▁agregue
▁entretenimientos
▁liviana
▁estopa
▁171
▁comprometidos
▁categorizan
▁colectivo
▁inhibidor
▁egresos
▁virtualmente
▁expanda
▁óxidos
▁subdividen
producto
▁482
▁irritantes
▁psicológico
▁muletas
▁reformatorios
▁reclasificado
▁independencia
▁vivir
▁bromo
▁científicos
fprf
cloro
▁envoltorios
▁organizativas
▁demandantes
▁promueve
▁simula
▁impacta
▁sensación
▁justificado
▁expresadas
▁evalúen
▁consultados
▁tolerar
▁tejas
▁desprotegidas
▁cometido
585
▁reflejo
▁reconozca
▁diferenciación
▁arribo
▁peligrosidad
▁contingencia
▁ignífugos
▁raspado
▁2030
▁navidad
▁concebibles
proulx
prácticas
▁deportiva
▁compromiso
▁contractuales
distribución
▁redundancias
▁desalienta
▁disturbio
▁violencia
▁bloquean
▁motivaciones
fr
442
▁exfoliación
▁ferguson
▁registran
▁elegida
▁generaría
▁anotaciones
▁logran
▁requerían
▁trama
▁complementados
▁autobomba
▁credibilidad
▁elabora
▁complicaciones
▁oscilan
▁obstáculo
podrían
▁linterna
▁prescribe
▁crt
▁informarse
▁responderán
▁explícitos
▁beneficiarse
▁óptimas
▁notifiquen
▁buscan
▁inusualmente
▁mejorada
▁358
▁talla
▁descubrir
▁mantuvieron
▁américa
▁usará
▁comunicadas
▁communities
▁meramente
incendio
▁meteorológico
▁atmospheric
▁cocheras
▁glorietas
▁colindante
▁escasas
▁barrel
verificar
▁islas
▁similitudes
▁foto
▁especie
▁elegirse
▁gruesa
▁hábito
▁canchas
▁golf
▁aa
▁douglas
calor
▁niño
▁molestia
▁molestos
▁molestar
▁maderas
▁dispersar
▁negativas
cualquiera
drive
▁traslada
▁recurrir
▁ilustraciones
▁saltar
▁static
▁flammable
▁categorizar
▁maximice
▁simularse
▁necesitaría
▁sierra
▁contratado
▁potencias
▁inactivos
▁enjuagar
▁contando
▁estacionadas
▁triple
▁desarrollen
▁formadoras
61241
▁aproxima
▁concentradores
▁cetona
▁económica
▁recolectada
▁suministrando
▁retrasos
▁regiones
▁ciertamente
▁metil
▁éster
▁revelan
▁anticipa
▁resultará
▁enjuague
▁gaseosa
▁característico
▁ocurriera
▁estimadas
▁visualizar
▁embalado
▁promulgadas
▁altitudes
▁ds
▁lograrlo
▁rectángulos
▁émbolo
▁respiradero
▁implementada
▁microbiana
▁et
▁considerations
0169
<
▁pol
▁bolardos
▁fosfina
▁crómico
▁manganeso
▁regulan
▁hidroperóxido
▁peroxi
sec
▁investigarse
▁avalar
▁81
▁oms
▁inodoros
▁ordena
▁delito
▁declara
▁versiones
▁servidumbres
▁instructiva
▁ffsbms
▁correos
▁6666
▁80235
▁state
▁university
▁albert
▁embankment
▁79
▁850
▁publishing
▁7315
▁wisconsin
▁celebrada
▁agregando
▁1934
▁numeración
▁ampliaron
▁modernizado
▁731
▁farmington
▁hills
▁216
▁assist
1264
▁decorados
▁accelerated
▁weathering
retardant
treated
▁rates
▁vinyl
▁extended
▁arc
▁top
▁dampers
test
▁lighting
▁firestops
▁luminous
▁other
▁giran
▁housing
▁support
▁atmosphere
▁open
▁despejado
▁court
elevator
two
evacuation
acabado
▁telar
guest
plenum
point
▁stage
▁reside
▁reunidos
specification
▁ochenta
▁interactúan
underground
286
287
▁vomitorio
▁prescripción
▁sostenibles
▁declarados
▁sustentar
▁molinete
▁constituido
▁dimensional
escaleras
▁antepecho
▁incrementado
▁barriers
▁rendija
▁resiste
▁retracción
▁agruparse
▁excluida
▁quinientos
▁regresa
▁delanteros
▁desigualdad
▁discontinuos
▁omite
▁cuantificación
▁planifican
evacuación
actividad
factor
▁exigirse
ventiladores
▁estabilizar
▁stand
▁multiplicarse
▁distintivos
▁lavabo
▁tolva
▁familiar
▁fomentan
▁nacidos
▁rebajos
nominal
▁cuarenta
▁deseables
▁comunicante
▁esclusa
▁alimentarse
▁conserjes
▁silo
▁construye
▁distinga
▁cabios
▁encontrada
▁esperan
▁alzheimer
▁emisores
▁press
▁taylor
principios
emergencia
▁debían
incluye
▁fiabilidad
▁australia
▁británica
▁official
existe
▁sciences
▁within
▁brevemente
velocidad
▁cuadrático
▁pronostican
▁intensivos
▁calórica
qs
▁referente
▁traspiés
▁tropiezo
▁electrificados
▁duradero
▁objetables
▁incrementando
▁towers
▁empíricamente
▁‘
mientras
▁altere
▁encontraron
▁instalaron
▁décima
▁retorne
▁reproduce
▁arrojan
▁llevaría
▁trasladen
▁moje
▁estrictas
▁217
▁desconocidas
▁class
▁conciertos
▁continental
▁recreativa
▁despejados
▁vestidos
▁levantadas
▁imanes
▁adecuar
▁mantendrán
▁pilot
▁nuisance
▁incomodidad
▁imposibles
▁programarse
▁verdadero
▁detenidas
▁acolchadas
línea
▁confort
▁basaron
▁abovedados
▁especificando
▁gafas
▁testigo
▁teoría
▁prescriptivo
▁enteros
▁promedios
▁suposición
▁avanzados
▁habilitantes
▁retroactivamente
▁medirá
▁sucesión
asistir
licencias
certificados
▁centrada
▁desempeñando
▁1006
▁1561
▁1911
▁sons
▁mcgraw
▁alexandria
▁tesis
▁militar
▁científico
▁testigos
▁desventajas
▁viables
▁dictionary
switch
▁otto
▁enfriadas
▁éter
▁fallar
▁programable
▁ejercitar
▁mando
▁ejercitados
▁sincronizadas
▁sobrecargar
▁atenuar
▁amortiguación
▁mucha
▁consecuentes
▁destructivas
▁probando
▁optimización
bridging
▁nucleares
▁pretender
ece
▁electroquímico
▁cesar
▁sobrecargados
▁varembé
▁446
▁aseguradores
▁437
▁subcapítulo
▁pluma
antifreeze
▁mezclada
▁dry
deluge
▁receiver
branch
installation
▁empotrar
corrosion
▁termostático
▁suplementar
residual
static
▁pallet
▁shelf
▁aglomerado
▁contrarrestar
▁mamparos
way
▁espectral
▁hexagonales
▁residuo
▁incompleta
▁fundidas
▁articulo
▁orientaciones
▁listarse
▁drenarse
▁galvanización
▁pieles
cubierta
ssu
ssp
▁actuadores
▁guata
▁despensas
▁colgador
▁colectiva
▁fy
▁consecutivas
asd
cp
▁enterrarse
▁localizarse
▁redondas
▁predecirse
hs
▁3900
1500
▁compactadores
minm
▁consten
▁mina
▁2300
▁ampliaciones
▁tabulación
▁barro
▁disparar
▁funcionado
ángulo
▁encierra
▁succiona
▁cisternas
▁consideró
▁indicaron
▁envolver
▁socavado
▁inquilinos
▁desconocidos
▁andenes
▁acatamiento
▁estacionales
▁213
▁exponencial
▁ocasionado
2½
▁explícito
fv
▁antisísmicos
▁ap
▁listan
▁filamentos
bell
seleccionar
▁242
▁apreciables
▁gotitas
▁tantos
▁controlarlo
▁alzado
▁repite
▁controlarlos
nk
29106
4004
▁spot
▁agote
▁ocurridas
▁negativos
ir
▁rectángulo
▁simétrica
▁parecidos
▁succionan
▁arreglarse
▁antiguas
▁alpert
1979
▁beyler
1976
▁flaming
▁serial
▁initial
▁convective
▁pittsburgh
▁comparativos
▁supuesta
rotary
▁intersticios
▁characterization
▁generators
churn
discharge
▁controller
ignition
▁cilíndrica
▁enclosed
case
record
▁estabilizarse
▁bridadas
▁grano
▁gobernador
▁severamente
▁países
▁fraguado
▁estandarizados
▁trípode
▁conversores
▁conviertan
▁electro
▁eliminando
▁proyectar
▁simplicidad
▁desean
hp
▁apretada
▁pare
▁llevarlo
▁usb
wide
▁teclado
▁estadístico
▁describía
▁rules
▁welded
▁strength
máquina
cell
▁ánodos
▁cónicas
▁estanco
siemens
martin
▁compactada
▁pilares
▁rugosidad
▁elipsoidal
▁deducida
▁eficiencias
▁empalmado
▁mecanizados
▁pórtland
▁particularidades
▁trípodes
▁apoyado
▁platillo
▁clavado
▁190
▁valioso
▁favorable
itm
▁measuring
maintenance
▁proportioner
master
▁flojos
568
▁acuático
▁orientadas
▁deteriorado
▁ópticos
▁secarse
▁recopilan
▁asentado
▁corrige
▁comparativo
▁mallados
▁instituir
▁reposicionar
▁ráfaga
▁localizador
▁resultando
▁depresiones
▁fatiga
▁hongos
▁biológico
▁insuflación
cx
▁cx
1031
▁benefician
▁campanilla
▁reunirse
contratista
▁garantías
▁tercerizadas
▁sumando
▁ptd
▁2201
▁lead
▁tankers
▁terminals
entry
retrieval
niosh
▁poleas
▁sepan
▁inertizados
▁electrocución
▁colorimétricos
▁ingresando
calibración
▁aspirado
sensores
▁usó
▁incapacitado
▁logren
▁ad
▁hoc
▁asignan
▁difundido
▁proyectiles
▁out
▁currents
▁derretimiento
▁expande
fra
▁inciertas
▁fr
▁caracterizados
▁sofisticados
▁cualitativo
▁improbables
▁interrogación
▁computacionales
▁pilotos
▁auditar
▁651
▁utilizarlo
▁enfría
▁detectables
▁tornasol
▁broncesoldadas
▁reiniciar
▁ubicando
▁reparan
▁trasiegos
▁chasís
▁reemplazarlos
▁tf
▁debilidades
▁adopted
▁dictar
▁deteriorante
▁terrazas
▁tenderse
▁pese
▁neutrales
▁casquillos
▁diodo
▁mogul
▁península
▁adjuntos
▁347
▁acabada
▁nucc
delta
▁repentinamente
▁mils
strike
▁termination
▁órgano
véanse
▁pasacable
▁390
▁342
▁344
▁353
▁2043
▁rhw
▁cruzamientos
▁336
▁termofijo
▁quebradizos
▁conducida
canalización
▁raceway
▁indefinidos
▁retroalimentados
elemento
vam
▁sombreados
▁gravemente
▁desenergicen
convertidor
celda
▁510
nonincendive
▁circuitería
lugares
polvo
▁rayón
▁coque
▁multifibras
▁reclasifique
▁iiic
▁portalámpara
ray
▁anodizado
▁transformer
▁quirófano
518
▁540
clavijas
▁balanceado
▁circos
▁multiplica
▁divisor
▁switches
▁viajar
led
▁kit
▁cristal
▁cordeles
audio
▁670
670
▁terapéutica
▁multiplicación
gec
▁eólicas
▁someterlo
▁adhesiva
▁crucetas
▁radioaficionados
▁ciudadana
transmisor
▁cilíndrico
▁bmu
▁blu
▁determin
▁adquisici
▁malas
▁comunicaci
496
▁especificaci
▁1331
▁ar
▁marr
▁shielded
vlf
▁1584
▁interpretaci
▁ab
logo
▁subterr
neos
▁recopilaci
micamente
arse
▁conservaci
ndo
ptimo
rtigas
▁aislaci
ricos
▁reacci
les
tems
rdenes
▁estaci
nimos
▁fijaci
picas
▁destrucci
▁aseg
rese
▁direcci
▁tri
▁cuadr
▁zumbido
▁programables
▁variadores
▁osciloscopio
▁microprocesadores
▁sincronizados
▁qued
▁diagn
▁transformaci
▁espira
▁prensas
▁arqueo
cticamente
▁oscil
grafo
medo
▁reposici
▁realiz
▁encarga
engrase
▁centralizada
tera
▁aut
▁salina
▁clim
▁retenci
▁gis
adir
▁ignici
rmicos
▁expulsi
▁env
▁aprobaci
anza
▁demostraci
▁aprendido
▁piscataway
db
rcito
rmulas
▁ecuaci
ai
▁convecci
▁ten
accesible
▁fundibles
▁conscientes
▁fibrilación
▁ventricular
▁cerebro
▁geneve
▁telcordia
▁transpondedores
▁tour
sloping
wireless
▁comunicadores
dacr
▁drmns
drmns
▁mensajería
▁wats
dba
▁ild
▁reproducir
▁polar
▁silenciar
▁amperio
▁sonoras
▁oyentes
▁cuadrícula
4037
▁idc
▁states
▁8201
▁virtual
▁measured
▁polytechnic
▁hc
▁absorbancia
▁nov
▁october
▁college
▁prediction
stipa
speech
▁joe
▁twitter
▁fittings
fighting
13480
▁dv
▁zonificada
▁esquemática
▁tripulación
▁simplificada
vpr
▁acuática
▁vpr
ae
ct
files
▁directiva
▁impartida
▁tecnológicos
▁actualizó
▁hallada
▁garantizarán
▁autoriza
▁delegación
▁tribunal
▁incumplimiento
▁evacuen
▁considerara
▁salvar
▁personalmente
▁crearse
▁ex
▁juzgar
▁celebrarse
▁asamblea
▁solvencia
▁infrinja
▁penales
autoridad
▁revocar
▁cobrar
▁incluyera
▁penalidades
▁us
▁pasible
▁256
▁498
▁fumigación
▁664
▁artificio
▁1194
▁empernados
▁bull
▁1529
▁refrigerating
▁1791
▁tullie
▁circle
▁30329
▁acelerado
▁querosén
▁1591
▁2652
▁4221
▁walney
▁222
▁567
▁1037
▁1313
gasolina
▁2129
▁2368
▁toronto
▁ratificada
▁rev
oficina
access
back
organic
▁peroxide
▁eliminador
▁sujetada
▁descubierta
▁ferroviaria
▁autopista
▁montículo
boil
▁merchandising
▁amusement
▁tridimensional
▁hydrogen
▁oxygen
▁tester
▁otorgarle
chemical
▁astilla
▁característicamente
▁precipitaciones
combustion
commodity
▁documents
container
▁fuse
other
sensing
dormitory
▁vinculadas
gross
liquefied
▁intacta
▁conejos
▁albinos
crf
▁isobutano
toxic
▁encamisado
157
incident
ic
liquid
log
▁maquinado
▁iniciará
▁incompatible
174
▁prepara
ambulatory
assembly
▁bebida
▁quirúrgicos
▁mercantile
289
▁arrendadas
▁underground
▁garage
▁ilimitado
▁vistos
operating
▁acolchado
▁fieltro
▁pesticida
▁callejón
▁construyendo
ramp
219
243
standpipe
piled
▁element
structure
continuous
▁aboveground
▁autobuses
259
unit
usar
reduced
▁ejercida
267
270
▁topográficas
▁redactada
sensitivity
uncertainty
data
▁team
▁cuantificados
▁ocurrirán
▁emanaciones
▁exhibe
▁pasivas
▁instantáneas
▁traducirse
▁omitidas
entrada
ocupantes
▁considerase
▁requiriera
▁liderazgo
▁prontitud
▁inoperante
▁ampliar
▁braseros
▁motocicletas
▁multitomas
▁polarizado
▁deterioros
▁crudos
▁precalentamiento
▁restaurarse
▁detallen
▁retranqueo
▁subarreglos
▁trabadas
▁firmado
▁pudrición
▁simulen
▁simétricas
▁borra
▁penetrada
▁monolítico
▁devueltos
▁reanude
señales
▁descongelamiento
▁deportes
pbx
responsabilidad
cambios
▁moldeados
modo
076
▁aguarda
ante
▁descargará
▁escarcha
▁impulsión
▁oída
listado
▁acreditadas
consejo
▁postal
▁1955
▁polares
▁fluoroproteica
▁vara
▁relacionen
▁numéricas
extintores
procedimientos
▁fundas
▁humidificadores
▁mezclarse
▁expelente
▁estampada
▁notifica
▁admitirse
▁escuchados
▁alfanumérico
▁reconfirmada
▁columnatas
▁extensivamente
▁suenen
▁experimentada
dicha
▁entregadas
▁distinguen
▁haces
▁angulares
▁recalibrados
▁confundan
▁reja
▁destrabarse
dpara
▁colgadas
▁deslizables
▁intensa
▁prestados
▁engrasados
▁vertedores
▁familiarización
▁conserve
▁incompleto
▁vuelco
▁descontaminación
▁urbana
condiciones
descripción
desarrollo
▁trazadoras
▁transportarse
▁fundamenta
▁nativas
estructura
▁emplazadas
▁periferia
▁congestión
▁diseminación
▁cuevas
▁cavernas
▁musgo
▁maniquíes
▁supervisan
enfermeras
▁enanas
tlof
▁lechos
permiso
▁inadvertidamente
inflado
▁amarradas
▁vial
exterior
▁deportivo
▁reparen
▁contrapisos
▁quiten
▁palos
▁mayoristas
▁espontáneo
▁alcanzadas
▁humedecer
▁alternas
▁dinamita
464
▁plató
▁tapada
incluso
▁elastómeros
poliéster
▁elastómero
▁plastificado
▁san
▁formaldehído
▁polivinilideno
fluoruro
▁crepé
▁sanitaria
▁procesando
▁híbridas
▁examine
▁filtre
▁equilibre
▁filamento
▁desalojar
▁centrífugos
pai
▁barrer
▁fundidos
▁ilustre
▁evitarán
▁anticolisión
▁impactados
▁hallen
▁inscripciones
coloque
▁aléjese
▁circulen
▁disipen
▁molde
▁anulados
▁mango
▁acoplada
▁indebidas
▁descendidos
▁salvamento
▁utilizaría
▁deslizamientos
fabricante
▁excediendo
▁repetidamente
▁reconozcan
▁reaccionarán
6000
▁termoendurecibles
▁raspaduras
▁impregnados
▁dejada
▁reciclar
▁procesados
▁clorados
clasificada
▁lijado
▁absorbido
▁sisal
013
▁subconjuntos
▁deflectora
1067
▁acatarse
▁inmovilizado
▁detengan
▁congele
▁penachos
▁limitante
planificación
hse
hdeben
0283
ino
controles
liberación
▁aguda
vehículos
▁protegerlos
▁antisísmica
▁sismos
▁informen
▁envasadas
▁reanudación
cilindro
▁faciliten
▁detonantes
distancias
energía
▁rastrearse
▁ponerlos
▁congelarse
▁corrosion
nace
▁asegurarlos
cfm
▁monitoreando
▁excluya
▁hidrostáticos
▁disipador
▁encajadas
▁1122
▁plagas
▁viajes
▁polvillos
▁capturados
▁centistokes
▁esmaltes
▁energético
▁maliciosos
▁simule
▁superposición
mantener
cpara
▁bordillo
▁destina
▁196
▁sr
▁rubros
▁ht
▁mezclar
▁condense
ignición
▁productor
▁distorsionar
▁deformaciones
▁notificará
▁sospeche
▁pontón
▁débiles
▁compactados
▁polimerización
▁aprovechar
▁tendidas
▁drenen
▁hallazgo
▁varas
▁desbordamiento
▁dúctiles
▁desenganche
▁carguen
▁arrastrado
▁transferirse
▁navegable
▁lastre
aluminio
▁abultamientos
mawp
▁soterrados
▁declarado
▁siquiera
▁salpicadura
▁jabonosa
▁finalice
▁atletismo
▁extraídas
▁gasto
▁conductas
▁diligente
▁agricultura
▁armonización
▁convención
▁acumulan
▁dispersas
mec
tasa
▁finaliza
▁envíos
▁cubriendo
▁envolturas
▁matemático
▁compensa
▁instantáneamente
▁salvas
▁escasez
▁cristalinos
▁alteran
▁descomponen
▁calorimetría
▁friable
▁perdido
▁disciplinarias
▁universitaria
▁maternidades
▁belleza
▁academias
▁dolencias
▁enfermas
▁supermercados
▁subjetiva
▁tricloro
▁provocó
▁proponen
▁intervenir
▁indistinta
▁bidimensional
▁alineada
231
▁rompen
453
606
▁ingresados
▁contextos
▁alertan
▁estuvo
▁dólares
▁contribuirá
▁cumplirá
▁arbitrariamente
▁financieros
▁regímenes
▁limitantes
▁sofá
▁1085
▁585
▁1472
▁cambiante
▁ensayar
▁conceda
▁interactuar
▁visitar
fosforescentes
▁rama
▁deslice
▁desprenden
▁derrumbes
▁problemático
▁amontonamiento
▁movement
▁people
▁respeto
▁prioritario
cc
ems
▁inseguros
▁deciden
▁percepciones
▁insatisfactoria
▁dictaminan
▁david
007
▁homogénea
▁hacían
▁atípico
▁alcanzara
1890
▁kn
▁evacuadas
▁contratadas
▁archivan
▁resistor
▁certeza
▁abc
tiempo
▁demostraron
▁pudieron
▁establecía
▁mostraron
▁ejecutado
▁explican
▁asocian
▁corroído
▁lubricar
▁deterioran
▁universales
▁puntajes
▁suena
▁impresora
anual
arriba
abajo
▁lejano
▁grilla
▁dispersarse
▁alcanzan
▁raramente
▁detectable
▁oscurecer
▁tornan
▁girando
▁representado
▁obtuvo
▁encuestas
▁incursión
▁correspondientemente
cun
▁ingresado
▁colocaron
▁lumínica
▁regule
▁breves
▁visite
▁envergadura
1893
▁insta
▁viejos
▁derretirse
▁acuden
identificar
▁fuels
▁apiladas
▁dependencias
▁fertilizantes
▁ceras
▁angostas
▁comercios
▁codificación
hirschler
▁babrauskas
▁altares
▁túnicas
▁obviamente
▁despierto
▁practicar
▁ministerio
▁incluirán
▁sangre
▁familiarizarse
▁cepillado
▁congestionado
▁inefectivas
4000
▁radiado
▁pierden
▁procede
▁confusos
▁piles
▁559
306
▁condujo
▁conocerse
▁variantes
▁descansan
▁anaquel
▁humectación
▁contratada
▁bolsillos
▁eliminen
▁tungsteno
▁ende
▁fundamento
▁viaja
▁provecho
▁contribuirán
▁depositado
▁tolvas
▁descomponerse
▁sucio
▁cargarse
▁infiltración
▁proporcionalidad
▁encaminados
▁smacna
▁duplica
independientemente
▁abundante
▁drásticamente
▁propagan
▁1800
▁extinguen
▁idea
▁desprendidos
▁vestuario
▁blanqueadores
▁veloz
▁dibutil
▁monómero
▁creosota
▁µm
▁investiga
▁depuración
▁advierte
▁environmental
▁185
▁oscila
1218
▁percibidos
▁hidruros
▁adecuarse
▁aleja
▁reorganizado
▁eyección
▁ibc
muchos
▁almacenando
▁mármol
▁sobresalen
▁refractario
▁oxigenados
▁dificulta
▁consumption
▁reino
▁rodar
0285
▁iniciativa
▁querer
▁limpian
▁canadian
▁transport
▁acme
químicamente
su
superiores
dimetilhidantoína
▁monohidrato
▁percarbonato
▁bromuro
▁mercúrico
▁binarias
▁293
▁2200
▁dmp
▁dimetil
▁inesperados
encargado
▁exigible
▁inserciones
▁titulada
▁oraciones
▁declaradas
▁asignando
▁lejeune
▁33126
@
boletín
▁lake
especificaciones
▁269
introducción
▁emitieron
▁tuvieron
▁revisando
▁1936
▁club
▁1952
▁1957
▁1958
▁1973
▁presentó
▁referentes
▁referidas
▁9094
▁48333
▁0216
▁openings
▁stairs
▁temperatures
▁finished
▁furnace
▁degrees
▁photoluminescent
phosphorescent
▁markings
scale
fabricated
▁self
▁locks
▁swinging
▁evaluating
▁1847
▁range
minimum
▁loads
▁activadora
det
separate
▁rodeado
draft
level
▁illuminated
grade
guard
▁actuadora
▁inhabilitadas
▁llegan
joint
▁incapacita
▁caracterizadas
permanent
▁platform
▁utilizarlas
wall
▁mitigadas
▁imprevista
▁consistencia
▁ultra
▁autoluminoso
2135
▁exenta
▁bipartida
rpm
▁9½
▁bisel
▁ropas
▁señalen
▁rodeen
▁atravesando
▁viceversa
▁luminiscente
▁delineados
▁opaca
4570
▁adjuntas
▁hubieren
▁arquitectónicos
4180
▁asimétrica
▁penetration
▁rellenarse
▁ensayan
▁artísticos
▁atravesados
▁selectores
▁esperen
teatro
▁frontis
equipamiento
estrategias
▁biológica
dea
▁estipulada
▁colgaduras
▁enmoquetados
▁cultos
▁doscientas
▁inoperativos
▁cafeterías
▁director
▁reacomodados
técnicas
▁accede
escalera
▁ancianos
▁divisorias
totalmente
▁enérgicamente
▁rebotarán
▁quedando
▁cerrarla
▁41½
1625
▁parantes
▁cirugía
▁rebajo
▁regalos
▁mantenerla
▁06
▁primeramente
retiro
▁drogadictos
▁zonificado
▁cercado
▁adulterados
▁exutorio
▁reiteradamente
▁mínimamente
▁pertenencias
▁idóneos
▁anunciados
▁reglamentado
ese
▁interprete
▁cuatrocientos
▁quiosco
▁reforzadoras
nl
▁pórtico
▁compartimentadas
▁elabore
▁monumentales
▁gobernante
▁influenciado
▁estabilizadores
resna
▁individuals
▁trece
▁bolos
▁divertimentos
▁procesadoras
▁mentalmente
▁designing
▁procesamientos
▁nombramiento
tareas
▁despejar
▁intentan
ª
▁reevaluado
1994
▁correr
▁captar
▁concentra
▁interrelaciones
▁letales
▁pronosticar
▁modelizado
▁manifestarse
▁asemejan
▁esferas
▁substantiating
▁given
▁buenos
▁extinga
▁subjetivas
▁1637
▁profundos
▁rellenadas
▁resbalamientos
▁resilientes
▁bajando
▁sight
▁erróneas
▁percibido
▁mencionó
apara
▁desalineados
▁norteamericana
▁cargando
▁occupant
▁quiera
▁consumidores
▁single
▁multiple
▁facetas
▁retenga
▁carbonización
▁cigarette
▁adoptaron
▁tenidas
suponiendo
▁accesoria
▁hacinamiento
▁tenida
▁aísla
▁involucramiento
▁pormenorizado
▁lavadora
▁pediátrica
▁emprendidas
▁renovada
▁forenses
▁disimular
▁basaba
▁interferirán
▁aseo
▁recalentar
▁asado
▁olvide
▁alertarían
▁ebanistería
▁autoestables
▁perturbadores
▁escogiendo
▁excitar
▁gritando
▁grito
▁informando
▁fumadores
▁subrepticios
▁reducirlos
▁repita
▁recolectando
▁advenimiento
▁pretendida
▁eductor
▁excelente
▁regidos
▁inoperativo
▁hubo
▁complementado
▁sumerge
▁usual
▁vaciar
▁sume
▁corrales
▁culinarias
▁propenso
▁existiendo
▁constructores
▁desplegar
nist
▁viabilidad
▁carpetas
▁centre
▁abordaron
▁contemplaba
▁introdujo
▁combinen
▁interpreta
shop
▁drawings
systems
task
▁diálogo
▁conciso
▁asesor
▁calculadora
▁mixtos
▁acompaña
▁concisa
▁1021
▁mortal
▁redactadas
▁presunto
▁agrupan
primero
▁desempeñará
▁psicomotoras
▁cognitivas
orientado
▁cumplió
▁transformar
▁ciudadanos
▁licenciatura
revisar
▁hidroeléctrica
▁capacitadores
▁infecciones
▁competency
▁dynamics
▁disciplinas
▁investigation
▁medibles
▁audiovisuales
▁scientific
▁hacha
▁bichero
▁extensible
▁otoño
▁añadió
▁duraciones
▁reorganizaron
▁webster
▁collegiate
lead
▁asegurando
automático
run
▁amperímetro
▁retransferir
▁enfriarse
restricción
▁instalarlo
▁obturadores
▁viejo
▁2498
▁derretida
▁accionando
▁tarda
▁ilustrados
▁simulando
▁975
▁1835
▁gasoductos
▁prudentes
▁volverlos
▁cascada
▁huracanes
▁íntegramente
▁microbiológico
▁geles
▁lodos
▁laxitud
▁deflexiones
▁contingencias
▁concordar
▁provisionalmente
033
nicd
▁nimh
▁ultracapacitores
▁puentear
▁electromecánicos
▁desconectando
▁coordinarse
interactive
usualmente
▁sumamente
▁estabilización
▁1905
▁1913
▁identificarlos
▁colado
▁636
▁hulla
▁cinematográficos
▁inodoro
flat
▁protuberancias
drop
▁translúcidos
▁fan
welded
sprinkler
▁working
▁premezclada
preaction
▁fast
▁coverage
▁module
exposed
▁encapsulada
▁stability
▁sprinklers
roll
▁roll
▁circunferencial
▁force
▁celulósicos
▁ranurado
▁timbre
▁cresta
▁inflexión
▁controlando
▁celosía
▁actuantes
▁exteriormente
▁rellene
▁tuberia
▁wp
▁afluentes
fy
▁netas
▁inaccesibilidad
▁empernadas
▁comprobarse
▁orgánica
▁exigente
▁altillos
▁enfrentan
▁traseras
▁esclavos
▁listón
estanterías
▁intencionada
▁piletas
▁travesaño
▁zonificados
1043
calcular
▁reciclada
▁recuperada
▁prueben
estación
▁duren
▁rotularse
▁longevidad
caballerizas
▁condado
▁barnizado
▁termoplástica
▁calibradores
▁inesperada
▁flechas
▁cálidos
▁criba
▁substituto
▁diente
▁modelado
▁enfrente
▁anotar
basándose
▁darán
▁gire
aisc
▁cilíndricas
▁ductile
▁galvánicamente
▁disruptiva
▁varíe
▁notar
▁temprano
▁demostrando
mercancía
▁consumidas
segundo
▁nula
▁confiarse
▁denodada
corporación
▁nfprf
▁suprime
▁calorimétricas
▁preocupaciones
▁resolverse
▁necesitarán
powered
▁liquidos
solo
contra
qué
▁siamesa
▁desafortunadamente
▁large
▁rc
▁operó
▁utilizaban
▁145
▁146
▁107
▁comparadas
▁3600
elo
▁dejó
▁aisc
▁one
solas
▁393
▁errata
▁suscribirse
▁sinfín
▁rotary
hi
kv
additive
diesel
▁engine
disconnecting
datum
hsv
differential
▁pistón
▁sobrecargarse
signal
reducing
▁limiting
▁desactivadas
▁reponer
▁secuenciales
▁depresión
▁empaquetados
▁liberador
▁generadora
▁trinquete
▁npsh
▁indefinida
▁inducidos
abiertos
▁simétricos
▁arranquen
opcional
▁señale
▁venir
abierta
columna
▁ilegible
▁df
▁disminuida
▁peligrosamente
▁grabadora
▁perderse
▁derivarse
▁configure
▁dure
▁matemáticas
▁desee
▁recircula
▁sucederá
▁aproximados
▁verificador
▁descanse
▁bicicleta
▁ajustan
métodos
▁reiniciado
▁impersonal
▁multicanal
▁vsd
▁canaleta
▁refinamiento
▁limo
▁antemano
▁reposicionamiento
▁afloje
▁acopladas
▁desgastados
▁holgura
▁enorme
lan
▁percibe
▁mobile
internet
▁normalizar
▁tablet
▁virus
reparación
▁unfired
▁machine
▁thermosetting
sspc
0001
▁sampling
▁imprimadas
▁renovables
▁dial
▁secados
▁denso
▁3313
▁cepillada
▁jable
▁dentada
▁cepilladas
▁atornillada
▁preservante
▁excentricidad
▁micro
▁escuadras
▁desbarbadas
▁capiteles
▁ampliada
▁compensadores
▁rompe
▁purgadores
▁volviendo
▁construyen
resistentes
▁rodeados
fue
▁interim
▁continuaba
▁oils
▁middle
▁distillate
indica
▁helado
▁semiautomático
▁vacuum
▁definitions
frequency
▁deterioradas
▁coinciden
▁sombrerete
▁aspersor
▁equitativamente
▁estadísticamente
nc
▁semestrales
▁reliability
▁probarlos
▁debilitado
▁rodetes
▁concluir
▁arista
▁asentarse
▁desechar
▁accionador
▁ultrasónica
▁podrido
▁organizados
▁amenazar
muchas
▁electroquímicas
▁enriquecimiento
▁limos
▁depositan
▁biológicas
habitualmente
▁dm
▁transformada
▁hitos
▁subjetivos
▁terceras
▁mencionando
▁entregan
▁recomisionamiento
▁aportar
▁gestionar
real
▁complicados
▁propone
diciembre
▁ápice
▁explicados
▁aiha
bod
▁processes
▁2027
▁abrasive
▁blasting
▁2217
phmsa
confined
▁medioambiental
1670
▁explosive
▁recurrente
rescue
▁scba
▁priorizar
▁enredos
▁lesionar
▁priorización
▁deficientes
▁sondas
▁examinada
lel
sar
▁salte
2268
▁advierta
puesta
▁acondicionar
▁¡
▁convocatoria
▁interrogar
▁desocupen
▁ponerlo
moc
▁comunicado
▁higienistas
▁locations
▁ignitions
▁arising
▁stray
▁2219
▁costosa
▁acgih
▁implicados
▁published
▁instructions
opr
▁mortales
interruptores
visual
▁intangibles
▁siniestros
▁estructurado
▁tabular
▁examina
▁extrapolación
▁representarse
rt
▁demasiadas
▁trazabilidad
▁predisposiciones
▁ejercen
▁cultura
están
▁techniques
▁ferríticas
▁revised
accesorios
▁1660
▁gpa
▁vaporizado
▁convertido
▁parágrafos
▁rasante
▁encerramientos
▁manufacturado
▁qt
▁parqueen
▁semicelda
▁orientar
▁desacople
▁desprendimiento
▁parágrafo
▁montan
remolque
▁odorantes
▁aparición
▁galvánico
1650
▁destacarse
▁rin
▁utilizaba
▁retirando
025
▁ilustrativos
▁ente
▁chapter
▁who
▁more
▁consultando
▁minimizarán
▁conversaciones
▁excavadoras
▁cablear
▁polarizadas
signos
ramal
▁introducirá
▁bifásicos
▁limitarán
▁suministradora
alimentación
▁intercambiabilidad
▁hid
▁jumper
doble
▁brindarán
▁370
030
▁solidamente
▁clavo
▁milímetros
▁incrustados
▁384
▁mtw
▁seccionados
▁armónicas
▁tándem
ensamble
terminal
clad
▁branch
▁galvánicos
▁escariado
liquidtight
▁354
▁halen
▁troles
▁nivelar
040
▁tapiz
▁seccionado
antirretorno
▁394
▁nispt
▁nispe
▁so
▁sow
potencial
▁espiga
▁trituradores
▁reemplazables
▁enyesada
envolvente
▁aislando
controller
▁sincrónicos
▁abreviada
▁apretarse
awg
▁adviertan
transformador
▁ambientalmente
▁converter
▁1578
aparato
▁taper
▁pascales
▁pitido
▁rutinarios
▁interconecten
▁mod
▁pasarse
aex
▁encastre
minuto
casa
lugar
▁electromagnéticas
▁terapéuticos
▁floja
▁forrados
020
sound
equipotential
▁tripolares
▁acampar
truck
▁expansible
▁encaminado
▁siluetas
▁polipastos
▁tff
personnel
▁modular
▁difracción
dielectric
▁669
▁galvanoplastia
▁higienización
▁resguardada
▁gradientes
▁hidroterapéutico
▁aireación
inverter
photovoltaic
diversion
inversor
▁combinadores
▁estuviesen
protective
▁transiente
▁retenerse
dcoa
▁730
▁rfhh
▁2024
▁marcara
▁sugiriendo
▁ies
nplfa
bicsi
▁568
▁emergen
premises
imax
▁467
▁recomendaci
▁reorganizaci
gico
▁tem
▁descripci
▁falsificados
gina
do
▁origin
easa
▁rotating
▁buff
▁vented
▁519
▁gesti
▁1657
▁preventive
pcb
xicas
html
us
▁noise
▁fen
▁precede
esd
lightning
grounded
gfp
524
▁leng
eta
▁capacitivo
ma
ltiplos
sta
stas
▁pondr
rico
▁productividad
▁motivaci
▁recolecci
▁err
▁neum
▁voltio
nfasis
ltimo
nto
▁falten
ptima
▁metodolog
▁precio
▁acontecimientos
▁remoci
▁separaci
▁catastr
▁tricloretano
▁extreme
estrella
▁resonante
sticos
▁inducido
▁osciloscopios
dicos
▁sofisticaci
▁reubicaci
▁colocaci
▁caus
▁dem
▁indicativa
cidos
▁todav
▁exploraci
▁rebote
▁radiaci
▁pl
▁neutralizaci
▁preceden
biles
▁acompa
▁milivolts
▁temporizaci
▁bueno
▁disolvente
viles
▁belleville
▁intr
▁electrocuci
▁bot
▁evitado
▁reportada
▁picados
tambi
▁inorg
▁barniz
▁descoloridas
▁ox
▁subproducto
▁tuber
▁termales
▁conductivas
▁mant
ngalo
▁divisi
▁disipado
enfriamiento
▁sustituci
▁anulaci
charolas
▁expansi
▁segregada
▁enfr
veda
▁habitaci
▁desbalance
▁reuni
▁irse
▁personalizada
▁guardado
▁utiliz
▁hoes
▁08855
1331
▁315
▁reafirmado
eficiencia
kwh
▁podemos
▁inflamaci
▁alimentaba
▁superaron
etiquetas
▁anteojos
▁traumatismos
▁mentón
▁indumentaria
▁prenda
▁estimados
▁guardián
▁inoperables
▁orientativos
▁evitación
▁mire
▁dig
▁mcculloh
▁aprendices
station
▁household
▁1638
▁appliances
▁private
▁utility
▁signals
auxiliary
▁guard
▁supervisory
▁talk
trouble
▁eccu
▁beam
▁transmitter
eccu
releasing
▁alerting
notification
textual
photoelectric
▁preestablecidos
▁visd
▁contarán
▁contraseña
▁anuncian
▁resistivo
voluntarios
▁servidor
nac
▁estratos
▁predescarga
▁descolgado
▁despachar
▁busque
▁reenvío
▁silenciosa
compañías
▁cuadrículas
▁fotodiodo
▁zeta
▁sonoridad
hrtf
aip
▁oír
▁candelas
▁÷
▁vulnerability
▁methodology
▁leave
▁proulx
▁version
▁1455
▁diríjase
▁gcr
▁dwellings
▁activation
lw
▁kemano
▁tg
qdo
▁arroja
▁zm
▁almohadón
▁modela
▁ts
▁fpetool
▁lawson
▁walton
▁twilley
▁forney
▁bukowski
▁beamed
▁year
▁siting
▁velocity
▁keski
rahkonen
▁estimation
▁maryland
pb
▁past
▁tno
▁mapp
alcons
▁pregrabada
▁configura
▁kuligowski
▁omori
▁difundidos
▁solder
▁wrought
revised
▁equivalent
fluid
▁premezcla
▁fssa
▁799
mínima
▁heptano
9175
lemp
mcov
064
lbm
▁kilómetro
suelos
▁estabilizados
▁impactadas
▁bf
bv
ks
▁pz
▁61643
▁norteamérica
▁autonomía
▁actualizaba
▁valiosa
▁incorporaba
▁western
▁chiefs
▁citaciones
▁condados
▁diversiones
▁embrujadas
▁prescribir
▁estatutos
▁considerasen
▁reconstrucciones
▁obtendría
▁denegar
▁prototipos
▁conservadas
▁suplementarias
▁delegar
▁suplantar
▁secreto
▁facultada
▁ocultada
▁infringiendo
▁acerque
▁asumida
▁exima
▁membresía
▁profesiones
▁contrataciones
▁voto
▁arbitraria
▁avala
▁constancia
▁petición
▁vender
▁sanciones
▁revocado
empresa
▁soliciten
▁titular
▁suspensiones
▁promulgar
▁432
▁esterilización
2305
▁bituminosos
▁323
▁3278
™
▁2074
▁pivotantes
▁estabilizador
▁coniforme
▁852
cilindros
junta
▁south
▁industry
▁1896
rvia
▁162
▁rompibles
▁antirrobo
▁1316
▁2208
▁ulc
554
▁sede
▁10017
▁805
▁consultiva
▁adosó
▁ramp
sales
▁depurador
▁shutoff
▁borras
explosivos
basement
▁types
▁iónica
nickel
▁desembarque
▁oficialmente
▁liquefied
it
▁experta
▁errática
suelo
hc
▁denominación
▁chemistry
▁refinería
▁destilería
▁pulpa
▁ligeros
leves
top
▁particulate
▁desechados
▁generaron
▁chatarra
compartment
▁envuelve
▁properties
cylinder
limiting
▁conductivity
criteria
pneumatic
radiant
▁obedece
▁compensation
spot
▁habitar
▁comer
▁excedente
▁estallido
wood
▁lacas
▁circonio
1141
▁expreso
▁apa
▁curiosidades
▁adimensional
floor
▁autopropulsados
▁solution
highly
litro
▁helio
▁criptón
lng
▁etano
butano
▁138
pyrophoric
▁asfixiante
unstable
▁vigorosamente
▁condensará
▁sufrirá
▁autopropagación
htf
▁calorífica
home
indicating
initiating
permissible
▁transbordo
noncombustible
reactive
business
educational
hotel
lodging
▁rooming
mercantile
mixed
▁hospedar
repair
major
▁sanguíneos
▁ocultan
▁embalada
▁precalentar
197
198
primary
process
▁ingredientes
protection
▁espontáneamente
▁program
217
▁cubic
banded
isolated
miscellaneous
side
palletized
structural
▁flector
▁edificado
252
▁recovery
rubber
▁tires
261
▁outlet
▁golpee
▁capacity
▁candentes
▁conversion
input
verification
▁presuponer
▁satisfaciendo
▁disminuidas
desaprobación
8141
▁admitidos
▁determinara
▁imposibilita
▁urgente
▁hospedaje
▁percibida
▁aparentemente
▁publicar
▁faroles
▁contrastar
▁rojas
▁peldaño
▁absorba
▁estacionarse
▁toboganes
▁enchufados
7620
9140
▁reabastecidos
▁anunciadora
▁nonserif
señalizaciones
puntos
▁cuatros
2438
▁oportunidades
espacios
base
barreras
▁documenten
▁contactarse
▁conservado
▁retorcidos
▁rellenando
▁enrollable
▁amortiguadoras
▁2573
▁2599
▁pizarras
▁afiches
▁zócalo
▁acabadas
▁progresa
xxx
▁estructurar
▁especimenes
cortahumo
▁impedirse
▁vidrieras
techos
▁descubiertos
▁cenefas
▁piernas
▁reanuden
nunca
▁ornamentación
▁celebrado
▁arrancados
indicación
▁notificadas
▁reforzadora
ddebe
een
▁paint
▁obsoletos
▁formadores
▁planteados
▁cetonas
▁delicados
▁solucionar
▁acredite
▁autoexpulsión
▁pulsador
▁examinan
▁recargas
▁sacabocados
▁minuciosos
cambio
▁recargado
▁observara
▁descartados
▁autoevacuarse
▁prevalece
9300
hogares
▁avalan
▁archivar
▁cancelada
▁acondicionadas
▁administre
▁confundidas
▁vaivén
▁abrirlo
▁quedará
▁trabada
▁destraben
1015
▁atribuye
atodos
▁oculten
carteles
▁proporcionales
aprobación
▁traídos
▁nh
▁semejantes
▁pararse
▁pronunciados
▁aumentarán
▁superpuestas
implementación
▁otorgarse
▁poseerse
▁globos
▁ofrecerse
▁crecidas
permisos
▁carriles
▁galpones
seca
▁cines
▁laberintos
▁torne
▁corregirlas
▁extinguidas
▁espadas
▁flambeados
▁cerezas
▁crêpes
▁suzette
▁pirotécnico
▁bambú
▁cómodo
vestimenta
▁directores
▁semiambulatorios
▁dañino
▁deteriorada
▁anunciado
▁trabar
▁habilitación
▁solicitando
▁comisionado
▁procesen
▁sequen
▁mezclen
▁envíen
▁cinematográfica
▁partidas
fato
▁robos
▁omitido
juego
▁requerírseles
▁permitírseles
▁feriales
▁apoyen
▁entablados
▁plomada
laboratorios
▁scf
▁campamentos
▁yates
▁brutas
moderado
▁atracadero
▁astillero
▁odorizados
▁dispensadora
▁succionen
▁minimizada
▁comprobados
▁humedecerse
▁compost
▁enchapado
▁congeladas
▁repetido
▁colaterales
▁filmaciones
▁duros
▁clasificarían
▁piroxilina
3716
▁aleatoriamente
propileno
▁sbr
▁fep
▁urea
▁absorban
especialmente
▁haluro
mie
▁megohm
▁descargadas
▁reevaluar
▁almohadilla
hot
▁portón
▁vallado
▁retornado
inspecciones
▁monedas
▁billetes
▁anclada
▁protegerla
▁conciliación
▁recibos
▁tocando
▁desbordamientos
▁ocupando
▁existieran
▁consumirá
▁pliegue
▁disipadores
▁bujías
▁semitráiler
▁plegado
▁colisión
▁liberando
▁embudos
▁cola
▁regenerativo
▁consigo
▁embarques
▁avión
▁saturación
gh
▁carburación
▁intercambien
▁propulsar
▁fluidizado
0359
▁calafateado
▁clasifiquen
▁persistirá
▁recircule
▁megohmio
▁robóticos
▁calderines
▁tomará
▁desocupada
▁plurales
▁fricciones
plásticos
comúnmente
▁fabricando
▁cortadoras
▁anula
ft
▁cerámica
▁interrumpidas
▁finalicen
▁restituidos
▁restituido
▁alivien
▁disperse
▁tlv
▁excursiones
▁designen
▁retiren
▁activará
ninguna
dse
▁1375
gdeben
límites
▁etos
▁corporación
▁remediar
▁asumidos
▁anomalías
▁calores
▁teóricos
950
▁extensibles
ningún
cerramiento
gabinete
tráiler
▁taparse
▁desplacen
057
▁sénior
▁anidado
▁corroer
▁moleculares
conexiones
interconexión
▁floten
juntas
oxígeno
▁escénicas
▁artistas
557
▁sustituya
▁arreglado
1100
▁variedades
▁asfaltos
▁barnices
prevención
▁exploración
sva
factores
▁premisa
▁medicinas
▁miscible
nmfc
hz
▁325
▁desprenda
▁sujetadas
voc
blas
4160
▁viscoso
▁viscosos
árbol
▁ot
▁anidados
deflagración
▁fabriquen
▁remachados
▁calafateados
manejo
ala
▁diverso
▁crecida
▁2380
▁desplazado
▁esféricos
▁enfrentar
▁articulados
▁articuladas
▁interstate
▁convertidos
▁montículos
▁soterrado
▁radiografía
▁rt
▁resiliente
296
▁semitráilers
▁despedidos
▁apuntando
▁protegerlas
▁extremar
▁estacionen
▁excluido
▁administradas
▁nitroso
▁extenderá
▁flejes
▁enrollados
▁agm
▁gelificante
▁gelificadas
▁densos
▁ligeras
▁montañas
moteles
▁aglomerados
▁1226
▁yute
▁cáñamo
▁cacao
▁barba
▁terciada
▁altera
▁elongación
▁inhibe
▁tabaco
▁juguete
pólvora
▁calentando
▁continuarán
▁fluoruros
▁sufren
▁vigorosa
▁venenosos
▁nulo
▁inhalables
▁bowling
▁fraternidades
▁hermandades
▁cuarteles
▁caballerizas
▁acelerador
▁ge
▁tricloroisocianúrico
tricloro
▁aumentó
▁recordatorio
▁citas
▁reacabado
▁asistidos
▁precipitado
▁evaporan
▁misiones
▁subocupaciones
tome
▁acordar
▁desarrollará
▁indicarán
▁puntualidad
▁presuntos
▁psicológicas
▁involucraría
▁incierta
▁actuará
▁devastador
▁manejable
▁verdaderamente
▁1185
idealmente
▁1112
▁computarizada
▁decenas
▁dañinos
▁sociedades
▁implicaciones
▁alquila
▁arrendador
ambulatorios
▁contactadas
▁complementen
▁autoevacuación
▁eventuales
▁desciendan
▁malinterpretado
▁reverso
▁sequedad
▁usted
▁reunida
▁organizadores
▁religiosa
▁competitividad
▁homogeneidad
▁cohesión
influenciada
▁socioeconómicos
▁afinidad
uniformes
▁corren
▁demoran
bb
dd
ee
gg
jj
kk
ll
▁perceptivos
nn
oo
espera
calidad
qq
ss
tt
▁réplicas
▁congestionan
▁conflictivas
▁contramedidas
▁cambiará
▁intrínseco
▁garantizadas
▁píldora
▁presentarán
▁aprobará
tu
▁carpet
689
▁macetas
▁readaptación
▁prisiones
▁deshabitadas
▁reemplazando
▁sándwiches
▁comestibles
▁contraerse
▁patrulle
▁patrullaje
▁ocasionales
▁minuciosidad
▁venden
▁coatings
▁mica
agente
▁extingue
▁agravar
▁evapora
▁cumplían
▁multiplican
▁termodinámica
▁279
▁español
▁confían
▁constituirá
▁extremarse
diversos
▁inutilizable
▁señalizan
▁familias
▁ignoran
▁genérica
▁ciudades
▁consultores
▁retarda
▁compare
▁polvorientos
▁discriminación
▁comodidad
▁trasladan
▁influyentes
▁décadas
▁denominador
▁adaptaciones
▁exime
▁ollas
▁avenidas
▁impedirían
▁semipermanente
▁especificaba
▁mate
▁lg
▁uv
▁sustituida
▁guarde
▁antelación
▁finito
▁prevalentes
▁ardiente
▁propicios
garajes
menor
▁junten
▁dañan
▁leños
▁mantillos
▁estacional
▁pastoreo
▁paisaje
▁raíces
▁gruesas
▁comprenderse
▁desventaja
▁decidido
▁exactas
▁comporta
▁elsevier
▁uk
▁375
▁indicativas
▁apreciación
▁cócteles
▁moverlos
▁comprados
▁agresivo
▁conformadas
▁pienso
▁harineros
▁refinación
▁propulsores
▁porosa
▁traspasar
actualmente
▁iniciarán
▁económicos
▁pantanosos
▁preservantes
▁cuna
▁prevalecen
▁viejas
▁adsorción
▁caluroso
▁alcanzada
▁predictibilidad
▁reinstalado
▁progresivamente
▁sintética
clasificaciones
▁bond
635
▁3300
▁máscaras
▁tempranas
▁inefectiva
▁secan
▁2019
▁lentas
▁aiche
▁desechable
▁recíproca
▁quiénes
▁cuellos
▁traslapar
▁ilustrada
▁892
pei
▁1621
▁583
▁crc
1972
adicionalmente
▁distinguidas
▁potentes
▁derrama
▁lavarse
jet
▁empapados
separador
▁ventajoso
▁valiosos
▁estratégica
▁incoloro
▁vaporiza
▁prescripta
▁delantales
▁reubicada
▁extracciones
aún
▁asocia
▁enfriado
▁bombeados
▁quemaron
▁abrirán
▁plaquetas
▁pensar
▁demandan
▁lavadas
▁impredecible
▁notables
▁titulado
▁catalizadores
▁diluyente
▁catalítica
▁estera
▁autos
▁hábitos
▁sartenes
▁peine
▁calibrador
▁2436
▁contradicción
epa
▁clasifique
fácilmente
▁variarán
▁rigurosas
▁liberadas
▁vaporizar
▁disiparse
▁centra
▁entregando
▁suministrarle
▁enriquecida
010
▁ataca
▁embalar
▁procuran
▁corrosividad
▁reestructuración
▁gs
históricamente
▁reflejada
▁sometieron
▁seguirá
▁upr
▁2218
▁petroquímico
▁deshidratación
▁1709
▁sobrepresurizado
▁1615
▁necesitarse
▁creía
dla
▁entró
▁476
▁cianógeno
▁cianuro
▁diborano
▁nitratos
▁tetranitrometano
▁mono
dicloroisocianurato
anhidro
etilhexanoato
butilperoxi
▁hexano
▁acroleína
▁acético
▁trifluoruro
▁arsénico
▁pentaclorofenol
sulfato
▁ratón
▁ao
▁bbp
▁butil
▁bencil
▁dbp
▁dop
▁dioctil
buoh
▁butanol
▁terciario
▁cobro
▁deroga
▁culpable
▁pena
días
▁penalizada
▁imposición
▁inconstitucional
▁constitucionalidad
▁inconstitucionales
período
▁hmis
cas
▁1750
▁cn
▁determinando
▁tv
operador
▁destinatarios
▁inmuebles
▁jefatura
▁transportation
▁sw
▁orange
▁grove
▁importación
▁linden
▁editores
▁412
▁901
▁1201
▁1964
▁vegas
▁nv
varias
#
regs
▁folletos
▁continuó
▁1942
▁nocturno
▁inapropiadas
▁reubicaron
▁guión
▁convirtieron
▁perfecta
▁litro
▁editados
▁citado
▁masonry
▁guardrails
▁abuse
▁nondecorated
▁gypsum
▁cement
▁poliméricos
▁polymeric
including
▁facings
▁veneers
▁intended
▁substrate
▁2768
▁autorrebatibles
rising
▁seat
▁mechanisms
▁leakage
gpo
▁refuge
▁route
supported
▁labores
▁delimitan
living
rehabilitation
door
thermal
▁educational
▁day
mall
▁descubierto
device
▁lobby
▁conforma
exposition
▁convenciones
▁functions
hogar
▁psiquiátrica
load
▁composite
▁inclemencia
▁decorado
▁proporcionarles
▁sleeping
▁convalecencia
▁party
▁licenciada
proscenium
▁resistido
▁impairment
▁conteo
▁esperando
275
290
▁defender
▁exceptúa
▁remodelada
▁calculando
▁intolerables
2285
▁niveladas
▁dividan
▁parante
▁cerrojo
▁indefinido
▁adjudicársele
580
▁abrirla
▁figuran
▁alternadas
▁apagan
▁presurizando
▁penetradas
▁enfrentando
▁atravesado
▁deslizador
excluyendo
▁entrelazadas
▁chevron
8370
▁informal
oeo
▁entremedio
▁enmarcado
▁finalidad
▁escuchen
▁supervisora
▁ferrocarril
▁erguida
calentadores
den
▁invadir
▁reposicionada
▁cercadas
▁cercada
▁levantada
▁rebatida
▁obstaculizado
▁transitable
▁dibujados
▁diagonalmente
debajo
▁ineficacia
▁escénica
actividades
lista
▁trabarse
▁retráctiles
▁onzas
▁irrompible
▁mejoradas
cdonde
▁seiscientos
▁indebidos
▁ineficiencia
▁descriptivo
▁herrumbre
▁cabrestantes
▁apoya
2110
▁agrupado
▁astrágalo
1160
▁psiquiátricas
▁terapias
▁farmacéuticos
▁cajeros
▁debilitados
015
▁garantizarse
▁enrollamiento
▁rh
▁practicado
▁desayuno
▁tributaria
▁referencian
▁puntuación
▁impliquen
▁subclasificarse
▁estadio
▁impregnada
▁quinientas
▁matriculado
▁ejecutarse
▁recubrirse
▁congruente
▁rigurosidad
dependiendo
▁alteren
▁paseo
▁arrendada
▁registren
▁bastones
▁andadores
▁numeroso
centered
▁directory
▁fundamentals
▁klote
▁antisísmicas
▁aerotransportados
▁satisfecha
▁denodadas
▁contemplarse
▁consiguientes
▁vinculado
▁british
kaplan
1984
▁letalidad
▁col
▁monoxide
▁tendrían
▁aportan
▁cognitiva
▁afiliación
▁fisiológicos
▁ornamentos
▁supuestamente
ensayos
▁autores
modelos
▁fáciles
▁consumido
combinación
▁preocupante
▁comenzará
▁corrida
▁parecen
▁anotarse
▁variados
mercantil
▁sube
▁falls
▁fuertemente
▁girar
▁cerrojos
▁temporización
▁tapete
▁cuclillas
▁llame
▁hombros
890
▁direccionalidad
▁aflojarse
▁plegadas
▁compartimentados
▁esperaría
▁acreditada
▁masculina
▁violar
▁halogenuros
▁plans
▁aspects
▁areas
required
descanso
▁suceder
piso
▁transforman
▁resistive
muro
▁busquen
▁fundamentada
▁desactive
estudios
▁sensibilidades
▁emanan
rincón
▁justificados
▁carpets
▁rugs
1013
center
▁characteristic
▁inexacto
▁perros
▁adquirida
▁cruzados
▁llegado
▁brindará
▁pulsaciones
cliente
▁sustracción
▁angostamiento
▁clínica
▁cómodos
▁farmacia
▁visores
▁empuja
▁colocarlo
1070
▁permanecerán
▁larguero
plant
▁1870
▁grilletes
▁incrementará
▁interpolando
▁avanzadas
apartados
▁brigades
▁avalada
▁complacencia
▁alimento
▁centralizado
▁manteniéndolo
▁recibirán
▁logrará
▁controlled
klote
▁provision
feasibility
americans
▁inglaterra
▁qualifications
▁jcnfso
▁npqb
▁uniformado
▁iban
▁asumió
aac
▁resuelve
job
▁mensurables
▁observables
third
▁opiniones
▁bocetos
▁procesada
▁alegatos
▁comprobadas
▁implemente
▁escribir
▁tomó
▁espejo
▁encontrará
▁desencadena
▁graduados
▁originarse
▁flamberg
▁leverenz
▁incorporating
▁superponerse
▁consultada
▁oportuno
▁dificultar
▁ambigüedades
operadores
▁organizan
tarea
▁verificará
▁evaluará
▁ejecuta
▁curricular
▁similitud
▁mensurable
▁sutiles
preferentemente
▁maestría
colaborar
▁423
▁1901
▁403
▁405
▁1451
▁ocupacionales
trabajo
▁effective
▁ideas
▁question
▁forces
▁earth
▁specialist
▁02
▁reconoció
▁enunciados
▁ocurrió
▁investigator
▁cinética
▁tools
▁probatorio
▁observacionales
▁fotos
▁probatorios
▁interrogatorio
▁vecinos
▁investigativos
▁correlacionar
▁actualiza
▁678
▁related
▁arresto
▁explosion
▁items
▁physical
▁ascender
acerca
▁aportó
▁sistemáticamente
▁definitivos
▁rotar
▁interinos
merriam
▁considerarán
▁certification
▁start
main
isolation
▁reabastecido
▁sobrevelocidad
▁antivibratorios
▁consistirá
▁arrancará
▁suministrarán
▁establecerá
▁torno
▁economía
▁usarán
▁realizarán
▁registrarlo
▁restablece
▁sustituido
▁mariscal
▁certificadora
▁obstaculizar
▁fluirá
▁antimonio
▁predefinidos
▁tornados
▁surges
▁símico
▁bypass
▁soplar
▁compruebe
▁iniciaría
▁inventarios
▁improving
fema
▁autorizó
cadmium
nimh
energy
internal
uninterruptible
▁li
estáticas
▁reproducibles
▁hoy
vfd
disponibilidad
▁topología
▁interactiva
▁1008
vla
▁equilibrar
▁1922
▁1928
▁1930
▁efectuaron
▁reorganizados
▁abordan
▁esclarecimiento
▁bridados
▁soldables
▁234
▁813
▁438
▁439
▁442
sdr
▁1121
hierro
▁coberturas
concreto
401
¸
▁hendiduras
loop
pipe
▁coupling
concealed
▁demand
▁regulating
▁records
▁apreciablemente
▁afeitar
array
▁automotrices
▁espaldas
transverse
▁núcleos
▁angle
supervision
▁escorar
▁brace
▁salmuera
▁canastas
▁porciento
▁aprovisionamiento
▁distorsiones
▁ménsulas
▁fundente
▁sirena
▁gong
aguas
▁cornisa
831
▁elija
▁desvíe
609
▁457
▁;
▁incompletos
▁sujeten
▁fleje
▁fabricarse
▁espiralados
▁tirafondo
▁ensamblajes
▁admisibles
▁pinza
▁labio
▁revestirse
▁orillas
▁corra
▁colinas
▁simétricamente
▁fiable
▁bituminoso
▁congelada
▁planteamientos
▁planifiquen
379
▁linderos
▁dejaría
▁adicionando
almacenados
1524
cinco
▁bloqueen
▁góndolas
▁148
▁ignorada
▁345
presiones
▁grieta
alternativamente
▁trituradoras
▁transportadora
sx
▁coalescentes
▁trenes
▁instalarán
▁predominen
▁suministró
▁parilla
dm
0689
▁silleta
cédula
▁redondearse
incluir
▁capitulo
▁biocida
▁supresiones
abastecimiento
▁calibraciones
▁inactivo
▁delgada
▁rentadas
▁lavan
▁kraft
▁vertebral
▁internacionalmente
▁álcalis
▁forja
▁erróneo
acero
▁demorarse
▁termoplásticas
▁timbres
▁pájaros
▁desalineadas
▁verdaderos
▁precarga
▁puramente
▁divida
▁bateas
▁presunta
▁congelador
▁congeladora
valentine
▁isman
▁pudiese
▁maniobra
▁planeación
▁ocasione
▁rincones
▁venteos
▁proponga
▁provocaría
▁acompañados
▁conservadoras
▁mallado
determinar
▁tentativamente
▁geological
▁suba
▁pretensadas
▁interconectarse
▁inalterado
▁126
▁endurecimiento
▁dictaminada
▁científicas
▁segregar
▁patrocinado
▁obtuvieron
▁fije
▁94
▁autorregulación
▁repetibilidad
existen
▁extrapolados
▁protegerá
▁suprima
▁tempranamente
▁varianza
▁techode
▁ingenieril
▁separando
▁epri
uv
▁tanta
▁hincados
▁reciclaje
▁acoplados
▁lava
▁aceleraciones
▁adicionar
▁económicas
▁yao
referencias
alpert
▁turbulent
▁seventeenth
▁introduciría
▁consumió
▁113
▁124
fmrc
abs
▁elo
▁sexta
▁ocurriese
▁noveno
▁aplicaron
▁nuestro
▁tx
▁1020
▁nrs
▁charnela
▁navales
▁reorganizó
▁aclaraba
▁pretendido
boiler
▁07054
▁centrifugal
▁reciprocating
▁modern
▁voltages
▁15540
circulation
isolating
▁polifásica
totally
peak
▁lata
positive
▁displacement
reforzadora
▁lóbulo
▁caracterizado
set
speed
variable
898
▁excéntrico
▁organizarse
arranque
cen
succión
▁cavitación
▁consolidadas
▁abandona
▁lubricada
sobrecarga
▁torsionales
▁arrancarse
▁aísle
▁impulsan
▁desbloqueo
▁sellando
▁señalando
▁manilla
▁reinicia
▁sucesivo
▁disyunción
▁progresivo
▁desviada
▁reportar
▁desplegable
▁reconfigurarse
cerrada
chispas
▁reajuste
▁reinicie
placa
▁imprescindible
eléctricos
imsa
▁asfáltico
cw
ccw
▁conectará
▁dirigen
▁optado
▁sumo
▁reconectados
▁cloruros
▁expulsada
▁ensamblar
▁nominación
calentamiento
▁magazine
feb
▁leído
▁irradiado
▁geográfico
▁jabones
▁destilado
▁conservará
▁generarán
▁tibia
▁estrangulamiento
975
▁mostrará
▁inversamente
732
va
▁desarme
▁inserte
▁empacadura
▁baje
▁impidiendo
▁lubrique
▁raras
▁invertir
reemplazo
▁procesador
software
▁bacnet
transmission
computadoras
▁802
▁extraíble
remota
▁intenciones
▁tablets
firewall
▁enmascaramiento
empleados
▁restaura
▁subset
bpara
▁menú
aun
arco
▁plates
▁preservadores
▁19120
▁painting
▁jul
▁caballete
▁astas
▁rebosa
▁diseñe
▁oscilación
▁aplanadas
▁nudos
▁secuoya
▁occidental
nominales
▁duela
▁descansa
▁rodapié
▁alquídico
▁subyacente
▁adosarse
▁bermas
▁estancas
▁extraigan
▁rigidizadores
▁hermetizarse
▁calentadas
▁sobresalientes
▁embridada
▁interrumpiendo
▁recomendables
▁depreciación
▁repentinas
▁sifón
▁invernales
▁retorna
▁cúbica
▁ataduras
▁contundentemente
▁asienta
box
▁blend
aceptable
▁impactará
▁check
sectional
▁aparenta
▁respire
▁balanced
▁preestablecido
testing
▁curve
▁lidera
▁interactúa
▁mangos
▁desgastada
▁parezca
▁cuaderno
▁ultrasónicas
▁escf
▁taponadas
▁mojen
▁taponada
▁proporcionamiento
▁lavada
▁implicado
▁desprendido
▁guarnición
▁diligencia
▁mencionarse
▁acuerda
aquellas
▁rectificados
▁rectificado
▁aguja
▁doblada
ruido
cálculo
junto
confiabilidad
futuro
compendio
▁investigando
corrosión
▁diluye
▁creíbles
▁remplazo
▁entubada
▁epa
▁surja
▁cotejándola
▁cuadriculado
▁sustituye
▁accionadores
▁adherida
▁anotan
▁mirar
▁usaría
huevo
×
examine
afloje
retire
▁incontrolable
▁asiáticas
▁algas
▁electrones
▁colonias
▁biopelículas
▁nódulos
▁carbuncos
▁microbianas
▁nutrientes
distintos
▁parece
▁venenos
▁estregar
▁hidroneumática
▁despejadas
▁gps
teniendo
▁definitivamente
▁nibs
▁opr
basis
▁agent
legally
▁contractor
▁resoluciones
operation
owner
individual
acceptance
functional
▁entregables
▁cotejándolos
cortafuego
▁cerciorarse
▁requirieran
ha
▁síntesis
▁subsidiario
▁decirse
sería
▁evacúen
▁regulatoria
▁cen
standards
▁intercomunicación
▁denodadamente
▁1855
ptd
▁cutting
tagout
▁alternative
▁gasoline
▁plants
▁2202
▁chamber
▁london
hazmat
▁controls
work
▁changes
eductores
▁helicoidales
▁centrífugo
▁rota
▁monitoring
intrinsically
lower
management
▁pel
acgih
▁ppe
▁calibration
▁sar
▁ajeno
▁envían
▁desocupar
▁fault
▁interrupter
receptáculo
▁pescado
▁oxidados
▁elegidas
▁complicado
▁sds
▁mitigado
▁mdl
oel
▁interfiere
electromagnetic
▁respirables
▁fuelles
▁nrtl
▁idéntica
▁habiendo
▁máscara
▁fatal
▁respiratorios
▁adhiera
▁contenían
▁administran
▁enredo
▁disipada
▁inertizada
▁ventilen
▁relevado
▁enfermo
▁lesionado
▁consideremos
▁atender
▁actualizarse
▁aparejos
basic
▁explicado
aislamiento
▁ingresará
▁cuasi
▁alterarse
finalmente
▁monte
▁hiperbáricos
▁substances
▁víctima
▁divergencia
canadian
▁blvd
▁usara
▁remitidos
▁contractual
interface
▁aleatorio
entornos
▁exhaustivos
▁imprevistas
▁semicuantitativa
▁ponerlas
▁probabilístico
▁centrar
▁probabilística
▁sofisticación
▁plantee
▁ejecutados
▁validada
▁positivas
▁estime
▁dato
▁llevarían
▁autor
▁parcialidades
▁reproducidos
▁analistas
▁agrupaciones
▁apuntar
▁modelizada
está
▁subconjunto
▁diferencian
▁aleatorios
▁engañosa
▁empíricas
882
nfirs
usfa
fido
▁epistémica
▁aspersores
▁americano
reglas
▁electrofusión
▁1733
nb
desechable
▁20036
▁norteamericano
▁loza
▁atrincherado
▁nodriza
▁concede
▁scfm
bpv
▁agarraderas
▁faldones
▁llenen
cg
▁aproximadas
▁adheridas
▁hdt
▁inmersa
▁broncesoldado
▁habitado
▁parqueados
▁anclar
▁pavimentada
▁distanciamiento
▁basuras
▁consumos
855
▁fallen
▁férrea
▁:
▁fuese
▁localicen
▁ramificaciones
▁desgastes
▁atrincheramiento
▁apartaderos
▁espere
▁entregas
▁sellantes
▁abrirlas
▁trajes
▁parásita
▁denominarse
▁mercaptano
▁mancha
▁tentativo
perc
▁trozo
▁nombrado
▁reflexión
▁debilitada
▁refiérase
▁quiz
▁195
▁recalifiquen
▁marcan
rin
▁reprueba
▁debieron
▁época
▁gravedades
▁multiplique
▁sustituyendo
▁redondean
▁termocupla
▁sample
▁adoption
▁which
▁governing
▁archivadas
▁fail
▁comply
▁thereunder
▁such
▁each
▁fine
▁maintained
▁amended
▁affect
▁direct
▁times
▁exigencia
▁contradictorios
▁extractado
▁wire
▁denominaciones
▁rotulado
▁dragas
▁diferenciado
▁suministrador
▁identificando
▁borne
▁solarios
▁1699
decks
▁escaparate
▁pentafilares
▁descartar
▁kilowatt
▁calculo
▁perchas
▁huertos
▁estirado
▁direccionado
▁portacable
▁incrustadas
▁retardado
puente
unos
▁realizará
▁interpuestos
interferencia
▁adhesivas
▁conservas
▁laven
▁sujete
plenums
manténgase
▁thhn
▁thhw
▁tw
▁2400
▁múltiplos
▁impares
▁tiendan
td
8000
▁torcidos
0625
▁estribo
▁aflojen
▁excavar
▁shield
▁flexionar
sf
▁conservando
insulated
▁xw
entrance
▁emerge
▁feeder
▁incrustado
▁acabar
rigid
▁604
▁553
▁conduito
▁sigla
▁precableados
▁descontinuadas
▁abandonada
extensión
▁ocultable
▁prolongación
▁inductiva
▁minimum
▁rail
red
▁prolongarse
▁toquen
▁evj
▁eve
▁evje
▁evt
▁evjt
▁sjo
▁destelladores
▁asienten
alr
▁rutinario
▁desatendido
receptáculos
▁festivo
▁vitrina
▁pareadas
▁abisagradas
xiv
▁sobrecalentarse
▁triturador
▁pelo
▁reemplazable
▁ocultarlos
heating
impedance
puntas
▁665
▁halar
▁excitados
▁arrancan
pulgada
▁rectificada
▁sobrecalentar
▁relojes
▁autoprotegido
▁trenzadas
lcdi
▁aparezcan
▁aceleren
▁167
▁zigzag
manufactured
▁resistivos
▁antioxidante
▁ostensible
▁petrolíferas
▁disolventes
▁merecen
499
▁tamb
▁carbonizarse
▁1349
▁sobrecargado
▁limpiadoras
▁transportable
distintas
▁surten
▁surtir
▁despachos
▁desembarcaderos
▁entintado
▁delimitada
▁periférica
▁electrostáticamente
▁empuñadura
▁ambulatoria
▁capacitivas
▁cuádruple
▁fisiología
▁quirúrgicas
▁ampermetro
luz
regulador
▁esmaltada
▁cascadas
▁tocador
alternating
estudio
▁sencillas
expuesto
▁1080
▁asa
bastidor
▁trailer
▁remolcado
▁sanitario
clavija
▁tt
▁vr
hid
tubos
cuarto
▁tfn
▁tffn
▁viajero
▁vídeo
▁electroimanes
▁regenerativa
conductivo
▁retroalimentarse
electrified
▁truck
▁correlacionan
calefacción
eff
▁kilovoltamperes
▁análogas
▁identificó
▁62368
▁subacuático
▁permitirsn
information
ite
zone
▁milésimas
▁repararlos
▁autocontenida
dc
▁multimodo
▁inverter
turbina
surge
▁tecla
▁seleccionen
▁metalico
relé
▁mazos
▁minimizadas
▁integrity
▁substitutos
▁instrumentation
▁ilustrativa
▁azulejo
▁entrando
pararrayos
569
570
network
▁intenci
▁reporta
▁incluy
▁fluctuaci
▁contribuci
▁dynamic
▁acid
▁titration
specific
▁vde
2300
▁green
▁1159
▁breaker
▁establishing
▁iti
iti
cbema
evaluaci
▁molded
▁handling
▁probadores
▁generation
▁bifenilos
▁policlorados
reliability
▁wecosol
union
services
enclosure
▁gaseosas
reos
▁grounded
▁bonding
rica
noise
multipoint
▁trasmisi
▁conductiva
▁espectros
▁unidireccionales
▁amplitudes
▁valiosas
▁econom
ntos
▁implementaci
▁normalizaci
▁autodisciplina
▁rotulaci
logos
squeda
interconexiones
▁dibujar
▁nocturna
▁termograf
▁megaohmios
▁combusti
▁malfuncionamiento
▁retornos
▁aproximaci
▁har
▁haci
▁guiar
▁asignaci
▁evacuaci
▁notificaci
rase
rayos
▁fundirse
hule
▁adyacencia
▁ahorros
▁multiplicados
watt
▁inclusi
▁inhalaci
xico
▁publicaci
▁investigue
▁asim
▁conmutadas
thd
▁mean
▁muesca
▁problem
▁inductancia
▁interacci
▁saturaci
ximos
▁joule
▁indirectas
▁descargadores
▁reconexi
▁durar
blicos
blico
aleaci
▁comprobada
▁definici
cula
▁observable
▁perciben
genes
▁electrodom
▁perceptible
▁verano
▁ahorrar
pdu
▁proporci
▁ltc
▁centrifugadoras
▁anormalidades
▁restricci
▁predicci
▁flotaci
▁visi
nticos
▁medible
▁miliwatts
descargador
▁reengrase
▁tefc
adirse
▁tracci
▁cuidar
▁regularidad
nomo
▁cuernos
▁reportadas
▁carbonizaci
ltimos
neamente
▁inserci
▁respiraci
▁bibliograf
▁quebraduras
▁sedimentaci
▁desionizada
▁instructivos
▁contracci
▁onan
vac
▁astillados
▁reenergizar
▁evitados
▁acortan
▁soluciona
▁variando
▁portaescobillas
despu
▁balanceados
nseca
ptimas
▁lanzados
▁cuesti
fmeca
▁ejecuci
▁desaf
▁integrarse
▁instal
▁reci
▁adapte
▁aprenda
ando
▁aprendiendo
▁cometidos
ndoles
▁averiguar
▁biblioteca
hinds
▁1151
▁turnpike
hill
application
nsc
▁congreso
distributed
339
▁rac
alarse
▁anotados
▁parados
▁tr
▁tolerables
▁enfriadora
▁visualizada
▁duplicado
▁mandatarias
▁indispensable
▁tocarlos
▁independización
▁reenergización
diferencias
mameluco
▁spandex
▁pasamontañas
1959
▁ráfagas
▁marcapasos
▁existiría
utilizando
▁alejarse
ecuación
indicar
defina
▁toca
▁acunado
frontera
boundary
energizado
switchgear
▁admiten
▁notificarlas
▁827
▁2572
mass
▁repeater
▁textuales
audible
▁communicator
▁municipalidad
municipal
▁análogos
▁band
▁proprietario
rat
rarsr
▁fotosensible
▁refracción
▁image
supervising
mfvn
▁preestablecida
▁varianzas
▁quiescente
▁reactivarse
▁reactivación
▁provocarían
anormalidad
▁regresado
▁pulsación
▁sincronizada
▁sintetizados
▁iid
▁pulso
intensidad
▁braille
▁reiniciada
▁enrutadores
evacs
mns
▁despiertos
▁sonando
▁anulada
hpsa
▁moving
▁walks
▁recibió
▁comparte
▁radiofrecuencias
▁inhabilitada
▁auditivo
▁jacob
▁amplificadas
▁engañosas
▁originando
espaciados
▁jerárquica
▁margarita
▁recombinación
▁modulados
▁ruidosa
▁lamentablemente
aba
ag
▁emergentes
▁groups
▁mundial
▁bryan
▁centinelas
▁irradian
▁meteorology
▁mallada
▁facts
▁during
▁michael
▁karter
▁mañana
▁superpuesta
▁victoria
▁6055
▁brian
▁alcanzarán
▁quemando
▁incluiremos
tg
▁qdo
▁qcr
▁politécnico
▁rams
▁analizó
948
dt
▁modelarse
▁morton
▁turner
▁gottuk
▁pucci
▁planckianas
▁irradiada
at
▁lavent
▁aug
▁sept
▁rheinish
westfalischen
▁technischen
▁hochschule
▁aachen
ntis
▁tech
▁839
1630
▁reference
▁5486
▁isbn
▁471
▁90613
▁donovan
▁kim
▁april
▁nfp
▁interflam
▁883
892
▁december
▁gottuck
reubicación
▁fonéticamente
▁rima
▁entendida
talkbox
▁lw
▁hable
kuligowski
push
tecnologías
▁trasládese
▁buró
▁mutuas
▁simposio
modelaje
nam
▁threads
inch
▁alloy
▁arrangements
▁halon
rooms
529
nvic
▁multifuncionales
abiertas
▁frangibles
▁flashover
flashpoint
▁pañoles
obstrucciones
▁shc
▁sofás
▁predictivas
▁sil
▁austria
▁baltimore
▁catenarios
▁balsas
ccr
▁contorneo
▁ccr
▁bcdef
uw
▁lf
lt
▁ejército
assets
codesstandards
tiaerratafi
tiaregs
▁aplicaban
▁prerrogativas
▁marshals
▁occidente
▁gracias
▁llegando
▁consideraban
▁tarifas
▁prima
▁facie
▁menoscabar
▁corroborar
▁credenciales
▁emanación
▁secretos
▁incurridos
▁dolo
▁causarse
▁dictada
▁officio
▁presidente
▁dictaminar
▁renunciar
▁asambleas
▁quórum
▁equidad
▁acompañadas
▁denegación
▁financiera
▁sabiendas
▁inexacta
▁formalizada
▁infringido
▁pedir
▁transferibles
▁titulares
▁demanden
▁publicarse
▁pasibles
▁contravención
▁sanción
▁434
▁tagliabue
tag
▁pensky
martens
▁2843
▁3699
▁3828
▁4359
▁5391
▁6448
▁6751
▁6823
▁681
▁976
▁trucking
▁arlington
▁precautorio
apartado
▁6051
▁6052
▁10298
▁10156
▁nbbpvi
▁crupper
▁columbus
▁43229
▁plaza
▁rvia
▁white
▁6141
▁easton
▁plumsteadville
▁18949
▁842
▁971
▁1314
▁1573
▁1640
▁1803
▁2245
507
512
▁onu
naciones
apa
▁iapmo
▁001
addition
▁width
▁hand
▁isopropanol
inside
outdoor
▁display
▁adquiera
▁percheros
or
available
▁semilla
block
▁baled
barricade
explosives
lithium
▁grafito
▁carbonatos
▁litiado
nicad
board
▁celebrar
▁iguala
▁excluyen
▁erigido
mini
▁confusa
▁arda
cathodic
▁oxida
▁abstracts
▁abstractos
classification
ordinary
clean
318
column
▁quemará
▁dust
▁desmenuzada
▁solid
▁rechazados
▁incandescencia
condition
cryogenic
▁fluids
▁barbacoa
corrosive
covered
distillery
▁concentran
▁fermentación
▁absolutas
▁actuarán
▁signatura
▁termoeléctricos
▁asearse
excess
▁enclosure
explosive
facility
fleet
▁located
▁inside
fines
▁contrarresta
finish
▁camine
▁retardant
▁watch
cpsc
▁pirotécnicas
▁teatral
display
▁asmt
▁vapors
flash
▁deducción
833
▁imperiales
▁alquiler
▁mixtures
▁toxic
inert
▁inflamatorio
▁butilenos
simple
▁reactive
▁polimerizará
▁descompondrá
▁tornará
▁autorreactivo
productor
▁kettle
handling
▁deliberado
▁autorreactividad
▁reaction
hogged
immediately
▁dangerous
▁síntoma
▁danger
472
term
▁crónicos
▁aserrado
▁aserrada
▁jalado
▁pull
▁atracaderos
hpm
physical
▁criógeno
▁reacciona
▁sheet
mezzanine
▁zoned
▁impeded
▁hospitalizados
▁obstétricos
parking
▁guardabarros
minor
separated
packaged
packaging
▁brea
▁científicamente
▁conteniendo
▁confidencial
▁parcela
quality
▁assurance
movable
▁multitoma
▁enchufe
closing
estantes
▁shelving
▁foot
stp
▁hg
cartoned
laced
tread
yard
▁aids
aboveground
secondary
tire
psia
▁warehouse
805
exposure
incapacitation
proposed
▁margin
▁inefectivo
▁conspicua
▁confirmados
▁soportará
fuentes
▁fisiológicas
▁contara
▁acumulativas
▁desafiante
▁hicieran
▁ultrarrápido
▁bloqueando
▁respalde
▁negligencia
▁pusiera
▁infringe
▁subclasificaciones
▁consolidado
▁premeditadamente
▁adulterar
cuándo
▁estipulaciones
▁arábigos
▁alfabeto
▁estarcida
▁mamperlán
▁volverlo
▁prematuro
▁asesorar
▁prepare
▁pelotas
060
cubiertas
▁duplicada
▁termostáticos
accionada
▁colocarlos
▁volcarse
aceptación
▁recodos
▁oros
ventanas
ramas
townhouses
▁acceden
▁parapeto
▁devolverse
▁corredizos
▁quisiera
▁desempeñara
▁pesas
▁trabados
▁ojales
▁aplastados
▁cerrará
▁simulan
▁fibrocemento
▁acolchados
▁3660
▁extremidad
polipropileno
▁asimétricos
dver
ever
▁1296
revestida
▁disuadirse
▁reanudarse
▁dificulte
▁practicas
▁ambulancias
▁inefectividad
▁repliegan
▁adopte
grandes
▁deleguen
▁reunido
▁críticamente
▁intercableado
▁pistones
adebe
▁halocarbono
▁liste
▁certificarse
▁estarcido
whmis
▁tetracloruro
▁obsoleto
solventes
fffp
▁acetona
incendios
▁alistamiento
▁malicioso
▁archivarse
examen
▁desmontados
mangueras
▁desenrolladas
▁jalando
▁autodestructivo
▁retirarlas
▁premezclado
▁reutilizar
▁dudas
▁descartado
▁humedecido
▁retenido
▁remanentes
▁alertarlos
▁escolares
▁duerman
▁colocara
▁avaladas
▁permanecido
▁ilegal
▁publicidad
▁respaldada
▁pivotante
▁rebotará
▁contrapuertas
▁picaporte
ba
wn
▁oscurezcan
▁movidas
▁motrices
▁delineación
▁dificulten
▁cheurón
▁confunda
▁aumentarían
▁postdesarrollo
▁financiación
revisión
▁otorgadas
▁trapos
▁remodelados
▁autopropulsión
▁andamiaje
▁desencofrado
▁alterno
bbl
075
▁carcinógeno
▁interfase
▁montañosas
▁cañones
▁vecinas
▁juntar
▁juntarse
▁recabada
▁públicamente
▁prender
▁disparen
▁aerostáticos
▁venderse
▁abejas
▁arriendan
▁podar
▁coníferas
▁scooters
▁giros
▁desnivel
▁senderos
suministros
modificaciones
▁disminuciones
▁retranqueos
443
medido
▁hábiles
dumpsters
▁focos
▁cinematográfico
▁crédito
▁etario
▁conducidas
▁vitalidad
▁vaciarse
sean
▁bimestralmente
▁azúcar
▁harina
▁forrajes
▁almidón
▁harinas
▁porosos
deck
24385
▁desguace
▁cárteres
▁miren
▁matriculados
▁guardacorreas
▁acarreo
ninguno
▁superestructuras
▁ordenadas
▁improvisados
▁armar
▁ideales
▁archivados
▁televisiva
▁llantas
▁rastrillo
▁cauchos
▁abs
copolímero
▁acetal
poliformaldehído
▁butilo
▁epdm
▁nitrilo
▁pet
▁polibutadieno
▁policarbonato
▁plastificante
rara
▁butirato
▁cloropreno
▁fluorados
ectfe
▁etfe
tetrafluoroetileno
▁fluorado
pctfe
▁ptfe
▁politetrafluoroetileno
▁melamina
melamina
▁fenólico
▁pvdc
▁pvdf
▁pvf
urea
▁gasa
▁servilletas
▁higiénico
▁toallas
▁expanden
▁transformadas
▁crianza
▁reembalaje
▁fugitivos
▁vigoroso
▁transportando
ibc
▁ribc
▁presentara
▁extinguirlo
▁adquiere
▁humedecidos
▁oxicombustible
kpa
▁sifonado
908
▁acomodarse
▁rompible
▁restablecida
▁llenada
▁vertedor
descargue
▁baliza
▁coloradas
▁amarrado
▁extinguidos
▁borda
▁hidroaviones
▁alternadores
▁destacado
▁enganchada
▁nítidamente
▁arrastradas
▁retome
▁fotográficos
▁abrasiones
▁desalineaciones
▁abusivo
▁aplanamiento
▁retorcimiento
▁estacionada
▁embarcar
fmvss
lh
▁rombo
▁4¾
▁3¼
▁frecuentadas
▁quedara
▁pulidoras
▁propulsados
▁reducibles
▁entremezclarse
▁superpongan
▁infrecuente
7625
▁nitrocelulosa
▁polea
▁pulverizadas
▁secadas
▁1585
1135
▁agitadores
▁aplicadores
▁agotar
▁discontinuadas
▁recolector
▁destilar
▁intercambiarse
▁promotores
▁mezcladas
▁reticulados
▁catalizada
▁cortadura
▁excedentes
▁cubetas
▁riegos
▁recaer
▁ómnibus
▁quedaran
▁saponifiquen
▁inicialada
▁tornen
▁asadoras
▁freidora
▁475
▁derivaría
▁resguarde
▁libra
▁desbordarse
twa
media
▁momentáneas
gabinetes
▁reglamentados
sólido
formulación
oxidante
mezclas
044
niveles
▁favorecen
▁agudo
permitido
▁jurisdiccional
comunicación
propiedades
▁crónica
socorristas
▁líderes
llamas
reglamentaciones
381
▁anomalía
▁8600
3800
1450
seis
▁manipulada
paquete
▁confinan
usc
tapa
cantidades
097
bajas
sellados
▁tecnólogo
nr
▁eslingas
▁adsorber
aberturas
detonantes
monitoreo
▁desempeñado
▁impacte
▁precautorios
lm
▁food
▁drug
full
▁conmutados
▁criogénica
▁triturada
▁artes
▁competiciones
▁recuperables
▁furgonetas
▁exhiba
▁eyectados
▁escobas
▁antichispas
▁fluidez
▁diluidos
▁patrulla
▁estratégico
▁vulnerabilidades
consecuencias
▁carencias
▁apilarse
▁ablanden
inflamable
mensaje
▁triángulo
epara
gpara
▁constituyentes
▁sombreada
criterios
▁moldeadas
▁manipularse
recipientes
▁calafateo
▁1320
▁interrumpirá
▁desviará
▁reconstruidos
▁reevaluados
▁inclinaciones
▁expondrá
▁restar
▁2385
▁570
▁derramadero
▁congelado
▁retroceso
▁confirman
▁ductilidad
▁resiliencia
▁subestructura
▁cabos
▁estampados
▁railroads
▁empotramiento
ol
od
▁pobladas
▁furgones
fnfpa
▁retroactivo
▁nevadas
▁psf
▁prenderse
▁2450
1111
▁discontinuados
▁980
▁sacudones
049
estacionamiento
▁vacíe
▁revendedor
4540
▁frecuentado
▁avenida
▁cristales
▁educadores
▁pirómanas
▁avalados
▁pyrotechnics
▁hughs
▁8115
▁difuso
▁hierve
▁ola
▁emulsión
▁sobrecalienta
▁espumación
▁vocablo
▁decisivo
▁duplicadoras
▁termoencogible
▁henequén
▁ixtle
▁fardos
▁miraguano
▁viruta
▁plumas
▁surtidos
▁desfase
▁bimetálico
eutéctico
▁funde
▁ablanda
▁expandir
▁preconfigurado
▁detonadores
▁insensibles
▁tapicería
▁cumpliría
▁fulminantes
▁fulminante
▁encenderán
▁4207
▁4206
▁nitruros
▁combinará
▁kriptón
▁raros
▁932
▁sensibilizadores
▁inextricablemente
▁friables
▁ameritar
▁bastón
▁andador
▁movilizarse
▁considerarlas
▁armerías
▁velatorias
▁pool
▁voluntaria
atcts
▁barberías
▁contables
▁hotels
▁aguardan
▁rescatados
▁estimula
▁enseña
▁remate
▁compras
▁empleos
▁remunerados
▁primordiales
▁mines
▁'
▁validado
▁crisis
▁apiladoras
▁colisionan
▁volatilidad
▁seleccionará
▁aspirar
▁conceptual
▁carboxihemoglobina
▁subgrupo
▁programaciones
▁saldrán
posiblemente
▁atípicos
▁devastadores
▁diversa
▁infrecuentes
▁imparciales
▁desfavorables
▁somero
▁recabar
▁impedidos
▁inefectivos
▁traducido
▁razonabilidad
▁intuición
▁preconcebidas
dada
▁experimento
▁1184
▁degradarse
▁inaudito
▁variarse
▁tácitamente
escapar
▁enfrenta
▁indefensión
▁disputas
▁forense
▁validados
▁acompañamiento
▁fiarse
▁inesperado
▁acostumbrado
provocados
▁responsabilizarse
aset
rset
▁prioritarios
▁intenten
▁desembarcan
desplazamiento
▁notifican
▁presumirse
▁calidades
▁violentos
▁acomodadores
▁cruzado
▁geometrías
▁elecciones
▁egresar
▁evacuan
▁969
ht
fi
▁waksman
ffi
▁tejida
055
070
▁doc
▁king
mon
▁sanford
propagación
flas
▁hover
▁permaneciera
▁arcaicos
barrera
▁cerrarlas
▁gimnasio
▁escolar
▁iglesia
1860
▁atravesó
▁utilizara
▁importador
▁iniciaron
▁advertida
▁retrasado
▁bancada
▁ámbitos
▁nocivo
▁patrocinadas
▁exigían
▁pictográficas
▁pictograma
▁incentivo
▁bc
▁comprensibles
▁extinguirá
▁montreal
▁1093
▁vertiendo
▁subsuperficial
inglés
▁francés
▁coloreado
▁fomentarse
▁desplegada
bucle
continuación
boquilla
▁reinstalar
▁evidenciar
▁despresurizado
▁guardias
▁retrospectivos
suites
▁subdivido
▁convenido
▁reiteradas
leds
▁correlacione
▁corregirlos
▁reemplazaron
▁designando
▁prevalencia
▁beneficien
▁mejorará
▁abruptamente
▁atribuidos
▁estéril
▁picaportes
▁muñeca
▁optó
▁agreguen
▁empírica
▁multiplicidad
▁decreciente
▁esencia
▁estimó
▁estudiadas
▁1960
▁robustos
1422
botras
2240
▁readaptado
restando
recorrido
▁estético
▁obstruirían
▁fotosensibles
▁semáforos
▁votó
▁observó
▁desproporcionadas
tampoco
▁candela
▁computa
▁invisible
▁decrecientes
▁enfríe
▁informales
▁baldes
▁insertarse
▁cuán
mitigación
firewise
▁reducirán
▁weather
noaa
▁ausentes
▁sotavento
▁fractura
▁tejado
▁enebros
▁circunda
▁plantados
▁podadas
hojas
▁nfdrs
▁tejados
▁columpios
▁casitas
considerar
▁plantación
▁estética
plantas
▁adaptadas
▁ecosistemas
▁raleo
▁butler
▁maduros
▁obstaculizan
999
▁derivó
▁hirschler
▁eds
▁inquietar
▁pronunciando
▁subrepticiamente
▁incuestionablemente
▁panaderías
▁cereales
▁traen
▁clínicos
▁fomenta
▁tardía
▁nótese
▁destruidas
▁quemadas
▁entierren
▁estratégicamente
▁desarmar
▁azúcares
▁fiesta
▁preestreno
▁adaptada
listados
▁filma
▁descriptivas
▁rings
aros
▁transformarán
▁empacado
▁estuche
432
▁25½
648
▁775
▁2700
▁bristol
▁22½
572
▁889
▁2734
▁organizadas
▁sierras
▁debatidas
▁extendió
▁elevadora
▁remojo
▁desgastan
▁astillan
▁estalla
cómo
▁universalmente
▁cangilones
▁empeora
▁cizallas
▁autoperforantes
▁efectuará
▁alojarse
▁dobladillos
▁depositarse
▁ventosas
▁vigilancias
▁aplicaría
▁plomero
▁reingresar
▁conservadora
▁resultara
▁distribuye
▁fuselaje
▁arrastrados
▁perjuicios
▁impurezas
principalmente
▁lonas
▁escapa
482
▁daña
▁licuefacción
▁carrocerías
división
bla
▁ciclones
▁controlables
▁influenciados
▁pegajosos
▁electrificación
▁inhalados
▁apagando
▁acumularán
▁adsorbidos
▁impermeabilización
cabina
parpadeo
▁arrojado
▁eventual
▁derivando
▁revestir
▁jabón
▁eliminadores
▁percloratos
▁tintes
▁humedecida
▁encortinadas
mekp
▁devuelta
▁diluida
▁colorantes
▁rigurosamente
▁otorgada
▁contaminan
vista
▁rigor
▁animal
▁portapapeles
▁impartidos
▁inspeccionando
002
▁limpiarlo
agencia
▁enjuagando
▁diluidas
▁comprometan
684
▁2686
▁portacontenedores
▁2632
▁reenvasado
▁solicitarle
▁imponerse
▁raro
▁escénicos
▁1740
▁advierten
▁aglomeradas
▁restringiendo
▁completan
▁concluyentes
onu
▁incrustarse
▁aconsejables
▁robusta
▁describirlos
▁denota
▁especificas
▁aplicó
▁detonaciones
lavado
▁esteres
▁polímeros
6900
▁moho
▁recupera
▁sobrecalentados
▁comercializados
▁1501
▁6469
▁alliance
alianza
▁forrest
▁due
▁sizing
▁jacketed
▁variations
▁owing
organismo
▁tirar
▁rasparse
894
011
▁catódicamente
▁purgada
▁rica
▁dejarlo
▁hincapié
▁flotan
bpueden
flos
pol
▁almuerzo
▁acuosas
▁arsina
▁germano
▁seleniuro
▁estibeno
▁tetrafluoruro
▁fosgeno
▁butadieno
▁decaborano
▁amida
▁cesio
▁yodo
▁guanidina
▁clórico
tetra
monopotasio
penta
▁fumante
bromo
▁trióxido
▁halane
dicloro
▁superóxido
▁talio
▁nitritos
▁dihidrato
▁tetrahidrato
▁acetil
▁ciclohexano
▁sulfonilo
▁diisopropilo
propilo
carbonato
▁acetilo
trimetilciclohexano
etilhexilo
▁peroxiacético
dimetilo
▁glicoles
▁dietilo
▁berilio
▁dietilzinc
▁trietilaluminio
▁trimetil
▁plutonio
▁torio
▁etilo
▁anhídrido
▁existirán
etileno
▁fenilo
▁boro
▁alilo
alilo
▁tetróxido
▁selenio
▁hidróxidos
▁cabello
▁conejo
▁catalíticos
▁enmendados
▁dicloroisocianurato
▁alfabético
▁dtbp
terciario
órgano
▁efectuara
▁apelado
▁declarada
▁incumplimientos
▁indultar
▁subsane
enumerar
completar
▁gestiones
▁finamente
▁imparte
▁divisoras
▁7000
ffsbms
▁negras
▁explicativas
▁introducirán
▁61241
rings
publicaciones
▁tulsa
▁ok
▁affairs
▁3485
▁highlands
▁95660
5595
▁01
gc
▁732
▁capitol
▁20401
▁folleto
registro
▁1452
▁5060
▁spectrum
▁mississauga
▁dedicó
▁1921
[...]
